<unk>	0
<s>	0
</s>	0
▁t	-0
he	-1
▁a	-2
▁the	-3
nd	-4
▁s	-5
▁w	-6
in	-7
▁o	-8
ha	-9
▁and	-10
re	-11
ou	-12
▁b	-13
or	-14
▁of	-15
▁m	-16
hi	-17
▁f	-18
ll	-19
er	-20
▁to	-21
es	-22
it	-23
en	-24
ed	-25
▁c	-26
on	-27
▁d	-28
ing	-29
▁in	-30
▁th	-31
▁hi	-32
▁he	-33
is	-34
▁n	-35
▁be	-36
▁p	-37
▁ha	-38
ar	-39
▁A	-40
om	-41
▁l	-42
at	-43
▁I	-44
an	-45
▁y	-46
hat	-47
▁g	-48
ot	-49
se	-50
▁sha	-51
▁u	-52
ve	-53
ay	-54
as	-55
▁that	-56
ord	-57
▁e	-58
ho	-59
▁for	-60
id	-61
ut	-62
od	-63
▁you	-64
▁shall	-65
▁And	-66
le	-67
ld	-68
▁L	-69
▁is	-70
▁him	-71
▁his	-72
st	-73
gh	-74
ith	-75
ce	-76
▁wi	-77
ow	-78
▁sa	-79
▁not	-80
et	-81
▁Lord	-82
▁G	-83
▁T	-84
▁with	-85
her	-86
ch	-87
ent	-88
▁them	-89
▁they	-90
ver	-91
▁on	-92
▁it	-93
▁re	-94
ir	-95
ght	-96
ri	-97
▁will	-98
▁thou	-99
am	-100
▁me	-101
▁we	-102
th	-103
▁J	-104
▁my	-105
ra	-106
▁thy	-107
▁as	-108
el	-109
▁k	-110
▁fr	-111
▁who	-112
ur	-113
▁God	-114
▁all	-115
ion	-116
▁up	-117
▁have	-118
ore	-119
▁from	-120
ly	-121
▁S	-122
ess	-123
▁said	-124
▁an	-125
▁was	-126
ad	-127
ak	-128
▁whi	-129
▁The	-130
to	-131
▁se	-132
▁B	-133
▁com	-134
ain	-135
ro	-136
and	-137
▁man	-138
if	-139
▁'	-140
us	-141
il	-142
al	-143
est	-144
▁thee	-145
▁which	-146
▁H	-147
ven	-148
hou	-149
▁thi	-150
▁are	-151
au	-152
▁their	-153
lt	-154
▁st	-155
red	-156
▁go	-157
fore	-158
▁un	-159
ame	-160
▁there	-161
▁whe	-162
▁this	-163
▁de	-164
▁F	-165
▁hear	-166
▁has	-167
▁sp	-168
▁out	-169
▁M	-170
▁but	-171
im	-172
▁ye	-173
▁by	-174
sel	-175
▁do	-176
ings	-177
ok	-178
rou	-179
ter	-180
▁say	-181
▁your	-182
ive	-183
▁day	-184
▁W	-185
ight	-186
ab	-187
▁one	-188
ation	-189
▁into	-190
▁were	-191
▁son	-192
ct	-193
ers	-194
▁P	-195
▁For	-196
▁C	-197
ine	-198
.'	-199
ant	-200
▁v	-201
ple	-202
▁He	-203
all	-204
ren	-205
em	-206
ake	-207
▁pe	-208
ness	-209
▁E	-210
▁at	-211
▁kn	-212
▁us	-213
pt	-214
▁her	-215
▁upon	-216
▁Is	-217
ud	-218
▁O	-219
▁al	-220
one	-221
ather	-222
ac	-223
▁hand	-224
▁bec	-225
▁ne	-226
▁D	-227
ast	-228
▁when	-229
▁before	-230
ong	-231
▁ag	-232
▁ho	-233
▁shalt	-234
▁had	-235
ace	-236
▁wor	-237
▁am	-238
our	-239
so	-240
ity	-241
▁ab	-242
os	-243
▁things	-244
▁no	-245
▁know	-246
▁li	-247
▁come	-248
rael	-249
ist	-250
▁ever	-251
ause	-252
▁Israel	-253
▁br	-254
▁j	-255
▁men	-256
reat	-257
▁con	-258
▁so	-259
urn	-260
▁chi	-261
▁again	-262
▁peo	-263
▁came	-264
oun	-265
▁ri	-266
ous	-267
▁people	-268
▁fe	-269
▁ear	-270
ves	-271
other	-272
li	-273
ru	-274
▁hou	-275
▁our	-276
ved	-277
pp	-278
▁or	-279
▁But	-280
▁lo	-281
▁h	-282
ge	-283
▁fi	-284
▁if	-285
▁af	-286
▁N	-287
▁land	-288
self	-289
▁child	-290
▁su	-291
▁pl	-292
res	-293
▁she	-294
ep	-295
ise	-296
ose	-297
we	-298
ted	-299
▁ser	-300
▁word	-301
▁saying	-302
▁king	-303
ck	-304
ice	-305
▁did	-306
own	-307
ies	-308
han	-309
▁these	-310
ass	-311
▁also	-312
hold	-313
▁Jes	-314
▁Jesus	-315
ath	-316
▁pr	-317
▁unto	-318
ke	-319
▁sin	-320
▁children	-321
▁pro	-322
▁house	-323
les	-324
▁let	-325
▁went	-326
▁great	-327
▁bl	-328
ard	-329
▁father	-330
▁ar	-331
av	-332
▁against	-333
▁ac	-334
▁because	-335
ment	-336
▁right	-337
▁earth	-338
ount	-339
▁over	-340
▁heart	-341
▁what	-342
way	-343
▁may	-344
▁sou	-345
▁ex	-346
▁mad	-347
out	-348
▁shou	-349
▁every	-350
▁down	-351
▁even	-352
▁made	-353
▁good	-354
▁see	-355
▁should	-356
eth	-357
▁comm	-358
▁those	-359
▁hast	-360
nder	-361
mb	-362
ul	-363
▁way	-364
▁acc	-365
▁le	-366
ome	-367
vant	-368
hed	-369
ust	-370
ill	-371
▁gl	-372
▁tim	-373
qu	-374
ic	-375
▁en	-376
▁wh	-377
▁away	-378
▁been	-379
eous	-380
▁Be	-381
vil	-382
▁te	-383
▁lif	-384
ks	-385
▁give	-386
avid	-387
are	-388
▁David	-389
ance	-390
▁fo	-391
rought	-392
ans	-393
▁dis	-394
▁any	-395
hen	-396
▁(	-397
▁servant	-398
hr	-399
orn	-400
ving	-401
ry	-402
ther	-403
▁then	-404
▁off	-405
▁per	-406
▁wat	-407
ound	-408
▁spe	-409
▁pass	-410
ave	-411
▁di	-412
▁wr	-413
aven	-414
▁name	-415
▁after	-416
▁call	-417
▁command	-418
▁rem	-419
oice	-420
▁jud	-421
▁forth	-422
ol	-423
hrist	-424
▁Christ	-425
▁co	-426
▁make	-427
▁days	-428
oth	-429
▁la	-430
ould	-431
▁place	-432
oses	-433
▁They	-434
ach	-435
▁city	-436
ide	-437
▁glor	-438
▁thine	-439
▁righteous	-440
ind	-441
▁under	-442
▁tw	-443
▁where	-444
wn	-445
▁des	-446
▁now	-447
ken	-448
▁nor	-449
▁whom	-450
▁R	-451
▁words	-452
▁brought	-453
▁like	-454
▁Moses	-455
ts	-456
aul	-457
▁time	-458
fe	-459
▁spok	-460
▁mu	-461
ng	-462
▁evil	-463
led	-464
▁sons	-465
▁ang	-466
▁bre	-467
▁dest	-468
▁might	-469
ish	-470
▁than	-471
ag	-472
ood	-473
▁among	-474
▁accord	-475
▁soul	-476
rough	-477
▁heaven	-478
irit	-479
▁brother	-480
▁del	-481
▁take	-482
ward	-483
ree	-484
▁r	-485
▁took	-486
▁fa	-487
▁through	-488
▁ey	-489
ations	-490
▁according	-491
▁life	-492
selves	-493
▁heard	-494
ars	-495
▁ro	-496
▁There	-497
itt	-498
▁hands	-499
ale	-500
▁Ab	-501
▁pri	-502
▁about	-503
▁eat	-504
▁Thou	-505
▁gi	-506
▁set	-507
ered	-508
ning	-509
▁wom	-510
▁bring	-511
▁himself	-512
gy	-513
ure	-514
ig	-515
▁sent	-516
dom	-517
par	-518
▁more	-519
▁turn	-520
gypt	-521
▁Egypt	-522
ever	-523
ate	-524
erc	-525
▁speak	-526
▁would	-527
ite	-528
ither	-529
▁many	-530
▁therefore	-531
ew	-532
▁own	-533
ff	-534
ci	-535
pe	-536
▁saw	-537
▁mount	-538
▁When	-539
▁judg	-540
▁ke	-541
phe	-542
ob	-543
▁tr	-544
▁As	-545
ence	-546
aught	-547
▁bo	-548
▁ans	-549
▁priest	-550
▁rep	-551
▁Jer	-552
ction	-553
roy	-554
▁called	-555
▁water	-556
▁pre	-557
▁behold	-558
▁destroy	-559
ort	-560
▁Now	-561
▁If	-562
▁app	-563
▁put	-564
▁str	-565
me	-566
ful	-567
ue	-568
▁hu	-569
ost	-570
▁cl	-571
▁Let	-572
▁law	-573
?'	-574
▁Y	-575
▁merc	-576
very	-577
▁glory	-578
med	-579
▁sw	-580
get	-581
▁eyes	-582
cri	-583
ert	-584
te	-585
▁voice	-586
▁neither	-587
outh	-588
▁ent	-589
▁bless	-590
ied	-591
▁unt	-592
▁mouth	-593
▁sm	-594
▁Jud	-595
ink	-596
alem	-597
▁fir	-598
▁rece	-599
ened	-600
ress	-601
▁other	-602
usalem	-603
▁Behold	-604
round	-605
▁pray	-606
▁Jerusalem	-607
ull	-608
▁until	-609
ces	-610
▁cha	-611
▁gave	-612
▁found	-613
ities	-614
▁fire	-615
▁end	-616
▁Saul	-617
▁works	-618
▁Jo	-619
▁two	-620
less	-621
pa	-622
row	-623
ffer	-624
▁face	-625
▁faith	-626
ried	-627
be	-628
▁holy	-629
ft	-630
well	-631
▁tell	-632
▁ra	-633
▁first	-634
▁spoke	-635
▁death	-636
▁depar	-637
▁given	-638
▁fall	-639
▁Then	-640
wered	-641
▁answered	-642
ign	-643
▁mountain	-644
▁dwell	-645
▁art	-646
▁rej	-647
uth	-648
▁fear	-649
▁love	-650
▁ca	-651
▁enem	-652
▁look	-653
▁Am	-654
▁very	-655
▁prophe	-656
▁po	-657
▁ret	-658
▁tak	-659
▁world	-660
amp	-661
▁yet	-662
▁keep	-663
▁mult	-664
▁having	-665
hy	-666
herit	-667
ments	-668
▁done	-669
▁inherit	-670
▁beg	-671
cer	-672
gether	-673
lesh	-674
▁flesh	-675
▁par	-676
able	-677
▁nations	-678
▁sl	-679
▁head	-680
▁angel	-681
▁servants	-682
▁woman	-683
▁hath	-684
▁return	-685
▁righteousness	-686
▁together	-687
tter	-688
▁mercy	-689
alk	-690
rie	-691
igh	-692
lie	-693
▁Who	-694
▁daught	-695
▁can	-696
▁cast	-697
cl	-698
▁fl	-699
▁im	-700
llow	-701
▁long	-702
▁saith	-703
▁another	-704
▁don	-705
▁rest	-706
▁Therefore	-707
▁ru	-708
▁gra	-709
ty	-710
ower	-711
▁sea	-712
ap	-713
his	-714
▁Father	-715
▁dr	-716
▁Pha	-717
▁ad	-718
ble	-719
▁cont	-720
▁thyself	-721
▁how	-722
▁tru	-723
▁blood	-724
▁whole	-725
▁So	-726
▁bu	-727
▁god	-728
umb	-729
▁bod	-730
▁its	-731
▁hearken	-732
oin	-733
stand	-734
▁left	-735
▁wife	-736
▁mid	-737
ack	-738
ond	-739
▁light	-740
▁Sp	-741
iver	-742
▁belie	-743
hes	-744
▁aff	-745
▁work	-746
▁mother	-747
oved	-748
▁Spirit	-749
▁har	-750
▁concer	-751
per	-752
ished	-753
emb	-754
age	-755
hip	-756
reng	-757
▁ord	-758
▁night	-759
▁sc	-760
▁dead	-761
▁bread	-762
ark	-763
▁does	-764
▁sins	-765
ertain	-766
▁power	-767
hing	-768
▁wild	-769
▁become	-770
▁streng	-771
▁stand	-772
▁tri	-773
▁sinn	-774
▁concerning	-775
▁ask	-776
▁comp	-777
▁disci	-778
▁pres	-779
▁themselves	-780
▁seen	-781
▁understand	-782
ples	-783
▁Phi	-784
▁taken	-785
▁thing	-786
ea	-787
▁hel	-788
▁affli	-789
ines	-790
itud	-791
▁peace	-792
▁cities	-793
▁commanded	-794
▁test	-795
▁drink	-796
▁It	-797
ews	-798
ove	-799
▁being	-800
▁spirit	-801
▁.	-802
ors	-803
▁Jac	-804
▁coun	-805
▁qu	-806
cked	-807
▁Jacob	-808
▁In	-809
▁pra	-810
▁walk	-811
▁judgment	-812
ph	-813
ang	-814
ias	-815
▁body	-816
▁young	-817
att	-818
▁exce	-819
▁years	-820
▁certain	-821
ef	-822
ote	-823
▁op	-824
▁wise	-825
ia	-826
ret	-827
▁thir	-828
▁midst	-829
▁wis	-830
▁both	-831
▁sword	-832
▁enemies	-833
ions	-834
▁burn	-835
▁mine	-836
▁wilt	-837
▁multitud	-838
ne	-839
▁sec	-840
▁sto	-841
▁Juda	-842
eld	-843
uit	-844
▁die	-845
▁truth	-846
▁delive	-847
ged	-848
▁fathers	-849
mon	-850
lean	-851
▁some	-852
▁cons	-853
▁live	-854
▁deliver	-855
▁without	-856
▁My	-857
cted	-858
ived	-859
▁gat	-860
▁find	-861
▁feet	-862
itten	-863
▁What	-864
▁just	-865
bit	-866
lled	-867
▁didst	-868
▁three	-869
▁fruit	-870
▁si	-871
▁Man	-872
ified	-873
▁seven	-874
list	-875
sand	-876
▁tem	-877
▁only	-878
▁well	-879
▁thousand	-880
▁war	-881
▁sacri	-882
▁Son	-883
▁bel	-884
▁sacrif	-885
▁old	-886
ures	-887
▁Apa	-888
▁far	-889
▁ple	-890
▁..	-891
▁...	-892
▁wrath	-893
▁delivered	-894
oy	-895
ire	-896
here	-897
ised	-898
▁disciples	-899
un	-900
▁cho	-901
▁pur	-902
ason	-903
▁sat	-904
▁unc	-905
▁high	-906
▁strong	-907
um	-908
iqu	-909
rew	-910
▁gold	-911
ps	-912
▁much	-913
▁poor	-914
▁iniqu	-915
▁ung	-916
atter	-917
den	-918
oss	-919
▁ungod	-920
for	-921
▁happ	-922
▁Philist	-923
▁nothing	-924
▁departed	-925
▁sk	-926
▁tre	-927
offer	-928
▁able	-929
▁turned	-930
hn	-931
aron	-932
▁full	-933
▁receive	-934
▁mon	-935
▁lord	-936
▁blessed	-937
!'	-938
bs	-939
▁sil	-940
▁four	-941
▁ways	-942
▁rememb	-943
▁near	-944
▁back	-945
▁seek	-946
ener	-947
ittle	-948
▁thus	-949
▁count	-950
▁utter	-951
▁wisdom	-952
right	-953
▁Ho	-954
▁wa	-955
▁Sam	-956
▁didn	-957
▁gods	-958
venant	-959
▁This	-960
▁spoken	-961
imon	-962
▁send	-963
▁gener	-964
▁mighty	-965
▁covenant	-966
▁dark	-967
ched	-968
▁res	-969
▁John	-970
▁fool	-971
▁follow	-972
ary	-973
▁Aaron	-974
▁little	-975
▁written	-976
of	-977
ely	-978
▁Th	-979
▁each	-980
▁strength	-981
▁Jos	-982
▁hid	-983
erness	-984
iz	-985
eter	-986
▁became	-987
ify	-988
ily	-989
▁His	-990
▁field	-991
▁known	-992
▁ungodly	-993
▁wilderness	-994
ndred	-995
▁wine	-996
▁hundred	-997
▁Gal	-998
▁Holy	-999
▁trou	-1000
▁stood	-1001
▁cause	-1002
▁contin	-1003
▁hon	-1004
▁sal	-1005
▁enter	-1006
ites	-1007
▁tab	-1008
▁seed	-1009
▁wicked	-1010
ua	-1011
ses	-1012
iled	-1013
▁wit	-1014
▁Se	-1015
▁joy	-1016
▁help	-1017
▁repro	-1018
▁remain	-1019
oud	-1020
▁We	-1021
▁car	-1022
▁prin	-1023
▁brothers	-1024
▁sh	-1025
▁part	-1026
az	-1027
aled	-1028
▁dra	-1029
▁sle	-1030
▁gone	-1031
▁Phara	-1032
▁toward	-1033
▁daughter	-1034
▁conf	-1035
▁lest	-1036
▁destroyed	-1037
▁Philistines	-1038
hua	-1039
ins	-1040
ctor	-1041
▁capt	-1042
▁told	-1043
soever	-1044
▁Pharao	-1045
▁rejoice	-1046
▁multitude	-1047
▁bet	-1048
▁thr	-1049
▁numb	-1050
▁round	-1051
▁Joshua	-1052
ult	-1053
ship	-1054
▁bro	-1055
▁ind	-1056
▁Paul	-1057
▁hope	-1058
ointed	-1059
▁inheritance	-1060
▁hold	-1061
▁kind	-1062
▁trans	-1063
ner	-1064
▁dev	-1065
▁fam	-1066
▁gar	-1067
ern	-1068
hered	-1069
▁Jews	-1070
▁same	-1071
ians	-1072
▁arm	-1073
▁beast	-1074
▁An	-1075
▁supp	-1076
semb	-1077
▁comes	-1078
▁serve	-1079
▁priests	-1080
,'	-1081
▁gu	-1082
vation	-1083
attle	-1084
▁coming	-1085
lee	-1086
ones	-1087
▁mar	-1088
▁Abra	-1089
▁offer	-1090
▁sheep	-1091
▁eld	-1092
▁rec	-1093
▁while	-1094
▁darkness	-1095
ub	-1096
nds	-1097
thing	-1098
▁char	-1099
▁fell	-1100
▁host	-1101
▁sign	-1102
orning	-1103
▁witness	-1104
▁yourselves	-1105
iles	-1106
ictor	-1107
▁cried	-1108
▁pleas	-1109
▁salvation	-1110
▁understanding	-1111
uel	-1112
ious	-1113
▁died	-1114
▁laid	-1115
▁poss	-1116
▁kings	-1117
▁assemb	-1118
▁living	-1119
▁You	-1120
▁filled	-1121
▁morning	-1122
ally	-1123
vent	-1124
▁sun	-1125
ens	-1126
gress	-1127
ordan	-1128
▁here	-1129
▁such	-1130
▁judge	-1131
ruction	-1132
▁Jordan	-1133
oe	-1134
ear	-1135
▁Je	-1136
orrow	-1137
▁need	-1138
▁sub	-1139
▁must	-1140
▁reve	-1141
▁year	-1142
chi	-1143
ock	-1144
▁Jon	-1145
▁lay	-1146
▁neigh	-1147
▁praise	-1148
▁counsel	-1149
ices	-1150
▁frie	-1151
▁never	-1152
▁iniquity	-1153
▁transgress	-1154
ek	-1155
pl	-1156
▁cry	-1157
▁swe	-1158
▁neighb	-1159
oney	-1160
▁lab	-1161
▁says	-1162
▁Peter	-1163
▁whose	-1164
▁new	-1165
ernac	-1166
▁none	-1167
▁sake	-1168
▁wait	-1169
▁going	-1170
The	-1171
▁Ar	-1172
ated	-1173
read	-1174
▁vis	-1175
▁fore	-1176
▁knew	-1177
▁sight	-1178
▁gathered	-1179
▁tabernac	-1180
▁Go	-1181
▁decl	-1182
▁dist	-1183
▁silver	-1184
oc	-1185
ray	-1186
▁How	-1187
▁Thus	-1188
▁grie	-1189
▁tong	-1190
▁stone	-1191
▁times	-1192
▁believe	-1193
▁utterly	-1194
aces	-1195
▁All	-1196
ledge	-1197
▁desire	-1198
▁reason	-1199
ie	-1200
eed	-1201
sed	-1202
▁born	-1203
▁asked	-1204
▁div	-1205
▁Gent	-1206
▁happened	-1207
▁read	-1208
▁side	-1209
▁month	-1210
▁Samuel	-1211
▁unclean	-1212
▁alt	-1213
illed	-1214
▁forg	-1215
▁river	-1216
▁Gentiles	-1217
▁affliction	-1218
ase	-1219
ham	-1220
▁enc	-1221
iness	-1222
▁sacrifice	-1223
▁sho	-1224
thren	-1225
▁mind	-1226
▁begin	-1227
▁grace	-1228
▁depart	-1229
▁brethren	-1230
oured	-1231
▁smote	-1232
▁strang	-1233
▁temple	-1234
ird	-1235
over	-1236
raid	-1237
athan	-1238
▁Sion	-1239
▁bord	-1240
▁inst	-1241
▁want	-1242
▁teach	-1243
▁es	-1244
▁cur	-1245
▁gif	-1246
▁save	-1247
▁rose	-1248
▁chief	-1249
▁ordin	-1250
▁beloved	-1251
▁prophet	-1252
▁received	-1253
ius	-1254
the	-1255
und	-1256
▁mak	-1257
▁bear	-1258
▁knowledge	-1259
ances	-1260
aster	-1261
▁fast	-1262
▁angels	-1263
▁prophets	-1264
▁tabernacle	-1265
usb	-1266
eding	-1267
habit	-1268
usband	-1269
▁elders	-1270
▁indeed	-1271
▁Ba	-1272
ween	-1273
▁inc	-1274
▁sure	-1275
▁hearts	-1276
▁tongue	-1277
▁between	-1278
▁compass	-1279
▁continu	-1280
▁daughters	-1281
day	-1282
ared	-1283
ient	-1284
omin	-1285
rown	-1286
▁exal	-1287
▁matter	-1288
offering	-1289
▁husband	-1290
),	-1291
▁afraid	-1292
▁mountains	-1293
ages	-1294
ense	-1295
▁stri	-1296
▁gather	-1297
▁possess	-1298
▁returned	-1299
▁neighbour	-1300
▁commandments	-1301
bes	-1302
iat	-1303
man	-1304
ches	-1305
▁dece	-1306
▁anger	-1307
▁suffer	-1308
ison	-1309
▁tree	-1310
▁myself	-1311
▁inhabit	-1312
▁testimon	-1313
ip	-1314
▁sold	-1315
▁altar	-1316
▁troub	-1317
▁trust	-1318
▁thanks	-1319
▁throne	-1320
▁country	-1321
▁worship	-1322
You	-1323
elt	-1324
ilt	-1325
ingdom	-1326
▁Abess	-1327
▁ground	-1328
arn	-1329
▁cal	-1330
▁weep	-1331
▁means	-1332
▁number	-1333
▁wherein	-1334
▁ears	-1335
▁houses	-1336
▁nation	-1337
▁entered	-1338
▁presence	-1339
▁food	-1340
▁vine	-1341
▁wall	-1342
▁tribe	-1343
▁looked	-1344
▁princes	-1345
wer	-1346
ring	-1347
▁bow	-1348
▁sit	-1349
▁glad	-1350
▁pers	-1351
og	-1352
thy	-1353
▁opp	-1354
▁why	-1355
▁care	-1356
lessed	-1357
▁doesn	-1358
als	-1359
▁sn	-1360
▁qui	-1361
pared	-1362
▁door	-1363
▁kingdom	-1364
aid	-1365
irc	-1366
ots	-1367
ling	-1368
oseph	-1369
▁hour	-1370
▁kept	-1371
▁prov	-1372
▁though	-1373
aw	-1374
sy	-1375
aby	-1376
ints	-1377
reet	-1378
▁Why	-1379
▁Joseph	-1380
▁exceeding	-1381
▁ark	-1382
▁cut	-1383
▁est	-1384
▁rich	-1385
▁remember	-1386
ants	-1387
▁One	-1388
▁Thy	-1389
▁tra	-1390
▁book	-1391
▁passed	-1392
ute	-1393
alse	-1394
anct	-1395
▁esc	-1396
▁lips	-1397
▁shew	-1398
▁twel	-1399
▁creat	-1400
▁encamp	-1401
▁saints	-1402
▁heavens	-1403
▁beginning	-1404
eal	-1405
ulf	-1406
▁dw	-1407
ined	-1408
post	-1409
▁ten	-1410
▁ones	-1411
▁sick	-1412
▁dwelt	-1413
▁false	-1414
▁opened	-1415
cha	-1416
lon	-1417
▁Le	-1418
▁Joab	-1419
▁open	-1420
▁above	-1421
▁cloud	-1422
▁sound	-1423
▁perish	-1424
▁sky	-1425
ircum	-1426
▁heal	-1427
▁better	-1428
ten	-1429
▁Ye	-1430
▁Him	-1431
▁red	-1432
▁meet	-1433
abylon	-1434
▁Where	-1435
lf	-1436
alom	-1437
bath	-1438
rise	-1439
▁ter	-1440
▁Hear	-1441
▁fulf	-1442
▁wind	-1443
▁alone	-1444
▁women	-1445
▁Babylon	-1446
▁nam	-1447
▁ref	-1448
▁draw	-1449
▁twelve	-1450
▁certainly	-1451
▁exceedingly	-1452
▁vain	-1453
ircumc	-1454
▁abund	-1455
eds	-1456
ild	-1457
▁gr	-1458
pped	-1459
▁mour	-1460
▁tent	-1461
▁sanct	-1462
▁third	-1463
▁sinned	-1464
▁greatly	-1465
▁Abessalom	-1466
sec	-1467
uke	-1468
▁bes	-1469
▁six	-1470
▁lead	-1471
▁rock	-1472
▁second	-1473
▁destruction	-1474
oke	-1475
▁Al	-1476
ased	-1477
▁Cha	-1478
▁spo	-1479
▁camp	-1480
▁till	-1481
▁loved	-1482
▁Jonathan	-1483
▁appointed	-1484
ey	-1485
lly	-1486
sen	-1487
▁most	-1488
▁feast	-1489
▁saved	-1490
▁declare	-1491
▁prepared	-1492
HE	-1493
eng	-1494
ows	-1495
▁ob	-1496
ully	-1497
▁Isa	-1498
ement	-1499
▁enemy	-1500
▁commit	-1501
ail	-1502
ced	-1503
aked	-1504
▁appear	-1505
▁prison	-1506
▁whether	-1507
▁wrought	-1508
abl	-1509
ons	-1510
ives	-1511
▁Che	-1512
▁eye	-1513
cause	-1514
ought	-1515
▁clot	-1516
▁Blessed	-1517
▁assembly	-1518
▁ordinances	-1519
ile	-1520
ains	-1521
ized	-1522
▁def	-1523
▁lam	-1524
▁slay	-1525
▁could	-1526
▁broken	-1527
▁faithful	-1528
up	-1529
cept	-1530
raim	-1531
tend	-1532
▁Rem	-1533
▁att	-1534
▁rul	-1535
ighty	-1536
▁caus	-1537
▁chosen	-1538
▁lifted	-1539
▁repent	-1540
▁surely	-1541
▁borders	-1542
▁generation	-1543
then	-1544
ting	-1545
▁cle	-1546
▁reg	-1547
▁Good	-1548
▁Take	-1549
▁flee	-1550
▁hung	-1551
▁rise	-1552
▁stra	-1553
▁troubled	-1554
▁Egyptians	-1555
▁ourselves	-1556
op	-1557
reg	-1558
▁mo	-1559
asse	-1560
fter	-1561
just	-1562
ured	-1563
▁Eph	-1564
▁pat	-1565
▁tou	-1566
ister	-1567
▁nigh	-1568
▁rejo	-1569
iately	-1570
▁prayer	-1571
▁Ephraim	-1572
mediately	-1573
ss	-1574
rem	-1575
uch	-1576
▁Do	-1577
▁Mo	-1578
▁On	-1579
▁ba	-1580
▁wo	-1581
rose	-1582
▁weak	-1583
▁arose	-1584
▁build	-1585
▁sought	-1586
▁sinners	-1587
ae	-1588
ms	-1589
▁Sy	-1590
amin	-1591
aves	-1592
▁low	-1593
▁van	-1594
hamed	-1595
▁vill	-1596
▁desol	-1597
▁fight	-1598
▁leave	-1599
▁money	-1600
▁shame	-1601
▁abomin	-1602
▁secret	-1603
▁waters	-1604
▁Pharise	-1605
▁ashamed	-1606
▁reproach	-1607
cc	-1608
uri	-1609
iful	-1610
▁ass	-1611
▁pit	-1612
▁Chan	-1613
asting	-1614
▁bound	-1615
▁gives	-1616
▁establ	-1617
▁multip	-1618
▁unright	-1619
▁believed	-1620
ery	-1621
▁No	-1622
▁ce	-1623
▁bur	-1624
▁mis	-1625
ached	-1626
▁foot	-1627
▁hard	-1628
▁port	-1629
▁prom	-1630
▁true	-1631
▁order	-1632
▁still	-1633
▁beasts	-1634
▁friend	-1635
▁labour	-1636
▁unrighteous	-1637
▁To	-1638
ways	-1639
▁vir	-1640
▁last	-1641
▁mess	-1642
▁sleep	-1643
▁honour	-1644
▁anything	-1645
▁hearkened	-1646
▁testimony	-1647
aut	-1648
ime	-1649
ues	-1650
▁Ad	-1651
lind	-1652
▁oil	-1653
▁Moab	-1654
▁dost	-1655
▁hill	-1656
▁blind	-1657
▁think	-1658
▁garments	-1659
Be	-1660
ah	-1661
ned	-1662
not	-1663
ible	-1664
ises	-1665
▁bapt	-1666
▁These	-1667
▁souls	-1668
▁sevent	-1669
▁Because	-1670
▁evening	-1671
▁exalted	-1672
▁whatsoever	-1673
enj	-1674
▁Em	-1675
▁Or	-1676
pect	-1677
▁Lev	-1678
▁lie	-1679
ained	-1680
ience	-1681
▁Benj	-1682
▁cong	-1683
▁angry	-1684
▁answer	-1685
▁cattle	-1686
▁desert	-1687
▁places	-1688
▁thereof	-1689
▁whatever	-1690
ib	-1691
iv	-1692
omp	-1693
ides	-1694
▁ate	-1695
▁kill	-1696
▁prof	-1697
▁sing	-1698
▁beaut	-1699
▁forty	-1700
▁knows	-1701
▁watch	-1702
▁always	-1703
▁thought	-1704
ai	-1705
ough	-1706
side	-1707
yond	-1708
▁Eli	-1709
ision	-1710
▁aside	-1711
▁reign	-1712
▁beyond	-1713
▁Abraham	-1714
▁stranger	-1715
▁wickedness	-1716
lic	-1717
burn	-1718
▁Her	-1719
▁THE	-1720
▁pie	-1721
alley	-1722
burnt	-1723
▁fled	-1724
▁ship	-1725
▁burnt	-1726
▁accept	-1727
▁fallen	-1728
▁longer	-1729
▁sorrow	-1730
▁worthy	-1731
▁present	-1732
▁followed	-1733
▁revealed	-1734
els	-1735
mer	-1736
▁id	-1737
bser	-1738
iced	-1739
cious	-1740
▁five	-1741
▁purs	-1742
▁wond	-1743
▁crown	-1744
▁congreg	-1745
▁portion	-1746
▁Benjamin	-1747
aad	-1748
eem	-1749
What	-1750
ired	-1751
▁Sab	-1752
▁fif	-1753
▁corn	-1754
▁wood	-1755
▁flock	-1756
▁lives	-1757
▁perfe	-1758
▁spoil	-1759
▁Galaad	-1760
▁raised	-1761
▁foolish	-1762
na	-1763
ect	-1764
tha	-1765
▁De	-1766
fied	-1767
tern	-1768
▁hate	-1769
▁quick	-1770
▁stret	-1771
▁compan	-1772
▁valley	-1773
▁Pharisees	-1774
▁continually	-1775
aim	-1776
ian	-1777
ual	-1778
▁Re	-1779
▁act	-1780
▁cor	-1781
acher	-1782
▁chan	-1783
▁cove	-1784
▁fors	-1785
▁plag	-1786
▁stay	-1787
▁began	-1788
▁consu	-1789
▁hosts	-1790
▁cannot	-1791
▁manner	-1792
▁stones	-1793
▁within	-1794
▁encamped	-1795
▁congregation	-1796
mor	-1797
ider	-1798
pher	-1799
yard	-1800
▁rod	-1801
cript	-1802
▁bird	-1803
▁built	-1804
▁etern	-1805
▁gates	-1806
▁small	-1807
▁Abraam	-1808
▁anyone	-1809
▁belong	-1810
offerings	-1811
hind	-1812
owed	-1813
▁med	-1814
▁News	-1815
▁Isaac	-1816
▁soldi	-1817
▁battle	-1818
▁behind	-1819
▁master	-1820
▁reward	-1821
▁carried	-1822
▁Es	-1823
▁few	-1824
▁wid	-1825
asure	-1826
▁After	-1827
▁apost	-1828
▁disob	-1829
▁naked	-1830
▁visit	-1831
▁speaking	-1832
He	-1833
ont	-1834
pet	-1835
vers	-1836
▁cour	-1837
▁drew	-1838
▁lion	-1839
▁proce	-1840
▁fellow	-1841
▁redeem	-1842
▁shouldest	-1843
▁inhabitants	-1844
ech	-1845
Lord	-1846
lied	-1847
pent	-1848
ught	-1849
▁led	-1850
fully	-1851
▁free	-1852
▁Jerem	-1853
▁except	-1854
▁mayest	-1855
▁persec	-1856
▁wonder	-1857
▁eternal	-1858
▁blessing	-1859
▁fulfilled	-1860
gs	-1861
vest	-1862
▁Bar	-1863
▁inf	-1864
▁mur	-1865
▁pay	-1866
▁pun	-1867
▁gate	-1868
▁heed	-1869
▁humb	-1870
liness	-1871
▁Pause	-1872
▁chari	-1873
▁demon	-1874
▁obser	-1875
▁smite	-1876
▁write	-1877
▁perfor	-1878
▁vineyard	-1879
law	-1880
aint	-1881
alth	-1882
ange	-1883
orns	-1884
▁Pis	-1885
▁She	-1886
ently	-1887
uring	-1888
▁gift	-1889
▁pros	-1890
▁rain	-1891
▁wept	-1892
entius	-1893
ounded	-1894
▁south	-1895
▁spread	-1896
▁strengthen	-1897
ron	-1898
▁Ag	-1899
osed	-1900
▁Gab	-1901
▁bar	-1902
▁che	-1903
▁imp	-1904
▁show	-1905
▁break	-1906
born	-1907
oura	-1908
ying	-1909
▁bit	-1910
▁cro	-1911
peror	-1912
▁cond	-1913
▁shut	-1914
▁learn	-1915
▁lived	-1916
▁hidden	-1917
▁garment	-1918
▁Pisentius	-1919
ead	-1920
eph	-1921
▁sy	-1922
fort	-1923
pherd	-1924
▁Come	-1925
▁east	-1926
▁path	-1927
▁perce	-1928
▁procl	-1929
▁signs	-1930
▁thirst	-1931
▁circumc	-1932
▁messeng	-1933
ats	-1934
ney	-1935
uted	-1936
▁den	-1937
▁gro	-1938
ilies	-1939
otten	-1940
uthor	-1941
▁Duke	-1942
▁Give	-1943
▁once	-1944
▁scri	-1945
mighty	-1946
▁curse	-1947
▁sweet	-1948
▁Script	-1949
▁forget	-1950
▁unjust	-1951
▁account	-1952
▁compassion	-1953
▁commandment	-1954
▁By	-1955
▁ox	-1956
ided	-1957
lech	-1958
ream	-1959
▁add	-1960
▁inn	-1961
▁calf	-1962
▁deal	-1963
▁slew	-1964
▁womb	-1965
ervant	-1966
▁guard	-1967
▁Manasse	-1968
▁Almighty	-1969
▁desolate	-1970
eli	-1971
▁ir	-1972
enty	-1973
▁ast	-1974
ember	-1975
▁hair	-1976
▁Judea	-1977
▁clean	-1978
▁instru	-1979
▁poured	-1980
▁remove	-1981
▁strange	-1982
▁afterward	-1983
▁glorified	-1984
▁everything	-1985
If	-1986
men	-1987
ols	-1988
rom	-1989
run	-1990
orted	-1991
venge	-1992
▁rule	-1993
▁bones	-1994
▁exult	-1995
▁moved	-1996
▁ready	-1997
▁author	-1998
▁fruits	-1999
▁recomp	-2000
▁wealth	-2001
▁comfort	-2002
▁Jeremias	-2003
▁standing	-2004
▁afflicted	-2005
▁judgments	-2006
rs	-2007
ank	-2008
ape	-2009
hood	-2010
▁Don	-2011
▁Job	-2012
▁fin	-2013
▁hat	-2014
▁obe	-2015
▁Amor	-2016
▁bold	-2017
▁fail	-2018
▁jour	-2019
▁virg	-2020
Behold	-2021
▁early	-2022
▁incre	-2023
▁marve	-2024
▁since	-2025
lasting	-2026
▁caused	-2027
▁pieces	-2028
▁prayed	-2029
▁tribes	-2030
▁Emperor	-2031
▁supplic	-2032
▁Remember	-2033
▁shepherd	-2034
▁generations	-2035
ades	-2036
ilig	-2037
race	-2038
▁Woe	-2039
▁ves	-2040
▁heat	-2041
▁pure	-2042
▁tomb	-2043
▁boast	-2044
▁dilig	-2045
▁fount	-2046
▁plant	-2047
▁bitter	-2048
▁charge	-2049
▁judged	-2050
▁sister	-2051
▁vessel	-2052
▁forever	-2053
▁journey	-2054
▁removed	-2055
▁trouble	-2056
▁weeping	-2057
▁pleasure	-2058
▁straight	-2059
▁immediately	-2060
hon	-2061
oked	-2062
▁min	-2063
eared	-2064
▁Gali	-2065
▁desp	-2066
▁disc	-2067
▁goes	-2068
▁skin	-2069
edient	-2070
ressed	-2071
▁Every	-2072
▁alive	-2073
▁gifts	-2074
▁habit	-2075
▁satis	-2076
▁separ	-2077
▁table	-2078
▁healed	-2079
▁others	-2080
▁sinner	-2081
▁Sabbath	-2082
▁knowing	-2083
▁respect	-2084
▁serpent	-2085
▁anointed	-2086
▁proclaim	-2087
▁iniquities	-2088
▁remembered	-2089
ffe	-2090
pha	-2091
ued	-2092
▁En	-2093
agog	-2094
▁val	-2095
ected	-2096
ition	-2097
▁Most	-2098
▁seem	-2099
▁shad	-2100
▁Simon	-2101
▁devil	-2102
▁stumb	-2103
▁youth	-2104
▁escape	-2105
▁greater	-2106
▁appeared	-2107
▁multitudes	-2108
▁sacrifices	-2109
cess	-2110
rupt	-2111
▁reb	-2112
▁ris	-2113
nagog	-2114
▁Gaba	-2115
▁serv	-2116
▁birds	-2117
▁hated	-2118
▁trees	-2119
rection	-2120
▁overth	-2121
▁report	-2122
▁twenty	-2123
▁vanity	-2124
▁friends	-2125
▁perfect	-2126
▁prosper	-2127
▁quickly	-2128
▁testify	-2129
▁wonders	-2130
▁families	-2131
My	-2132
▁dri	-2133
rians	-2134
▁beha	-2135
▁bore	-2136
▁deep	-2137
▁dust	-2138
▁half	-2139
▁iron	-2140
▁pill	-2141
▁Ammon	-2142
▁arise	-2143
▁doing	-2144
▁manif	-2145
imelech	-2146
▁helper	-2147
▁person	-2148
▁synagog	-2149
▁everyone	-2150
avi	-2151
▁da	-2152
▁hy	-2153
This	-2154
anus	-2155
pare	-2156
wise	-2157
▁Sin	-2158
▁fav	-2159
▁Aben	-2160
▁drun	-2161
▁slain	-2162
▁tempt	-2163
▁deceit	-2164
▁famine	-2165
▁thence	-2166
▁thirty	-2167
▁Galilee	-2168
▁multiplied	-2169
ax	-2170
tt	-2171
.''	-2172
iss	-2173
ates	-2174
azar	-2175
vern	-2176
ekias	-2177
▁Amen	-2178
▁list	-2179
▁neck	-2180
▁talk	-2181
ealous	-2182
▁carry	-2183
▁evils	-2184
▁north	-2185
▁breast	-2186
▁devour	-2187
▁offered	-2188
▁glorious	-2189
▁teaching	-2190
▁villages	-2191
▁authority	-2192
xt	-2193
pes	-2194
rus	-2195
▁Bo	-2196
▁St	-2197
aped	-2198
arch	-2199
urbs	-2200
▁cover	-2201
▁medit	-2202
▁spake	-2203
▁captiv	-2204
▁speech	-2205
▁proceed	-2206
▁suburbs	-2207
▁apostles	-2208
▁soldiers	-2209
ma	-2210
int	-2211
aced	-2212
aren	-2213
atha	-2214
▁Dan	-2215
▁age	-2216
▁Achi	-2217
▁past	-2218
▁grass	-2219
▁heads	-2220
▁honey	-2221
▁loves	-2222
▁white	-2223
▁condem	-2224
▁dishon	-2225
▁preach	-2226
▁season	-2227
▁endures	-2228
▁reported	-2229
▁everlasting	-2230
).	-2231
let	-2232
now	-2233
ror	-2234
▁Ca	-2235
▁em	-2236
with	-2237
▁Nab	-2238
▁dro	-2239
▁fat	-2240
▁hor	-2241
▁mag	-2242
▁Beth	-2243
▁Savi	-2244
▁fine	-2245
▁sitt	-2246
▁cloth	-2247
▁conce	-2248
▁wrong	-2249
▁wrote	-2250
▁formed	-2251
▁itself	-2252
▁charged	-2253
▁whoever	-2254
▁chariots	-2255
▁abundance	-2256
▁captivity	-2257
▁supplication	-2258
amb	-2259
ges	-2260
hel	-2261
ease	-2262
▁bed	-2263
▁dry	-2264
▁lod	-2265
▁run	-2266
▁too	-2267
▁lift	-2268
▁loud	-2269
▁prev	-2270
▁refu	-2271
▁wish	-2272
asures	-2273
ention	-2274
▁eaten	-2275
▁tears	-2276
▁terri	-2277
▁wives	-2278
▁around	-2279
▁killed	-2280
▁seeing	-2281
▁street	-2282
▁Abenner	-2283
▁confess	-2284
▁looking	-2285
▁perform	-2286
▁consider	-2287
▁rejoiced	-2288
Who	-2289
iel	-2290
▁ve	-2291
▁Gad	-2292
▁cup	-2293
▁sur	-2294
▁yea	-2295
ality	-2296
▁gird	-2297
▁subj	-2298
▁dream	-2299
▁idols	-2300
▁pride	-2301
▁snare	-2302
▁ceased	-2303
▁comple	-2304
▁punish	-2305
▁taught	-2306
▁walked	-2307
▁covered	-2308
▁created	-2309
▁seventh	-2310
▁upright	-2311
▁continue	-2312
▁Abimelech	-2313
end	-2314
ize	-2315
ped	-2316
▁er	-2317
amel	-2318
nant	-2319
▁cru	-2320
▁ran	-2321
▁rel	-2322
ready	-2323
▁Assy	-2324
▁arri	-2325
▁join	-2326
▁lust	-2327
▁next	-2328
▁pour	-2329
▁purp	-2330
ephtha	-2331
▁Herod	-2332
▁innoc	-2333
▁paths	-2334
▁raise	-2335
▁stars	-2336
▁venge	-2337
▁Chanan	-2338
▁astray	-2339
▁golden	-2340
▁served	-2341
▁vision	-2342
▁already	-2343
▁outside	-2344
▁manifest	-2345
▁vengeance	-2346
ere	-2347
▁vi	-2348
athi	-2349
bron	-2350
lies	-2351
oned	-2352
▁adv	-2353
▁dou	-2354
▁ren	-2355
▁hide	-2356
▁adult	-2357
▁belly	-2358
▁breat	-2359
▁cease	-2360
▁horse	-2361
▁makes	-2362
▁happen	-2363
▁prepare	-2364
▁therein	-2365
▁abundant	-2366
▁consumed	-2367
▁stretched	-2368
▁established	-2369
▁unrighteousness	-2370
ec	-2371
ls	-2372
Why	-2373
bed	-2374
sal	-2375
▁aw	-2376
cend	-2377
ited	-2378
mpet	-2379
▁Sar	-2380
▁Whi	-2381
▁Yet	-2382
▁dep	-2383
▁disp	-2384
▁lamp	-2385
▁oath	-2386
▁honor	-2387
▁sware	-2388
▁hungry	-2389
▁plague	-2390
▁shadow	-2391
▁afflict	-2392
▁trumpet	-2393
▁finished	-2394
▁thousands	-2395
▁abomination	-2396
jour	-2397
▁Pil	-2398
▁tor	-2399
iving	-2400
▁Esau	-2401
▁kins	-2402
▁west	-2403
▁Judas	-2404
▁deeds	-2405
▁image	-2406
▁named	-2407
▁ought	-2408
▁Pilate	-2409
▁feared	-2410
▁judges	-2411
▁sojour	-2412
▁observe	-2413
▁promise	-2414
▁towards	-2415
▁strangers	-2416
▁possession	-2417
by	-2418
ety	-2419
irs	-2420
xed	-2421
pass	-2422
▁get	-2423
▁lot	-2424
aring	-2425
orses	-2426
▁That	-2427
▁grow	-2428
▁pain	-2429
▁reap	-2430
▁wast	-2431
▁Amale	-2432
▁appro	-2433
▁grief	-2434
▁ruler	-2435
▁scatt	-2436
▁govern	-2437
▁horses	-2438
▁rulers	-2439
▁Chebron	-2440
▁counten	-2441
▁restore	-2442
▁scribes	-2443
▁numbered	-2444
▁Assyrians	-2445
▁scattered	-2446
IN	-2447
non	-2448
ury	-2449
hall	-2450
irth	-2451
▁nat	-2452
areth	-2453
▁Even	-2454
▁Mary	-2455
▁amaz	-2456
▁enqu	-2457
▁fill	-2458
▁gard	-2459
▁requ	-2460
▁eight	-2461
▁names	-2462
▁attend	-2463
▁failed	-2464
▁rather	-2465
▁riches	-2466
▁clothed	-2467
▁forsake	-2468
▁oppress	-2469
▁remnant	-2470
▁baptized	-2471
▁rejected	-2472
▁committed	-2473
▁messengers	-2474
It	-2475
We	-2476
ee	-2477
aan	-2478
asso	-2479
vous	-2480
▁Jeb	-2481
▁Mic	-2482
▁ins	-2483
▁mil	-2484
udden	-2485
▁Adam	-2486
▁beat	-2487
▁boat	-2488
arents	-2489
▁Chald	-2490
▁parts	-2491
▁widow	-2492
▁confid	-2493
▁family	-2494
▁letter	-2495
▁loaves	-2496
▁perver	-2497
▁profit	-2498
▁jealous	-2499
▁kinsman	-2500
▁knowest	-2501
▁parents	-2502
▁service	-2503
▁precious	-2504
▁household	-2505
▁countenance	-2506
ene	-2507
iam	-2508
acha	-2509
aded	-2510
uben	-2511
▁Tha	-2512
▁spr	-2513
▁High	-2514
▁maid	-2515
▁Micha	-2516
▁bonds	-2517
▁bride	-2518
ication	-2519
▁beauty	-2520
▁buried	-2521
▁clouds	-2522
▁endure	-2523
▁fourth	-2524
▁preser	-2525
▁speaks	-2526
▁corrupt	-2527
▁patient	-2528
▁remains	-2529
▁sitting	-2530
▁distress	-2531
▁fountain	-2532
▁moreover	-2533
▁yourself	-2534
▁Wherefore	-2535
▁satisfied	-2536
▁wonderful	-2537
▁possessions	-2538
Don	-2539
ber	-2540
ift	-2541
lst	-2542
▁At	-2543
▁El	-2544
eans	-2545
icho	-2546
maid	-2547
roud	-2548
▁Mad	-2549
▁From	-2550
▁aton	-2551
▁doth	-2552
▁moon	-2553
▁puri	-2554
▁rele	-2555
▁wash	-2556
▁Ruben	-2557
▁groan	-2558
▁mourn	-2559
assover	-2560
uddenly	-2561
▁excell	-2562
▁captain	-2563
▁prayers	-2564
iah	-2565
brew	-2566
ires	-2567
mber	-2568
rias	-2569
ries	-2570
▁Bas	-2571
▁Car	-2572
▁bad	-2573
▁obt	-2574
▁Eust	-2575
▁feed	-2576
▁milk	-2577
▁obey	-2578
▁root	-2579
▁sand	-2580
▁Devil	-2581
▁doors	-2582
▁grant	-2583
▁liken	-2584
▁plain	-2585
▁proud	-2586
aughter	-2587
oreover	-2588
servant	-2589
▁Hebrew	-2590
▁bodies	-2591
▁breath	-2592
▁burden	-2593
▁choose	-2594
▁comfor	-2595
▁former	-2596
▁hither	-2597
▁months	-2598
▁unless	-2599
▁Jericho	-2600
▁escaped	-2601
▁glorify	-2602
▁harvest	-2603
▁grievous	-2604
▁handmaid	-2605
▁mourning	-2606
▁patience	-2607
▁Chaldeans	-2608
▁afterwards	-2609
▁appearance	-2610
▁instruction	-2611
▁OF	-2612
▁el	-2613
hose	-2614
▁Ara	-2615
▁dec	-2616
▁occ	-2617
aving	-2618
ility	-2619
ometh	-2620
▁Many	-2621
▁With	-2622
▁bran	-2623
▁mark	-2624
erable	-2625
▁Shall	-2626
▁offic	-2627
▁spare	-2628
▁suffe	-2629
▁teeth	-2630
▁regard	-2631
▁stayed	-2632
▁virgin	-2633
▁burning	-2634
▁measure	-2635
▁streets	-2636
▁touched	-2637
urrection	-2638
▁merciful	-2639
▁offering	-2640
▁witnesses	-2641
▁recompense	-2642
ala	-2643
min	-2644
oll	-2645
rac	-2646
ames	-2647
oint	-2648
omes	-2649
▁cra	-2650
▁exh	-2651
▁pal	-2652
▁ram	-2653
▁Heli	-2654
▁bond	-2655
▁flow	-2656
▁gain	-2657
▁lamb	-2658
▁pity	-2659
▁tres	-2660
▁viol	-2661
avened	-2662
▁along	-2663
▁close	-2664
▁needy	-2665
ameless	-2666
▁brings	-2667
▁favour	-2668
▁making	-2669
▁spoils	-2670
▁divided	-2671
▁herself	-2672
▁incense	-2673
▁whereas	-2674
▁Moreover	-2675
▁clothing	-2676
▁suddenly	-2677
▁trespass	-2678
▁atonement	-2679
▁blameless	-2680
▁justified	-2681
du	-2682
▁;	-2683
cho	-2684
cus	-2685
ial	-2686
sol	-2687
urt	-2688
ases	-2689
empt	-2690
iven	-2691
part	-2692
▁cre	-2693
▁met	-2694
aches	-2695
ailed	-2696
chief	-2697
▁Turn	-2698
▁best	-2699
▁monk	-2700
▁murd	-2701
▁oxen	-2702
ibanus	-2703
▁array	-2704
▁arrow	-2705
▁flame	-2706
▁risen	-2707
▁smoke	-2708
▁wheat	-2709
▁Bethle	-2710
▁amazed	-2711
▁border	-2712
▁during	-2713
▁humble	-2714
▁hunger	-2715
▁prince	-2716
▁scatter	-2717
▁forgotten	-2718
▁diligently	-2719
▁disobedient	-2720
cy	-2721
ug	-2722
bul	-2723
cil	-2724
eon	-2725
its	-2726
ook	-2727
▁Ez	-2728
aken	-2729
edge	-2730
nest	-2731
osom	-2732
▁May	-2733
▁emb	-2734
▁sum	-2735
ander	-2736
asphe	-2737
▁Caes	-2738
▁afar	-2739
▁army	-2740
▁coll	-2741
▁drag	-2742
▁fish	-2743
▁lost	-2744
▁meat	-2745
▁resc	-2746
▁sack	-2747
▁song	-2748
▁stor	-2749
▁Phili	-2750
▁accus	-2751
▁fifty	-2752
▁keeps	-2753
▁memor	-2754
▁overc	-2755
▁short	-2756
▁spear	-2757
▁takes	-2758
▁wings	-2759
▁wound	-2760
▁Amalec	-2761
▁Heaven	-2762
▁Madiam	-2763
▁demons	-2764
▁shaken	-2765
▁blasphe	-2766
▁desires	-2767
▁hearing	-2768
▁parable	-2769
▁dwelling	-2770
▁suffered	-2771
▁thoughts	-2772
▁following	-2773
▁acceptable	-2774
▁habitation	-2775
sp	-2776
ara	-2777
hor	-2778
jah	-2779
shi	-2780
▁Yes	-2781
▁env	-2782
▁inv	-2783
▁sel	-2784
▁sow	-2785
iment	-2786
issed	-2787
rance	-2788
▁Baet	-2789
▁Cher	-2790
▁bull	-2791
▁fing	-2792
▁form	-2793
▁herd	-2794
▁psal	-2795
▁seat	-2796
▁shar	-2797
reated	-2798
▁Bring	-2799
▁Samar	-2800
▁daily	-2801
▁least	-2802
▁swear	-2803
edience	-2804
▁behalf	-2805
▁cometh	-2806
▁garden	-2807
▁rivers	-2808
▁silent	-2809
▁whilst	-2810
▁worshi	-2811
▁Chanaan	-2812
▁forgive	-2813
▁pleased	-2814
▁commands	-2815
▁forgiven	-2816
▁preached	-2817
▁provoked	-2818
▁synagogue	-2819
▁repentance	-2820
▁circumcision	-2821
▁resurrection	-2822
▁transgressors	-2823
art	-2824
bon	-2825
lem	-2826
mel	-2827
▁eag	-2828
▁sab	-2829
▁sor	-2830
▁top	-2831
▁Syri	-2832
▁disg	-2833
▁soon	-2834
athius	-2835
morrow	-2836
▁Their	-2837
▁flour	-2838
▁often	-2839
▁quiet	-2840
▁scour	-2841
▁seeks	-2842
▁throw	-2843
▁touch	-2844
▁pillar	-2845
▁thrown	-2846
▁wouldn	-2847
▁counted	-2848
▁earnest	-2849
▁purpose	-2850
▁sabbath	-2851
▁gladness	-2852
▁remained	-2853
▁Scripture	-2854
▁creatures	-2855
▁strengthened	-2856
ys	-2857
che	-2858
ell	-2859
son	-2860
atan	-2861
much	-2862
rust	-2863
▁Did	-2864
▁Ged	-2865
▁See	-2866
▁bas	-2867
▁fig	-2868
▁inj	-2869
▁tax	-2870
eterm	-2871
mbers	-2872
▁Fear	-2873
▁bind	-2874
▁cruc	-2875
▁else	-2876
▁fair	-2877
▁furn	-2878
▁male	-2879
▁prud	-2880
▁shed	-2881
▁unle	-2882
▁bosom	-2883
▁coast	-2884
▁hills	-2885
▁inter	-2886
▁stead	-2887
▁tremb	-2888
▁abound	-2889
▁bright	-2890
▁choice	-2891
▁determ	-2892
▁dwells	-2893
▁flocks	-2894
▁refuge	-2895
▁sanctu	-2896
▁Ezekias	-2897
▁defiled	-2898
▁bringing	-2899
▁mischief	-2900
▁receives	-2901
▁comforted	-2902
▁compassed	-2903
▁Eustathius	-2904
▁punishment	-2905
▁testimonies	-2906
Do	-2907
TH	-2908
ier	-2909
och	-2910
odu	-2911
▁Im	-2912
▁Me	-2913
▁Ne	-2914
akim	-2915
mell	-2916
ompl	-2917
reed	-2918
▁Mel	-2919
▁Pro	-2920
▁bus	-2921
▁won	-2922
ament	-2923
aries	-2924
▁Levi	-2925
▁Your	-2926
▁cust	-2927
▁exam	-2928
▁grew	-2929
▁hail	-2930
▁home	-2931
▁sees	-2932
▁stir	-2933
▁used	-2934
▁Baeth	-2935
▁Basan	-2936
▁chast	-2937
▁domin	-2938
▁faces	-2939
▁fools	-2940
▁lying	-2941
theless	-2942
▁advers	-2943
▁exhort	-2944
▁lament	-2945
▁listen	-2946
▁tables	-2947
▁Libanus	-2948
▁accompl	-2949
▁arrived	-2950
▁grieved	-2951
▁raiment	-2952
▁release	-2953
▁beautiful	-2954
▁continued	-2955
▁establish	-2956
▁determined	-2957
--	-2958
bt	-2959
eep	-2960
ets	-2961
leb	-2962
▁Ty	-2963
adab	-2964
ging	-2965
inen	-2966
phan	-2967
▁Ant	-2968
▁Del	-2969
▁Rom	-2970
▁ban	-2971
▁ele	-2972
▁hum	-2973
▁int	-2974
▁pet	-2975
▁sex	-2976
joice	-2977
onoun	-2978
osthe	-2979
verty	-2980
▁Gree	-2981
▁Jess	-2982
▁Samp	-2983
▁Will	-2984
▁acts	-2985
▁empt	-2986
▁harm	-2987
▁held	-2988
▁magn	-2989
▁murm	-2990
▁rebu	-2991
▁road	-2992
▁tort	-2993
▁Again	-2994
▁broke	-2995
▁cross	-2996
▁exist	-2997
▁hoped	-2998
▁infor	-2999
▁persu	-3000
▁produ	-3001
▁sharp	-3002
▁swall	-3003
▁caught	-3004
▁fought	-3005
▁necess	-3006
▁orphan	-3007
▁someth	-3008
▁thorns	-3009
▁Sampson	-3010
▁poverty	-3011
▁pronoun	-3012
▁thirsty	-3013
▁village	-3014
▁willing	-3015
▁dominion	-3016
▁governor	-3017
▁innocent	-3018
▁ordinance	-3019
▁sanctuary	-3020
▁something	-3021
▁treasures	-3022
▁uncircumc	-3023
▁wherewith	-3024
▁assemblies	-3025
OR	-3026
Let	-3027
ama	-3028
irm	-3029
ran	-3030
use	-3031
▁Ma	-3032
olom	-3033
peak	-3034
ubim	-3035
▁bra	-3036
▁buy	-3037
▁dam	-3038
▁exp	-3039
▁lau	-3040
under	-3041
ursed	-3042
▁Have	-3043
▁Thee	-3044
▁crus	-3045
▁dire	-3046
▁firm	-3047
▁harl	-3048
▁harp	-3049
▁prop	-3050
▁spot	-3051
asmuch	-3052
olomon	-3053
▁Satan	-3054
▁Those	-3055
▁folly	-3056
▁hears	-3057
▁horns	-3058
▁linen	-3059
▁oppos	-3060
▁Gedeon	-3061
▁Philip	-3062
▁double	-3063
▁maketh	-3064
▁pursue	-3065
▁spring	-3066
▁Amorite	-3067
▁Saviour	-3068
▁Solomon	-3069
▁Whoever	-3070
▁besides	-3071
▁council	-3072
▁delight	-3073
▁descend	-3074
▁justice	-3075
▁kindled	-3076
▁labours	-3077
▁seeking	-3078
▁seventy	-3079
▁smitten	-3080
▁devoured	-3081
▁pleasing	-3082
▁secretly	-3083
▁Chananite	-3084
▁nakedness	-3085
▁wherefore	-3086
▁sufferings	-3087
▁throughout	-3088
▁unleavened	-3089
bb	-3090
oz	-3091
fty	-3092
arge	-3093
live	-3094
▁Jab	-3095
▁Not	-3096
▁Sed	-3097
▁Sel	-3098
cloth	-3099
stood	-3100
▁Make	-3101
▁anim	-3102
▁defe	-3103
▁exec	-3104
▁sail	-3105
▁suff	-3106
▁yoke	-3107
▁James	-3108
▁Never	-3109
▁While	-3110
▁cheer	-3111
▁drunk	-3112
▁exalt	-3113
▁immor	-3114
▁pract	-3115
▁store	-3116
▁tried	-3117
▁crying	-3118
▁cursed	-3119
▁region	-3120
▁seized	-3121
▁strife	-3122
▁Levites	-3123
▁condemn	-3124
▁praises	-3125
▁reveren	-3126
▁spirits	-3127
▁Amorites	-3128
▁Bethleem	-3129
▁adultery	-3130
▁deceived	-3131
▁disciple	-3132
▁prophesy	-3133
▁separate	-3134
▁treasure	-3135
▁sackcloth	-3136
▁slaughter	-3137
▁stumbling	-3138
▁testified	-3139
▁Scriptures	-3140
▁foundation	-3141
Go	-3142
ME	-3143
ari	-3144
dle	-3145
kes	-3146
ocr	-3147
ogn	-3148
thi	-3149
▁vo	-3150
pocr	-3151
ters	-3152
▁Gai	-3153
▁Jew	-3154
▁cam	-3155
▁dif	-3156
▁due	-3157
▁lep	-3158
▁rid	-3159
icing	-3160
▁Galg	-3161
▁Lamb	-3162
▁heav	-3163
▁mort	-3164
▁salt	-3165
▁tast	-3166
ounted	-3167
ourage	-3168
▁Hades	-3169
▁apart	-3170
▁greet	-3171
▁trave	-3172
▁damsel	-3173
▁eating	-3174
▁kissed	-3175
▁nought	-3176
▁recogn	-3177
▁waited	-3178
▁Hearken	-3179
▁Jephtha	-3180
▁chamber	-3181
▁changed	-3182
▁heathen	-3183
▁praying	-3184
▁walking	-3185
▁younger	-3186
▁Cherubim	-3187
▁multiply	-3188
▁perceive	-3189
▁perceived	-3190
▁Philistine	-3191
▁confounded	-3192
▁Immediately	-3193
ER	-3194
ON	-3195
lo	-3196
abb	-3197
ana	-3198
ked	-3199
ott	-3200
raw	-3201
▁Ch	-3202
arel	-3203
arer	-3204
haps	-3205
road	-3206
ware	-3207
▁Arab	-3208
▁Name	-3209
▁scar	-3210
▁seal	-3211
▁self	-3212
▁stat	-3213
▁brass	-3214
▁brook	-3215
▁chose	-3216
▁court	-3217
▁drank	-3218
▁drive	-3219
▁elder	-3220
▁empty	-3221
▁godly	-3222
▁hates	-3223
▁occas	-3224
▁plead	-3225
▁storm	-3226
▁tents	-3227
▁Jessae	-3228
▁abroad	-3229
▁armour	-3230
▁begged	-3231
▁fields	-3232
▁hypocr	-3233
▁profan	-3234
▁bondage	-3235
▁captive	-3236
▁company	-3237
▁despise	-3238
▁forward	-3239
▁thither	-3240
▁believes	-3241
▁captains	-3242
▁eastward	-3243
▁goodness	-3244
▁perished	-3245
▁prevailed	-3246
af	-3247
fo	-3248
agg	-3249
cks	-3250
ism	-3251
mit	-3252
nas	-3253
oli	-3254
abas	-3255
angu	-3256
apha	-3257
ield	-3258
room	-3259
▁Dam	-3260
▁Sal	-3261
▁dew	-3262
▁ign	-3263
▁ill	-3264
▁rus	-3265
▁use	-3266
There	-3267
Where	-3268
eness	-3269
▁Barn	-3270
▁ends	-3271
▁horn	-3272
▁leng	-3273
▁lies	-3274
▁myst	-3275
▁play	-3276
▁sell	-3277
▁sore	-3278
▁wear	-3279
▁Cades	-3280
▁Greet	-3281
▁advan	-3282
▁depth	-3283
▁goats	-3284
▁langu	-3285
▁olive	-3286
▁seize	-3287
▁tenth	-3288
▁thief	-3289
▁threw	-3290
▁truly	-3291
▁waste	-3292
▁Gabaon	-3293
▁betray	-3294
▁custom	-3295
▁forces	-3296
▁search	-3297
▁taking	-3298
▁terror	-3299
▁washed	-3300
▁weight	-3301
▁apparel	-3302
▁consume	-3303
▁courage	-3304
▁pursued	-3305
▁stretch	-3306
▁wounded	-3307
▁Barnabas	-3308
▁Jephthae	-3309
▁branches	-3310
▁declared	-3311
▁forsaken	-3312
▁crucified	-3313
▁increased	-3314
▁shepherds	-3315
▁suffering	-3316
▁confidence	-3317
▁sanctified	-3318
▁foundations	-3319
▁straightway	-3320
▁Nevertheless	-3321
fy	-3322
How	-3323
hom	-3324
osp	-3325
▁Ep	-3326
Take	-3327
ares	-3328
fast	-3329
idon	-3330
teen	-3331
▁Nay	-3332
▁Sad	-3333
▁dar	-3334
▁equ	-3335
▁isn	-3336
▁saf	-3337
groom	-3338
ution	-3339
▁Gosp	-3340
▁Hast	-3341
▁Some	-3342
▁news	-3343
▁veil	-3344
eacher	-3345
▁Arise	-3346
▁Sidon	-3347
▁birth	-3348
▁clear	-3349
▁deser	-3350
▁front	-3351
▁grave	-3352
▁guide	-3353
▁ignor	-3354
▁overt	-3355
▁quest	-3356
▁Elijah	-3357
▁Having	-3358
▁please	-3359
▁shewed	-3360
▁Neither	-3361
▁breasts	-3362
▁desired	-3363
▁furnace	-3364
▁learned	-3365
▁plagues	-3366
▁planted	-3367
▁gracious	-3368
▁increase	-3369
▁likewise	-3370
▁opposite	-3371
▁unjustly	-3372
▁rejoicing	-3373
;'	-3374
aal	-3375
ael	-3376
ley	-3377
▁Pl	-3378
Most	-3379
alon	-3380
emin	-3381
erty	-3382
onia	-3383
reth	-3384
secr	-3385
▁Ele	-3386
▁Our	-3387
▁Par	-3388
▁Pra	-3389
▁dog	-3390
▁fly	-3391
▁nin	-3392
▁sim	-3393
▁tit	-3394
arrow	-3395
▁Only	-3396
▁acqu	-3397
▁cave	-3398
▁cent	-3399
▁crow	-3400
▁dise	-3401
▁dism	-3402
▁eats	-3403
▁incl	-3404
▁orac	-3405
▁sits	-3406
▁weap	-3407
spring	-3408
▁Apost	-3409
▁Chett	-3410
▁Damas	-3411
▁Speak	-3412
▁ashes	-3413
▁asses	-3414
▁drawn	-3415
▁dried	-3416
▁goods	-3417
▁shine	-3418
▁smell	-3419
▁speed	-3420
▁walls	-3421
▁Gospel	-3422
▁Nathan	-3423
▁bought	-3424
▁burned	-3425
▁course	-3426
▁divide	-3427
▁enough	-3428
▁graven	-3429
▁helped	-3430
▁images	-3431
▁length	-3432
▁placed	-3433
▁rebuke	-3434
▁sexual	-3435
▁threat	-3436
▁widows	-3437
▁Rejoice	-3438
▁Samaria	-3439
▁clothes	-3440
▁consecr	-3441
▁drunken	-3442
▁general	-3443
▁mention	-3444
▁reigned	-3445
▁subject	-3446
▁trusted	-3447
▁vessels	-3448
▁whither	-3449
▁holiness	-3450
▁memorial	-3451
▁perverse	-3452
▁redeemed	-3453
▁troubles	-3454
▁weakness	-3455
▁whenever	-3456
▁overthrow	-3457
▁persecute	-3458
▁instructed	-3459
▁prosperity	-3460
▁uncleanness	-3461
▁transgressor	-3462
▁transgressions	-3463
vi	-3464
▁z	-3465
eps	-3466
sha	-3467
whi	-3468
▁(?	-3469
▁Az	-3470
Come	-3471
alks	-3472
chor	-3473
dume	-3474
held	-3475
most	-3476
osor	-3477
ross	-3478
vere	-3479
▁Art	-3480
▁Bet	-3481
▁Naz	-3482
▁Say	-3483
arted	-3484
place	-3485
▁Booz	-3486
▁Tyre	-3487
▁Whom	-3488
▁blot	-3489
▁case	-3490
▁conc	-3491
▁hurt	-3492
▁lack	-3493
▁quen	-3494
▁ruin	-3495
▁trav	-3496
giving	-3497
ifully	-3498
overed	-3499
ttered	-3500
▁Idume	-3501
▁Jebus	-3502
▁Syria	-3503
▁abide	-3504
▁dealt	-3505
▁desir	-3506
▁falls	-3507
▁grain	-3508
▁large	-3509
▁price	-3510
▁state	-3511
▁thres	-3512
▁yield	-3513
▁barley	-3514
▁barren	-3515
▁causes	-3516
▁cleans	-3517
▁consci	-3518
▁harlot	-3519
▁health	-3520
▁inside	-3521
▁sprink	-3522
▁whence	-3523
▁fasting	-3524
▁humbled	-3525
▁perhaps	-3526
▁teacher	-3527
▁Damascus	-3528
▁advanced	-3529
▁hardened	-3530
▁jealousy	-3531
▁sickness	-3532
▁excellent	-3533
▁inhabited	-3534
▁offspring	-3535
▁bridegroom	-3536
▁understood	-3537
▁abominations	-3538
ix	-3539
don	-3540
fru	-3541
char	-3542
hest	-3543
inks	-3544
irac	-3545
leep	-3546
sing	-3547
▁Lab	-3548
▁Tim	-3549
▁ext	-3550
▁fet	-3551
ables	-3552
adise	-3553
ining	-3554
iting	-3555
urely	-3556
▁Anti	-3557
▁Chus	-3558
▁Ethi	-3559
▁Geth	-3560
▁bask	-3561
▁braz	-3562
▁edge	-3563
▁fain	-3564
▁feel	-3565
▁virt	-3566
stance	-3567
▁Amnon	-3568
▁Gabaa	-3569
▁Judge	-3570
▁Maced	-3571
▁Masse	-3572
▁added	-3573
▁lusts	-3574
▁steal	-3575
▁tower	-3576
▁tread	-3577
▁walks	-3578
▁attack	-3579
▁clothe	-3580
▁finger	-3581
▁giving	-3582
▁latter	-3583
▁lawful	-3584
▁minist	-3585
▁resist	-3586
▁baptism	-3587
▁instead	-3588
▁lawless	-3589
▁peoples	-3590
▁stumble	-3591
▁uncover	-3592
▁uttered	-3593
▁disgrace	-3594
▁distance	-3595
▁greatest	-3596
▁instruct	-3597
▁minister	-3598
▁possible	-3599
▁sanctify	-3600
▁conceived	-3601
▁earnestly	-3602
▁greatness	-3603
▁inherited	-3604
▁reverence	-3605
▁spiritual	-3606
▁whosoever	-3607
▁conscience	-3608
▁immorality	-3609
▁overthrown	-3610
▁remembrance	-3611
▁transgressed	-3612
But	-3613
For	-3614
ctr	-3615
har	-3616
phi	-3617
ppa	-3618
rer	-3619
▁Ap	-3620
▁cu	-3621
▁pi	-3622
ands	-3623
hand	-3624
head	-3625
ulon	-3626
utes	-3627
▁Cho	-3628
▁Ese	-3629
▁Sea	-3630
▁Yea	-3631
▁sad	-3632
▁tid	-3633
▁unb	-3634
▁woe	-3635
▁Edom	-3636
▁Send	-3637
▁aven	-3638
▁bury	-3639
▁forn	-3640
▁lame	-3641
▁mock	-3642
▁faint	-3643
▁fully	-3644
▁laugh	-3645
▁relie	-3646
▁scorn	-3647
▁slumb	-3648
▁swift	-3649
▁withd	-3650
▁Achito	-3651
▁Esebon	-3652
▁Idumea	-3653
▁brazen	-3654
▁concub	-3655
▁counse	-3656
▁hasted	-3657
▁height	-3658
▁joined	-3659
▁reject	-3660
▁sealed	-3661
▁Deliver	-3662
▁However	-3663
▁healing	-3664
▁reached	-3665
▁rebuked	-3666
▁reprove	-3667
▁tidings	-3668
▁deserted	-3669
▁heavenly	-3670
▁likeness	-3671
▁meditate	-3672
▁obtained	-3673
▁overcome	-3674
▁terrible	-3675
▁Macedonia	-3676
▁dishonour	-3677
▁preaching	-3678
▁preserved	-3679
▁substance	-3680
▁abundantly	-3681
▁persecuted	-3682
▁worshipped	-3683
▁afflictions	-3684
▁accomplished	-3685
go	-3686
ING	-3687
ORD	-3688
ade	-3689
een	-3690
hys	-3691
rib	-3692
tic	-3693
▁Ph	-3694
They	-3695
When	-3696
ably	-3697
ault	-3698
ayed	-3699
othy	-3700
rest	-3701
▁Acc	-3702
▁Are	-3703
▁Day	-3704
▁Mac	-3705
▁amb	-3706
▁anx	-3707
▁bri	-3708
▁enl	-3709
▁kne	-3710
▁loc	-3711
▁mom	-3712
▁pow	-3713
▁rev	-3714
▁sta	-3715
▁try	-3716
cient	-3717
ening	-3718
ician	-3719
ifies	-3720
ishes	-3721
▁Baal	-3722
▁Look	-3723
▁Rise	-3724
▁Seon	-3725
▁carc	-3726
▁clay	-3727
▁deny	-3728
▁rent	-3729
▁room	-3730
▁sett	-3731
▁wont	-3732
ection	-3733
isance	-3734
rother	-3735
▁Grace	-3736
▁Other	-3737
▁doctr	-3738
▁fifth	-3739
▁lodge	-3740
▁marri	-3741
▁prote	-3742
▁repay	-3743
▁slept	-3744
▁worse	-3745
▁yours	-3746
▁Baruch	-3747
▁Caesar	-3748
▁Carmel	-3749
▁Isaiah	-3750
▁Noemin	-3751
▁asleep	-3752
▁change	-3753
▁coasts	-3754
▁moment	-3755
▁morrow	-3756
▁perpet	-3757
▁Eleazar	-3758
▁Galgala	-3759
▁Timothy	-3760
▁bearing	-3761
▁members	-3762
▁produce	-3763
▁virgins	-3764
▁weapons	-3765
▁workers	-3766
▁Paradise	-3767
▁Passover	-3768
▁boldness	-3769
▁petition	-3770
▁speedily	-3771
▁surround	-3772
▁companion	-3773
▁condemned	-3774
▁falsehood	-3775
▁messenger	-3776
▁persuaded	-3777
▁shoulders	-3778
▁steadfast	-3779
▁worshiped	-3780
▁bitterness	-3781
▁desolation	-3782
▁circumcised	-3783
ND	-3784
do	-3785
mar	-3786
ofs	-3787
rha	-3788
ung	-3789
▁Cy	-3790
akes	-3791
chem	-3792
chus	-3793
heth	-3794
mand	-3795
rees	-3796
rosy	-3797
ruck	-3798
▁Bel	-3799
▁Mag	-3800
▁Mar	-3801
▁Ner	-3802
▁Red	-3803
▁Sil	-3804
▁ali	-3805
▁hen	-3806
▁kid	-3807
▁nob	-3808
▁var	-3809
▁vow	-3810
ansom	-3811
asing	-3812
epart	-3813
olias	-3814
ually	-3815
wever	-3816
▁Nabu	-3817
▁gent	-3818
▁heap	-3819
▁ming	-3820
▁noon	-3821
▁quar	-3822
▁rebe	-3823
▁roll	-3824
abulon	-3825
▁Apoll	-3826
▁Jonas	-3827
▁Laban	-3828
▁allow	-3829
▁bowed	-3830
▁contr	-3831
▁hadst	-3832
▁loins	-3833
▁lowly	-3834
▁ships	-3835
▁sixty	-3836
▁turns	-3837
▁weary	-3838
justice	-3839
▁Praise	-3840
▁Savior	-3841
▁Though	-3842
▁beside	-3843
▁haught	-3844
▁mortal	-3845
▁nights	-3846
▁permit	-3847
▁ransom	-3848
▁rested	-3849
▁tender	-3850
▁tribul	-3851
▁Antioch	-3852
▁becomes	-3853
▁contend	-3854
▁entreat	-3855
▁fulfill	-3856
▁however	-3857
▁leprosy	-3858
▁passing	-3859
▁persons	-3860
▁pillars	-3861
▁prevail	-3862
▁prudent	-3863
▁scarlet	-3864
▁watched	-3865
▁Godolias	-3866
▁Nazareth	-3867
▁Sedekias	-3868
▁counsels	-3869
▁enquired	-3870
▁fullness	-3871
▁humility	-3872
▁officers	-3873
▁overtake	-3874
▁stronger	-3875
▁injustice	-3876
▁judgement	-3877
▁miserable	-3878
▁obeisance	-3879
▁proclaimed	-3880
▁synagogues	-3881
mn	-3882
su	-3883
ETH	-3884
God	-3885
act	-3886
app	-3887
ils	-3888
ium	-3889
ura	-3890
▁Ev	-3891
▁Ge	-3892
eace	-3893
mers	-3894
oted	-3895
peci	-3896
phes	-3897
rent	-3898
roat	-3899
uish	-3900
uous	-3901
▁Gaz	-3902
▁Ger	-3903
▁Mem	-3904
▁Sis	-3905
▁boy	-3906
▁enj	-3907
▁isl	-3908
▁mal	-3909
▁net	-3910
▁ste	-3911
▁Elis	-3912
▁Ruth	-3913
▁alar	-3914
▁arms	-3915
▁dawn	-3916
▁debt	-3917
▁dies	-3918
▁goat	-3919
▁imag	-3920
▁lend	-3921
▁meek	-3922
▁race	-3923
▁snow	-3924
▁star	-3925
▁suck	-3926
▁trad	-3927
itable	-3928
itions	-3929
urance	-3930
▁Nabal	-3931
▁ascri	-3932
▁awake	-3933
▁black	-3934
▁canst	-3935
▁coals	-3936
▁covet	-3937
▁error	-3938
▁goest	-3939
▁haste	-3940
▁labor	-3941
▁mirac	-3942
▁rocks	-3943
▁swore	-3944
▁thick	-3945
ourable	-3946
▁Baeths	-3947
▁Chaleb	-3948
▁camels	-3949
▁cleave	-3950
▁defile	-3951
▁direct	-3952
▁dragon	-3953
▁driven	-3954
▁either	-3955
▁locust	-3956
▁lodged	-3957
▁office	-3958
▁safety	-3959
▁severe	-3960
▁snares	-3961
▁throat	-3962
▁thrust	-3963
▁wander	-3964
pecially	-3965
▁Michael	-3966
▁Nephtha	-3967
▁ancient	-3968
▁centuri	-3969
▁complet	-3970
▁invited	-3971
▁knoweth	-3972
▁masters	-3973
▁matters	-3974
▁mystery	-3975
▁praised	-3976
▁sayings	-3977
▁soldier	-3978
▁spoiled	-3979
▁tempted	-3980
▁torment	-3981
▁drinking	-3982
▁marriage	-3983
▁marveled	-3984
▁occasion	-3985
▁passover	-3986
▁punished	-3987
▁assembled	-3988
▁deceitful	-3989
▁sorrowful	-3990
▁trembling	-3991
▁commanding	-3992
▁fellowship	-3993
▁neighbours	-3994
▁temptation	-3995
▁ungodliness	-3996
bl	-3997
Yes	-3998
ody	-3999
ory	-4000
reb	-4001
uia	-4002
▁ep	-4003
aket	-4004
ater	-4005
enth	-4006
esty	-4007
hite	-4008
odom	-4009
ored	-4010
▁Ael	-4011
▁Hel	-4012
▁ced	-4013
▁eng	-4014
▁eun	-4015
▁got	-4016
▁gre	-4017
▁hun	-4018
▁plu	-4019
▁pot	-4020
▁tal	-4021
▁wol	-4022
ately	-4023
ester	-4024
kened	-4025
press	-4026
▁Aser	-4027
▁alms	-4028
▁blem	-4029
▁expl	-4030
▁hell	-4031
▁hire	-4032
▁hymn	-4033
▁kiss	-4034
▁lose	-4035
▁oint	-4036
▁poll	-4037
▁post	-4038
▁prey	-4039
▁sear	-4040
▁vows	-4041
▁week	-4042
aketas	-4043
astery	-4044
fruits	-4045
▁Chusi	-4046
▁Great	-4047
▁Jabis	-4048
▁Mount	-4049
▁Sodom	-4050
▁aband	-4051
▁borne	-4052
▁enjoy	-4053
▁grown	-4054
▁guilt	-4055
▁lambs	-4056
▁lords	-4057
▁prove	-4058
▁recon	-4059
▁staff	-4060
▁value	-4061
▁winds	-4062
▁wroth	-4063
Blessed	-4064
Teacher	-4065
▁Ethiop	-4066
▁Sisara	-4067
▁Sychem	-4068
▁beware	-4069
▁eunuch	-4070
▁grapes	-4071
▁infirm	-4072
▁interp	-4073
▁leaves	-4074
▁purple	-4075
▁summon	-4076
▁Baethel	-4077
▁animals	-4078
▁collect	-4079
▁consent	-4080
▁crushed	-4081
▁dressed	-4082
▁endured	-4083
▁enquire	-4084
▁mercies	-4085
▁prophes	-4086
▁provoke	-4087
▁someone	-4088
▁travail	-4089
▁working	-4090
▁Chettite	-4091
▁Plaketas	-4092
▁boasting	-4093
▁careless	-4094
▁contrary	-4095
▁covering	-4096
▁doctrine	-4097
▁dwellers	-4098
▁kingdoms	-4099
▁language	-4100
▁purified	-4101
▁question	-4102
▁withered	-4103
▁wouldest	-4104
▁attention	-4105
▁belonging	-4106
▁godliness	-4107
▁perpetual	-4108
▁pronounce	-4109
▁vineyards	-4110
▁especially	-4111
▁sacrificed	-4112
▁uncircumcised	-4113
di	-4114
wo	-4115
ze	-4116
aly	-4117
ash	-4118
gar	-4119
hop	-4120
zed	-4121
▁Og	-4122
▁Ra	-4123
▁ev	-4124
▁ma	-4125
ards	-4126
atch	-4127
aved	-4128
eman	-4129
erce	-4130
lter	-4131
meon	-4132
phat	-4133
rain	-4134
rite	-4135
▁(?)	-4136
▁Pre	-4137
▁Set	-4138
▁cit	-4139
▁cri	-4140
▁eas	-4141
▁fur	-4142
▁lad	-4143
▁orn	-4144
herez	-4145
ishop	-4146
stone	-4147
which	-4148
▁Nine	-4149
▁Sina	-4150
▁Tham	-4151
▁abst	-4152
▁affe	-4153
▁cold	-4154
▁dang	-4155
▁dove	-4156
▁dung	-4157
▁fort	-4158
▁hang	-4159
▁lots	-4160
▁melt	-4161
▁palm	-4162
▁pest	-4163
▁rams	-4164
▁reck	-4165
athaim	-4166
azarus	-4167
teenth	-4168
▁Barac	-4169
▁Count	-4170
▁Ephes	-4171
▁Since	-4172
▁calam	-4173
▁cubit	-4174
▁fault	-4175
▁flood	-4176
▁force	-4177
▁heavy	-4178
▁hence	-4179
▁herds	-4180
▁lions	-4181
▁looks	-4182
▁mirth	-4183
▁noble	-4184
▁pains	-4185
▁piece	-4186
▁steps	-4187
▁thund	-4188
▁today	-4189
▁vowed	-4190
▁wages	-4191
ffering	-4192
hearted	-4193
rothers	-4194
vantage	-4195
▁Anchus	-4196
▁Daniel	-4197
▁Levite	-4198
▁Pherez	-4199
▁Prophe	-4200
▁anoint	-4201
▁boldly	-4202
▁expect	-4203
▁fierce	-4204
▁flower	-4205
▁forest	-4206
▁indign	-4207
▁inward	-4208
▁middle	-4209
▁obtain	-4210
▁powers	-4211
▁provok	-4212
▁purity	-4213
▁render	-4214
▁rescue	-4215
▁reveal	-4216
▁scribe	-4217
▁sinful	-4218
▁struck	-4219
▁swords	-4220
▁talent	-4221
▁talked	-4222
esterday	-4223
▁appoint	-4224
▁blemish	-4225
▁calling	-4226
▁message	-4227
▁officer	-4228
▁rescued	-4229
▁sojourn	-4230
▁talking	-4231
▁visited	-4232
▁Michaias	-4233
▁business	-4234
▁complete	-4235
▁creation	-4236
▁despised	-4237
▁measures	-4238
▁obedient	-4239
▁ornament	-4240
▁serpents	-4241
▁violence	-4242
▁Nephthali	-4243
▁advantage	-4244
▁affection	-4245
▁fountains	-4246
▁northward	-4247
▁obedience	-4248
▁patiently	-4249
▁southward	-4250
▁completely	-4251
▁subjection	-4252
▁disobedience	-4253
▁thanksgiving	-4254
IS	-4255
Now	-4256
Woe	-4257
hod	-4258
ick	-4259
ila	-4260
wor	-4261
▁ap	-4262
amed	-4263
angs	-4264
fold	-4265
ilty	-4266
irst	-4267
kind	-4268
lict	-4269
mael	-4270
phel	-4271
rial	-4272
▁Ang	-4273
▁Nau	-4274
▁Noe	-4275
▁Out	-4276
▁Per	-4277
▁Rac	-4278
▁clo	-4279
▁dig	-4280
▁fed	-4281
▁hed	-4282
▁maj	-4283
▁pen	-4284
▁pub	-4285
▁shi	-4286
▁tar	-4287
akers	-4288
erers	-4289
erily	-4290
ffect	-4291
ising	-4292
ortun	-4293
▁Acha	-4294
▁Asia	-4295
▁Ephr	-4296
▁Pray	-4297
▁Seir	-4298
▁Wilt	-4299
▁envy	-4300
▁phys	-4301
▁priv	-4302
▁robe	-4303
▁scor	-4304
▁stub	-4305
▁tail	-4306
bearer	-4307
chodon	-4308
ission	-4309
▁abhor	-4310
▁besie	-4311
▁burst	-4312
▁craft	-4313
▁divor	-4314
▁eagle	-4315
▁exact	-4316
▁exerc	-4317
▁lofty	-4318
▁pangs	-4319
▁relat	-4320
▁renew	-4321
▁sakes	-4322
▁shake	-4323
▁sixth	-4324
▁sworn	-4325
▁taste	-4326
▁waves	-4327
ossible	-4328
▁Apollo	-4329
▁Before	-4330
▁Greeks	-4331
▁Ismael	-4332
▁Nineve	-4333
▁Rachel	-4334
▁Symeon	-4335
▁burial	-4336
▁chains	-4337
▁chiefs	-4338
▁conver	-4339
▁danger	-4340
▁grieve	-4341
▁murder	-4342
▁quarre	-4343
▁refres	-4344
▁refuse	-4345
▁shield	-4346
▁stands	-4347
▁suffic	-4348
ortunity	-4349
▁Hebrews	-4350
▁Himself	-4351
▁chariot	-4352
▁devices	-4353
▁disobey	-4354
▁dispers	-4355
▁falling	-4356
▁keeping	-4357
▁kindred	-4358
▁leaders	-4359
▁mingled	-4360
▁mourned	-4361
▁scourge	-4362
▁silence	-4363
▁support	-4364
▁swallow	-4365
▁thereby	-4366
▁torture	-4367
suffering	-4368
▁cleansed	-4369
▁darkened	-4370
▁groaning	-4371
▁neighbor	-4372
▁parables	-4373
▁westward	-4374
chodonosor	-4375
▁centurion	-4376
▁magnified	-4377
▁threshing	-4378
▁Achitophel	-4379
▁Chananites	-4380
▁hypocrites	-4381
▁impossible	-4382
▁mercifully	-4383
▁prophesied	-4384
▁bondservant	-4385
▁Nabuchodonosor	-4386
,)	-4387
No	-4388
my	-4389
Are	-4390
com	-4391
eks	-4392
eme	-4393
fer	-4394
iba	-4395
irt	-4396
ode	-4397
pul	-4398
▁Ex	-4399
▁Of	-4400
agon	-4401
amys	-4402
chol	-4403
ding	-4404
eech	-4405
ency	-4406
ests	-4407
gran	-4408
phib	-4409
rach	-4410
ssed	-4411
tree	-4412
▁Get	-4413
▁air	-4414
▁bal	-4415
▁fit	-4416
▁iss	-4417
▁sav	-4418
▁sli	-4419
▁unp	-4420
▁wax	-4421
▁win	-4422
▁wra	-4423
achar	-4424
arest	-4425
eping	-4426
eries	-4427
isdom	-4428
odden	-4429
ourse	-4430
raced	-4431
▁Draw	-4432
▁Joan	-4433
▁Lift	-4434
▁Mine	-4435
▁Naue	-4436
▁Seek	-4437
▁Tell	-4438
▁figs	-4439
▁fold	-4440
▁less	-4441
▁loss	-4442
▁mean	-4443
▁mist	-4444
▁move	-4445
▁pome	-4446
▁pull	-4447
▁rept	-4448
▁scur	-4449
▁wasn	-4450
idered	-4451
isions	-4452
▁Arnon	-4453
▁Manoe	-4454
▁Right	-4455
▁abode	-4456
▁calls	-4457
▁cloak	-4458
▁crowd	-4459
▁doeth	-4460
▁event	-4461
▁fears	-4462
▁maint	-4463
▁manna	-4464
▁refus	-4465
▁revil	-4466
▁sides	-4467
▁spent	-4468
▁upper	-4469
▁worth	-4470
▁Abessa	-4471
▁Others	-4472
▁Saruia	-4473
▁arrows	-4474
▁ascend	-4475
▁beheld	-4476
▁bishop	-4477
▁calves	-4478
▁denied	-4479
▁depths	-4480
▁dreams	-4481
▁effect	-4482
▁flying	-4483
▁guilty	-4484
▁hatred	-4485
▁insult	-4486
▁loving	-4487
▁offend	-4488
▁openly	-4489
▁passes	-4490
▁perple	-4491
▁pestil	-4492
▁proved	-4493
▁purcha	-4494
▁voices	-4495
servants	-4496
▁Lazarus	-4497
▁Memphib	-4498
▁Thaeman	-4499
▁anxious	-4500
▁belongs	-4501
▁beseech	-4502
▁crooked	-4503
▁earthqu	-4504
▁founded	-4505
▁married	-4506
▁profane	-4507
▁shelter	-4508
▁stirred	-4509
▁stripes	-4510
▁turning	-4511
▁various	-4512
▁whereon	-4513
▁Jebosthe	-4514
▁accepted	-4515
▁creature	-4516
▁entering	-4517
▁pomegran	-4518
▁proceeds	-4519
▁restored	-4520
▁carefully	-4521
▁gathering	-4522
▁monastery	-4523
▁necessary	-4524
▁performed	-4525
▁beforehand	-4526
▁companions	-4527
▁corruption	-4528
▁distressed	-4529
▁honourable	-4530
▁oppression	-4531
▁priesthood	-4532
▁recognized	-4533
▁opportunity	-4534
▁Memphibosthe	-4535
CH	-4536
In	-4537
Is	-4538
air	-4539
aph	-4540
bar	-4541
bly	-4542
hir	-4543
hol	-4544
ima	-4545
tle	-4546
ugg	-4547
▁Na	-4548
▁ax	-4549
▁ur	-4550
abee	-4551
aeas	-4552
aias	-4553
ambo	-4554
area	-4555
athe	-4556
four	-4557
itus	-4558
more	-4559
olis	-4560
wers	-4561
▁AND	-4562
▁Jez	-4563
▁Mis	-4564
▁ago	-4565
▁ben	-4566
▁bru	-4567
▁dim	-4568
▁err	-4569
▁exc	-4570
▁fem	-4571
▁fle	-4572
▁fre	-4573
▁mor	-4574
▁sen	-4575
asses	-4576
inees	-4577
night	-4578
ollow	-4579
oring	-4580
ossom	-4581
uting	-4582
▁Also	-4583
▁Bapt	-4584
▁Beel	-4585
▁Siba	-4586
▁Sing	-4587
▁asks	-4588
▁bare	-4589
▁bott	-4590
▁gnas	-4591
▁inte	-4592
▁legs	-4593
▁mill	-4594
▁moth	-4595
▁proc	-4596
▁tear	-4597
▁thor	-4598
▁trib	-4599
▁valu	-4600
iathar	-4601
oughly	-4602
▁Judah	-4603
▁Pambo	-4604
▁Rapha	-4605
▁Selom	-4606
▁Whoso	-4607
▁aloud	-4608
▁citiz	-4609
▁doest	-4610
▁equal	-4611
▁freed	-4612
▁glean	-4613
▁grape	-4614
▁knees	-4615
▁ninth	-4616
▁noise	-4617
▁owner	-4618
▁seest	-4619
▁shewn	-4620
▁slugg	-4621
▁thank	-4622
emption	-4623
ersabee	-4624
fulness	-4625
▁Esaias	-4626
▁Wisdom	-4627
▁accuse	-4628
▁basket	-4629
▁consol	-4630
▁couldn	-4631
▁cubits	-4632
▁eighth	-4633
▁female	-4634
▁footst	-4635
▁girded	-4636
▁girdle	-4637
▁inform	-4638
▁marvel	-4639
▁mocked	-4640
▁nobles	-4641
▁orders	-4642
▁paraly	-4643
▁plough	-4644
▁rebell	-4645
▁ruined	-4646
▁seemed	-4647
▁seemly	-4648
▁supper	-4649
▁termin	-4650
▁trusts	-4651
▁unbeli	-4652
▁worked	-4653
ensation	-4654
▁Melchol	-4655
▁Phinees	-4656
▁anguish	-4657
▁blossom	-4658
▁burdens	-4659
▁commend	-4660
▁deceive	-4661
▁falsely	-4662
▁flowing	-4663
▁majesty	-4664
▁passion	-4665
▁slumber	-4666
▁sounded	-4667
▁sparrow	-4668
▁steward	-4669
▁whereby	-4670
▁Caesarea	-4671
▁Jebusite	-4672
▁accursed	-4673
▁carcases	-4674
▁counsell	-4675
▁kindness	-4676
▁observed	-4677
▁ointment	-4678
▁ordained	-4679
▁promised	-4680
▁vanities	-4681
▁accounted	-4682
▁endurance	-4683
▁guiltless	-4684
▁offerings	-4685
▁terrified	-4686
▁collectors	-4687
▁meditation	-4688
▁redemption	-4689
▁reproached	-4690
▁sufficient	-4691
▁thoroughly	-4692
▁adversaries	-4693
▁fornication	-4694
▁transgression	-4695
AS	-4696
AY	-4697
ED	-4698
EN	-4699
AIN	-4700
aia	-4701
cca	-4702
fts	-4703
hur	-4704
lig	-4705
ool	-4706
▁Di	-4707
▁Ly	-4708
▁Pr	-4709
Your	-4710
aged	-4711
airs	-4712
arim	-4713
five	-4714
iant	-4715
ords	-4716
rate	-4717
▁Ber	-4718
▁Cap	-4719
▁Iss	-4720
▁Pho	-4721
▁Sic	-4722
▁deg	-4723
▁fee	-4724
▁fil	-4725
▁hig	-4726
▁hom	-4727
▁hot	-4728
▁por	-4729
▁rob	-4730
anias	-4731
ating	-4732
ereth	-4733
henna	-4734
ighed	-4735
ously	-4736
oward	-4737
▁Dost	-4738
▁Here	-4739
▁Matt	-4740
▁Merc	-4741
▁bars	-4742
▁bene	-4743
▁bent	-4744
▁cell	-4745
▁chur	-4746
▁forb	-4747
▁frog	-4748
▁fury	-4749
▁hind	-4750
▁inqu	-4751
▁safe	-4752
▁slow	-4753
▁temp	-4754
▁town	-4755
▁unse	-4756
advent	-4757
iation	-4758
leness	-4759
seless	-4760
▁Being	-4761
▁adorn	-4762
▁bears	-4763
▁begot	-4764
▁begun	-4765
▁cakes	-4766
▁chaff	-4767
▁clust	-4768
▁const	-4769
▁delay	-4770
▁diffe	-4771
▁drove	-4772
▁ephod	-4773
▁fixed	-4774
▁green	-4775
▁haven	-4776
▁issue	-4777
▁leads	-4778
▁opens	-4779
▁press	-4780
▁revel	-4781
▁sober	-4782
▁sorry	-4783
▁trial	-4784
▁warri	-4785
▁Better	-4786
▁Depart	-4787
▁Joanan	-4788
▁Sicima	-4789
▁Themar	-4790
▁altars	-4791
▁corner	-4792
▁disapp	-4793
▁giveth	-4794
▁harden	-4795
▁market	-4796
▁mouths	-4797
▁plains	-4798
▁psalms	-4799
▁sailed	-4800
▁signal	-4801
▁simple	-4802
▁spared	-4803
▁swears	-4804
▁wished	-4805
▁Ephesus	-4806
▁Gehenna	-4807
▁alarmed	-4808
▁apostle	-4809
▁beneath	-4810
▁careful	-4811
▁devised	-4812
▁example	-4813
▁further	-4814
▁granted	-4815
▁merchan	-4816
▁offence	-4817
▁pasture	-4818
▁prevent	-4819
▁rightly	-4820
▁thrones	-4821
▁touches	-4822
▁valiant	-4823
adventure	-4824
▁Egyptian	-4825
▁approach	-4826
▁building	-4827
▁captives	-4828
▁compared	-4829
▁destroys	-4830
▁diligent	-4831
▁fastened	-4832
▁flourish	-4833
▁horsemen	-4834
▁ignorant	-4835
▁informed	-4836
▁murmured	-4837
▁promises	-4838
▁property	-4839
▁prophecy	-4840
▁purposed	-4841
▁wickedly	-4842
▁concubine	-4843
▁partakers	-4844
▁possessed	-4845
▁separated	-4846
▁swallowed	-4847
▁yesterday	-4848
▁earthquake	-4849
▁fatherless	-4850
▁grievously	-4851
▁consecrated	-4852
▁deliverance	-4853
ES	-4854
To	-4855
rr	-4856
AME	-4857
And	-4858
Get	-4859
aum	-4860
cam	-4861
gin	-4862
iff	-4863
tes	-4864
▁IN	-4865
▁Lo	-4866
Have	-4867
cher	-4868
erry	-4869
icia	-4870
ieth	-4871
ific	-4872
izer	-4873
nded	-4874
sent	-4875
shad	-4876
▁Arm	-4877
▁Aro	-4878
▁Asc	-4879
▁Bal	-4880
▁Dab	-4881
▁Law	-4882
▁Lot	-4883
▁Phy	-4884
▁Put	-4885
▁Rab	-4886
▁Tob	-4887
▁dug	-4888
▁lib	-4889
▁ver	-4890
arius	-4891
eturn	-4892
house	-4893
iding	-4894
igaia	-4895
itude	-4896
lives	-4897
oclet	-4898
othor	-4899
phath	-4900
usion	-4901
▁Anna	-4902
▁Asor	-4903
▁Azot	-4904
▁Book	-4905
▁Gaza	-4906
▁Rama	-4907
▁WORD	-4908
▁aren	-4909
▁cher	-4910
▁deaf	-4911
▁liar	-4912
▁line	-4913
▁meas	-4914
▁nine	-4915
▁pard	-4916
▁puts	-4917
▁rage	-4918
▁reed	-4919
▁robb	-4920
▁seas	-4921
▁shek	-4922
▁sigh	-4923
▁stro	-4924
▁unin	-4925
▁void	-4926
▁zeal	-4927
ernaum	-4928
gement	-4929
orrupt	-4930
though	-4931
▁Amess	-4932
▁Bless	-4933
▁Cross	-4934
▁Greek	-4935
▁Jonah	-4936
▁Thine	-4937
▁admon	-4938
▁ambus	-4939
▁armed	-4940
▁aston	-4941
▁bands	-4942
▁banqu	-4943
▁benef	-4944
▁favor	-4945
▁hedge	-4946
▁hired	-4947
▁minds	-4948
▁outer	-4949
▁purif	-4950
▁pursu	-4951
▁reach	-4952
▁scurf	-4953
▁seems	-4954
▁shoot	-4955
▁tombs	-4956
▁treat	-4957
▁wants	-4958
▁Choreb	-4959
▁Joakim	-4960
▁Jothor	-4961
▁Seeing	-4962
▁armies	-4963
▁arrive	-4964
▁asking	-4965
▁courts	-4966
▁discer	-4967
▁distur	-4968
▁feeble	-4969
▁gentle	-4970
▁lovers	-4971
▁loveth	-4972
▁misery	-4973
▁nature	-4974
▁rising	-4975
▁saidst	-4976
▁savour	-4977
▁sayest	-4978
▁sickle	-4979
▁stoned	-4980
▁stream	-4981
▁strike	-4982
▁summer	-4983
▁wheels	-4984
▁window	-4985
▁wounds	-4986
acharias	-4987
ocletian	-4988
▁Abigaia	-4989
▁Another	-4990
▁Apostle	-4991
▁Ascalon	-4992
▁abstain	-4993
▁allowed	-4994
▁charges	-4995
▁execute	-4996
▁foreign	-4997
▁incline	-4998
▁inflict	-4999
▁letters	-5000
▁mounted	-5001
▁oracles	-5002
▁orphans	-5003
▁quicken	-5004
▁running	-5005
▁tongues	-5006
▁trodden	-5007
▁waiting	-5008
▁weighed	-5009
▁wrapped	-5010
▁Abiathar	-5011
▁Baptizer	-5012
▁Bersabee	-5013
▁Massepha	-5014
▁approved	-5015
▁desiring	-5016
▁laboured	-5017
▁miracles	-5018
▁prisoner	-5019
▁prudence	-5020
▁reptiles	-5021
▁sentence	-5022
▁shoulder	-5023
▁summoned	-5024
▁trumpets	-5025
▁wondered	-5026
▁worshipp	-5027
▁Capernaum	-5028
▁Righteous	-5029
▁confusion	-5030
▁countries	-5031
▁dispersed	-5032
▁entreated	-5033
▁incorrupt	-5034
▁prisoners	-5035
▁provoking	-5036
▁sojourned	-5037
▁withstand	-5038
▁Baethsamys	-5039
▁Diocletian	-5040
▁abominable	-5041
▁exultation	-5042
▁lamentation	-5043
▁tabernacles	-5044
▁uncircumcision	-5045
..	-5046
HA	-5047
PH	-5048
ba	-5049
fl	-5050
sk	-5051
lam	-5052
pri	-5053
rrh	-5054
yal	-5055
▁Oz	-5056
▁WH	-5057
Thou	-5058
abbi	-5059
cees	-5060
cent	-5061
chab	-5062
eila	-5063
elie	-5064
from	-5065
ghed	-5066
mind	-5067
ners	-5068
omor	-5069
rive	-5070
stri	-5071
tery	-5072
that	-5073
this	-5074
time	-5075
uphr	-5076
upon	-5077
▁Aod	-5078
▁Ast	-5079
▁Can	-5080
▁Dal	-5081
▁Ram	-5082
▁ack	-5083
▁ann	-5084
▁cou	-5085
▁flo	-5086
▁rav	-5087
▁shr	-5088
▁sol	-5089
▁tas	-5090
after	-5091
agger	-5092
becca	-5093
block	-5094
erous	-5095
estus	-5096
icate	-5097
itute	-5098
nings	-5099
oming	-5100
ompan	-5101
trees	-5102
urity	-5103
wards	-5104
where	-5105
▁Chel	-5106
▁Cons	-5107
▁Lest	-5108
▁Magd	-5109
▁Noah	-5110
▁Word	-5111
▁betr	-5112
▁cens	-5113
▁deed	-5114
▁diff	-5115
▁gall	-5116
▁heif	-5117
▁herb	-5118
▁idle	-5119
▁meal	-5120
▁sown	-5121
▁wide	-5122
ducees	-5123
iously	-5124
retion	-5125
▁Aroer	-5126
▁Euphr	-5127
▁First	-5128
▁Peace	-5129
▁Stand	-5130
▁Titus	-5131
▁dying	-5132
▁frogs	-5133
▁goeth	-5134
▁hasty	-5135
▁herit	-5136
▁holes	-5137
▁inner	-5138
▁insol	-5139
▁lower	-5140
▁purge	-5141
▁royal	-5142
▁sends	-5143
▁share	-5144
▁shout	-5145
▁slave	-5146
▁twice	-5147
retched	-5148
▁Azotus	-5149
▁Elipha	-5150
▁Festus	-5151
▁Machir	-5152
▁Martha	-5153
▁Return	-5154
▁Surely	-5155
▁acknow	-5156
▁behavi	-5157
▁contra	-5158
▁eighty	-5159
▁entang	-5160
▁estate	-5161
▁fasted	-5162
▁forbid	-5163
▁kindle	-5164
▁laying	-5165
▁morsel	-5166
▁native	-5167
▁natura	-5168
▁pledge	-5169
▁princi	-5170
▁proper	-5171
▁public	-5172
▁quench	-5173
▁showed	-5174
▁strait	-5175
▁stroke	-5176
▁tithes	-5177
▁unable	-5178
▁verily	-5179
▁victor	-5180
▁wholly	-5181
listines	-5182
▁Amessai	-5183
▁Jezrael	-5184
▁Jonadab	-5185
▁Rebecca	-5186
▁Whereas	-5187
▁arrayed	-5188
▁disease	-5189
▁distrib	-5190
▁envious	-5191
▁fainted	-5192
▁fearful	-5193
▁fingers	-5194
▁happens	-5195
▁leading	-5196
▁pressed	-5197
▁protect	-5198
▁refused	-5199
▁require	-5200
▁robbers	-5201
▁rushing	-5202
▁serving	-5203
▁stopped	-5204
▁talents	-5205
▁teaches	-5206
▁treated	-5207
▁violent	-5208
ification	-5209
▁Apostles	-5210
▁Issachar	-5211
▁besieged	-5212
▁betrayed	-5213
▁bitterly	-5214
▁covetous	-5215
▁diseases	-5216
▁fighting	-5217
▁husbands	-5218
▁midnight	-5219
▁ministry	-5220
▁overshad	-5221
▁psaltery	-5222
▁quenched	-5223
▁rejoices	-5224
▁sabbaths	-5225
▁searched	-5226
▁thunders	-5227
▁unbelief	-5228
▁watching	-5229
▁watchman	-5230
▁Euphrates	-5231
▁Sadducees	-5232
▁adversary	-5233
▁blessings	-5234
▁confident	-5235
▁departure	-5236
▁forasmuch	-5237
▁innocence	-5238
▁meditated	-5239
▁necessity	-5240
▁reasoning	-5241
▁boundaries	-5242
▁broughtest	-5243
▁considered	-5244
▁discovered	-5245
▁discretion	-5246
▁separation	-5247
▁visitation	-5248
▁Phylistines	-5249
▁compassions	-5250
▁consolation	-5251
▁indignation	-5252
▁compensation	-5253
▁condemnation	-5254
';	-5255
);	-5256
gl	-5257
gu	-5258
sh	-5259
?''	-5260
bre	-5261
flo	-5262
ger	-5263
gle	-5264
gor	-5265
iod	-5266
mas	-5267
two	-5268
ubs	-5269
yss	-5270
zer	-5271
▁Tr	-5272
Then	-5273
arii	-5274
eves	-5275
fall	-5276
iety	-5277
ince	-5278
ists	-5279
long	-5280
lten	-5281
oman	-5282
sook	-5283
▁Abi	-5284
▁Ale	-5285
▁Con	-5286
▁Gel	-5287
▁Rak	-5288
▁Ser	-5289
▁Tru	-5290
▁axe	-5291
▁lim	-5292
▁mat	-5293
▁oak	-5294
▁und	-5295
Every	-5296
These	-5297
ample	-5298
cetic	-5299
igned	-5300
iling	-5301
osing	-5302
othed	-5303
ption	-5304
rippa	-5305
venth	-5306
▁Bala	-5307
▁ages	-5308
▁aris	-5309
▁bill	-5310
▁bowl	-5311
▁dogs	-5312
▁exha	-5313
▁idol	-5314
▁mere	-5315
▁nail	-5316
▁paid	-5317
▁roof	-5318
▁rust	-5319
▁sows	-5320
▁vint	-5321
▁wars	-5322
▁wool	-5323
▁worm	-5324
ording	-5325
oureth	-5326
riarch	-5327
urious	-5328
▁Amman	-5329
▁Araba	-5330
▁Archi	-5331
▁Dabir	-5332
▁Dagon	-5333
▁Death	-5334
▁Evite	-5335
▁Joppa	-5336
▁Sadoc	-5337
▁Saint	-5338
▁Silas	-5339
▁abyss	-5340
▁admin	-5341
▁apply	-5342
▁celeb	-5343
▁draws	-5344
▁drops	-5345
▁eager	-5346
▁finds	-5347
▁heirs	-5348
▁kinds	-5349
▁lamps	-5350
▁marty	-5351
▁merry	-5352
▁myrrh	-5353
▁prosp	-5354
▁raven	-5355
▁rules	-5356
▁shook	-5357
▁sloth	-5358
▁stiff	-5359
▁straw	-5360
▁tarry	-5361
▁tithe	-5362
cerning	-5363
ointing	-5364
▁Gerges	-5365
▁Melchi	-5366
▁Mighty	-5367
▁Rakote	-5368
▁Sarrha	-5369
▁across	-5370
▁animal	-5371
▁aright	-5372
▁branch	-5373
▁closed	-5374
▁crafty	-5375
▁curses	-5376
▁devils	-5377
▁eleven	-5378
▁excess	-5379
▁feasts	-5380
▁freely	-5381
▁gained	-5382
▁gotten	-5383
▁guided	-5384
▁hateth	-5385
▁island	-5386
▁molten	-5387
▁notice	-5388
▁oracle	-5389
▁pardon	-5390
▁period	-5391
▁potter	-5392
▁prepar	-5393
▁relief	-5394
▁secure	-5395
▁sprang	-5396
▁surety	-5397
▁warned	-5398
▁Agrippa	-5399
▁Ananias	-5400
▁Beloved	-5401
▁accused	-5402
▁affairs	-5403
▁ascetic	-5404
▁ascribe	-5405
▁asunder	-5406
▁banquet	-5407
▁chasten	-5408
▁cleanse	-5409
▁content	-5410
▁cursing	-5411
▁defense	-5412
▁divorce	-5413
▁dropped	-5414
▁farmers	-5415
▁fetters	-5416
▁forsook	-5417
▁haughty	-5418
▁justify	-5419
▁liberty	-5420
▁marvell	-5421
▁natural	-5422
▁passage	-5423
▁putting	-5424
▁related	-5425
▁sandals	-5426
▁satisfy	-5427
▁setting	-5428
▁shekels	-5429
▁trample	-5430
▁victory	-5431
▁virtues	-5432
▁visions	-5433
▁whoring	-5434
▁wishest	-5435
▁zealous	-5436
▁Everyone	-5437
▁Pharisee	-5438
▁accompan	-5439
▁although	-5440
▁bringeth	-5441
▁chambers	-5442
▁conceive	-5443
▁contempt	-5444
▁creeping	-5445
▁directed	-5446
▁helpless	-5447
▁heritage	-5448
▁hindered	-5449
▁listened	-5450
▁preserve	-5451
▁reasoned	-5452
▁regarded	-5453
▁repented	-5454
▁reproofs	-5455
▁sleeping	-5456
▁sluggard	-5457
▁Armathaim	-5458
▁completed	-5459
▁deliverer	-5460
▁discourse	-5461
▁footstool	-5462
▁hereafter	-5463
▁marvelled	-5464
▁ornaments	-5465
▁otherwise	-5466
▁overcomes	-5467
▁perfected	-5468
▁practices	-5469
▁relatives	-5470
▁senseless	-5471
▁therewith	-5472
▁virginity	-5473
▁astonished	-5474
▁excellence	-5475
▁profitable	-5476
▁pronounced	-5477
▁recompence	-5478
▁trespasses	-5479
▁whomsoever	-5480
▁steadfastly	-5481
▁tribulation	-5482
▁incorruptible	-5483
.,	-5484
EM	-5485
ga	-5486
ux	-5487
▁,	-5488
Did	-5489
aam	-5490
aws	-5491
der	-5492
etr	-5493
him	-5494
ids	-5495
inc	-5496
iph	-5497
isc	-5498
kel	-5499
ler	-5500
oom	-5501
ora	-5502
pal	-5503
pen	-5504
uff	-5505
vel	-5506
xes	-5507
▁Aw	-5508
▁Od	-5509
▁cy	-5510
Give	-5511
abel	-5512
aeus	-5513
chre	-5514
cont	-5515
enez	-5516
erer	-5517
istr	-5518
ixed	-5519
lemn	-5520
lets	-5521
oute	-5522
▁Aer	-5523
▁Ges	-5524
▁Hon	-5525
▁Med	-5526
▁Men	-5527
▁Mer	-5528
▁Mes	-5529
▁bab	-5530
▁ble	-5531
▁cud	-5532
▁imm	-5533
▁nur	-5534
▁spy	-5535
▁yes	-5536
Arise	-5537
aking	-5538
arded	-5539
aroth	-5540
icult	-5541
kelac	-5542
ollam	-5543
owing	-5544
redit	-5545
three	-5546
▁Abel	-5547
▁Adra	-5548
▁Amin	-5549
▁Call	-5550
▁Camp	-5551
▁Char	-5552
▁Debb	-5553
▁Hier	-5554
▁Jeph	-5555
▁Mark	-5556
▁Psal	-5557
▁Raab	-5558
▁Rome	-5559
▁Step	-5560
▁appe	-5561
▁bath	-5562
▁beam	-5563
▁beck	-5564
▁cand	-5565
▁chew	-5566
▁colt	-5567
▁conv	-5568
▁evid	-5569
▁heir	-5570
▁hoof	-5571
▁howl	-5572
▁imit	-5573
▁lake	-5574
▁leap	-5575
▁nour	-5576
▁perf	-5577
▁pool	-5578
▁sens	-5579
▁soft	-5580
ankinc	-5581
icians	-5582
minded	-5583
rained	-5584
rolled	-5585
▁Asael	-5586
▁Gomor	-5587
▁Phoen	-5588
▁Three	-5589
▁apple	-5590
▁beget	-5591
▁camel	-5592
▁chain	-5593
▁conqu	-5594
▁consp	-5595
▁corre	-5596
▁crush	-5597
▁deals	-5598
▁despa	-5599
▁dimin	-5600
▁dread	-5601
▁fiery	-5602
▁floor	-5603
▁humil	-5604
▁innum	-5605
▁marry	-5606
▁overl	-5607
▁perse	-5608
▁pierc	-5609
▁reser	-5610
▁ropes	-5611
▁sever	-5612
▁shore	-5613
▁songs	-5614
▁spend	-5615
▁vines	-5616
Whoever	-5617
▁Achima	-5618
▁Aermon	-5619
▁Andrew	-5620
▁Remmon	-5621
▁Syrian	-5622
▁beaten	-5623
▁cedars	-5624
▁church	-5625
▁comest	-5626
▁common	-5627
▁descri	-5628
▁devise	-5629
▁distin	-5630
▁drinks	-5631
▁fulfil	-5632
▁giants	-5633
▁heifer	-5634
▁injury	-5635
▁intend	-5636
▁joyful	-5637
▁justly	-5638
▁liveth	-5639
▁narrow	-5640
▁revile	-5641
▁serves	-5642
▁shaved	-5643
▁solemn	-5644
▁sorcer	-5645
▁spices	-5646
▁wanted	-5647
▁Odollam	-5648
▁Prophet	-5649
▁Samarit	-5650
▁balance	-5651
▁blotted	-5652
▁breadth	-5653
▁casting	-5654
▁charity	-5655
▁citizen	-5656
▁closely	-5657
▁cluster	-5658
▁crossed	-5659
▁examine	-5660
▁exhaust	-5661
▁feareth	-5662
▁feeding	-5663
▁fifteen	-5664
▁gathers	-5665
▁keepeth	-5666
▁listens	-5667
▁locusts	-5668
▁ordered	-5669
▁request	-5670
▁saluted	-5671
▁seasons	-5672
▁shouted	-5673
▁singing	-5674
▁slander	-5675
▁telling	-5676
▁tempest	-5677
▁thieves	-5678
▁thunder	-5679
▁travell	-5680
▁vintage	-5681
▁wearing	-5682
▁Adraazar	-5683
▁Aminadab	-5684
▁Consider	-5685
▁acquaint	-5686
▁contradi	-5687
▁converse	-5688
▁defender	-5689
▁dismayed	-5690
▁forehead	-5691
▁frankinc	-5692
▁honoured	-5693
▁pleasant	-5694
▁polluted	-5695
▁reckoned	-5696
▁sprinkle	-5697
▁stripped	-5698
▁teachers	-5699
▁treacher	-5700
▁wherever	-5701
▁Pherezite	-5702
▁anointing	-5703
▁companies	-5704
▁different	-5705
▁difficult	-5706
▁divisions	-5707
▁ignorance	-5708
▁interpret	-5709
▁journeyed	-5710
▁merchants	-5711
▁oppressed	-5712
▁perplexed	-5713
▁petitions	-5714
▁recognize	-5715
▁remaining	-5716
▁sprinkled	-5717
▁testifies	-5718
▁Ethiopians	-5719
▁accomplish	-5720
▁blasphemed	-5721
▁brightness	-5722
▁calamities	-5723
▁confession	-5724
▁correction	-5725
▁distresses	-5726
▁lightnings	-5727
▁pestilence	-5728
▁revelation	-5729
▁foolishness	-5730
▁innumerable	-5731
▁instruments	-5732
▁understands	-5733
▁faithfulness	-5734
▁frankincense	-5735
▁pomegranates	-5736
▁purification	-5737
▁compassionate	-5738
',	-5739
As	-5740
OD	-5741
Re	-5742
ST	-5743
bo	-5744
uz	-5745
IAS	-5746
Whi	-5747
cch	-5748
igs	-5749
ike	-5750
len	-5751
rol	-5752
six	-5753
uli	-5754
ume	-5755
zek	-5756
▁La	-5757
▁ow	-5758
Hail	-5759
Hear	-5760
Rise	-5761
aith	-5762
ales	-5763
amia	-5764
cing	-5765
esus	-5766
geon	-5767
give	-5768
lest	-5769
ming	-5770
mith	-5771
mity	-5772
oday	-5773
omas	-5774
opot	-5775
ouse	-5776
phec	-5777
rath	-5778
raud	-5779
rets	-5780
riel	-5781
sely	-5782
stru	-5783
umin	-5784
whel	-5785
▁Ask	-5786
▁Ass	-5787
▁Egl	-5788
▁Isc	-5789
▁Nic	-5790
▁Pat	-5791
▁Rep	-5792
▁Sap	-5793
▁Six	-5794
▁Tan	-5795
▁Tro	-5796
▁adj	-5797
▁fer	-5798
▁fow	-5799
▁gri	-5800
▁nay	-5801
▁num	-5802
▁pin	-5803
▁sus	-5804
▁vol	-5805
▁web	-5806
Rabbi	-5807
abbas	-5808
abeth	-5809
aming	-5810
assad	-5811
ching	-5812
elids	-5813
elius	-5814
floor	-5815
gered	-5816
inted	-5817
nding	-5818
nless	-5819
obaal	-5820
pline	-5821
retch	-5822
▁Alex	-5823
▁Cham	-5824
▁Does	-5825
▁Evil	-5826
▁Gaal	-5827
▁Like	-5828
▁Mess	-5829
▁Open	-5830
▁Pers	-5831
▁Seme	-5832
▁Sign	-5833
▁Such	-5834
▁alto	-5835
▁bere	-5836
▁bush	-5837
▁coat	-5838
▁cows	-5839
▁dash	-5840
▁drop	-5841
▁lays	-5842
▁lean	-5843
▁lent	-5844
▁mute	-5845
▁rend	-5846
▁succ	-5847
▁surn	-5848
▁tied	-5849
▁torn	-5850
▁wagg	-5851
▁wand	-5852
▁whel	-5853
▁wing	-5854
▁wolf	-5855
Father	-5856
aining	-5857
cchoth	-5858
icated	-5859
itting	-5860
▁Angel	-5861
▁Beths	-5862
▁Jesse	-5863
▁Roman	-5864
▁Thess	-5865
▁Whose	-5866
▁Would	-5867
▁agree	-5868
▁bathe	-5869
▁below	-5870
▁books	-5871
▁brick	-5872
▁bulls	-5873
▁caves	-5874
▁dance	-5875
▁decay	-5876
▁dress	-5877
▁enlar	-5878
▁erred	-5879
▁greed	-5880
▁harsh	-5881
▁impud	-5882
▁knock	-5883
▁liver	-5884
▁medic	-5885
▁pluck	-5886
▁pools	-5887
▁proof	-5888
▁reins	-5889
▁scorp	-5890
▁sepul	-5891
▁shown	-5892
▁skill	-5893
▁spies	-5894
▁strip	-5895
▁surve	-5896
▁token	-5897
▁treas	-5898
▁weeks	-5899
▁Achaia	-5900
▁Cursed	-5901
▁Enakim	-5902
▁Gather	-5903
▁Master	-5904
▁Olives	-5905
▁Rechab	-5906
▁Remove	-5907
▁Thomas	-5908
▁absent	-5909
▁arisen	-5910
▁assist	-5911
▁attain	-5912
▁avenge	-5913
▁befall	-5914
▁bottle	-5915
▁bowels	-5916
▁camest	-5917
▁consum	-5918
▁credit	-5919
▁degree	-5920
▁dipped	-5921
▁disreg	-5922
▁embark	-5923
▁enmity	-5924
▁extrem	-5925
▁fasten	-5926
▁flight	-5927
▁forgot	-5928
▁hinder	-5929
▁imagin	-5930
▁labore	-5931
▁lowest	-5932
▁propit	-5933
▁purify	-5934
▁rolled	-5935
▁slaves	-5936
▁strive	-5937
▁supply	-5938
▁tasted	-5939
▁thinks	-5940
▁timbre	-5941
▁upward	-5942
▁winter	-5943
▁wolves	-5944
mandrite	-5945
opotamia	-5946
ornelius	-5947
▁Accaron	-5948
▁Debbora	-5949
▁Sekelac	-5950
▁abandon	-5951
▁commits	-5952
▁concern	-5953
▁didrach	-5954
▁discern	-5955
▁encoura	-5956
▁eunuchs	-5957
▁eyelids	-5958
▁finding	-5959
▁guarded	-5960
▁injured	-5961
▁magnify	-5962
▁mankind	-5963
▁pierced	-5964
▁plucked	-5965
▁plunder	-5966
▁pointed	-5967
▁prosely	-5968
▁quarrel	-5969
▁resting	-5970
▁secrets	-5971
▁sisters	-5972
▁vinegar	-5973
▁wentest	-5974
▁Brothers	-5975
▁Jerobaal	-5976
▁Socchoth	-5977
▁banished	-5978
▁becoming	-5979
▁carrying	-5980
▁cheerful	-5981
▁divining	-5982
▁division	-5983
▁eighteen	-5984
▁exercise	-5985
▁fourteen	-5986
▁fruitful	-5987
▁hencefor	-5988
▁hireling	-5989
▁mightest	-5990
▁mightily	-5991
▁numerous	-5992
▁practice	-5993
▁profaned	-5994
▁reproved	-5995
▁securely	-5996
▁supposed	-5997
▁tomorrow	-5998
▁weakened	-5999
▁withdraw	-6000
▁withdrew	-6001
▁wretched	-6002
▁According	-6003
▁abandoned	-6004
▁appertain	-6005
▁believing	-6006
▁betrothed	-6007
▁confessed	-6008
▁delighted	-6009
▁desirable	-6010
▁entangled	-6011
▁firstborn	-6012
▁murmuring	-6013
▁oppressor	-6014
▁pleasures	-6015
▁provision	-6016
▁recompens	-6017
▁remission	-6018
▁sojourner	-6019
▁supposing	-6020
▁valuation	-6021
▁worthless	-6022
▁Massephath	-6023
▁Whatsoever	-6024
▁accusation	-6025
▁altogether	-6026
▁descending	-6027
▁discipline	-6028
▁fourteenth	-6029
▁testifying	-6030
▁Mesopotamia	-6031
▁accompanied	-6032
▁punishments	-6033
▁surrounding	-6034
▁disappointed	-6035
▁tribulations	-6036
▁Archimandrite	-6037
▁sanctification	-6038
:)	-6039
EA	-6040
Jo	-6041
RO	-6042
eb	-6043
).'	-6044
His	-6045
ION	-6046
Sir	-6047
alt	-6048
bor	-6049
edd	-6050
edu	-6051
emy	-6052
hal	-6053
hem	-6054
iet	-6055
ife	-6056
ior	-6057
isy	-6058
met	-6059
ola	-6060
old	-6061
uct	-6062
▁AL	-6063
▁BE	-6064
▁Gl	-6065
▁Oh	-6066
▁TO	-6067
▁eg	-6068
Amen	-6069
John	-6070
Tell	-6071
acon	-6072
ashi	-6073
bear	-6074
cade	-6075
ebed	-6076
ebul	-6077
elix	-6078
ival	-6079
king	-6080
resh	-6081
rous	-6082
rsis	-6083
sion	-6084
took	-6085
▁Aha	-6086
▁Cai	-6087
▁Cil	-6088
▁Has	-6089
▁Lac	-6090
▁Lay	-6091
▁Res	-6092
▁Seb	-6093
▁Sen	-6094
▁Sit	-6095
▁alo	-6096
▁der	-6097
▁det	-6098
▁dun	-6099
▁ens	-6100
▁ham	-6101
▁nan	-6102
▁pos	-6103
▁rou	-6104
▁tro	-6105
▁unw	-6106
Jesus	-6107
aphas	-6108
ariot	-6109
ators	-6110
chite	-6111
ciled	-6112
dened	-6113
edged	-6114
esses	-6115
giver	-6116
hamar	-6117
hathi	-6118
iated	-6119
itess	-6120
ldren	-6121
olish	-6122
plate	-6123
rison	-6124
rived	-6125
these	-6126
uries	-6127
zedek	-6128
▁Alas	-6129
▁Amos	-6130
▁Ased	-6131
▁Cast	-6132
▁Core	-6133
▁Dest	-6134
▁Eliz	-6135
▁Geds	-6136
▁Jair	-6137
▁LORD	-6138
▁Love	-6139
▁Mach	-6140
▁Orna	-6141
▁aged	-6142
▁asps	-6143
▁band	-6144
▁blew	-6145
▁blow	-6146
▁brid	-6147
▁cake	-6148
▁cald	-6149
▁dare	-6150
▁doub	-6151
▁dumb	-6152
▁ease	-6153
▁fest	-6154
▁laws	-6155
▁midw	-6156
▁outc	-6157
▁oven	-6158
▁pear	-6159
▁pigs	-6160
▁plan	-6161
▁rank	-6162
▁remo	-6163
▁rods	-6164
▁sets	-6165
▁stag	-6166
▁toil	-6167
bserve	-6168
ebedee	-6169
formed	-6170
headed	-6171
iality	-6172
loving	-6173
master	-6174
necked	-6175
pected	-6176
places	-6177
uredly	-6178
worthy	-6179
▁Abiud	-6180
▁Awake	-6181
▁Barne	-6182
▁Eglom	-6183
▁Enemy	-6184
▁Felix	-6185
▁Semei	-6186
▁Seven	-6187
▁Thamn	-6188
▁Theop	-6189
▁Which	-6190
▁alike	-6191
▁beard	-6192
▁blast	-6193
▁bowls	-6194
▁cedar	-6195
▁chees	-6196
▁cords	-6197
▁cries	-6198
▁displ	-6199
▁disqu	-6200
▁doves	-6201
▁excus	-6202
▁exile	-6203
▁fashi	-6204
▁fever	-6205
▁frost	-6206
▁frust	-6207
▁grows	-6208
▁hairs	-6209
▁holds	-6210
▁homer	-6211
▁hours	-6212
▁human	-6213
▁hymns	-6214
▁loose	-6215
▁manag	-6216
▁moist	-6217
▁nails	-6218
▁negle	-6219
▁occup	-6220
▁point	-6221
▁posts	-6222
▁prost	-6223
▁psalm	-6224
▁relig	-6225
▁roots	-6226
▁ruled	-6227
▁seats	-6228
▁shone	-6229
▁skins	-6230
▁solid	-6231
▁sorce	-6232
▁speck	-6233
▁stirs	-6234
▁thigh	-6235
▁thorn	-6236
▁tooth	-6237
▁trade	-6238
▁tramp	-6239
▁usury	-6240
▁wiser	-6241
▁worms	-6242
▁Amalek	-6243
▁Baetha	-6244
▁Balaam	-6245
▁Beware	-6246
▁Bochor	-6247
▁Follow	-6248
▁Lachis	-6249
▁Nerias	-6250
▁Romans	-6251
▁abides	-6252
▁almost	-6253
▁anchor	-6254
▁arises	-6255
▁arrest	-6256
▁bestow	-6257
▁censer	-6258
▁covers	-6259
▁crowns	-6260
▁dagger	-6261
▁defend	-6262
▁demand	-6263
▁devout	-6264
▁doings	-6265
▁exalts	-6266
▁excuse	-6267
▁firmly	-6268
▁fleece	-6269
▁gladly	-6270
▁goodly	-6271
▁member	-6272
▁memory	-6273
▁namely	-6274
▁needed	-6275
▁overse	-6276
▁palace	-6277
▁pitied	-6278
▁reared	-6279
▁reigns	-6280
▁riddle	-6281
▁rushed	-6282
▁scales	-6283
▁smites	-6284
▁stolen	-6285
▁theirs	-6286
▁wither	-6287
Brothers	-6288
wardness	-6289
▁Cilicia	-6290
▁Machmas	-6291
▁Observe	-6292
▁Tharsis	-6293
▁answers	-6294
▁attempt	-6295
▁avenged	-6296
▁baskets	-6297
▁bruised	-6298
▁cherubs	-6299
▁convers	-6300
▁corners	-6301
▁damsels	-6302
▁dragged	-6303
▁dungeon	-6304
▁engaged	-6305
▁enlight	-6306
▁entrust	-6307
▁gladden	-6308
▁growing	-6309
▁hateful	-6310
▁holdeth	-6311
▁holding	-6312
▁islands	-6313
▁opening	-6314
▁pitched	-6315
▁reading	-6316
▁refrain	-6317
▁returns	-6318
▁sending	-6319
▁settled	-6320
▁shining	-6321
▁sincere	-6322
▁sittest	-6323
▁stubble	-6324
▁success	-6325
▁temples	-6326
▁thicket	-6327
▁turneth	-6328
▁valleys	-6329
▁wanting	-6330
▁wearied	-6331
▁whereof	-6332
▁wouldst	-6333
▁writing	-6334
Therefore	-6335
▁Achimaas	-6336
▁Caiaphas	-6337
▁Iscariot	-6338
▁Manasses	-6339
▁Persians	-6340
▁Whatever	-6341
▁abhorred	-6342
▁admonish	-6343
▁ambassad	-6344
▁begotten	-6345
▁breaking	-6346
▁entrance	-6347
▁fastings	-6348
▁hundreds	-6349
▁laughter	-6350
▁maintain	-6351
▁measured	-6352
▁offended	-6353
▁overwhel	-6354
▁scourged	-6355
▁striving	-6356
▁stubborn	-6357
▁tortures	-6358
▁traveled	-6359
verlasting	-6360
▁Elizabeth	-6361
▁Thessalon	-6362
▁belongeth	-6363
▁descended	-6364
▁diligence	-6365
▁disgraced	-6366
▁excessive	-6367
▁languages	-6368
▁lightning	-6369
▁millstone	-6370
▁murderers	-6371
▁occasions	-6372
▁overthrew	-6373
▁physician	-6374
▁proceeded	-6375
▁readiness	-6376
▁sepulchre	-6377
▁violently	-6378
▁Concerning	-6379
▁circumcise	-6380
▁concubines	-6381
▁counsellor	-6382
▁courageous	-6383
▁graciously	-6384
▁henceforth	-6385
▁ministered	-6386
▁partiality	-6387
▁reconciled	-6388
▁reproaches	-6389
▁surrounded	-6390
▁Melchizedek	-6391
▁acknowledge	-6392
▁distributed	-6393
▁termination	-6394
▁waywardness	-6395
An	-6396
CE	-6397
On	-6398
St	-6399
nt	-6400
zz	-6401
▁:	-6402
All	-6403
ESS	-6404
HER	-6405
See	-6406
ads	-6407
aud	-6408
con	-6409
ebe	-6410
eus	-6411
fly	-6412
ida	-6413
key	-6414
kin	-6415
lay	-6416
mus	-6417
nto	-6418
oni	-6419
ony	-6420
pot	-6421
rim	-6422
rof	-6423
yed	-6424
▁Ac	-6425
▁Bl	-6426
▁Ed	-6427
▁Ga	-6428
▁HE	-6429
▁av	-6430
▁ut	-6431
Make	-6432
ator	-6433
cify	-6434
ctly	-6435
each	-6436
etor	-6437
geth	-6438
hany	-6439
hiet	-6440
icks	-6441
imes	-6442
kana	-6443
laud	-6444
lfur	-6445
nine	-6446
orts	-6447
otha	-6448
ping	-6449
prus	-6450
seat	-6451
unic	-6452
▁Eve	-6453
▁Fin	-6454
▁HIS	-6455
▁Isn	-6456
▁Jaz	-6457
▁Lea	-6458
▁MAY	-6459
▁Sub	-6460
▁WHO	-6461
▁ado	-6462
▁ded	-6463
▁fix	-6464
▁gaz	-6465
▁jaw	-6466
▁mud	-6467
▁owe	-6468
▁rud	-6469
▁sie	-6470
▁tum	-6471
▁unf	-6472
▁vex	-6473
▁vom	-6474
▁wha	-6475
Peace	-6476
Woman	-6477
alene	-6478
arnel	-6479
ashed	-6480
atham	-6481
cline	-6482
hites	-6483
irmed	-6484
isted	-6485
oning	-6486
oster	-6487
plant	-6488
rents	-6489
rings	-6490
smell	-6491
▁Agag	-6492
▁Aram	-6493
▁Coun	-6494
▁Didn	-6495
▁Help	-6496
▁Maas	-6497
▁Naas	-6498
▁None	-6499
▁Saba	-6500
▁Save	-6501
▁Selo	-6502
▁Sepp	-6503
▁True	-6504
▁agre	-6505
▁barn	-6506
▁beds	-6507
▁bows	-6508
▁emer	-6509
▁enri	-6510
▁fare	-6511
▁felt	-6512
▁flax	-6513
▁glut	-6514
▁hart	-6515
▁hasn	-6516
▁hunt	-6517
▁lain	-6518
▁late	-6519
▁lawy	-6520
▁lied	-6521
▁nest	-6522
▁nets	-6523
▁plot	-6524
▁roar	-6525
▁shoe	-6526
▁sink	-6527
▁tend	-6528
▁tens	-6529
▁turt	-6530
▁vile	-6531
▁wert	-6532
▁whis	-6533
▁worn	-6534
ainder	-6535
chable	-6536
father	-6537
footed	-6538
hether	-6539
ortion	-6540
ounced	-6541
priate	-6542
racter	-6543
▁About	-6544
▁Anath	-6545
▁Artem	-6546
▁Bosor	-6547
▁Caath	-6548
▁Creat	-6549
▁Cyrus	-6550
▁Eliab	-6551
▁Elius	-6552
▁Enter	-6553
▁Sabee	-6554
▁Sanct	-6555
▁Shiet	-6556
▁ahead	-6557
▁alien	-6558
▁block	-6559
▁burns	-6560
▁casts	-6561
▁claws	-6562
▁colle	-6563
▁cruel	-6564
▁darts	-6565
▁depos	-6566
▁divin	-6567
▁doubt	-6568
▁feeds	-6569
▁fierc	-6570
▁foxes	-6571
▁fresh	-6572
▁fring	-6573
▁hides	-6574
▁liber	-6575
▁liers	-6576
▁males	-6577
▁mixed	-6578
▁necks	-6579
▁plund	-6580
▁porch	-6581
▁queen	-6582
▁seals	-6583
▁skirt	-6584
▁sowed	-6585
▁thumb	-6586
▁towns	-6587
▁urged	-6588
▁weeds	-6589
▁weren	-6590
▁whelp	-6591
▁wiped	-6592
hathius	-6593
ocation	-6594
verance	-6595
▁Baalim	-6596
▁Cyprus	-6597
▁Dalida	-6598
▁Elisha	-6599
▁Galgal	-6600
▁Jewish	-6601
▁Saphan	-6602
▁amount	-6603
▁baptiz	-6604
▁bloody	-6605
▁borrow	-6606
▁breach	-6607
▁comely	-6608
▁compel	-6609
▁contem	-6610
▁darnel	-6611
▁device	-6612
▁devote	-6613
▁donkey	-6614
▁easier	-6615
▁extend	-6616
▁filthy	-6617
▁finish	-6618
▁fornic	-6619
▁framed	-6620
▁givest	-6621
▁goings	-6622
▁groves	-6623
▁hanged	-6624
▁helmet	-6625
▁injure	-6626
▁kindly	-6627
▁leaven	-6628
▁lilies	-6629
▁loosed	-6630
▁lovest	-6631
▁mantle	-6632
▁melted	-6633
▁murmur	-6634
▁ninety	-6635
▁overfl	-6636
▁parted	-6637
▁perils	-6638
▁plants	-6639
▁prover	-6640
▁relate	-6641
▁remind	-6642
▁riding	-6643
▁selves	-6644
▁slayer	-6645
▁sounds	-6646
▁sulfur	-6647
▁tribut	-6648
▁trying	-6649
▁tumult	-6650
▁unprof	-6651
▁waggon	-6652
▁worker	-6653
elieving	-6654
pleasing	-6655
smelling	-6656
▁Asedoth	-6657
▁Bethany	-6658
▁Bochori	-6659
▁Counsel	-6660
▁Finally	-6661
▁Raphain	-6662
▁Romanus	-6663
▁Stretch	-6664
▁Syrians	-6665
▁Teacher	-6666
▁adorned	-6667
▁confirm	-6668
▁contain	-6669
▁contest	-6670
▁customs	-6671
▁despair	-6672
▁dispute	-6673
▁earthen	-6674
▁evident	-6675
▁explain	-6676
▁fearing	-6677
▁fervent	-6678
▁forgave	-6679
▁froward	-6680
▁gardens	-6681
▁healthy	-6682
▁heavily	-6683
▁highest	-6684
▁longing	-6685
▁outward	-6686
▁pitcher	-6687
▁prolong	-6688
▁reapers	-6689
▁reaping	-6690
▁recover	-6691
▁relieve	-6692
▁reproof	-6693
▁rooster	-6694
▁sorrows	-6695
▁stature	-6696
▁statute	-6697
▁suppose	-6698
▁torrent	-6699
▁tribute	-6700
▁warrior	-6701
▁windows	-6702
▁wishing	-6703
▁yielded	-6704
▁Ephratha	-6705
▁Gomorrha	-6706
▁Jeremiah	-6707
▁Sanctify	-6708
▁abounded	-6709
▁attended	-6710
▁becometh	-6711
▁belonged	-6712
▁bestowed	-6713
▁blasphem	-6714
▁boundary	-6715
▁delights	-6716
▁delivers	-6717
▁denarius	-6718
▁deprived	-6719
▁discover	-6720
▁dishonor	-6721
▁embraced	-6722
▁evermore	-6723
▁examined	-6724
▁festival	-6725
▁gnashing	-6726
▁honeycom	-6727
▁inasmuch	-6728
▁inclined	-6729
▁interpre	-6730
▁laborers	-6731
▁manifold	-6732
▁midwives	-6733
▁persecut	-6734
▁powerful	-6735
▁presents	-6736
▁princess	-6737
▁quarrels	-6738
▁released	-6739
▁scourges	-6740
▁sensible	-6741
▁slothful	-6742
▁suitable	-6743
▁supplied	-6744
▁thinking	-6745
▁torrents	-6746
▁trembled	-6747
▁wondrous	-6748
▁Bethlehem	-6749
▁Magdalene	-6750
▁Thamnatha	-6751
▁agreement	-6752
▁ambuscade	-6753
▁blackness	-6754
▁blasphemy	-6755
▁character	-6756
▁childless	-6757
▁corrupted	-6758
▁declaring	-6759
▁direction	-6760
▁dishonest	-6761
▁disobeyed	-6762
▁disturbed	-6763
▁exhausted	-6764
▁extremity	-6765
▁firmament	-6766
▁hypocrisy	-6767
▁infirmity	-6768
▁lampstand	-6769
▁mysteries	-6770
▁paralytic	-6771
▁paralyzed	-6772
▁plundered	-6773
▁preserves	-6774
▁principal	-6775
▁purchased	-6776
▁questions	-6777
▁receiving	-6778
▁refreshed	-6779
▁remainder	-6780
▁Christians	-6781
▁Pherezites	-6782
▁counselled	-6783
▁diminished	-6784
▁friendship	-6785
▁gentleness	-6786
▁inhabitant	-6787
▁manifested	-6788
▁marvellous	-6789
▁perfection	-6790
▁physicians	-6791
▁prosperous	-6792
▁rebellious	-6793
▁straitened	-6794
▁whensoever	-6795
▁Everlasting	-6796
▁expectation	-6797
▁forgiveness	-6798
▁haughtiness	-6799
▁humiliation	-6800
▁persecuting	-6801
▁persecution	-6802
▁recompensed	-6803
▁bondservants	-6804
▁covetousness	-6805
▁peradventure	-6806
▁perseverance	-6807
▁unrighteously	-6808
▁interpretation	-6809
AD	-6810
AL	-6811
LY	-6812
So	-6813
aa	-6814
co	-6815
mp	-6816
ny	-6817
oi	-6818
▁?	-6819
Can	-6820
Man	-6821
May	-6822
Not	-6823
Son	-6824
aem	-6825
bel	-6826
but	-6827
hew	-6828
olt	-6829
val	-6830
▁BL	-6831
▁Eu	-6832
▁ul	-6833
EREM	-6834
Look	-6835
THER	-6836
acks	-6837
aker	-6838
aned	-6839
arly	-6840
bone	-6841
cias	-6842
clud	-6843
culi	-6844
ebee	-6845
edar	-6846
elli	-6847
good	-6848
hool	-6849
hore	-6850
iber	-6851
inth	-6852
iter	-6853
itre	-6854
ject	-6855
kins	-6856
lamm	-6857
lish	-6858
mana	-6859
math	-6860
mona	-6861
nels	-6862
only	-6863
orob	-6864
oron	-6865
phar	-6866
ploy	-6867
pphi	-6868
rers	-6869
roll	-6870
ruly	-6871
teth	-6872
when	-6873
▁Bes	-6874
▁Bre	-6875
▁Cor	-6876
▁Cry	-6877
▁Dem	-6878
▁Eut	-6879
▁Gam	-6880
▁Ind	-6881
▁Nas	-6882
▁Ple	-6883
▁Som	-6884
▁Sun	-6885
▁THA	-6886
▁Tra	-6887
▁bew	-6888
▁bul	-6889
▁ewe	-6890
▁leg	-6891
▁lux	-6892
▁mus	-6893
▁tip	-6894
▁tow	-6895
▁tur	-6896
▁ven	-6897
▁wel	-6898
Which	-6899
ative	-6900
ceive	-6901
enced	-6902
eress	-6903
holds	-6904
iable	-6905
iator	-6906
imeon	-6907
itary	-6908
liath	-6909
ocked	-6910
odice	-6911
opard	-6912
rated	-6913
saces	-6914
smith	-6915
zelli	-6916
▁Bama	-6917
▁Cain	-6918
▁Enac	-6919
▁Flee	-6920
▁Goth	-6921
▁Pont	-6922
▁Sell	-6923
▁Suba	-6924
▁Well	-6925
▁Were	-6926
▁argu	-6927
▁bank	-6928
▁bend	-6929
▁bone	-6930
▁bund	-6931
▁calm	-6932
▁cler	-6933
▁doer	-6934
▁eggs	-6935
▁girt	-6936
▁hewn	-6937
▁lady	-6938
▁loaf	-6939
▁loos	-6940
▁mire	-6941
▁pert	-6942
▁pots	-6943
▁rear	-6944
▁repe	-6945
▁ring	-6946
▁riot	-6947
▁soil	-6948
▁sple	-6949
▁stop	-6950
▁subd	-6951
▁surv	-6952
▁task	-6953
▁tetr	-6954
▁tore	-6955
▁upro	-6956
▁vult	-6957
▁wage	-6958
▁wave	-6959
▁whir	-6960
Depart	-6961
Follow	-6962
athite	-6963
culiar	-6964
ificer	-6965
meless	-6966
nowest	-6967
opolis	-6968
othite	-6969
perate	-6970
perors	-6971
rucify	-6972
uished	-6973
unning	-6974
▁Achar	-6975
▁Achaz	-6976
▁Aelim	-6977
▁Alpha	-6978
▁BLESS	-6979
▁Faith	-6980
▁JEREM	-6981
▁Jabin	-6982
▁Mercy	-6983
▁Nadab	-6984
▁Place	-6985
▁Psalm	-6986
▁aloof	-6987
▁beset	-6988
▁brace	-6989
▁chase	-6990
▁cheek	-6991
▁compl	-6992
▁dared	-6993
▁drown	-6994
▁embro	-6995
▁escap	-6996
▁filth	-6997
▁flees	-6998
▁grove	-6999
▁herbs	-7000
▁hoofs	-7001
▁kneel	-7002
▁lands	-7003
▁marks	-7004
▁needs	-7005
▁pitch	-7006
▁purse	-7007
▁regul	-7008
▁rider	-7009
▁sense	-7010
▁simil	-7011
▁sland	-7012
▁spots	-7013
▁trium	-7014
▁tunic	-7015
▁ulcer	-7016
▁unpun	-7017
▁whale	-7018
▁wines	-7019
▁wrest	-7020
▁yeast	-7021
Because	-7022
Hearken	-7023
Rejoice	-7024
amation	-7025
hildren	-7026
ileides	-7027
lethite	-7028
utation	-7029
▁Evites	-7030
▁Josias	-7031
▁Simeon	-7032
▁Sophar	-7033
▁Strive	-7034
▁Tobias	-7035
▁Whence	-7036
▁agreed	-7037
▁attach	-7038
▁banish	-7039
▁butter	-7040
▁chance	-7041
▁cheeks	-7042
▁compar	-7043
▁deacon	-7044
▁design	-7045
▁divine	-7046
▁eagles	-7047
▁easily	-7048
▁employ	-7049
▁enters	-7050
▁events	-7051
▁forced	-7052
▁foresk	-7053
▁hardly	-7054
▁hasten	-7055
▁hating	-7056
▁higher	-7057
▁intent	-7058
▁keeper	-7059
▁longed	-7060
▁madest	-7061
▁obeyed	-7062
▁pained	-7063
▁pearls	-7064
▁quaked	-7065
▁quiver	-7066
▁raises	-7067
▁record	-7068
▁revolt	-7069
▁riders	-7070
▁robber	-7071
▁safely	-7072
▁school	-7073
▁shines	-7074
▁sorely	-7075
▁tested	-7076
▁thread	-7077
▁trials	-7078
▁turtle	-7079
▁vainly	-7080
▁walled	-7081
▁weaned	-7082
▁wisely	-7083
iousness	-7084
istrates	-7085
kindness	-7086
orobabel	-7087
structed	-7088
▁Artemis	-7089
▁Chermel	-7090
▁Creator	-7091
▁Forgive	-7092
▁Goliath	-7093
▁Helkana	-7094
▁Incline	-7095
▁Ithamar	-7096
▁Laodice	-7097
▁Pharaoh	-7098
▁Rabbath	-7099
▁Salmana	-7100
▁Servant	-7101
▁Stephen	-7102
▁Through	-7103
▁Whither	-7104
▁ability	-7105
▁applied	-7106
▁avenger	-7107
▁baptize	-7108
▁blesses	-7109
▁bullock	-7110
▁caldron	-7111
▁casteth	-7112
▁ceasing	-7113
▁cheeses	-7114
▁clearly	-7115
▁cleaved	-7116
▁compare	-7117
▁conduct	-7118
▁crucify	-7119
▁cypress	-7120
▁divides	-7121
▁drought	-7122
▁embrace	-7123
▁existed	-7124
▁exposed	-7125
▁fatness	-7126
▁fleeing	-7127
▁fleshly	-7128
▁groaned	-7129
▁harlots	-7130
▁herbage	-7131
▁houseto	-7132
▁immoral	-7133
▁infants	-7134
▁inflamm	-7135
▁intreat	-7136
▁laughed	-7137
▁leaving	-7138
▁lighten	-7139
▁marries	-7140
▁miracle	-7141
▁mothers	-7142
▁neglect	-7143
▁pervert	-7144
▁plainly	-7145
▁platter	-7146
▁playing	-7147
▁proverb	-7148
▁provide	-7149
▁recount	-7150
▁regions	-7151
▁rejects	-7152
▁roaring	-7153
▁setteth	-7154
▁several	-7155
▁showing	-7156
▁slaying	-7157
▁springs	-7158
▁staying	-7159
▁streams	-7160
▁testing	-7161
▁wisheth	-7162
▁Astaroth	-7163
▁Barabbas	-7164
▁Berzelli	-7165
▁JEREMIAS	-7166
▁Likewise	-7167
▁Preacher	-7168
▁Rabsaces	-7169
▁administ	-7170
▁ascribed	-7171
▁attached	-7172
▁attacked	-7173
▁backward	-7174
▁behavior	-7175
▁beheaded	-7176
▁bereaved	-7177
▁calamity	-7178
▁candlest	-7179
▁craftily	-7180
▁disquiet	-7181
▁dwellest	-7182
▁eleventh	-7183
▁enlarged	-7184
▁hardness	-7185
▁heardest	-7186
▁hearkens	-7187
▁impudent	-7188
▁lamented	-7189
▁leavened	-7190
▁magician	-7191
▁mediator	-7192
▁overlook	-7193
▁peculiar	-7194
▁praising	-7195
▁produced	-7196
▁publicly	-7197
▁purchase	-7198
▁pursuing	-7199
▁required	-7200
▁reserved	-7201
▁reviling	-7202
▁security	-7203
▁sexually	-7204
▁sparrows	-7205
▁speaketh	-7206
▁statutes	-7207
▁swearing	-7208
▁tetrarch	-7209
▁threaten	-7210
▁trampled	-7211
▁transfer	-7212
▁treasury	-7213
▁unworthy	-7214
▁virtuous	-7215
▁warriors	-7216
▁Afterward	-7217
▁Baethoron	-7218
▁Cornelius	-7219
▁Elimelech	-7220
▁Jebusites	-7221
▁Judgement	-7222
▁Nathanael	-7223
▁Patriarch	-7224
▁Whosoever	-7225
▁artificer	-7226
▁ascending	-7227
▁benefited	-7228
▁collector	-7229
▁conscious	-7230
▁contended	-7231
▁destitute	-7232
▁didrachms	-7233
▁dismissed	-7234
▁entrusted	-7235
▁existence	-7236
▁imitators	-7237
▁mischiefs	-7238
▁pasturing	-7239
▁peaceably	-7240
▁prevented	-7241
▁privately	-7242
▁prospered	-7243
▁recovered	-7244
▁returning	-7245
▁shameless	-7246
▁subjected	-7247
▁tormented	-7248
▁tributary	-7249
▁uttermost	-7250
▁valiantly	-7251
▁winepress	-7252
▁Basileides	-7253
▁Gabaonites	-7254
▁adulteress	-7255
▁chastening	-7256
▁concerneth	-7257
▁everywhere	-7258
▁falsehoods	-7259
▁fierceness	-7260
▁foreigners	-7261
▁maintained	-7262
▁perceiving	-7263
▁unpunished	-7264
▁Eusthathius	-7265
▁ambassadors	-7266
▁appropriate	-7267
▁constrained	-7268
▁dishonoured	-7269
▁disregarded	-7270
▁distinction	-7271
▁drunkenness	-7272
▁exhortation	-7273
▁magistrates	-7274
▁preparation	-7275
▁threatening	-7276
▁unbelieving	-7277
▁uprightness	-7278
▁wheresoever	-7279
▁carelessness	-7280
▁consecration	-7281
▁proclamation	-7282
▁uninstructed	-7283
▁unprofitable	-7284
▁treacherously	-7285
▁whithersoever	-7286
▁lovingkindness	-7287
AR	-7288
Ag	-7289
By	-7290
FE	-7291
ca	-7292
gr	-7293
kn	-7294
no	-7295
uy	-7296
ws	-7297
!''	-7298
Isn	-7299
MEN	-7300
OLY	-7301
Sit	-7302
ada	-7303
asy	-7304
bue	-7305
cia	-7306
ena	-7307
fth	-7308
gad	-7309
how	-7310
ica	-7311
jan	-7312
nam	-7313
oam	-7314
oul	-7315
phr	-7316
rif	-7317
see	-7318
sop	-7319
tos	-7320
unt	-7321
wed	-7322
zor	-7323
▁''	-7324
▁AG	-7325
▁CO	-7326
▁Er	-7327
▁RE	-7328
▁SA	-7329
▁ec	-7330
From	-7331
adru	-7332
aean	-7333
aida	-7334
arth	-7335
atia	-7336
chin	-7337
chon	-7338
epha	-7339
even	-7340
ezer	-7341
face	-7342
hang	-7343
holy	-7344
host	-7345
iron	-7346
ntil	-7347
omed	-7348
ours	-7349
phah	-7350
rene	-7351
rete	-7352
ruct	-7353
seth	-7354
soci	-7355
stra	-7356
thou	-7357
uchi	-7358
unto	-7359
whor	-7360
xity	-7361
▁Agg	-7362
▁Asa	-7363
▁Com	-7364
▁Des	-7365
▁Epa	-7366
▁Est	-7367
▁Far	-7368
▁GOD	-7369
▁Jet	-7370
▁Luz	-7371
▁Lyd	-7372
▁Mas	-7373
▁Mol	-7374
▁Nav	-7375
▁Rag	-7376
▁Sac	-7377
▁Sep	-7378
▁Sur	-7379
▁Way	-7380
▁Wor	-7381
▁adm	-7382
▁bud	-7383
▁col	-7384
▁dan	-7385
▁deb	-7386
▁dip	-7387
▁doe	-7388
▁fra	-7389
▁fut	-7390
▁hin	-7391
▁hur	-7392
▁ice	-7393
▁key	-7394
▁mot	-7395
▁sme	-7396
▁smo	-7397
▁uns	-7398
▁urg	-7399
▁vap	-7400
▁vig	-7401
▁wed	-7402
AINST	-7403
Offer	-7404
Today	-7405
achor	-7406
aimed	-7407
amite	-7408
ammon	-7409
arers	-7410
arsus	-7411
asper	-7412
atche	-7413
ckets	-7414
doers	-7415
doing	-7416
ences	-7417
enite	-7418
erity	-7419
erred	-7420
goats	-7421
grity	-7422
icles	-7423
ierce	-7424
iless	-7425
inces	-7426
inner	-7427
isten	-7428
mente	-7429
oints	-7430
optos	-7431
ounce	-7432
racks	-7433
rench	-7434
seven	-7435
umble	-7436
urius	-7437
verse	-7438
zebul	-7439
▁AMEN	-7440
▁Arad	-7441
▁Bald	-7442
▁CAME	-7443
▁Care	-7444
▁Debl	-7445
▁Eliu	-7446
▁Fire	-7447
▁Gera	-7448
▁Gitt	-7449
▁HOLY	-7450
▁Icon	-7451
▁Jael	-7452
▁Just	-7453
▁Maon	-7454
▁Naph	-7455
▁Obed	-7456
▁Oreb	-7457
▁Pity	-7458
▁Test	-7459
▁Walk	-7460
▁bake	-7461
▁bald	-7462
▁bite	-7463
▁bulw	-7464
▁circ	-7465
▁comb	-7466
▁deem	-7467
▁dull	-7468
▁fatt	-7469
▁fert	-7470
▁hiss	-7471
▁hole	-7472
▁hosp	-7473
▁lint	-7474
▁mice	-7475
▁rope	-7476
▁rush	-7477
▁sang	-7478
▁sect	-7479
▁shot	-7480
▁snat	-7481
▁sole	-7482
▁spit	-7483
▁tale	-7484
▁unic	-7485
▁unli	-7486
▁unre	-7487
▁wipe	-7488
acheth	-7489
ainted	-7490
camore	-7491
ctions	-7492
enarii	-7493
etimes	-7494
omever	-7495
othing	-7496
pelled	-7497
semble	-7498
uously	-7499
▁Achin	-7500
▁Ascha	-7501
▁Athen	-7502
▁Begin	-7503
▁Earth	-7504
▁Emmor	-7505
▁Enoch	-7506
▁Glory	-7507
▁Jason	-7508
▁Jazer	-7509
▁Jobel	-7510
▁Teach	-7511
▁Tobit	-7512
▁Troas	-7513
▁Watch	-7514
▁Wrath	-7515
▁abuse	-7516
▁advoc	-7517
▁alarm	-7518
▁aware	-7519
▁baked	-7520
▁beach	-7521
▁boats	-7522
▁broad	-7523
▁brood	-7524
▁cares	-7525
▁catch	-7526
▁coats	-7527
▁convi	-7528
▁couch	-7529
▁cured	-7530
▁ended	-7531
▁ephah	-7532
▁exper	-7533
▁folds	-7534
▁hopes	-7535
▁infer	-7536
▁isles	-7537
▁kills	-7538
▁knead	-7539
▁lover	-7540
▁magic	-7541
▁meats	-7542
▁mitre	-7543
▁mound	-7544
▁oaths	-7545
▁older	-7546
▁plent	-7547
▁quant	-7548
▁razor	-7549
▁relax	-7550
▁remed	-7551
▁roast	-7552
▁rough	-7553
▁seeds	-7554
▁seeth	-7555
▁shave	-7556
▁shoes	-7557
▁siege	-7558
▁sighs	-7559
▁slipp	-7560
▁stick	-7561
▁swell	-7562
▁swine	-7563
▁tasks	-7564
▁taxes	-7565
▁twent	-7566
▁unlaw	-7567
▁vexed	-7568
▁vomit	-7569
▁wells	-7570
▁wheel	-7571
▁whirl	-7572
barians	-7573
charist	-7574
control	-7575
etorium	-7576
harvest	-7577
lerable	-7578
ourably	-7579
whoring	-7580
▁Amente	-7581
▁Arabia	-7582
▁Ephron	-7583
▁Gelbue	-7584
▁Hierax	-7585
▁Honour	-7586
▁Indeed	-7587
▁Jechon	-7588
▁Jether	-7589
▁Lystra	-7590
▁Navath	-7591
▁Raguel	-7592
▁Trajan	-7593
▁ambush	-7594
▁associ	-7595
▁bottom	-7596
▁bribes	-7597
▁commun	-7598
▁contro	-7599
▁debtor	-7600
▁decree	-7601
▁defied	-7602
▁despis	-7603
▁dissol	-7604
▁esteem	-7605
▁exting	-7606
▁greets	-7607
▁guards	-7608
▁guests	-7609
▁guides	-7610
▁honest	-7611
▁idolat	-7612
▁intell	-7613
▁knives	-7614
▁leader	-7615
▁leaped	-7616
▁loaded	-7617
▁malice	-7618
▁marked	-7619
▁moving	-7620
▁paying	-7621
▁pierce	-7622
▁plenty	-7623
▁prefer	-7624
▁pulled	-7625
▁quadru	-7626
▁sapphi	-7627
▁satisf	-7628
▁snared	-7629
▁spears	-7630
▁spider	-7631
▁splend	-7632
▁spouse	-7633
▁taketh	-7634
▁tokens	-7635
▁tossed	-7636
▁towers	-7637
▁trench	-7638
▁unholy	-7639
▁unsear	-7640
▁unwise	-7641
▁utmost	-7642
▁valour	-7643
▁virtue	-7644
▁volume	-7645
▁wasted	-7646
▁winged	-7647
▁yellow	-7648
cription	-7649
ribution	-7650
uchianus	-7651
▁AGAINST	-7652
▁Achicam	-7653
▁Achitob	-7654
▁Araboth	-7655
▁Eliphaz	-7656
▁Iconium	-7657
▁Letters	-7658
▁Philipp	-7659
▁Prepare	-7660
▁Sepphor	-7661
▁Without	-7662
▁abiding	-7663
▁abolish	-7664
▁angered	-7665
▁anxiety	-7666
▁conceit	-7667
▁cunning	-7668
▁custody	-7669
▁defence	-7670
▁defraud	-7671
▁denarii	-7672
▁devoted	-7673
▁distant	-7674
▁disting	-7675
▁disturb	-7676
▁eagerly	-7677
▁emperor	-7678
▁exulted	-7679
▁flaming	-7680
▁flatter	-7681
▁footmen	-7682
▁freedom	-7683
▁judging	-7684
▁labored	-7685
▁lacking	-7686
▁lifting	-7687
▁lodging	-7688
▁looketh	-7689
▁madness	-7690
▁marched	-7691
▁monkish	-7692
▁natives	-7693
▁nearest	-7694
▁numbers	-7695
▁outcast	-7696
▁palaces	-7697
▁partake	-7698
▁pitiful	-7699
▁plaster	-7700
▁pricked	-7701
▁prisons	-7702
▁regards	-7703
▁renewed	-7704
▁sheweth	-7705
▁shortly	-7706
▁smelled	-7707
▁sockets	-7708
▁strikes	-7709
▁suffers	-7710
▁suffice	-7711
▁surface	-7712
▁sweeter	-7713
▁terrify	-7714
▁thereon	-7715
▁torches	-7716
▁tremble	-7717
▁triumph	-7718
▁twelfth	-7719
▁washing	-7720
▁worketh	-7721
▁wronged	-7722
▁Ammanite	-7723
▁Anathoth	-7724
▁Emperors	-7725
▁Herodias	-7726
▁Laodicea	-7727
▁Maasaeas	-7728
▁Ramesses	-7729
▁Theopist	-7730
▁Whenever	-7731
▁arrested	-7732
▁articles	-7733
▁ascended	-7734
▁assigned	-7735
▁barracks	-7736
▁beckoned	-7737
▁besought	-7738
▁charmers	-7739
▁dealings	-7740
▁deceiver	-7741
▁delicate	-7742
▁derision	-7743
▁describe	-7744
▁disputes	-7745
▁drunkard	-7746
▁enduring	-7747
▁entreaty	-7748
▁executed	-7749
▁formerly	-7750
▁grinding	-7751
▁hardship	-7752
▁harmless	-7753
▁insulted	-7754
▁joyfully	-7755
▁kindreds	-7756
▁meekness	-7757
▁mightier	-7758
▁murderer	-7759
▁overtook	-7760
▁passions	-7761
▁portions	-7762
▁rebelled	-7763
▁reconcil	-7764
▁religion	-7765
▁requests	-7766
▁rewarded	-7767
▁scatters	-7768
▁services	-7769
▁solemnly	-7770
▁speakest	-7771
▁supplies	-7772
▁surnamed	-7773
▁swelling	-7774
▁sycamore	-7775
▁terribly	-7776
▁timbrels	-7777
▁valuable	-7778
▁whomever	-7779
▁withheld	-7780
▁withhold	-7781
▁youngest	-7782
▁Beelzebul	-7783
▁Bethsaida	-7784
▁Chettites	-7785
▁Eucharist	-7786
▁Forasmuch	-7787
▁Gergesite	-7788
▁Mercurius	-7789
▁adversity	-7790
▁answering	-7791
▁appearing	-7792
▁assuredly	-7793
▁baptizing	-7794
▁behaviour	-7795
▁beholding	-7796
▁blaspheme	-7797
▁brotherly	-7798
▁celebrate	-7799
▁childhood	-7800
▁cleansing	-7801
▁confirmed	-7802
▁conquered	-7803
▁continues	-7804
▁entertain	-7805
▁expecting	-7806
▁fashioned	-7807
▁handmaids	-7808
▁honeycomb	-7809
▁honorable	-7810
▁indignant	-7811
▁insolence	-7812
▁integrity	-7813
▁intending	-7814
▁mentioned	-7815
▁numbering	-7816
▁pestilent	-7817
▁posterity	-7818
▁protector	-7819
▁sorcerers	-7820
▁sorceries	-7821
▁springing	-7822
▁threshold	-7823
▁thundered	-7824
▁twentieth	-7825
▁uncovered	-7826
▁uprightly	-7827
▁utterance	-7828
▁willingly	-7829
▁wineskins	-7830
▁withstood	-7831
▁Afterwards	-7832
▁Barbarians	-7833
▁Israelites	-7834
▁Samaritans	-7835
▁Whensoever	-7836
▁acquainted	-7837
▁centenarii	-7838
▁dishonours	-7839
▁disquieted	-7840
▁forefather	-7841
▁glorifying	-7842
▁lampstands	-7843
▁passionate	-7844
▁perplexity	-7845
▁prostitute	-7846
▁provisions	-7847
▁sojourning	-7848
▁weaknesses	-7849
▁Eutuchianus	-7850
▁accordingly	-7851
▁breastplate	-7852
▁citizenship	-7853
▁counsellors	-7854
▁deceitfully	-7855
▁enlightened	-7856
▁fulfillment	-7857
▁habitations	-7858
▁marketplace	-7859
▁pomegranate	-7860
▁prophesying	-7861
▁stewardship	-7862
▁strengthens	-7863
▁temptations	-7864
▁worshipping	-7865
▁Peradventure	-7866
▁Thessalonica	-7867
▁acquaintance	-7868
▁appertaineth	-7869
▁inflammation	-7870
▁nevertheless	-7871
▁unsearchable	-7872
▁longsuffering	-7873
▁supplications	-7874
▁principalities	-7875
'?	-7876
.)	-7877
At	-7878
IC	-7879
IM	-7880
IO	-7881
Of	-7882
Th	-7883
da	-7884
dy	-7885
eg	-7886
eo	-7887
mi	-7888
ns	-7889
Hon	-7890
ICH	-7891
IFE	-7892
IME	-7893
Men	-7894
OPH	-7895
Our	-7896
Rep	-7897
ado	-7898
ago	-7899
ait	-7900
asa	-7901
bra	-7902
cce	-7903
chr	-7904
din	-7905
eat	-7906
eca	-7907
elu	-7908
fes	-7909
hab	-7910
hry	-7911
ieg	-7912
isp	-7913
lia	-7914
nes	-7915
ods	-7916
oec	-7917
ram	-7918
ria	-7919
rop	-7920
set	-7921
tol	-7922
ump	-7923
vid	-7924
▁',	-7925
▁Ah	-7926
▁CH	-7927
▁Ec	-7928
▁Ir	-7929
▁Ro	-7930
▁gn	-7931
▁iv	-7932
▁od	-7933
▁oh	-7934
....	-7935
EACE	-7936
Even	-7937
Frie	-7938
NING	-7939
Pray	-7940
Send	-7941
Sirs	-7942
adia	-7943
aphi	-7944
aret	-7945
arks	-7946
chis	-7947
cial	-7948
cile	-7949
deth	-7950
eded	-7951
educ	-7952
emus	-7953
fted	-7954
gers	-7955
hant	-7956
henn	-7957
hook	-7958
iath	-7959
ieve	-7960
ildo	-7961
kely	-7962
lers	-7963
neys	-7964
onne	-7965
oped	-7966
ourd	-7967
rant	-7968
rehe	-7969
reme	-7970
rict	-7971
rink	-7972
rows	-7973
rung	-7974
stal	-7975
what	-7976
zard	-7977
▁ALL	-7978
▁App	-7979
▁Aqu	-7980
▁Bow	-7981
▁Buy	-7982
▁CON	-7983
▁Dae	-7984
▁Din	-7985
▁Dor	-7986
▁Enn	-7987
▁Hig	-7988
▁Its	-7989
▁Lod	-7990
▁Nah	-7991
▁Nom	-7992
▁Oza	-7993
▁Phe	-7994
▁Sau	-7995
▁Sus	-7996
▁Tap	-7997
▁Thr	-7998
▁aim	-7999
▁arr	-8000
▁avo	-8001
▁bat	-8002
▁bun	-8003
▁cav	-8004
▁cin	-8005
▁dru	-8006
▁fis	-8007
▁fun	-8008
▁gen	-8009
▁gir	-8010
▁mod	-8011
▁org	-8012
▁ori	-8013
▁pag	-8014
▁roe	-8015
▁sne	-8016
▁toe	-8017
▁unm	-8018
▁upb	-8019
▁vip	-8020
After	-8021
Again	-8022
Bring	-8023
Honor	-8024
ISION	-8025
Simon	-8026
Those	-8027
alled	-8028
amble	-8029
ameel	-8030
amphy	-8031
aphim	-8032
arate	-8033
arias	-8034
arned	-8035
avest	-8036
coast	-8037
elias	-8038
fruit	-8039
gnant	-8040
hange	-8041
hosha	-8042
iathi	-8043
igent	-8044
imuth	-8045
inite	-8046
inity	-8047
itish	-8048
iture	-8049
moute	-8050
namon	-8051
okott	-8052
oniel	-8053
onite	-8054
onsul	-8055
orate	-8056
ppado	-8057
pping	-8058
quent	-8059
rence	-8060
stles	-8061
there	-8062
thern	-8063
uffed	-8064
ulate	-8065
ulsed	-8066
ultiv	-8067
verns	-8068
versy	-8069
while	-8070
▁Aren	-8071
▁Doec	-8072
▁Elam	-8073
▁Epep	-8074
▁Gird	-8075
▁Hell	-8076
▁Hold	-8077
▁Howl	-8078
▁Inst	-8079
▁Into	-8080
▁Joas	-8081
▁Much	-8082
▁Ones	-8083
▁Rest	-8084
▁Shew	-8085
▁Shou	-8086
▁Slay	-8087
▁TETH	-8088
▁Than	-8089
▁Thec	-8090
▁Thol	-8091
▁Weep	-8092
▁babb	-8093
▁baby	-8094
▁bees	-8095
▁belt	-8096
▁blue	-8097
▁buck	-8098
▁curt	-8099
▁dear	-8100
▁depe	-8101
▁dign	-8102
▁digs	-8103
▁fact	-8104
▁fins	-8105
▁flew	-8106
▁frag	-8107
▁gaze	-8108
▁godd	-8109
▁heel	-8110
▁infl	-8111
▁kids	-8112
▁lear	-8113
▁lice	-8114
▁mina	-8115
▁mule	-8116
▁opin	-8117
▁perm	-8118
▁rate	-8119
▁resp	-8120
▁ride	-8121
▁sard	-8122
▁scre	-8123
▁seer	-8124
▁simp	-8125
▁sine	-8126
▁slip	-8127
▁sour	-8128
▁spun	-8129
▁susp	-8130
▁vehe	-8131
▁warm	-8132
▁wink	-8133
▁wore	-8134
Friend	-8135
Master	-8136
allelu	-8137
amples	-8138
archus	-8139
arenes	-8140
attern	-8141
bition	-8142
chicus	-8143
course	-8144
denago	-8145
eddara	-8146
ifying	-8147
ileans	-8148
irited	-8149
isheth	-8150
isible	-8151
odemus	-8152
phegor	-8153
priest	-8154
pulous	-8155
rating	-8156
▁Achor	-8157
▁Adoni	-8158
▁Aelom	-8159
▁Antil	-8160
▁Aphec	-8161
▁Ariel	-8162
▁Arist	-8163
▁Armen	-8164
▁Balac	-8165
▁Blood	-8166
▁Chast	-8167
▁Crete	-8168
▁Gazer	-8169
▁Honor	-8170
▁Jaboc	-8171
▁Jarim	-8172
▁Medes	-8173
▁Media	-8174
▁Misor	-8175
▁Nabau	-8176
▁Napht	-8177
▁Nasib	-8178
▁PEACE	-8179
▁Prisc	-8180
▁Raphi	-8181
▁Trust	-8182
▁Truth	-8183
▁WHICH	-8184
▁acted	-8185
▁amiss	-8186
▁armor	-8187
▁awoke	-8188
▁basis	-8189
▁blows	-8190
▁bount	-8191
▁clave	-8192
▁coins	-8193
▁conne	-8194
▁creep	-8195
▁dough	-8196
▁drach	-8197
▁fetch	-8198
▁fills	-8199
▁gains	-8200
▁glass	-8201
▁gloom	-8202
▁glutt	-8203
▁gourd	-8204
▁heals	-8205
▁helps	-8206
▁homes	-8207
▁imper	-8208
▁insat	-8209
▁ivory	-8210
▁liars	-8211
▁lifts	-8212
▁limbs	-8213
▁lines	-8214
▁locks	-8215
▁music	-8216
▁nurse	-8217
▁quite	-8218
▁robes	-8219
▁shorn	-8220
▁sling	-8221
▁sores	-8222
▁stole	-8223
▁succe	-8224
▁tails	-8225
▁tells	-8226
▁terms	-8227
▁track	-8228
▁troop	-8229
▁venom	-8230
▁waxed	-8231
▁woven	-8232
astered	-8233
avement	-8234
habited	-8235
iegated	-8236
masters	-8237
okottin	-8238
olished	-8239
pentine	-8240
▁Abiron	-8241
▁Aquila	-8242
▁Athens	-8243
▁Attend	-8244
▁Baldad	-8245
▁Chaber	-8246
▁Charge	-8247
▁Cyrene	-8248
▁Daebon	-8249
▁Epaphr	-8250
▁Gedsur	-8251
▁Humble	-8252
▁Listen	-8253
▁Mariam	-8254
▁Messab	-8255
▁Misach	-8256
▁Nachor	-8257
▁Pamphy	-8258
▁Pharan	-8259
▁Phares	-8260
▁Prepar	-8261
▁Remain	-8262
▁Salmon	-8263
▁Somnas	-8264
▁Tarsus	-8265
▁Thabor	-8266
▁aliens	-8267
▁ascent	-8268
▁babies	-8269
▁barbar	-8270
▁beggar	-8271
▁begins	-8272
▁behave	-8273
▁blight	-8274
▁boasts	-8275
▁bodily	-8276
▁brooks	-8277
▁bundle	-8278
▁clergy	-8279
▁cloths	-8280
▁crafts	-8281
▁create	-8282
▁cultiv	-8283
▁dances	-8284
▁dawned	-8285
▁denies	-8286
▁dinner	-8287
▁discus	-8288
▁disple	-8289
▁enquir	-8290
▁evildo	-8291
▁fables	-8292
▁farmer	-8293
▁fisher	-8294
▁fringe	-8295
▁geneal	-8296
▁griefs	-8297
▁hallow	-8298
▁hearth	-8299
▁hiding	-8300
▁hoping	-8301
▁immort	-8302
▁infant	-8303
▁jasper	-8304
▁laughs	-8305
▁lepers	-8306
▁lights	-8307
▁livest	-8308
▁locked	-8309
▁makest	-8310
▁mammon	-8311
▁martyr	-8312
▁minded	-8313
▁mourns	-8314
▁nostri	-8315
▁object	-8316
▁origin	-8317
▁partly	-8318
▁perfum	-8319
▁possib	-8320
▁rained	-8321
▁ravens	-8322
▁reaped	-8323
▁regret	-8324
▁renown	-8325
▁reprob	-8326
▁result	-8327
▁rotten	-8328
▁salute	-8329
▁shaven	-8330
▁shrine	-8331
▁shrink	-8332
▁smooth	-8333
▁soever	-8334
▁stadia	-8335
▁sticks	-8336
▁stores	-8337
▁stormy	-8338
▁transl	-8339
▁travel	-8340
▁undert	-8341
▁vipers	-8342
▁wallet	-8343
▁warmed	-8344
▁warred	-8345
▁yearly	-8346
▁youths	-8347
hysician	-8348
ometimes	-8349
standing	-8350
thearted	-8351
▁Aggaeus	-8352
▁Alexand	-8353
▁Anameel	-8354
▁Believe	-8355
▁Cappado	-8356
▁Cariath	-8357
▁Chusars	-8358
▁Corinth	-8359
▁Delight	-8360
▁Eliakim	-8361
▁Elisama	-8362
▁Galatia	-8363
▁Highest	-8364
▁Jehosha	-8365
▁Jephone	-8366
▁Joatham	-8367
▁Sabaoth	-8368
▁Saraeas	-8369
▁Sedrach	-8370
▁Selmona	-8371
▁Sinners	-8372
▁Spirits	-8373
▁Trinity	-8374
▁Whether	-8375
▁abounds	-8376
▁billows	-8377
▁blinded	-8378
▁bramble	-8379
▁bruises	-8380
▁calleth	-8381
▁carpent	-8382
▁causing	-8383
▁changes	-8384
▁cleaves	-8385
▁committ	-8386
▁conclud	-8387
▁conquer	-8388
▁crowned	-8389
▁crystal	-8390
▁debtors	-8391
▁degrees	-8392
▁departs	-8393
▁descent	-8394
▁devises	-8395
▁devours	-8396
▁dischar	-8397
▁display	-8398
▁drawing	-8399
▁earthly	-8400
▁endless	-8401
▁enjoyed	-8402
▁escapes	-8403
▁exactly	-8404
▁excuses	-8405
▁falleth	-8406
▁feeling	-8407
▁figures	-8408
▁filleth	-8409
▁fitting	-8410
▁forbear	-8411
▁furious	-8412
▁gateway	-8413
▁gathere	-8414
▁gleaned	-8415
▁grafted	-8416
▁greeted	-8417
▁hamlets	-8418
▁hearest	-8419
▁heareth	-8420
▁illumin	-8421
▁imagine	-8422
▁inquire	-8423
▁kidneys	-8424
▁knocked	-8425
▁lawyers	-8426
▁leaning	-8427
▁leopard	-8428
▁likened	-8429
▁maidens	-8430
▁manager	-8431
▁martyrs	-8432
▁meeting	-8433
▁mustard	-8434
▁needful	-8435
▁noticed	-8436
▁nourish	-8437
▁offices	-8438
▁opposed	-8439
▁parched	-8440
▁pattern	-8441
▁planned	-8442
▁prayest	-8443
▁private	-8444
▁profess	-8445
▁railing	-8446
▁rebuild	-8447
▁redeems	-8448
▁requite	-8449
▁resists	-8450
▁reviled	-8451
▁revived	-8452
▁rewards	-8453
▁seekest	-8454
▁sentest	-8455
▁shadows	-8456
▁sheaves	-8457
▁sinning	-8458
▁slipped	-8459
▁smiting	-8460
▁sorcery	-8461
▁sparing	-8462
▁speaker	-8463
▁special	-8464
▁spokest	-8465
▁spotted	-8466
▁strifes	-8467
▁suckled	-8468
▁surpass	-8469
▁swiftly	-8470
▁upbraid	-8471
▁visible	-8472
▁walkest	-8473
▁wanders	-8474
▁warring	-8475
▁weather	-8476
▁wedding	-8477
▁workman	-8478
allelujah	-8479
iathiarim	-8480
▁Abdenago	-8481
▁Abeddara	-8482
▁Abenezer	-8483
▁Arabians	-8484
▁BLESSING	-8485
▁Chelcias	-8486
▁Ethiopia	-8487
▁Inasmuch	-8488
▁Jephonne	-8489
▁Jerimuth	-8490
▁Philippi	-8491
▁Prophets	-8492
▁Raphidin	-8493
▁Seraphim	-8494
▁Servants	-8495
▁Shepherd	-8496
▁Tychicus	-8497
▁accusers	-8498
▁addition	-8499
▁adoption	-8500
▁ambition	-8501
▁appoints	-8502
▁assemble	-8503
▁baldness	-8504
▁builders	-8505
▁charging	-8506
▁cinnamon	-8507
▁citizens	-8508
▁contempl	-8509
▁decision	-8510
▁defended	-8511
▁despises	-8512
▁district	-8513
▁dwelleth	-8514
▁embarked	-8515
▁exalteth	-8516
▁exhorted	-8517
▁handsome	-8518
▁hitherto	-8519
▁imagined	-8520
▁imprison	-8521
▁inferior	-8522
▁injuries	-8523
▁insolent	-8524
▁inwardly	-8525
▁learning	-8526
▁medicine	-8527
▁occupied	-8528
▁overseer	-8529
▁pastures	-8530
▁peaceful	-8531
▁persuade	-8532
▁pleaseth	-8533
▁populous	-8534
▁practise	-8535
▁pregnant	-8536
▁procures	-8537
▁properly	-8538
▁prospers	-8539
▁province	-8540
▁provokes	-8541
▁ravished	-8542
▁reciting	-8543
▁repeated	-8544
▁sapphire	-8545
▁scorpion	-8546
▁searches	-8547
▁severely	-8548
▁shooteth	-8549
▁smallest	-8550
▁suckling	-8551
▁supports	-8552
▁surveyed	-8553
▁unlikely	-8554
▁unreason	-8555
▁vanished	-8556
▁vanishes	-8557
▁vehement	-8558
▁Alexander	-8559
▁Carmelite	-8560
▁Counselor	-8561
▁Galaadite	-8562
▁Galileans	-8563
▁Gothoniel	-8564
▁Nicodemus	-8565
▁Pamphylia	-8566
▁Phoenicia	-8567
▁Samaritan	-8568
▁Sidonians	-8569
▁amazement	-8570
▁anchorite	-8571
▁announced	-8572
▁assurance	-8573
▁certainty	-8574
▁collected	-8575
▁commander	-8576
▁commended	-8577
▁compelled	-8578
▁confesses	-8579
▁conspired	-8580
▁dedicated	-8581
▁described	-8582
▁dissolved	-8583
▁execution	-8584
▁exhorting	-8585
▁explained	-8586
▁extortion	-8587
▁faithless	-8588
▁fifteenth	-8589
▁foreheads	-8590
▁furniture	-8591
▁goldsmith	-8592
▁governors	-8593
▁greetings	-8594
▁groanings	-8595
▁husbandry	-8596
▁increases	-8597
▁innocency	-8598
▁intercess	-8599
▁invisible	-8600
▁listening	-8601
▁measuring	-8602
▁merciless	-8603
▁neighbors	-8604
▁nourished	-8605
▁oppresses	-8606
▁patriarch	-8607
▁peaceable	-8608
▁permitted	-8609
▁presented	-8610
▁proconsul	-8611
▁proselyte	-8612
▁rebellion	-8613
▁reconcile	-8614
▁scorpions	-8615
▁sevenfold	-8616
▁slumbered	-8617
▁sweetness	-8618
▁tolerable	-8619
▁tradition	-8620
▁travailed	-8621
▁traveller	-8622
▁wandering	-8623
▁Praetorium	-8624
▁Thaemanite	-8625
▁adulterers	-8626
▁approached	-8627
▁burdensome	-8628
▁comparison	-8629
▁consecrate	-8630
▁continuing	-8631
▁delivering	-8632
▁difficulty	-8633
▁encouraged	-8634
▁experience	-8635
▁overshadow	-8636
▁pertaining	-8637
▁powerfully	-8638
▁prophetess	-8639
▁propitious	-8640
▁proselytes	-8641
▁refreshing	-8642
▁sanctifies	-8643
▁similitude	-8644
▁travelling	-8645
▁turpentine	-8646
▁variegated	-8647
▁Antilibanus	-8648
▁Aristarchus	-8649
▁Destruction	-8650
▁Jehoshaphat	-8651
▁Preparation	-8652
▁accountants	-8653
▁authorities	-8654
▁controversy	-8655
▁establishes	-8656
▁forefathers	-8657
▁imagination	-8658
▁infirmities	-8659
▁intelligent	-8660
▁interpreted	-8661
▁overwhelmed	-8662
▁proclaiming	-8663
▁remembering	-8664
▁righteously	-8665
▁wonderfully	-8666
▁extinguished	-8667
▁fainthearted	-8668
▁marketplaces	-8669
▁persecutions	-8670
▁Chusarsathaim	-8671
▁contradiction	-8672
▁encouragement	-8673
):	-8674
AB	-8675
Ne	-8676
PA	-8677
TE	-8678
YR	-8679
bu	-8680
fu	-8681
ht	-8682
io	-8683
mo	-8684
ni	-8685
wd	-8686
ye	-8687
ADE	-8688
Bew	-8689
CHS	-8690
Che	-8691
ENT	-8692
EPH	-8693
LOR	-8694
Put	-8695
SEN	-8696
aar	-8697
akk	-8698
beg	-8699
CER	-8700
ERT	-8701
ERY	-8702
PON	-8703
bin	-8704
boc	-8705
bow	-8706
bur	-8707
cas	-8708
cep	-8709
col	-8710
eas	-8711
ebt	-8712
ele	-8713
gat	-8714
gen	-8715
gob	-8716
hos	-8717
ira	-8718
ker	-8719
off	-8720
ogy	-8721
ona	-8722
ops	-8723
pid	-8724
rid	-8725
rog	-8726
sga	-8727
sts	-8728
tri	-8729
ubb	-8730
wit	-8731
yrs	-8732
▁Gu	-8733
▁Hy	-8734
▁JO	-8735
▁Lu	-8736
▁ON	-8737
▁WE	-8738
▁ty	-8739
AMED	-8740
Aren	-8741
Didn	-8742
HAPH	-8743
IMEL	-8744
Paul	-8745
Thus	-8746
Well	-8747
With	-8748
acle	-8749
adel	-8750
agar	-8751
ageb	-8752
alry	-8753
anna	-8754
anqu	-8755
aris	-8756
avel	-8757
baid	-8758
bbed	-8759
bbit	-8760
body	-8761
deme	-8762
dled	-8763
dove	-8764
edec	-8765
emly	-8766
ends	-8767
erbe	-8768
goat	-8769
hela	-8770
herd	-8771
hill	-8772
hnas	-8773
illa	-8774
keth	-8775
mega	-8776
mond	-8777
odae	-8778
ouch	-8779
peds	-8780
phni	-8781
raba	-8782
rald	-8783
rawn	-8784
rier	-8785
rios	-8786
ripe	-8787
rons	-8788
some	-8789
ssop	-8790
ster	-8791
them	-8792
ties	-8793
tong	-8794
utor	-8795
will	-8796
wind	-8797
word	-8798
xion	-8799
▁AIN	-8800
▁Amb	-8801
▁Arc	-8802
▁Ase	-8803
▁Ban	-8804
▁Cle	-8805
▁DAL	-8806
▁Div	-8807
▁Hor	-8808
▁JOD	-8809
▁Jan	-8810
▁Leb	-8811
▁Lob	-8812
▁MEM	-8813
▁MON	-8814
▁Min	-8815
▁Nor	-8816
▁PHE	-8817
▁Pal	-8818
▁Pap	-8819
▁Rob	-8820
▁Ros	-8821
▁Sha	-8822
▁Swe	-8823
▁Tab	-8824
▁Tar	-8825
▁Two	-8826
▁WAS	-8827
▁Was	-8828
▁abs	-8829
▁aha	-8830
▁aid	-8831
▁arc	-8832
▁awe	-8833
▁bid	-8834
▁cap	-8835
▁dem	-8836
▁haw	-8837
▁jar	-8838
▁kin	-8839
▁lit	-8840
▁nap	-8841
▁obs	-8842
▁pap	-8843
▁pil	-8844
▁pip	-8845
▁pru	-8846
▁pus	-8847
▁rag	-8848
▁sob	-8849
▁voy	-8850
▁wea	-8851
▁wet	-8852
AMECH	-8853
Allow	-8854
Bless	-8855
Cheer	-8856
Great	-8857
LORIO	-8858
Moses	-8859
Shall	-8860
Stand	-8861
Their	-8862
Truly	-8863
acles	-8864
acrif	-8865
ading	-8866
aeans	-8867
again	-8868
akeda	-8869
aketh	-8870
angel	-8871
anity	-8872
aphat	-8873
apped	-8874
ashes	-8875
assed	-8876
asson	-8877
astus	-8878
atira	-8879
avier	-8880
aying	-8881
eaten	-8882
emath	-8883
enses	-8884
epend	-8885
erubb	-8886
etime	-8887
geons	-8888
ianus	-8889
ideth	-8890
ifted	-8891
imate	-8892
imely	-8893
ineem	-8894
ingly	-8895
iracy	-8896
irely	-8897
light	-8898
lings	-8899
mbals	-8900
oping	-8901
orous	-8902
orter	-8903
otent	-8904
pares	-8905
pheth	-8906
plain	-8907
ppers	-8908
rease	-8909
riads	-8910
riety	-8911
sente	-8912
sight	-8913
stasy	-8914
tends	-8915
tered	-8916
thage	-8917
thily	-8918
tribe	-8919
uding	-8920
vanus	-8921
yards	-8922
▁(?),	-8923
▁Aris	-8924
▁BETH	-8925
▁Ball	-8926
▁Bart	-8927
▁Bath	-8928
▁Bear	-8929
▁Beor	-8930
▁COME	-8931
▁Cana	-8932
▁Chen	-8933
▁Chet	-8934
▁Chor	-8935
▁Chur	-8936
▁Dina	-8937
▁Elie	-8938
▁Fill	-8939
▁Gall	-8940
▁Gods	-8941
▁Grie	-8942
▁HETH	-8943
▁Host	-8944
▁LIFE	-8945
▁Lead	-8946
▁Lear	-8947
▁Luza	-8948
▁Mamb	-8949
▁Phan	-8950
▁Pour	-8951
▁Read	-8952
▁Sara	-8953
▁Senn	-8954
▁Stri	-8955
▁Ther	-8956
▁Wors	-8957
▁adul	-8958
▁akin	-8959
▁alas	-8960
▁bagg	-8961
▁batt	-8962
▁beli	-8963
▁boil	-8964
▁cook	-8965
▁cord	-8966
▁crop	-8967
▁cuts	-8968
▁easy	-8969
▁educ	-8970
▁ensl	-8971
▁fawn	-8972
▁foal	-8973
▁foul	-8974
▁garb	-8975
▁girl	-8976
▁gnaw	-8977
▁gore	-8978
▁grey	-8979
▁hook	-8980
▁kine	-8981
▁knee	-8982
▁leaf	-8983
▁lewd	-8984
▁lily	-8985
▁lump	-8986
▁mans	-8987
▁nose	-8988
▁nurt	-8989
▁onto	-8990
▁ours	-8991
▁pair	-8992
▁pred	-8993
▁rack	-8994
▁rash	-8995
▁recl	-8996
▁ribs	-8997
▁ripe	-8998
▁savi	-8999
▁scep	-9000
▁stem	-9001
▁stud	-9002
▁thin	-9003
▁ting	-9004
▁toes	-9005
▁tops	-9006
▁trap	-9007
▁uses	-9008
▁view	-9009
▁warn	-9010
▁welc	-9011
Before	-9012
Beware	-9013
Coptos	-9014
Repent	-9015
atchet	-9016
christ	-9017
efiled	-9018
ensive	-9019
hangel	-9020
hatter	-9021
houses	-9022
ilings	-9023
inence	-9024
itness	-9025
ledged	-9026
lemias	-9027
licity	-9028
licted	-9029
making	-9030
monish	-9031
nowing	-9032
racing	-9033
racted	-9034
resses	-9035
seeing	-9036
zardan	-9037
zekiah	-9038
▁ALEPH	-9039
▁Amiel	-9040
▁Annas	-9041
▁Annon	-9042
▁Argob	-9043
▁Assur	-9044
▁Azeca	-9045
▁Baana	-9046
▁CHAPH	-9047
▁CHSEN	-9048
▁Caree	-9049
▁Claud	-9050
▁Derbe	-9051
▁Didst	-9052
▁Drink	-9053
▁Emath	-9054
▁Ennom	-9055
▁Exalt	-9056
▁Fight	-9057
▁GIMEL	-9058
▁Gaber	-9059
▁Gaius	-9060
▁Jamin	-9061
▁Jodae	-9062
▁Joses	-9063
▁Judin	-9064
▁LAMED	-9065
▁Leave	-9066
▁Maged	-9067
▁Nageb	-9068
▁Nomba	-9069
▁Ophni	-9070
▁Ozias	-9071
▁Phenn	-9072
▁Pride	-9073
▁Rahab	-9074
▁Sarah	-9075
▁Sinai	-9076
▁Think	-9077
▁Tiber	-9078
▁Truly	-9079
▁Water	-9080
▁Write	-9081
▁accur	-9082
▁appet	-9083
▁arrog	-9084
▁awful	-9085
▁babes	-9086
▁barns	-9087
▁blade	-9088
▁blame	-9089
▁board	-9090
▁bondw	-9091
▁bough	-9092
▁chews	-9093
▁crops	-9094
▁crows	-9095
▁crumb	-9096
▁cumin	-9097
▁dates	-9098
▁deeps	-9099
▁delic	-9100
▁discl	-9101
▁doers	-9102
▁elect	-9103
▁envel	-9104
▁exped	-9105
▁extol	-9106
▁fatal	-9107
▁flies	-9108
▁fords	-9109
▁forms	-9110
▁frame	-9111
▁ghost	-9112
▁giant	-9113
▁girds	-9114
▁gnash	-9115
▁gover	-9116
▁grope	-9117
▁happy	-9118
▁harps	-9119
▁heave	-9120
▁intem	-9121
▁joint	-9122
▁knelt	-9123
▁later	-9124
▁lends	-9125
▁leper	-9126
▁level	-9127
▁lieth	-9128
▁loath	-9129
▁loses	-9130
▁minas	-9131
▁moons	-9132
▁mules	-9133
▁nests	-9134
▁oblig	-9135
▁oboli	-9136
▁ostri	-9137
▁pagan	-9138
▁pours	-9139
▁prize	-9140
▁rests	-9141
▁rocky	-9142
▁ruins	-9143
▁sacks	-9144
▁saves	-9145
▁scoff	-9146
▁shady	-9147
▁sheaf	-9148
▁sheet	-9149
▁slack	-9150
▁space	-9151
▁sport	-9152
▁stabl	-9153
▁stank	-9154
▁steep	-9155
▁stork	-9156
▁stren	-9157
▁stuff	-9158
▁super	-9159
▁suspe	-9160
▁swept	-9161
▁torch	-9162
▁traff	-9163
▁trait	-9164
▁tries	-9165
▁wagon	-9166
▁waist	-9167
▁waits	-9168
▁wiles	-9169
▁wills	-9170
▁woods	-9171
Brother	-9172
CERNING	-9173
Neither	-9174
acherim	-9175
because	-9176
enezite	-9177
etrated	-9178
gathere	-9179
handise	-9180
isition	-9181
owardly	-9182
ropolis	-9183
seventh	-9184
stances	-9185
tongued	-9186
ustomed	-9187
versary	-9188
vidence	-9189
▁Abdeme	-9190
▁Angels	-9191
▁Canaan	-9192
▁Chobar	-9193
▁Choose	-9194
▁DALETH	-9195
▁Dathan	-9196
▁Edrain	-9197
▁GLORIO	-9198
▁Gadgad	-9199
▁Gedson	-9200
▁Govern	-9201
▁Hermon	-9202
▁Little	-9203
▁Maalon	-9204
▁Magdol	-9205
▁Makeda	-9206
▁Merari	-9207
▁Moloch	-9208
▁Phasga	-9209
▁Psalms	-9210
▁Respha	-9211
▁SAMECH	-9212
▁Sebama	-9213
▁Sebast	-9214
▁Siloam	-9215
▁Streng	-9216
▁Throne	-9217
▁Tsente	-9218
▁adjure	-9219
▁advice	-9220
▁affirm	-9221
▁afford	-9222
▁almond	-9223
▁appeal	-9224
▁beards	-9225
▁beings	-9226
▁belief	-9227
▁bounds	-9228
▁breaks	-9229
▁bridal	-9230
▁builds	-9231
▁bushes	-9232
▁circum	-9233
▁clefts	-9234
▁cloaks	-9235
▁crieth	-9236
▁crimin	-9237
▁dashed	-9238
▁deadly	-9239
▁detain	-9240
▁dimmed	-9241
▁dismay	-9242
▁dispos	-9243
▁divers	-9244
▁encomp	-9245
▁engage	-9246
▁enroll	-9247
▁exists	-9248
▁expert	-9249
▁expose	-9250
▁famous	-9251
▁fitted	-9252
▁floods	-9253
▁flowed	-9254
▁fowler	-9255
▁future	-9256
▁gavest	-9257
▁graces	-9258
▁graves	-9259
▁greedy	-9260
▁habits	-9261
▁handed	-9262
▁handle	-9263
▁hatest	-9264
▁hearer	-9265
▁herald	-9266
▁highly	-9267
▁holies	-9268
▁hunted	-9269
▁hyssop	-9270
▁impart	-9271
▁invite	-9272
▁joints	-9273
▁knocks	-9274
▁labors	-9275
▁limits	-9276
▁lintel	-9277
▁loosen	-9278
▁maimed	-9279
▁nearer	-9280
▁nearly	-9281
▁nobody	-9282
▁nursed	-9283
▁offers	-9284
▁olives	-9285
▁owners	-9286
▁pities	-9287
▁played	-9288
▁poison	-9289
▁ponder	-9290
▁puffed	-9291
▁purged	-9292
▁rabbit	-9293
▁really	-9294
▁remedy	-9295
▁restri	-9296
▁richly	-9297
▁rooted	-9298
▁routed	-9299
▁ruling	-9300
▁sandal	-9301
▁satyrs	-9302
▁saving	-9303
▁screen	-9304
▁seated	-9305
▁shared	-9306
▁sights	-9307
▁sinews	-9308
▁single	-9309
▁snatch	-9310
▁sprung	-9311
▁troops	-9312
▁trough	-9313
▁undone	-9314
▁unwill	-9315
▁uproar	-9316
▁urgent	-9317
▁useful	-9318
▁veiled	-9319
▁volunt	-9320
▁voyage	-9321
▁wanton	-9322
▁weapon	-9323
▁whispe	-9324
▁willed	-9325
▁wishes	-9326
ependent	-9327
ertainly	-9328
fruitful	-9329
▁Abineem	-9330
▁Barachi	-9331
▁Bathuel	-9332
▁Chasten	-9333
▁Crucify	-9334
▁Destroy	-9335
▁Eliphas	-9336
▁Gesirit	-9337
▁Godhead	-9338
▁Matthew	-9339
▁Melchis	-9340
▁Naasson	-9341
▁Perhaps	-9342
▁Phanuel	-9343
▁Pontius	-9344
▁Receive	-9345
▁Stephan	-9346
▁Taphnas	-9347
▁Thamnas	-9348
▁Thebaid	-9349
▁Thyself	-9350
▁Turning	-9351
▁Wherein	-9352
▁Worship	-9353
▁abideth	-9354
▁accuses	-9355
▁adjured	-9356
▁advised	-9357
▁aground	-9358
▁avenges	-9359
▁baggage	-9360
▁battles	-9361
▁beating	-9362
▁begging	-9363
▁behaved	-9364
▁benefit	-9365
▁besiege	-9366
▁boasted	-9367
▁bondman	-9368
▁carries	-9369
▁cavalry	-9370
▁chooses	-9371
▁circuit	-9372
▁cleared	-9373
▁convict	-9374
▁correct	-9375
▁couldst	-9376
▁cymbals	-9377
▁daytime	-9378
▁dealing	-9379
▁decided	-9380
▁delayed	-9381
▁demonst	-9382
▁deposit	-9383
▁dignity	-9384
▁dismiss	-9385
▁drowned	-9386
▁ecstasy	-9387
▁emerods	-9388
▁enlarge	-9389
▁failing	-9390
▁fertile	-9391
▁fifties	-9392
▁floweth	-9393
▁forests	-9394
▁girdles	-9395
▁gnashed	-9396
▁handful	-9397
▁hanging	-9398
▁heavier	-9399
▁heaving	-9400
▁hedgeho	-9401
▁honored	-9402
▁hostile	-9403
▁humbles	-9404
▁imitate	-9405
▁impiety	-9406
▁judgest	-9407
▁judgeth	-9408
▁kneaded	-9409
▁kneeled	-9410
▁leaping	-9411
▁leather	-9412
▁lentils	-9413
▁lighted	-9414
▁lowered	-9415
▁mortals	-9416
▁murders	-9417
▁myriads	-9418
▁nursing	-9419
▁offense	-9420
▁opinion	-9421
▁payment	-9422
▁persist	-9423
▁pigeons	-9424
▁pouring	-9425
▁precept	-9426
▁proving	-9427
▁publish	-9428
▁pursuit	-9429
▁rations	-9430
▁refresh	-9431
▁refuses	-9432
▁regular	-9433
▁renders	-9434
▁revenge	-9435
▁sailors	-9436
▁sardius	-9437
▁seaside	-9438
▁sendeth	-9439
▁servile	-9440
▁sharper	-9441
▁shewing	-9442
▁shouldn	-9443
▁sickles	-9444
▁spittle	-9445
▁station	-9446
▁stooped	-9447
▁subdued	-9448
▁succeed	-9449
▁sunrise	-9450
▁surname	-9451
▁sweetly	-9452
▁timbrel	-9453
▁unicorn	-9454
▁unspeak	-9455
▁untying	-9456
▁warning	-9457
▁watches	-9458
▁watered	-9459
▁weights	-9460
▁whisper	-9461
▁withers	-9462
criptions	-9463
erubbabel	-9464
istration	-9465
okottinoi	-9466
▁Achinaam	-9467
▁Admonish	-9468
▁Alphaeus	-9469
▁Arachite	-9470
▁Baethsan	-9471
▁Carthage	-9472
▁Children	-9473
▁Deblatha	-9474
▁Elamites	-9475
▁Faithful	-9476
▁Hezekiah	-9477
▁Josaphat	-9478
▁Lawgiver	-9479
▁Michaeas	-9480
▁Moabites	-9481
▁Romelias	-9482
▁Sauchite	-9483
▁Selemias	-9484
▁Separate	-9485
▁Sepphora	-9486
▁Silvanus	-9487
▁Thyatira	-9488
▁acquired	-9489
▁actually	-9490
▁advocate	-9491
▁appealed	-9492
▁attaches	-9493
▁befallen	-9494
▁believer	-9495
▁boastful	-9496
▁breaketh	-9497
▁burdened	-9498
▁changeth	-9499
▁channels	-9500
▁chastise	-9501
▁clusters	-9502
▁commends	-9503
▁comprehe	-9504
▁constant	-9505
▁cowardly	-9506
▁daylight	-9507
▁deceives	-9508
▁declined	-9509
▁distinct	-9510
▁divorces	-9511
▁dreadful	-9512
▁dropping	-9513
▁election	-9514
▁elements	-9515
▁enriched	-9516
▁enrolled	-9517
▁entirely	-9518
▁eternity	-9519
▁exceeded	-9520
▁exchange	-9521
▁existeth	-9522
▁expected	-9523
▁fainting	-9524
▁fettered	-9525
▁foreskin	-9526
▁garrison	-9527
▁glorying	-9528
▁housetop	-9529
▁impotent	-9530
▁impurity	-9531
▁inquired	-9532
▁intently	-9533
▁lifetime	-9534
▁manacles	-9535
▁merchant	-9536
▁mistress	-9537
▁moisture	-9538
▁nobleman	-9539
▁nostrils	-9540
▁observes	-9541
▁ordering	-9542
▁overflow	-9543
▁overlaid	-9544
▁perishes	-9545
▁position	-9546
▁possibly	-9547
▁preacher	-9548
▁preaches	-9549
▁prepares	-9550
▁priestly	-9551
▁procured	-9552
▁produces	-9553
▁profited	-9554
▁promoted	-9555
▁pursuers	-9556
▁recorder	-9557
▁redeemer	-9558
▁relative	-9559
▁requited	-9560
▁resisted	-9561
▁reverent	-9562
▁revolted	-9563
▁severity	-9564
▁shearing	-9565
▁shedding	-9566
▁shouldst	-9567
▁sleepest	-9568
▁snatched	-9569
▁solitary	-9570
▁splendid	-9571
▁standard	-9572
▁stumbles	-9573
▁survived	-9574
▁teacheth	-9575
▁thirteen	-9576
▁thistles	-9577
▁trustest	-9578
▁unlawful	-9579
▁unseemly	-9580
▁untimely	-9581
▁uttering	-9582
▁vexation	-9583
▁vultures	-9584
▁wandered	-9585
▁watchmen	-9586
▁worthily	-9587
▁wrathful	-9588
Hallelujah	-9589
Whatsoever	-9590
▁Adversary	-9591
▁Beginning	-9592
▁Benjamite	-9593
▁Christian	-9594
▁Ethiopian	-9595
▁Jechonias	-9596
▁Moabitess	-9597
▁Physician	-9598
▁Whereupon	-9599
▁alienated	-9600
▁associate	-9601
▁attendant	-9602
▁barbarian	-9603
▁believeth	-9604
▁blossomed	-9605
▁bracelets	-9606
▁chastened	-9607
▁complaint	-9608
▁conceited	-9609
▁concerned	-9610
▁conferred	-9611
▁conformed	-9612
▁consuming	-9613
▁correctly	-9614
▁covenants	-9615
▁cultivate	-9616
▁deception	-9617
▁deposited	-9618
▁devouring	-9619
▁discerned	-9620
▁displayed	-9621
▁enquiries	-9622
▁exercised	-9623
▁expedient	-9624
▁fastening	-9625
▁faultless	-9626
▁footsteps	-9627
▁fortified	-9628
▁frustrate	-9629
▁happeneth	-9630
▁heaviness	-9631
▁honoureth	-9632
▁indicated	-9633
▁lowliness	-9634
▁luxurious	-9635
▁martyrdom	-9636
▁marvelous	-9637
▁medicines	-9638
▁ministers	-9639
▁mortality	-9640
▁ointments	-9641
▁perishing	-9642
▁quietness	-9643
▁receiveth	-9644
▁reckoning	-9645
▁reclining	-9646
▁remembers	-9647
▁reprobate	-9648
▁respected	-9649
▁retreated	-9650
▁searching	-9651
▁servitude	-9652
▁sharpened	-9653
▁shortened	-9654
▁sometimes	-9655
▁teachings	-9656
▁terminate	-9657
▁thereupon	-9658
▁undefiled	-9659
▁wherefrom	-9660
▁whirlwind	-9661
▁withdrawn	-9662
▁Abdemelech	-9663
▁Amalekites	-9664
▁CONCERNING	-9665
▁Cappadocia	-9666
▁Chelethite	-9667
▁Gergesites	-9668
▁Heliopolis	-9669
▁Nabuzardan	-9670
▁Providence	-9671
▁Strengthen	-9672
▁abstinence	-9673
▁accurately	-9674
▁accustomed	-9675
▁admonished	-9676
▁commission	-9677
▁conspiracy	-9678
▁contention	-9679
▁contradict	-9680
▁craftiness	-9681
▁defilement	-9682
▁destroying	-9683
▁dispersion	-9684
▁distracted	-9685
▁excellency	-9686
▁expedition	-9687
▁faithfully	-9688
▁fatherhood	-9689
▁fornicator	-9690
▁gloriously	-9691
▁government	-9692
▁honourably	-9693
▁husbandman	-9694
▁ignorantly	-9695
▁inflicting	-9696
▁insatiable	-9697
▁instrument	-9698
▁liberality	-9699
▁metropolis	-9700
▁oppressors	-9701
▁penetrated	-9702
▁principles	-9703
▁quadrupeds	-9704
▁questioned	-9705
▁sackcloths	-9706
▁shamefully	-9707
▁simplicity	-9708
▁slanderers	-9709
▁sojourners	-9710
▁sprinkling	-9711
▁storehouse	-9712
▁translated	-9713
▁trespassed	-9714
▁unfruitful	-9715
▁wrongfully	-9716
withstanding	-9717
▁Sennacherim	-9718
▁approaching	-9719
▁blasphemous	-9720
▁bountifully	-9721
▁candlestick	-9722
▁confidently	-9723
▁convocation	-9724
▁cornerstone	-9725
▁discernment	-9726
▁disgraceful	-9727
▁distinguish	-9728
▁embroidered	-9729
▁handmaidens	-9730
▁independent	-9731
▁inquisition	-9732
▁inscription	-9733
▁intemperate	-9734
▁intercourse	-9735
▁merchandise	-9736
▁multiplying	-9737
▁provocation	-9738
▁retribution	-9739
▁treacherous	-9740
▁uninhabited	-9741
▁worshippers	-9742
▁Cariathiarim	-9743
▁Jezraelitess	-9744
▁acknowledged	-9745
▁conversation	-9746
▁fornications	-9747
▁instructions	-9748
▁intercession	-9749
▁successfully	-9750
▁Righteousness	-9751
▁administereth	-9752
▁consideration	-9753
▁contemplation	-9754
▁manifestation	-9755
▁administration	-9756
▁manifestations	-9757
▁reconciliation	-9758
'.	-9759
(?	-9760
AN	-9761
AT	-9762
Ca	-9763
De	-9764
EW	-9765
Ex	-9766
GY	-9767
OM	-9768
PT	-9769
bi	-9770
de	-9771
la	-9772
uk	-9773
wr	-9774
AND	-9775
ART	-9776
EWS	-9777
Eli	-9778
Hos	-9779
Out	-9780
Yet	-9781
aed	-9782
ald	-9783
ali	-9784
ane	-9785
any	-9786
asi	-9787
aun	-9788
bal	-9789
dne	-9790
eav	-9791
eel	-9792
elf	-9793
ema	-9794
gia	-9795
gri	-9796
hil	-9797
ims	-9798
iry	-9799
lk	-9800
zy	-9801
acy	-9802
era	-9803
isa	-9804
lit	-9805
lph	-9806
mec	-9807
olg	-9808
oma	-9809
onc	-9810
ply	-9811
pow	-9812
ppy	-9813
rad	-9814
rah	-9815
ril	-9816
ris	-9817
sar	-9818
tus	-9819
uck	-9820
ula	-9821
voc	-9822
who	-9823
▁';	-9824
▁AM	-9825
▁Cl	-9826
▁Co	-9827
▁Dj	-9828
▁FA	-9829
▁MO	-9830
▁Ob	-9831
▁Om	-9832
▁PR	-9833
▁Sa	-9834
▁Sc	-9835
▁Su	-9836
▁ed	-9837
AINT	-9838
Away	-9839
Baal	-9840
Caes	-9841
Does	-9842
Fall	-9843
GYPT	-9844
Good	-9845
SADE	-9846
Saul	-9847
Some	-9848
That	-9849
Will	-9850
abar	-9851
addi	-9852
agad	-9853
aion	-9854
alim	-9855
arin	-9856
arse	-9857
asar	-9858
asqu	-9859
assa	-9860
bing	-9861
cede	-9862
cies	-9863
cill	-9864
cius	-9865
cken	-9866
cred	-9867
elic	-9868
enan	-9869
erez	-9870
erve	-9871
ethe	-9872
etri	-9873
fess	-9874
ffet	-9875
ffin	-9876
foot	-9877
geny	-9878
ical	-9879
icul	-9880
iece	-9881
iers	-9882
iken	-9883
imil	-9884
inon	-9885
ishb	-9886
ital	-9887
jure	-9888
kful	-9889
lead	-9890
moon	-9891
noph	-9892
ogel	-9893
omen	-9894
omew	-9895
onge	-9896
opag	-9897
phis	-9898
pill	-9899
yn	-9900
One	-9901
Thy	-9902
oea	-9903
unc	-9904
alty	-9905
beit	-9906
blem	-9907
heap	-9908
ials	-9909
irer	-9910
plar	-9911
pond	-9912
pses	-9913
pted	-9914
ptic	-9915
reck	-9916
riah	-9917
rian	-9918
rion	-9919
rors	-9920
sepp	-9921
ssus	-9922
sted	-9923
ugit	-9924
ulse	-9925
uned	-9926
used	-9927
work	-9928
worm	-9929
ymus	-9930
zron	-9931
▁APA	-9932
▁Aia	-9933
▁Bau	-9934
▁Buz	-9935
▁Cat	-9936
▁Cit	-9937
▁Cur	-9938
▁DAY	-9939
▁Dev	-9940
▁END	-9941
▁Eat	-9942
▁Ell	-9943
▁Eng	-9944
▁Ete	-9945
▁Gen	-9946
▁Hab	-9947
▁Jas	-9948
▁Jem	-9949
▁Jor	-9950
▁Lat	-9951
▁Lib	-9952
▁Mon	-9953
▁New	-9954
▁PRO	-9955
▁Pah	-9956
▁Peo	-9957
▁Pet	-9958
▁Pub	-9959
▁Ref	-9960
▁Reg	-9961
▁Run	-9962
▁San	-9963
▁Sob	-9964
▁Sto	-9965
▁Tho	-9966
▁Won	-9967
▁aud	-9968
▁awl	-9969
▁bag	-9970
▁bee	-9971
▁ber	-9972
▁box	-9973
▁cop	-9974
▁cot	-9975
▁eff	-9976
▁ful	-9977
▁gag	-9978
▁hol	-9979
▁hut	-9980
▁ink	-9981
▁kis	-9982
▁lee	-9983
▁nar	-9984
▁obv	-9985
▁owl	-9986
▁pac	-9987
▁pan	-9988
▁phi	-9989
▁tan	-9990
▁upl	-9991
ARTYR	-9992
Write	-9993
abled	-9994
accha	-9995
actor	-9996
akest	-9997
akkuk	-9998
aliel	-9999
)?	-10000
Wor	-10001
chie	-10002
oard	-10003
pots	-10004
they	-10005
zzar	-10006
▁Aet	-10007
▁Sec	-10008
▁ant	-10009
▁asp	-10010
▁cel	-10011
▁gle	-10012
▁rum	-10013
Haven	-10014
amest	-10015
apius	-10016
arach	-10017
ardis	-10018
asion	-10019
ateth	-10020
attin	-10021
batha	-10022
belie	-10023
bezek	-10024
bucha	-10025
chard	-10026
chers	-10027
chors	-10028
claim	-10029
ctims	-10030
doves	-10031
ealed	-10032
erchi	-10033
eteen	-10034
faced	-10035
first	-10036
hians	-10037
hilus	-10038
icted	-10039
iders	-10040
iency	-10041
ifter	-10042
ileth	-10043
ipped	-10044
irgin	-10045
iring	-10046
iscop	-10047
ively	-10048
known	-10049
lambs	-10050
lieth	-10051
lived	-10052
livet	-10053
lphur	-10054
marks	-10055
oined	-10056
oking	-10057
omach	-10058
omium	-10059
onder	-10060
onger	-10061
osity	-10062
piter	-10063
pleas	-10064
posts	-10065
quire	-10066
rabin	-10067
ranny	-10068
raved	-10069
redom	-10070
rieth	-10071
shore	-10072
stain	-10073
sters	-10074
teeth	-10075
tense	-10076
those	-10077
uence	-10078
umber	-10079
vable	-10080
vices	-10081
xture	-10082
▁Abie	-10083
▁Aend	-10084
▁Arim	-10085
▁Asom	-10086
▁Azor	-10087
▁Bana	-10088
▁Base	-10089
▁Bern	-10090
▁Body	-10091
▁Daed	-10092
▁Each	-10093
▁Emec	-10094
▁Five	-10095
▁Fors	-10096
▁Gebe	-10097
▁Geon	-10098
▁Gers	-10099
adai	-10100
eryl	-10101
shon	-10102
▁Add	-10103
▁Esd	-10104
▁dit	-10105
▁ere	-10106
ailer	-10107
asped	-10108
comed	-10109
heart	-10110
▁Cont	-10111
▁Disp	-10112
▁Glor	-10113
▁Heal	-10114
▁Hope	-10115
▁Iras	-10116
▁JEWS	-10117
▁Joel	-10118
▁Juli	-10119
▁Land	-10120
▁Life	-10121
▁Luke	-10122
▁Mase	-10123
▁Mile	-10124
▁Mult	-10125
▁Myst	-10126
▁Oron	-10127
▁Over	-10128
▁Phil	-10129
▁Phry	-10130
▁Pres	-10131
▁Sacr	-10132
▁Shen	-10133
▁Show	-10134
▁THAT	-10135
▁Tert	-10136
▁Wait	-10137
▁Wine	-10138
▁adds	-10139
▁alle	-10140
▁amid	-10141
▁anew	-10142
▁carn	-10143
▁caut	-10144
▁clim	-10145
▁coal	-10146
▁coin	-10147
▁cool	-10148
▁cost	-10149
▁cups	-10150
▁cure	-10151
▁dart	-10152
▁dens	-10153
▁dine	-10154
▁dyed	-10155
▁encl	-10156
▁enra	-10157
▁entr	-10158
▁fade	-10159
▁fame	-10160
▁farm	-10161
▁flog	-10162
▁flux	-10163
▁folk	-10164
▁fron	-10165
▁gild	-10166
▁grud	-10167
▁gulf	-10168
▁hadn	-10169
▁hawk	-10170
▁jaws	-10171
▁jest	-10172
▁knit	-10173
▁lair	-10174
▁leve	-10175
▁lick	-10176
▁lime	-10177
▁liqu	-10178
▁lobe	-10179
▁mars	-10180
▁owed	-10181
▁pine	-10182
▁plou	-10183
▁reco	-10184
▁reig	-10185
▁rode	-10186
▁sank	-10187
▁sedu	-10188
▁sift	-10189
▁spac	-10190
▁span	-10191
▁sted	-10192
▁stup	-10193
▁subm	-10194
▁subs	-10195
▁swar	-10196
▁swim	-10197
▁unce	-10198
▁unst	-10199
SE	-10200
ex	-10201
GIN	-10202
zec	-10203
enes	-10204
grie	-10205
icip	-10206
mmed	-10207
test	-10208
tops	-10209
yrus	-10210
▁Aus	-10211
▁Lys	-10212
▁elo	-10213
arene	-10214
ekiel	-10215
noute	-10216
ruits	-10217
▁Boaz	-10218
▁Seth	-10219
▁arch	-10220
▁balm	-10221
▁buys	-10222
▁insp	-10223
▁obsc	-10224
▁pins	-10225
▁plow	-10226
▁unve	-10227
▁vari	-10228
▁whip	-10229
▁winn	-10230
▁writ	-10231
Cursed	-10232
Whilst	-10233
altiel	-10234
apolis	-10235
asquer	-10236
athaea	-10237
blocks	-10238
bursts	-10239
cerity	-10240
ebulun	-10241
elican	-10242
ephres	-10243
ersion	-10244
estial	-10245
etrius	-10246
goings	-10247
ground	-10248
hatite	-10249
icking	-10250
ightly	-10251
itutes	-10252
leanan	-10253
leanse	-10254
looked	-10255
ltered	-10256
melech	-10257
oncert	-10258
ortant	-10259
phimus	-10260
plates	-10261
remeel	-10262
seness	-10263
shares	-10264
stones	-10265
struck	-10266
ulsion	-10267
umbers	-10268
urable	-10269
urings	-10270
urther	-10271
withal	-10272
▁Above	-10273
▁Aelon	-10274
▁Ammin	-10275
▁Among	-10276
▁BEGIN	-10277
▁Boast	-10278
▁Break	-10279
▁Caene	-10280
▁Cease	-10281
▁Could	-10282
▁Demas	-10283
▁Dwell	-10284
▁EGYPT	-10285
▁Estha	-10286
▁Gesem	-10287
▁Gosom	-10288
▁Herma	-10289
▁Hosts	-10290
▁Italy	-10291
▁Joach	-10292
▁Laisa	-10293
▁Learn	-10294
▁Lebna	-10295
▁Lechi	-10296
▁Light	-10297
▁Lydda	-10298
▁MONTH	-10299
ez	-10300
ERE	-10301
ancy	-10302
▁FOR	-10303
▁Maj	-10304
stock	-10305
▁(?).	-10306
▁Maan	-10307
▁unlo	-10308
ottage	-10309
otteth	-10310
▁Balla	-10311
▁Djeme	-10312
▁Maron	-10313
▁Merob	-10314
▁Omega	-10315
▁Opher	-10316
▁Oziel	-10317
▁Perez	-10318
▁Perga	-10319
▁Rabbi	-10320
▁Rogel	-10321
▁SAINT	-10322
▁Salem	-10323
▁Salom	-10324
▁Samaa	-10325
▁Samir	-10326
▁Saraa	-10327
▁Senna	-10328
▁Shout	-10329
▁Simil	-10330
▁South	-10331
▁Swear	-10332
▁TSADE	-10333
▁Tanes	-10334
▁Tishb	-10335
▁Today	-10336
▁World	-10337
▁abase	-10338
▁afore	-10339
▁agony	-10340
▁allot	-10341
▁aroma	-10342
▁avoid	-10343
▁banks	-10344
▁beams	-10345
▁beryl	-10346
▁bloom	-10347
▁booth	-10348
▁braid	-10349
▁broth	-10350
▁bunch	-10351
▁camps	-10352
▁cargo	-10353
▁cater	-10354
▁clubs	-10355
▁comel	-10356
▁crazy	-10357
▁crime	-10358
▁defer	-10359
▁diest	-10360
▁dieth	-10361
▁drums	-10362
▁envoy	-10363
▁farms	-10364
▁fixes	-10365
▁flute	-10366
▁forew	-10367
▁fowls	-10368
▁fraud	-10369
▁fugit	-10370
▁giver	-10371
▁grind	-10372
▁haply	-10373
▁heels	-10374
▁heres	-10375
▁heron	-10376
▁hinds	-10377
▁impet	-10378
▁incur	-10379
▁knife	-10380
▁laver	-10381
▁limit	-10382
▁longs	-10383
▁malic	-10384
▁march	-10385
▁meant	-10386
▁melts	-10387
▁monks	-10388
▁moral	-10389
▁navel	-10390
▁occur	-10391
▁odour	-10392
▁pairs	-10393
▁palms	-10394
▁parch	-10395
▁peril	-10396
▁phant	-10397
▁philo	-10398
▁piety	-10399
▁pipes	-10400
▁poppy	-10401
▁quake	-10402
▁ranks	-10403
▁rapid	-10404
▁reaps	-10405
▁repet	-10406
▁reven	-10407
▁rides	-10408
▁rises	-10409
▁rival	-10410
▁roads	-10411
▁rouse	-10412
▁ruddy	-10413
▁scape	-10414
▁shade	-10415
▁sings	-10416
▁skull	-10417
▁slays	-10418
▁slide	-10419
▁spied	-10420
▁split	-10421
▁start	-10422
▁stern	-10423
▁stink	-10424
▁stock	-10425
▁stops	-10426
▁story	-10427
▁stuck	-10428
▁sweep	-10429
▁thong	-10430
▁tills	-10431
▁toils	-10432
▁towel	-10433
▁trace	-10434
▁train	-10435
▁twins	-10436
▁unfit	-10437
▁unity	-10438
▁useth	-10439
▁valid	-10440
▁vanqu	-10441
▁vapor	-10442
▁vigil	-10443
▁waged	-10444
▁weigh	-10445
▁whore	-10446
▁yoked	-10447
Crucify	-10448
Forgive	-10449
Hosanna	-10450
ability	-10451
asingly	-10452
chamber	-10453
dnezzar	-10454
erciful	-10455
estined	-10456
estruct	-10457
grieved	-10458
hankful	-10459
holomew	-10460
ikenard	-10461
iphites	-10462
itality	-10463
ittered	-10464
itution	-10465
neither	-10466
nesaret	-10467
oration	-10468
planted	-10469
powered	-10470
respond	-10471
ructive	-10472
sepphon	-10473
skilled	-10474
venient	-10475
vereign	-10476
writing	-10477
▁Abarim	-10478
▁Abijah	-10479
▁Accept	-10480
▁Aendor	-10481
▁Ambram	-10482
▁Author	-10483
▁Baurim	-10484
▁Beroea	-10485
▁Coming	-10486
▁Darius	-10487
▁Divine	-10488
▁Echela	-10489
▁Eleale	-10490
▁FATHER	-10491
▁Forget	-10492
▁Gallio	-10493
▁Gesion	-10494
▁Grieve	-10495
▁Hereby	-10496
▁Hezron	-10497
▁Justus	-10498
▁Living	-10499
▁MARTYR	-10500
▁Madian	-10501
▁Mambre	-10502
▁Manaim	-10503
▁Melcha	-10504
▁Myself	-10505
▁Naphec	-10506
▁Nicola	-10507
▁Olivet	-10508
▁Palace	-10509
▁People	-10510
▁Phogor	-10511
▁Pontus	-10512
▁Prayer	-10513
▁Remind	-10514
▁Repent	-10515
▁Sardis	-10516
▁Sattin	-10517
▁Sodoma	-10518
▁Strife	-10519
▁Symoon	-10520
▁Thamar	-10521
▁Thecoe	-10522
▁Tholmi	-10523
▁Wealth	-10524
▁aboard	-10525
▁access	-10526
▁action	-10527
▁adding	-10528
▁admire	-10529
▁assign	-10530
▁attent	-10531
▁awaked	-10532
▁bewail	-10533
▁bricks	-10534
▁bridle	-10535
▁buffet	-10536
▁byssus	-10537
▁calmed	-10538
▁calved	-10539
▁canals	-10540
▁canker	-10541
▁choked	-10542
▁cister	-10543
▁coffer	-10544
▁coffin	-10545
▁collar	-10546
▁commem	-10547
▁creeps	-10548
▁criest	-10549
▁crowed	-10550
▁darest	-10551
▁decide	-10552
▁depend	-10553
▁differ	-10554
▁doubts	-10555
▁endeav	-10556
▁endeth	-10557
▁enrich	-10558
▁examin	-10559
▁faints	-10560
▁figure	-10561
▁fishes	-10562
▁fright	-10563
▁gently	-10564
▁gnawed	-10565
▁groans	-10566
▁hammer	-10567
▁hereby	-10568
▁hollow	-10569
▁horror	-10570
▁intest	-10571
▁invoke	-10572
▁jailer	-10573
▁lawyer	-10574
▁layeth	-10575
▁learnt	-10576
▁lender	-10577
▁loudly	-10578
▁luxury	-10579
▁maiden	-10580
▁malign	-10581
▁marrow	-10582
▁merely	-10583
▁mingle	-10584
▁motion	-10585
▁napkin	-10586
▁needle	-10587
▁nowise	-10588
▁peacem	-10589
▁perfid	-10590
▁pleads	-10591
▁polled	-10592
▁porter	-10593
▁powder	-10594
▁ragged	-10595
▁raging	-10596
▁reckon	-10597
▁restra	-10598
▁retain	-10599
▁riseth	-10600
▁roared	-10601
▁robbed	-10602
▁sacred	-10603
▁savage	-10604
▁sawest	-10605
▁scared	-10606
▁scroll	-10607
▁seethe	-10608
▁senses	-10609
▁settle	-10610
▁shafts	-10611
▁shamed	-10612
▁shoots	-10613
▁shower	-10614
▁sodden	-10615
▁softly	-10616
▁sowing	-10617
▁speedy	-10618
▁sponge	-10619
▁stages	-10620
▁staves	-10621
▁stocks	-10622
▁stored	-10623
▁strict	-10624
▁submit	-10625
▁sunset	-10626
▁tablet	-10627
▁tabret	-10628
▁tanner	-10629
▁thefts	-10630
▁thumbs	-10631
▁tilled	-10632
▁timber	-10633
▁traced	-10634
▁tracks	-10635
▁trance	-10636
▁tranqu	-10637
▁treads	-10638
▁unblem	-10639
▁unripe	-10640
▁unruly	-10641
▁unsett	-10642
▁upheld	-10643
▁utters	-10644
▁vanish	-10645
▁vapour	-10646
▁weaver	-10647
▁whiter	-10648
▁whorem	-10649
▁withal	-10650
▁worlds	-10651
▁wrongs	-10652
Children	-10653
Everyone	-10654
Whatever	-10655
acchaeus	-10656
angelist	-10657
begotten	-10658
chievous	-10659
coloured	-10660
nophrios	-10661
stricken	-10662
▁Abiezer	-10663
▁Acrabin	-10664
▁Against	-10665
▁Agapius	-10666
▁Apollos	-10667
▁Areopag	-10668
▁Arisoth	-10669
▁Assyria	-10670
▁Ataroth	-10671
▁Banaeas	-10672
▁Bernice	-10673
▁Besides	-10674
▁Casting	-10675
▁Chamaam	-10676
▁Citians	-10677
▁Cleanse	-10678
▁Didymus	-10679
▁Eleanan	-10680
▁Eliezer	-10681
▁Engaddi	-10682
▁Erastus	-10683
▁Fathers	-10684
▁Gabriel	-10685
▁Gittite	-10686
▁Howbeit	-10687
▁Josedec	-10688
▁Lodabar	-10689
▁Memphis	-10690
▁Miletus	-10691
▁Minaean	-10692
▁Nahshon	-10693
▁Nebucha	-10694
▁Nothing	-10695
▁Pharath	-10696
▁Phrygia	-10697
▁Princes	-10698
▁Putting	-10699
▁Restore	-10700
▁Tsentei	-10701
▁absence	-10702
▁accuser	-10703
▁acquire	-10704
▁advance	-10705
▁anchors	-10706
▁anywise	-10707
▁appears	-10708
▁applaud	-10709
▁approve	-10710
▁arrange	-10711
▁assured	-10712
▁atoning	-10713
▁attacks	-10714
▁audible	-10715
▁backbit	-10716
▁badness	-10717
▁beholds	-10718
▁berries	-10719
▁betroth	-10720
▁blasted	-10721
▁boiling	-10722
▁bulwark	-10723
▁burneth	-10724
▁callous	-10725
▁candles	-10726
▁carcass	-10727
▁caverns	-10728
▁censers	-10729
▁charmer	-10730
▁chatter	-10731
▁control	-10732
▁coppers	-10733
▁corpses	-10734
▁courier	-10735
▁courses	-10736
▁cutting	-10737
▁dancing	-10738
▁deceits	-10739
▁denying	-10740
▁deprive	-10741
▁designs	-10742
▁drachma	-10743
▁dreamed	-10744
▁emerald	-10745
▁emptied	-10746
▁emulate	-10747
▁enraged	-10748
▁express	-10749
▁fellows	-10750
▁filling	-10751
▁finally	-10752
▁findeth	-10753
▁flowers	-10754
▁forerun	-10755
▁fortify	-10756
▁fulness	-10757
▁furrows	-10758
▁garners	-10759
▁goddess	-10760
▁grabbed	-10761
▁hastily	-10762
▁heights	-10763
▁hissing	-10764
▁honours	-10765
▁houghed	-10766
▁howling	-10767
▁imposed	-10768
▁infancy	-10769
▁keepers	-10770
▁kindles	-10771
▁knewest	-10772
▁latchet	-10773
▁leadeth	-10774
▁legions	-10775
▁liftest	-10776
▁lifteth	-10777
▁manslay	-10778
▁masquer	-10779
▁mastery	-10780
▁mindful	-10781
▁ministr	-10782
▁missing	-10783
▁mockers	-10784
▁mocking	-10785
▁monthly	-10786
▁notable	-10787
▁nurture	-10788
▁objects	-10789
▁obvious	-10790
▁oneself	-10791
▁orchard	-10792
▁partial	-10793
▁partner	-10794
▁pelican	-10795
▁penalty	-10796
▁players	-10797
▁pleaded	-10798
▁pleases	-10799
▁poureth	-10800
▁presses	-10801
▁pretend	-10802
▁privily	-10803
▁progeny	-10804
▁pursues	-10805
▁quietly	-10806
▁rampart	-10807
▁reaches	-10808
▁rebukes	-10809
▁refined	-10810
▁removes	-10811
▁repents	-10812
▁reptile	-10813
▁ridicul	-10814
▁sadness	-10815
▁saviour	-10816
▁scepter	-10817
▁scurril	-10818
▁seeketh	-10819
▁selfish	-10820
▁shaking	-10821
▁sharply	-10822
▁shields	-10823
▁sighing	-10824
▁smaller	-10825
▁smoking	-10826
▁stagger	-10827
▁stained	-10828
▁statues	-10829
▁stepped	-10830
▁stomach	-10831
▁strings	-10832
▁sucking	-10833
▁sulphur	-10834
▁surveys	-10835
▁swarest	-10836
▁swifter	-10837
▁tablets	-10838
▁terrors	-10839
▁threats	-10840
▁tightly	-10841
▁tillage	-10842
▁tonight	-10843
▁tyranny	-10844
▁upwards	-10845
▁useless	-10846
▁usually	-10847
▁victims	-10848
▁vulture	-10849
▁wanteth	-10850
▁warming	-10851
▁wasting	-10852
▁weighty	-10853
▁whereto	-10854
▁worsted	-10855
Cornelius	-10856
acrifices	-10857
eneration	-10858
▁Armenius	-10859
▁Assemble	-10860
▁Chelaion	-10861
▁Epaphras	-10862
▁Etebatha	-10863
▁Galilean	-10864
▁Gamaliel	-10865
▁Gamarias	-10866
▁Gittites	-10867
▁Gomorrah	-10868
▁Habakkuk	-10869
▁Heliakim	-10870
▁Jeremeel	-10871
▁Macarius	-10872
▁Manasseh	-10873
▁Mountain	-10874
▁Naphtali	-10875
▁Nazarene	-10876
▁Parmoute	-10877
▁Phennana	-10878
▁Proclaim	-10879
▁Psalmist	-10880
▁Shenoute	-10881
▁Suddenly	-10882
▁Tiberias	-10883
▁Tishbite	-10884
▁Wherever	-10885
▁accusing	-10886
▁advances	-10887
▁announce	-10888
▁appetite	-10889
▁argument	-10890
▁avenging	-10891
▁babbling	-10892
▁balances	-10893
▁barefoot	-10894
▁becamest	-10895
▁bracelet	-10896
▁breathed	-10897
▁brighter	-10898
▁bringest	-10899
▁bullocks	-10900
▁bulwarks	-10901
▁changers	-10902
▁chapiter	-10903
▁chastens	-10904
▁comforts	-10905
▁commence	-10906
▁complain	-10907
▁conceals	-10908
▁conflict	-10909
▁councill	-10910
▁creditor	-10911
▁curtains	-10912
▁deceased	-10913
▁declares	-10914
▁decorate	-10915
▁dedicate	-10916
▁desireth	-10917
▁disposed	-10918
▁dividing	-10919
▁doubting	-10920
▁dunghill	-10921
▁eloquent	-10922
▁enclosed	-10923
▁encomium	-10924
▁endurest	-10925
▁entereth	-10926
▁equality	-10927
▁esteemed	-10928
▁fattened	-10929
▁fighteth	-10930
▁forgives	-10931
▁fortieth	-10932
▁fortress	-10933
▁fronting	-10934
▁function	-10935
▁gladdens	-10936
▁gleaming	-10937
▁gleaning	-10938
▁greeting	-10939
▁hallowed	-10940
▁hastened	-10941
▁headlong	-10942
▁highways	-10943
▁humbleth	-10944
▁idleness	-10945
▁infinite	-10946
▁intended	-10947
▁interest	-10948
▁kneeling	-10949
▁knocking	-10950
▁laughing	-10951
▁lawgiver	-10952
▁levelled	-10953
▁lewdness	-10954
▁lordship	-10955
▁magnific	-10956
▁military	-10957
▁mistreat	-10958
▁monsters	-10959
▁mourners	-10960
▁murdered	-10961
▁nineteen	-10962
▁overcame	-10963
▁overmuch	-10964
▁particip	-10965
▁partners	-10966
▁passages	-10967
▁performs	-10968
▁perfumes	-10969
▁perverts	-10970
▁pleading	-10971
▁ploughed	-10972
▁potsherd	-10973
▁precepts	-10974
▁pretense	-10975
▁prevails	-10976
▁progress	-10977
▁provided	-10978
▁quantity	-10979
▁recruits	-10980
▁reigning	-10981
▁relation	-10982
▁relieved	-10983
▁removing	-10984
▁rendered	-10985
▁renewing	-10986
▁reprover	-10987
▁reproves	-10988
▁repulsed	-10989
▁resemble	-10990
▁restrain	-10991
▁scorched	-10992
▁scorners	-10993
▁seashore	-10994
▁shameful	-10995
▁sharpens	-10996
▁sheddeth	-10997
▁shouting	-10998
▁slippery	-10999
▁sluggish	-11000
▁somewhat	-11001
▁sorcerer	-11002
▁southern	-11003
▁spacious	-11004
▁speckled	-11005
▁spoilers	-11006
▁standeth	-11007
▁stealing	-11008
▁stedfast	-11009
▁stirring	-11010
▁strictly	-11011
▁strongly	-11012
▁subsided	-11013
▁suspense	-11014
▁sweeping	-11015
▁thinkest	-11016
▁thirsted	-11017
▁throwing	-11018
▁tortured	-11019
▁trusting	-11020
▁untaught	-11021
▁unveiled	-11022
▁uplifted	-11023
▁uprooted	-11024
▁wantonly	-11025
▁watchful	-11026
▁welcomed	-11027
▁whoredom	-11028
▁worships	-11029
▁yielding	-11030
Everything	-11031
controlled	-11032
▁Amalekite	-11033
▁Amminadab	-11034
▁Authority	-11035
▁Berothite	-11036
▁Chenereth	-11037
▁Demetrius	-11038
▁Ephesians	-11039
▁Monastery	-11040
▁Mysteries	-11041
▁Nathanias	-11042
▁Petephres	-11043
▁Priscilla	-11044
▁Sacrament	-11045
▁Salvation	-11046
▁Shealtiel	-11047
▁Similarly	-11048
▁Stephanou	-11049
▁Trophimus	-11050
▁abolished	-11051
▁abounding	-11052
▁adulterer	-11053
▁advancing	-11054
▁aforetime	-11055
▁aggrieved	-11056
▁appeareth	-11057
▁beckoning	-11058
▁bestoweth	-11059
▁bondwoman	-11060
▁breathing	-11061
▁carpenter	-11062
▁caterpill	-11063
▁celestial	-11064
▁concluded	-11065
▁condition	-11066
▁congealed	-11067
▁connexion	-11068
▁consented	-11069
▁considers	-11070
▁consisted	-11071
▁container	-11072
▁continual	-11073
▁criminals	-11074
▁cupbearer	-11075
▁dangerous	-11076
▁deceivers	-11077
▁departing	-11078
▁despaired	-11079
▁discharge	-11080
▁doctrines	-11081
▁downwards	-11082
▁dwellings	-11083
▁effective	-11084
▁embracing	-11085
▁entangles	-11086
▁entrances	-11087
▁evidently	-11088
▁evildoers	-11089
▁executing	-11090
▁exercises	-11091
▁expensive	-11092
▁fervently	-11093
▁fishermen	-11094
▁foolishly	-11095
▁foreskins	-11096
▁forgetful	-11097
▁forsaking	-11098
▁fragrance	-11099
▁fugitives	-11100
▁gathereth	-11101
▁genealogy	-11102
▁happening	-11103
▁hedgehogs	-11104
▁housetops	-11105
▁hypocrite	-11106
▁including	-11107
▁inflicted	-11108
▁intreated	-11109
▁labouring	-11110
▁landmarks	-11111
▁loathsome	-11112
▁magnifies	-11113
▁meditates	-11114
▁obligated	-11115
▁ostriches	-11116
▁outbursts	-11117
▁outgoings	-11118
▁outwardly	-11119
▁overseers	-11120
▁perverted	-11121
▁plastered	-11122
▁plenteous	-11123
▁ploughing	-11124
▁pollution	-11125
▁pondering	-11126
▁positions	-11127
▁powerless	-11128
▁preferred	-11129
▁preparing	-11130
▁presently	-11131
▁protected	-11132
▁provinces	-11133
▁relations	-11134
▁reminding	-11135
▁revilings	-11136
▁satisfies	-11137
▁scorching	-11138
▁separates	-11139
▁sincerity	-11140
▁soundness	-11141
▁sovereign	-11142
▁sparingly	-11143
▁spikenard	-11144
▁strangled	-11145
▁supported	-11146
▁supporter	-11147
▁surpasses	-11148
▁suspended	-11149
▁sweetened	-11150
▁temperate	-11151
▁threatens	-11152
▁trackless	-11153
▁travelled	-11154
▁treatment	-11155
▁unlearned	-11156
▁voluntary	-11157
▁whereunto	-11158
▁whisperer	-11159
▁widowhood	-11160
▁wondering	-11161
▁yellowish	-11162
▁zealously	-11163
estructible	-11164
▁Achimelech	-11165
▁Adonibezek	-11166
▁Antichrist	-11167
▁Arimathaea	-11168
▁Baetharaba	-11169
▁Dispersion	-11170
▁Ephrathite	-11171
▁Gennesaret	-11172
▁Phelethite	-11173
▁Theophilus	-11174
▁Theopistus	-11175
▁abstaining	-11176
▁acceptance	-11177
▁adulterous	-11178
▁banishment	-11179
▁beforetime	-11180
▁birthright	-11181
▁blasphemer	-11182
▁carelessly	-11183
▁celebrated	-11184
▁centurions	-11185
▁charitable	-11186
▁cheerfully	-11187
▁comeliness	-11188
▁commandest	-11189
▁commending	-11190
▁committeth	-11191
▁confessing	-11192
▁continence	-11193
▁convenient	-11194
▁conversant	-11195
▁correspond	-11196
▁countrymen	-11197
▁delicately	-11198
▁delivereth	-11199
▁destroyeth	-11200
▁difference	-11201
▁disconcert	-11202
▁dispirited	-11203
▁displeased	-11204
▁distribute	-11205
▁divination	-11206
▁embittered	-11207
▁flattering	-11208
▁forbidding	-11209
▁frightened	-11210
▁frustrated	-11211
▁gloominess	-11212
▁greediness	-11213
▁hailstones	-11214
▁hospitable	-11215
▁humiliated	-11216
▁increaseth	-11217
▁management	-11218
▁manifestly	-11219
▁marvelling	-11220
▁occupation	-11221
▁oliveyards	-11222
▁opposition	-11223
▁originally	-11224
▁overlooked	-11225
▁overthrows	-11226
▁perfecting	-11227
▁performing	-11228
▁permission	-11229
▁personally	-11230
▁perversely	-11231
▁perverting	-11232
▁prophecies	-11233
▁quantities	-11234
▁restricted	-11235
▁salutation	-11236
▁signifying	-11237
▁singleness	-11238
▁skillfully	-11239
▁stablished	-11240
▁straitness	-11241
▁stretching	-11242
▁terminates	-11243
▁thirteenth	-11244
▁threatened	-11245
▁torturings	-11246
▁traditions	-11247
▁travailing	-11248
▁unbeliever	-11249
▁undertaken	-11250
▁unmerciful	-11251
▁unthankful	-11252
▁vehemently	-11253
▁withstands	-11254
▁worshipper	-11255
holokottinoi	-11256
▁Bartholomew	-11257
▁Instruction	-11258
▁Phoenicians	-11259
▁Sebastianus	-11260
▁apostleship	-11261
▁appertained	-11262
▁battlements	-11263
▁beautifully	-11264
▁blasphemies	-11265
▁celebrating	-11266
▁coppersmith	-11267
▁corruptible	-11268
▁destructive	-11269
▁disposition	-11270
▁divinations	-11271
▁divorcement	-11272
▁earnestness	-11273
▁flourishing	-11274
▁handwriting	-11275
▁hospitality	-11276
▁illuminated	-11277
▁immortality	-11278
▁interpreter	-11279
▁lawlessness	-11280
▁mischievous	-11281
▁overpowered	-11282
▁overshadows	-11283
▁perpetually	-11284
▁predestined	-11285
▁prostitutes	-11286
▁reproachful	-11287
▁revelations	-11288
▁storehouses	-11289
▁strongholds	-11290
▁thunderings	-11291
▁transferred	-11292
▁unblemished	-11293
▁unspeakable	-11294
▁wherewithal	-11295
▁whoremonger	-11296
▁administered	-11297
▁breastplates	-11298
▁candlesticks	-11299
▁dispensation	-11300
▁imaginations	-11301
▁overshadowed	-11302
▁perfidiously	-11303
▁perverseness	-11304
▁propitiation	-11305
▁unreasonable	-11306
▁Thessalonians	-11307
▁acquaintances	-11308
▁circumstances	-11309
▁congregations	-11310
▁dishonourable	-11311
▁establishment	-11312
▁forgetfulness	-11313
▁neighbourhood	-11314
▁prescriptions	-11315
▁steadfastness	-11316
▁transgressing	-11317
▁understandest	-11318
▁Nebuchadnezzar	-11319
▁indestructible	-11320
▁notwithstanding	-11321
LE	-11322
Le	-11323
WN	-11324
yb	-11325
...	-11326
ABY	-11327
Ask	-11328
HAR	-11329
ICT	-11330
IST	-11331
ITE	-11332
ams	-11333
eer	-11334
fig	-11335
gab	-11336
igg	-11337
iud	-11338
lac	-11339
lim	-11340
liv	-11341
mos	-11342
myr	-11343
tfu	-11344
udi	-11345
▁FO	-11346
▁Fe	-11347
▁Fo	-11348
▁Pa	-11349
▁Si	-11350
(?).	-11351
ABYL	-11352
Abra	-11353
Call	-11354
ERAL	-11355
Four	-11356
IONS	-11357
NETH	-11358
Shew	-11359
aath	-11360
abus	-11361
adem	-11362
anes	-11363
aphs	-11364
aria	-11365
aric	-11366
azin	-11367
back	-11368
bill	-11369
bles	-11370
boam	-11371
bunc	-11372
dles	-11373
doer	-11374
eled	-11375
ephi	-11376
ggle	-11377
glig	-11378
haim	-11379
icri	-11380
isha	-11381
knew	-11382
lius	-11383
llim	-11384
maal	-11385
mbol	-11386
nare	-11387
okes	-11388
onze	-11389
opas	-11390
oths	-11391
oung	-11392
pper	-11393
reek	-11394
reel	-11395
rong	-11396
roth	-11397
rtle	-11398
swer	-11399
▁i	-11400
neg	-11401
pse	-11402
tam	-11403
asim	-11404
came	-11405
dest	-11406
ilis	-11407
imus	-11408
neth	-11409
oral	-11410
orus	-11411
rumb	-11412
tory	-11413
udas	-11414
ybod	-11415
ynia	-11416
zzle	-11417
▁Aff	-11418
▁BRO	-11419
▁Bac	-11420
▁COM	-11421
▁Cal	-11422
▁Cos	-11423
▁Cut	-11424
▁DES	-11425
▁Ecb	-11426
▁End	-11427
▁FRO	-11428
▁Gae	-11429
▁Gre	-11430
▁HIM	-11431
▁Had	-11432
▁Ham	-11433
▁Hew	-11434
▁Lau	-11435
▁Mal	-11436
▁Mor	-11437
▁Nem	-11438
▁Pam	-11439
▁Sem	-11440
▁Sup	-11441
▁Try	-11442
▁bol	-11443
▁cuc	-11444
▁dow	-11445
▁egg	-11446
▁yew	-11447
Belie	-11448
Faith	-11449
First	-11450
HECHS	-11451
Leave	-11452
Since	-11453
Watch	-11454
about	-11455
achim	-11456
aemon	-11457
amine	-11458
amoth	-11459
antly	-11460
appro	-11461
ariel	-11462
athed	-11463
atory	-11464
board	-11465
cents	-11466
cibly	-11467
cketh	-11468
creat	-11469
ebted	-11470
ecias	-11471
eloth	-11472
eneth	-11473
ephas	-11474
erves	-11475
estic	-11476
ethla	-11477
flood	-11478
folds	-11479
found	-11480
gment	-11481
going	-11482
holic	-11483
hooks	-11484
htway	-11485
iches	-11486
idest	-11487
ifest	-11488
igris	-11489
ilisk	-11490
imony	-11491
imoth	-11492
itans	-11493
lfare	-11494
maalo	-11495
mpion	-11496
myrna	-11497
nacle	-11498
otest	-11499
Bar	-11500
EAR	-11501
Pro	-11502
bas	-11503
car	-11504
ios	-11505
nan	-11506
oes	-11507
sia	-11508
uge	-11509
yes	-11510
▁Ta	-11511
▁Tw	-11512
essi	-11513
haru	-11514
hias	-11515
itha	-11516
wood	-11517
▁Aes	-11518
▁Ari	-11519
▁Sot	-11520
▁cow	-11521
▁non	-11522
▁pla	-11523
David	-11524
ambri	-11525
llath	-11526
otion	-11527
phesy	-11528
ppled	-11529
rafty	-11530
rator	-11531
ridge	-11532
ticip	-11533
tlety	-11534
tuned	-11535
uaios	-11536
unged	-11537
utala	-11538
uteth	-11539
white	-11540
wreck	-11541
zards	-11542
▁Abba	-11543
▁Abia	-11544
▁Ahab	-11545
▁Ahaz	-11546
▁Asan	-11547
▁Asel	-11548
▁Assu	-11549
▁Atbo	-11550
▁Away	-11551
▁Beat	-11552
▁Beer	-11553
▁Bela	-11554
▁CERT	-11555
▁Chal	-11556
▁Dire	-11557
▁Dist	-11558
▁Dudi	-11559
▁Esna	-11560
▁Fare	-11561
▁Fast	-11562
▁Fort	-11563
▁Gola	-11564
▁Gona	-11565
▁Heap	-11566
▁Helc	-11567
▁Hill	-11568
▁Jedd	-11569
▁Liby	-11570
▁Omar	-11571
▁Osee	-11572
▁PHAR	-11573
▁PRAY	-11574
▁PROP	-11575
▁Pass	-11576
▁Path	-11577
▁Pent	-11578
▁Phin	-11579
▁Reho	-11580
▁Rhod	-11581
▁Roge	-11582
▁Roob	-11583
▁Siph	-11584
▁Song	-11585
▁THER	-11586
▁WERE	-11587
▁Wash	-11588
▁agit	-11589
▁ails	-11590
▁anti	-11591
▁axes	-11592
▁babe	-11593
▁blac	-11594
▁brut	-11595
▁budd	-11596
▁butt	-11597
▁chry	-11598
▁club	-11599
OS	-11600
vo	-11601
vy	-11602
ITH	-11603
Pre	-11604
iur	-11605
pan	-11606
uce	-11607
whe	-11608
THIS	-11609
arus	-11610
enge	-11611
eper	-11612
gest	-11613
nter	-11614
▁Aug	-11615
▁Gra	-11616
▁JOA	-11617
▁Nun	-11618
▁Old	-11619
▁dir	-11620
▁dut	-11621
▁hem	-11622
▁squ	-11623
▁sup	-11624
▁tin	-11625
Enter	-11626
atane	-11627
bezec	-11628
feits	-11629
iteth	-11630
mated	-11631
ppose	-11632
rhite	-11633
▁Envy	-11634
▁Lyca	-11635
▁cori	-11636
▁disd	-11637
▁diss	-11638
▁duty	-11639
▁ecli	-11640
▁exqu	-11641
▁eyew	-11642
▁feat	-11643
▁fick	-11644
▁foes	-11645
▁foll	-11646
▁fram	-11647
▁fret	-11648
▁gait	-11649
▁goal	-11650
▁halt	-11651
▁huge	-11652
▁loan	-11653
▁mass	-11654
▁narr	-11655
▁nigg	-11656
▁null	-11657
▁owes	-11658
▁pant	-11659
▁perd	-11660
▁pipe	-11661
▁pits	-11662
▁rect	-11663
▁revi	-11664
▁saff	-11665
▁scow	-11666
▁situ	-11667
▁slab	-11668
▁spin	-11669
▁sten	-11670
▁suit	-11671
▁symp	-11672
▁tall	-11673
▁thri	-11674
▁tool	-11675
▁trun	-11676
▁unaw	-11677
▁ungu	-11678
▁unqu	-11679
▁unsh	-11680
▁vent	-11681
ABYLON	-11682
Caesar	-11683
ENERAL	-11684
ablish	-11685
acinth	-11686
akened	-11687
amegar	-11688
aneous	-11689
apping	-11690
asseth	-11691
ataath	-11692
bation	-11693
before	-11694
bishop	-11695
buncle	-11696
crease	-11697
ctacle	-11698
enchre	-11699
?)	-11700
LD	-11701
Se	-11702
eze	-11703
fet	-11704
ips	-11705
iri	-11706
lod	-11707
oza	-11708
sin	-11709
was	-11710
Cond	-11711
Whom	-11712
adow	-11713
buke	-11714
eens	-11715
enas	-11716
ifra	-11717
ppus	-11718
▁Dec	-11719
▁Lif	-11720
▁Mak	-11721
▁Sou	-11722
▁ath	-11723
▁sed	-11724
eight	-11725
jured	-11726
vance	-11727
vites	-11728
▁Fore	-11729
▁Tart	-11730
▁itch	-11731
▁real	-11732
▁spat	-11733
▁sunk	-11734
▁swan	-11735
▁trod	-11736
▁vind	-11737
etrate	-11738
fluous	-11739
fourth	-11740
hearse	-11741
holars	-11742
iatory	-11743
icriae	-11744
ifrage	-11745
isadai	-11746
iverer	-11747
kerchi	-11748
ldiers	-11749
lerate	-11750
mental	-11751
oditus	-11752
omoron	-11753
opards	-11754
ovable	-11755
parent	-11756
ppharu	-11757
radath	-11758
retans	-11759
rifice	-11760
saying	-11761
senain	-11762
strong	-11763
struct	-11764
▁Abdon	-11765
▁Aelam	-11766
▁Aelus	-11767
▁Aenan	-11768
▁Angai	-11769
▁Arboc	-11770
▁Asaph	-11771
▁Ausis	-11772
▁Awful	-11773
▁Aziph	-11774
▁Balad	-11775
▁Bezek	-11776
▁Chelc	-11777
▁Curse	-11778
▁ENDED	-11779
▁Ebron	-11780
▁Ellel	-11781
▁Emiud	-11782
▁Encom	-11783
▁Esdri	-11784
▁Feast	-11785
▁Gebal	-11786
▁Ghost	-11787
▁Guide	-11788
▁Hagar	-11789
▁Hymen	-11790
▁Iroth	-11791
▁Itaby	-11792
▁Jassa	-11793
▁Latin	-11794
▁Laugh	-11795
▁Lodge	-11796
▁Lydia	-11797
▁Maker	-11798
▁Masur	-11799
GH	-11800
Ye	-11801
rt	-11802
sa	-11803
zi	-11804
Abb	-11805
GHT	-11806
omf	-11807
rit	-11808
sos	-11809
sta	-11810
wat	-11811
wls	-11812
▁Ae	-11813
▁SE	-11814
▁ST	-11815
▁Sk	-11816
▁ah	-11817
Abba	-11818
Fear	-11819
Feed	-11820
cian	-11821
enon	-11822
erah	-11823
idan	-11824
lace	-11825
pous	-11826
▁MAN	-11827
▁Net	-11828
▁gad	-11829
▁mir	-11830
aling	-11831
arent	-11832
chest	-11833
ecost	-11834
iance	-11835
otham	-11836
roups	-11837
share	-11838
staff	-11839
their	-11840
▁Adas	-11841
▁Etam	-11842
▁Ital	-11843
▁Till	-11844
▁amen	-11845
▁barg	-11846
▁dish	-11847
▁kite	-11848
▁skil	-11849
▁stam	-11850
▁vest	-11851
antial	-11852
upiter	-11853
▁Anger	-11854
▁Assos	-11855
▁Cause	-11856
▁Macha	-11857
▁Netop	-11858
▁Oboth	-11859
▁Ommin	-11860
▁Orion	-11861
▁Phalt	-11862
▁Phino	-11863
▁Prove	-11864
▁Rasim	-11865
▁Repay	-11866
▁Salam	-11867
▁Salpa	-11868
▁Segor	-11869
▁Serve	-11870
▁Sessi	-11871
▁Skull	-11872
▁Sobac	-11873
▁Stach	-11874
▁THERE	-11875
▁Tanis	-11876
▁Tarry	-11877
▁Theco	-11878
▁Touch	-11879
▁Trans	-11880
▁WORDS	-11881
▁alleg	-11882
▁aloes	-11883
▁annul	-11884
▁arbit	-11885
▁baths	-11886
▁bribe	-11887
▁cance	-11888
▁cared	-11889
▁chann	-11890
▁clerk	-11891
▁cliff	-11892
▁colts	-11893
▁conso	-11894
▁copul	-11895
▁daint	-11896
▁ditch	-11897
▁dowry	-11898
▁epile	-11899
CT	-11900
iu	-11901
Eat	-11902
asp	-11903
imp	-11904
zan	-11905
▁Sh	-11906
▁TH	-11907
Cast	-11908
erus	-11909
hera	-11910
hoob	-11911
iday	-11912
lect	-11913
meas	-11914
moth	-11915
▁Ist	-11916
▁Mab	-11917
▁SIC	-11918
▁Tre	-11919
▁dom	-11920
ealot	-11921
itter	-11922
order	-11923
▁Adon	-11924
▁Hail	-11925
▁Lust	-11926
▁Mabd	-11927
▁Ress	-11928
▁alab	-11929
▁bash	-11930
▁dews	-11931
▁hare	-11932
▁sale	-11933
▁vats	-11934
▁whit	-11935
enists	-11936
▁Istob	-11937
▁Lords	-11938
▁Rhoob	-11939
▁	-11940
e	-11941
t	-11942
h	-11943
o	-11944
a	-11945
n	-11946
s	-11947
i	-11948
r	-11949
d	-11950
l	-11951
u	-11952
m	-11953
f	-11954
,	-11955
w	-11956
y	-11957
c	-11958
g	-11959
b	-11960
p	-11961
v	-11962
.	-11963
k	-11964
A	-11965
I	-11966
'	-11967
;	-11968
L	-11969
T	-11970
G	-11971
:	-11972
J	-11973
S	-11974
B	-11975
H	-11976
?	-11977
F	-11978
M	-11979
W	-11980
j	-11981
E	-11982
C	-11983
O	-11984
P	-11985
D	-11986
-	-11987
x	-11988
N	-11989
z	-11990
R	-11991
q	-11992
)	-11993
(	-11994
Y	-11995
!	-11996
