▁t 100
he 100
▁a 100
▁the 100
nd 100
▁s 100
▁w 100
in 100
▁o 100
ha 100
▁and 100
re 100
ou 100
▁b 100
or 100
▁of 100
▁m 100
hi 100
▁f 100
ll 100
er 100
▁to 100
es 100
it 100
en 100
ed 100
▁c 100
on 100
▁d 100
ing 100
▁in 100
▁th 100
▁hi 100
▁he 100
is 100
▁n 100
▁be 100
▁p 100
▁ha 100
ar 100
▁A 100
om 100
▁l 100
at 100
▁I 100
an 100
▁y 100
hat 100
▁g 100
ot 100
se 100
▁sha 100
▁u 100
ve 100
ay 100
as 100
▁that 100
ord 100
▁e 100
ho 100
▁for 100
id 100
ut 100
od 100
▁you 100
▁shall 100
▁And 100
le 100
ld 100
▁L 100
▁is 100
▁him 100
▁his 100
st 100
gh 100
ith 100
ce 100
▁wi 100
ow 100
▁sa 100
▁not 100
et 100
▁Lord 100
▁G 100
▁T 100
▁with 100
her 100
ch 100
ent 100
▁them 100
▁they 100
ver 100
▁on 100
▁it 100
▁re 100
ir 100
ght 100
ri 100
▁will 100
▁thou 100
am 100
▁me 100
▁we 100
th 100
▁J 100
▁my 100
ra 100
▁thy 100
▁as 100
el 100
▁k 100
▁fr 100
▁who 100
ur 100
▁God 100
▁all 100
ion 100
▁up 100
▁have 100
ore 100
▁from 100
ly 100
▁S 100
ess 100
▁said 100
▁an 100
▁was 100
ad 100
ak 100
▁whi 100
▁The 100
to 100
▁se 100
▁B 100
▁com 100
ain 100
ro 100
and 100
▁man 100
if 100
▁' 100
us 100
il 100
al 100
est 100
▁thee 100
▁which 100
▁H 100
ven 100
hou 100
▁thi 100
▁are 100
au 100
▁their 100
lt 100
▁st 100
red 100
▁go 100
fore 100
▁un 100
ame 100
▁there 100
▁whe 100
▁this 100
▁de 100
▁F 100
▁hear 100
▁has 100
▁sp 100
▁out 100
▁M 100
▁but 100
im 100
▁ye 100
▁by 100
sel 100
▁do 100
ings 100
ok 100
rou 100
ter 100
▁say 100
▁your 100
ive 100
▁day 100
▁W 100
ight 100
ab 100
▁one 100
ation 100
▁into 100
▁were 100
▁son 100
ct 100
ers 100
▁P 100
▁For 100
▁C 100
ine 100
.' 100
ant 100
▁v 100
ple 100
▁He 100
all 100
ren 100
em 100
ake 100
▁pe 100
ness 100
▁E 100
▁at 100
▁kn 100
▁us 100
pt 100
▁her 100
▁upon 100
▁Is 100
ud 100
▁O 100
▁al 100
one 100
ather 100
ac 100
▁hand 100
▁bec 100
▁ne 100
▁D 100
ast 100
▁when 100
▁before 100
ong 100
▁ag 100
▁ho 100
▁shalt 100
▁had 100
ace 100
▁wor 100
▁am 100
our 100
so 100
ity 100
▁ab 100
os 100
▁things 100
▁no 100
▁know 100
▁li 100
▁come 100
rael 100
ist 100
▁ever 100
ause 100
▁Israel 100
▁br 100
▁j 100
▁men 100
reat 100
▁con 100
▁so 100
urn 100
▁chi 100
▁again 100
▁peo 100
▁came 100
oun 100
▁ri 100
ous 100
▁people 100
▁fe 100
▁ear 100
ves 100
other 100
li 100
ru 100
▁hou 100
▁our 100
ved 100
pp 100
▁or 100
▁But 100
▁lo 100
▁h 100
ge 100
▁fi 100
▁if 100
▁af 100
▁N 100
▁land 100
self 100
▁child 100
▁su 100
▁pl 100
res 100
▁she 100
ep 100
ise 100
ose 100
we 100
ted 100
▁ser 100
▁word 100
▁saying 100
▁king 100
ck 100
ice 100
▁did 100
own 100
ies 100
han 100
▁these 100
ass 100
▁also 100
hold 100
▁Jes 100
▁Jesus 100
ath 100
▁pr 100
▁unto 100
ke 100
▁sin 100
▁children 100
▁pro 100
▁house 100
les 100
▁let 100
▁went 100
▁great 100
▁bl 100
ard 100
▁father 100
▁ar 100
av 100
▁against 100
▁ac 100
▁because 100
ment 100
▁right 100
▁earth 100
ount 100
▁over 100
▁heart 100
▁what 100
way 100
▁may 100
▁sou 100
▁ex 100
▁mad 100
out 100
▁shou 100
▁every 100
▁down 100
▁even 100
▁made 100
▁good 100
▁see 100
▁should 100
eth 100
▁comm 100
▁those 100
▁hast 100
nder 100
mb 100
ul 100
▁way 100
▁acc 100
▁le 100
ome 100
vant 100
hed 100
ust 100
ill 100
▁gl 100
▁tim 100
qu 100
ic 100
▁en 100
▁wh 100
▁away 100
▁been 100
eous 100
▁Be 100
vil 100
▁te 100
▁lif 100
ks 100
▁give 100
avid 100
are 100
▁David 100
ance 100
▁fo 100
rought 100
ans 100
▁dis 100
▁any 100
hen 100
▁( 100
▁servant 100
hr 100
orn 100
ving 100
ry 100
ther 100
▁then 100
▁off 100
▁per 100
▁wat 100
ound 100
▁spe 100
▁pass 100
ave 100
▁di 100
▁wr 100
aven 100
▁name 100
▁after 100
▁call 100
▁command 100
▁rem 100
oice 100
▁jud 100
▁forth 100
ol 100
hrist 100
▁Christ 100
▁co 100
▁make 100
▁days 100
oth 100
▁la 100
ould 100
▁place 100
oses 100
▁They 100
ach 100
▁city 100
ide 100
▁glor 100
▁thine 100
▁righteous 100
ind 100
▁under 100
▁tw 100
▁where 100
wn 100
▁des 100
▁now 100
ken 100
▁nor 100
▁whom 100
▁R 100
▁words 100
▁brought 100
▁like 100
▁Moses 100
ts 100
aul 100
▁time 100
fe 100
▁spok 100
▁mu 100
ng 100
▁evil 100
led 100
▁sons 100
▁ang 100
▁bre 100
▁dest 100
▁might 100
ish 100
▁than 100
ag 100
ood 100
▁among 100
▁accord 100
▁soul 100
rough 100
▁heaven 100
irit 100
▁brother 100
▁del 100
▁take 100
ward 100
ree 100
▁r 100
▁took 100
▁fa 100
▁through 100
▁ey 100
ations 100
▁according 100
▁life 100
selves 100
▁heard 100
ars 100
▁ro 100
▁There 100
itt 100
▁hands 100
ale 100
▁Ab 100
▁pri 100
▁about 100
▁eat 100
▁Thou 100
▁gi 100
▁set 100
ered 100
ning 100
▁wom 100
▁bring 100
▁himself 100
gy 100
ure 100
ig 100
▁sent 100
dom 100
par 100
▁more 100
▁turn 100
gypt 100
▁Egypt 100
ever 100
ate 100
erc 100
▁speak 100
▁would 100
ite 100
ither 100
▁many 100
▁therefore 100
ew 100
▁own 100
ff 100
ci 100
pe 100
▁saw 100
▁mount 100
▁When 100
▁judg 100
▁ke 100
phe 100
ob 100
▁tr 100
▁As 100
ence 100
aught 100
▁bo 100
▁ans 100
▁priest 100
▁rep 100
▁Jer 100
ction 100
roy 100
▁called 100
▁water 100
▁pre 100
▁behold 100
▁destroy 100
ort 100
▁Now 100
▁If 100
▁app 100
▁put 100
▁str 100
me 100
ful 100
ue 100
▁hu 100
ost 100
▁cl 100
▁Let 100
▁law 100
?' 100
▁Y 100
▁merc 100
very 100
▁glory 100
med 100
▁sw 100
get 100
▁eyes 100
cri 100
ert 100
te 100
▁voice 100
▁neither 100
outh 100
▁ent 100
▁bless 100
ied 100
▁unt 100
▁mouth 100
▁sm 100
▁Jud 100
ink 100
alem 100
▁fir 100
▁rece 100
ened 100
ress 100
▁other 100
usalem 100
▁Behold 100
round 100
▁pray 100
▁Jerusalem 100
ull 100
▁until 100
ces 100
▁cha 100
▁gave 100
▁found 100
ities 100
▁fire 100
▁end 100
▁Saul 100
▁works 100
▁Jo 100
▁two 100
less 100
pa 100
row 100
ffer 100
▁face 100
▁faith 100
ried 100
be 100
▁holy 100
ft 100
well 100
▁tell 100
▁ra 100
▁first 100
▁spoke 100
▁death 100
▁depar 100
▁given 100
▁fall 100
▁Then 100
wered 100
▁answered 100
ign 100
▁mountain 100
▁dwell 100
▁art 100
▁rej 100
uth 100
▁fear 100
▁love 100
▁ca 100
▁enem 100
▁look 100
▁Am 100
▁very 100
▁prophe 100
▁po 100
▁ret 100
▁tak 100
▁world 100
amp 100
▁yet 100
▁keep 100
▁mult 100
▁having 100
hy 100
herit 100
ments 100
▁done 100
▁inherit 100
▁beg 100
cer 100
gether 100
lesh 100
▁flesh 100
▁par 100
able 100
▁nations 100
▁sl 100
▁head 100
▁angel 100
▁servants 100
▁woman 100
▁hath 100
▁return 100
▁righteousness 100
▁together 100
tter 100
▁mercy 100
alk 100
rie 100
igh 100
lie 100
▁Who 100
▁daught 100
▁can 100
▁cast 100
cl 100
▁fl 100
▁im 100
llow 100
▁long 100
▁saith 100
▁another 100
▁don 100
▁rest 100
▁Therefore 100
▁ru 100
▁gra 100
ty 100
ower 100
▁sea 100
ap 100
his 100
▁Father 100
▁dr 100
▁Pha 100
▁ad 100
ble 100
▁cont 100
▁thyself 100
▁how 100
▁tru 100
▁blood 100
▁whole 100
▁So 100
▁bu 100
▁god 100
umb 100
▁bod 100
▁its 100
▁hearken 100
oin 100
stand 100
▁left 100
▁wife 100
▁mid 100
ack 100
ond 100
▁light 100
▁Sp 100
iver 100
▁belie 100
hes 100
▁aff 100
▁work 100
▁mother 100
oved 100
▁Spirit 100
▁har 100
▁concer 100
per 100
ished 100
emb 100
age 100
hip 100
reng 100
▁ord 100
▁night 100
▁sc 100
▁dead 100
▁bread 100
ark 100
▁does 100
▁sins 100
ertain 100
▁power 100
hing 100
▁wild 100
▁become 100
▁streng 100
▁stand 100
▁tri 100
▁sinn 100
▁concerning 100
▁ask 100
▁comp 100
▁disci 100
▁pres 100
▁themselves 100
▁seen 100
▁understand 100
ples 100
▁Phi 100
▁taken 100
▁thing 100
ea 100
▁hel 100
▁affli 100
ines 100
itud 100
▁peace 100
▁cities 100
▁commanded 100
▁test 100
▁drink 100
▁It 100
ews 100
ove 100
▁being 100
▁spirit 100
▁. 100
ors 100
▁Jac 100
▁coun 100
▁qu 100
cked 100
▁Jacob 100
▁In 100
▁pra 100
▁walk 100
▁judgment 100
ph 100
ang 100
ias 100
▁body 100
▁young 100
att 100
▁exce 100
▁years 100
▁certain 100
ef 100
ote 100
▁op 100
▁wise 100
ia 100
ret 100
▁thir 100
▁midst 100
▁wis 100
▁both 100
▁sword 100
▁enemies 100
ions 100
▁burn 100
▁mine 100
▁wilt 100
▁multitud 100
ne 100
▁sec 100
▁sto 100
▁Juda 100
eld 100
uit 100
▁die 100
▁truth 100
▁delive 100
ged 100
▁fathers 100
mon 100
lean 100
▁some 100
▁cons 100
▁live 100
▁deliver 100
▁without 100
▁My 100
cted 100
ived 100
▁gat 100
▁find 100
▁feet 100
itten 100
▁What 100
▁just 100
bit 100
lled 100
▁didst 100
▁three 100
▁fruit 100
▁si 100
▁Man 100
ified 100
▁seven 100
list 100
sand 100
▁tem 100
▁only 100
▁well 100
▁thousand 100
▁war 100
▁sacri 100
▁Son 100
▁bel 100
▁sacrif 100
▁old 100
ures 100
▁Apa 100
▁far 100
▁ple 100
▁.. 100
▁... 100
▁wrath 100
▁delivered 100
oy 100
ire 100
here 100
ised 100
▁disciples 100
un 100
▁cho 100
▁pur 100
ason 100
▁sat 100
▁unc 100
▁high 100
▁strong 100
um 100
iqu 100
rew 100
▁gold 100
ps 100
▁much 100
▁poor 100
▁iniqu 100
▁ung 100
atter 100
den 100
oss 100
▁ungod 100
for 100
▁happ 100
▁Philist 100
▁nothing 100
▁departed 100
▁sk 100
▁tre 100
offer 100
▁able 100
▁turned 100
hn 100
aron 100
▁full 100
▁receive 100
▁mon 100
▁lord 100
▁blessed 100
!' 100
bs 100
▁sil 100
▁four 100
▁ways 100
▁rememb 100
▁near 100
▁back 100
▁seek 100
ener 100
ittle 100
▁thus 100
▁count 100
▁utter 100
▁wisdom 100
right 100
▁Ho 100
▁wa 100
▁Sam 100
▁didn 100
▁gods 100
venant 100
▁This 100
▁spoken 100
imon 100
▁send 100
▁gener 100
▁mighty 100
▁covenant 100
▁dark 100
ched 100
▁res 100
▁John 100
▁fool 100
▁follow 100
ary 100
▁Aaron 100
▁little 100
▁written 100
of 100
ely 100
▁Th 100
▁each 100
▁strength 100
▁Jos 100
▁hid 100
erness 100
iz 100
eter 100
▁became 100
ify 100
ily 100
▁His 100
▁field 100
▁known 100
▁ungodly 100
▁wilderness 100
ndred 100
▁wine 100
▁hundred 100
▁Gal 100
▁Holy 100
▁trou 100
▁stood 100
▁cause 100
▁contin 100
▁hon 100
▁sal 100
▁enter 100
ites 100
▁tab 100
▁seed 100
▁wicked 100
ua 100
ses 100
iled 100
▁wit 100
▁Se 100
▁joy 100
▁help 100
▁repro 100
▁remain 100
oud 100
▁We 100
▁car 100
▁prin 100
▁brothers 100
▁sh 100
▁part 100
az 100
aled 100
▁dra 100
▁sle 100
▁gone 100
▁Phara 100
▁toward 100
▁daughter 100
▁conf 100
▁lest 100
▁destroyed 100
▁Philistines 100
hua 100
ins 100
ctor 100
▁capt 100
▁told 100
soever 100
▁Pharao 100
▁rejoice 100
▁multitude 100
▁bet 100
▁thr 100
▁numb 100
▁round 100
▁Joshua 100
ult 100
ship 100
▁bro 100
▁ind 100
▁Paul 100
▁hope 100
ointed 100
▁inheritance 100
▁hold 100
▁kind 100
▁trans 100
ner 100
▁dev 100
▁fam 100
▁gar 100
ern 100
hered 100
▁Jews 100
▁same 100
ians 100
▁arm 100
▁beast 100
▁An 100
▁supp 100
semb 100
▁comes 100
▁serve 100
▁priests 100
,' 100
▁gu 100
vation 100
attle 100
▁coming 100
lee 100
ones 100
▁mar 100
▁Abra 100
▁offer 100
▁sheep 100
▁eld 100
▁rec 100
▁while 100
▁darkness 100
ub 100
nds 100
thing 100
▁char 100
▁fell 100
▁host 100
▁sign 100
orning 100
▁witness 100
▁yourselves 100
iles 100
ictor 100
▁cried 100
▁pleas 100
▁salvation 100
▁understanding 100
uel 100
ious 100
▁died 100
▁laid 100
▁poss 100
▁kings 100
▁assemb 100
▁living 100
▁You 100
▁filled 100
▁morning 100
ally 100
vent 100
▁sun 100
ens 100
gress 100
ordan 100
▁here 100
▁such 100
▁judge 100
ruction 100
▁Jordan 100
oe 100
ear 100
▁Je 100
orrow 100
▁need 100
▁sub 100
▁must 100
▁reve 100
▁year 100
chi 100
ock 100
▁Jon 100
▁lay 100
▁neigh 100
▁praise 100
▁counsel 100
ices 100
▁frie 100
▁never 100
▁iniquity 100
▁transgress 100
ek 100
pl 100
▁cry 100
▁swe 100
▁neighb 100
oney 100
▁lab 100
▁says 100
▁Peter 100
▁whose 100
▁new 100
ernac 100
▁none 100
▁sake 100
▁wait 100
▁going 100
The 100
▁Ar 100
ated 100
read 100
▁vis 100
▁fore 100
▁knew 100
▁sight 100
▁gathered 100
▁tabernac 100
▁Go 100
▁decl 100
▁dist 100
▁silver 100
oc 100
ray 100
▁How 100
▁Thus 100
▁grie 100
▁tong 100
▁stone 100
▁times 100
▁believe 100
▁utterly 100
aces 100
▁All 100
ledge 100
▁desire 100
▁reason 100
ie 100
eed 100
sed 100
▁born 100
▁asked 100
▁div 100
▁Gent 100
▁happened 100
▁read 100
▁side 100
▁month 100
▁Samuel 100
▁unclean 100
▁alt 100
illed 100
▁forg 100
▁river 100
▁Gentiles 100
▁affliction 100
ase 100
ham 100
▁enc 100
iness 100
▁sacrifice 100
▁sho 100
thren 100
▁mind 100
▁begin 100
▁grace 100
▁depart 100
▁brethren 100
oured 100
▁smote 100
▁strang 100
▁temple 100
ird 100
over 100
raid 100
athan 100
▁Sion 100
▁bord 100
▁inst 100
▁want 100
▁teach 100
▁es 100
▁cur 100
▁gif 100
▁save 100
▁rose 100
▁chief 100
▁ordin 100
▁beloved 100
▁prophet 100
▁received 100
ius 100
the 100
und 100
▁mak 100
▁bear 100
▁knowledge 100
ances 100
aster 100
▁fast 100
▁angels 100
▁prophets 100
▁tabernacle 100
usb 100
eding 100
habit 100
usband 100
▁elders 100
▁indeed 100
▁Ba 100
ween 100
▁inc 100
▁sure 100
▁hearts 100
▁tongue 100
▁between 100
▁compass 100
▁continu 100
▁daughters 100
day 100
ared 100
ient 100
omin 100
rown 100
▁exal 100
▁matter 100
offering 100
▁husband 100
), 100
▁afraid 100
▁mountains 100
ages 100
ense 100
▁stri 100
▁gather 100
▁possess 100
▁returned 100
▁neighbour 100
▁commandments 100
bes 100
iat 100
man 100
ches 100
▁dece 100
▁anger 100
▁suffer 100
ison 100
▁tree 100
▁myself 100
▁inhabit 100
▁testimon 100
ip 100
▁sold 100
▁altar 100
▁troub 100
▁trust 100
▁thanks 100
▁throne 100
▁country 100
▁worship 100
You 100
elt 100
ilt 100
ingdom 100
▁Abess 100
▁ground 100
arn 100
▁cal 100
▁weep 100
▁means 100
▁number 100
▁wherein 100
▁ears 100
▁houses 100
▁nation 100
▁entered 100
▁presence 100
▁food 100
▁vine 100
▁wall 100
▁tribe 100
▁looked 100
▁princes 100
wer 100
ring 100
▁bow 100
▁sit 100
▁glad 100
▁pers 100
og 100
thy 100
▁opp 100
▁why 100
▁care 100
lessed 100
▁doesn 100
als 100
▁sn 100
▁qui 100
pared 100
▁door 100
▁kingdom 100
aid 100
irc 100
ots 100
ling 100
oseph 100
▁hour 100
▁kept 100
▁prov 100
▁though 100
aw 100
sy 100
aby 100
ints 100
reet 100
▁Why 100
▁Joseph 100
▁exceeding 100
▁ark 100
▁cut 100
▁est 100
▁rich 100
▁remember 100
ants 100
▁One 100
▁Thy 100
▁tra 100
▁book 100
▁passed 100
ute 100
alse 100
anct 100
▁esc 100
▁lips 100
▁shew 100
▁twel 100
▁creat 100
▁encamp 100
▁saints 100
▁heavens 100
▁beginning 100
eal 100
ulf 100
▁dw 100
ined 100
post 100
▁ten 100
▁ones 100
▁sick 100
▁dwelt 100
▁false 100
▁opened 100
cha 100
lon 100
▁Le 100
▁Joab 100
▁open 100
▁above 100
▁cloud 100
▁sound 100
▁perish 100
▁sky 100
ircum 100
▁heal 100
▁better 100
ten 100
▁Ye 100
▁Him 100
▁red 100
▁meet 100
abylon 100
▁Where 100
lf 100
alom 100
bath 100
rise 100
▁ter 100
▁Hear 100
▁fulf 100
▁wind 100
▁alone 100
▁women 100
▁Babylon 100
▁nam 100
▁ref 100
▁draw 100
▁twelve 100
▁certainly 100
▁exceedingly 100
▁vain 100
ircumc 100
▁abund 100
eds 100
ild 100
▁gr 100
pped 100
▁mour 100
▁tent 100
▁sanct 100
▁third 100
▁sinned 100
▁greatly 100
▁Abessalom 100
sec 100
uke 100
▁bes 100
▁six 100
▁lead 100
▁rock 100
▁second 100
▁destruction 100
oke 100
▁Al 100
ased 100
▁Cha 100
▁spo 100
▁camp 100
▁till 100
▁loved 100
▁Jonathan 100
▁appointed 100
ey 100
lly 100
sen 100
▁most 100
▁feast 100
▁saved 100
▁declare 100
▁prepared 100
HE 100
eng 100
ows 100
▁ob 100
ully 100
▁Isa 100
ement 100
▁enemy 100
▁commit 100
ail 100
ced 100
aked 100
▁appear 100
▁prison 100
▁whether 100
▁wrought 100
abl 100
ons 100
ives 100
▁Che 100
▁eye 100
cause 100
ought 100
▁clot 100
▁Blessed 100
▁assembly 100
▁ordinances 100
ile 100
ains 100
ized 100
▁def 100
▁lam 100
▁slay 100
▁could 100
▁broken 100
▁faithful 100
up 100
cept 100
raim 100
tend 100
▁Rem 100
▁att 100
▁rul 100
ighty 100
▁caus 100
▁chosen 100
▁lifted 100
▁repent 100
▁surely 100
▁borders 100
▁generation 100
then 100
ting 100
▁cle 100
▁reg 100
▁Good 100
▁Take 100
▁flee 100
▁hung 100
▁rise 100
▁stra 100
▁troubled 100
▁Egyptians 100
▁ourselves 100
op 100
reg 100
▁mo 100
asse 100
fter 100
just 100
ured 100
▁Eph 100
▁pat 100
▁tou 100
ister 100
▁nigh 100
▁rejo 100
iately 100
▁prayer 100
▁Ephraim 100
mediately 100
ss 100
rem 100
uch 100
▁Do 100
▁Mo 100
▁On 100
▁ba 100
▁wo 100
rose 100
▁weak 100
▁arose 100
▁build 100
▁sought 100
▁sinners 100
ae 100
ms 100
▁Sy 100
amin 100
aves 100
▁low 100
▁van 100
hamed 100
▁vill 100
▁desol 100
▁fight 100
▁leave 100
▁money 100
▁shame 100
▁abomin 100
▁secret 100
▁waters 100
▁Pharise 100
▁ashamed 100
▁reproach 100
cc 100
uri 100
iful 100
▁ass 100
▁pit 100
▁Chan 100
asting 100
▁bound 100
▁gives 100
▁establ 100
▁multip 100
▁unright 100
▁believed 100
ery 100
▁No 100
▁ce 100
▁bur 100
▁mis 100
ached 100
▁foot 100
▁hard 100
▁port 100
▁prom 100
▁true 100
▁order 100
▁still 100
▁beasts 100
▁friend 100
▁labour 100
▁unrighteous 100
▁To 100
ways 100
▁vir 100
▁last 100
▁mess 100
▁sleep 100
▁honour 100
▁anything 100
▁hearkened 100
▁testimony 100
aut 100
ime 100
ues 100
▁Ad 100
lind 100
▁oil 100
▁Moab 100
▁dost 100
▁hill 100
▁blind 100
▁think 100
▁garments 100
Be 100
ah 100
ned 100
not 100
ible 100
ises 100
▁bapt 100
▁These 100
▁souls 100
▁sevent 100
▁Because 100
▁evening 100
▁exalted 100
▁whatsoever 100
enj 100
▁Em 100
▁Or 100
pect 100
▁Lev 100
▁lie 100
ained 100
ience 100
▁Benj 100
▁cong 100
▁angry 100
▁answer 100
▁cattle 100
▁desert 100
▁places 100
▁thereof 100
▁whatever 100
ib 100
iv 100
omp 100
ides 100
▁ate 100
▁kill 100
▁prof 100
▁sing 100
▁beaut 100
▁forty 100
▁knows 100
▁watch 100
▁always 100
▁thought 100
ai 100
ough 100
side 100
yond 100
▁Eli 100
ision 100
▁aside 100
▁reign 100
▁beyond 100
▁Abraham 100
▁stranger 100
▁wickedness 100
lic 100
burn 100
▁Her 100
▁THE 100
▁pie 100
alley 100
burnt 100
▁fled 100
▁ship 100
▁burnt 100
▁accept 100
▁fallen 100
▁longer 100
▁sorrow 100
▁worthy 100
▁present 100
▁followed 100
▁revealed 100
els 100
mer 100
▁id 100
bser 100
iced 100
cious 100
▁five 100
▁purs 100
▁wond 100
▁crown 100
▁congreg 100
▁portion 100
▁Benjamin 100
aad 100
eem 100
What 100
ired 100
▁Sab 100
▁fif 100
▁corn 100
▁wood 100
▁flock 100
▁lives 100
▁perfe 100
▁spoil 100
▁Galaad 100
▁raised 100
▁foolish 100
na 100
ect 100
tha 100
▁De 100
fied 100
tern 100
▁hate 100
▁quick 100
▁stret 100
▁compan 100
▁valley 100
▁Pharisees 100
▁continually 100
aim 100
ian 100
ual 100
▁Re 100
▁act 100
▁cor 100
acher 100
▁chan 100
▁cove 100
▁fors 100
▁plag 100
▁stay 100
▁began 100
▁consu 100
▁hosts 100
▁cannot 100
▁manner 100
▁stones 100
▁within 100
▁encamped 100
▁congregation 100
mor 100
ider 100
pher 100
yard 100
▁rod 100
cript 100
▁bird 100
▁built 100
▁etern 100
▁gates 100
▁small 100
▁Abraam 100
▁anyone 100
▁belong 100
offerings 100
hind 100
owed 100
▁med 100
▁News 100
▁Isaac 100
▁soldi 100
▁battle 100
▁behind 100
▁master 100
▁reward 100
▁carried 100
▁Es 100
▁few 100
▁wid 100
asure 100
▁After 100
▁apost 100
▁disob 100
▁naked 100
▁visit 100
▁speaking 100
He 100
ont 100
pet 100
vers 100
▁cour 100
▁drew 100
▁lion 100
▁proce 100
▁fellow 100
▁redeem 100
▁shouldest 100
▁inhabitants 100
ech 100
Lord 100
lied 100
pent 100
ught 100
▁led 100
fully 100
▁free 100
▁Jerem 100
▁except 100
▁mayest 100
▁persec 100
▁wonder 100
▁eternal 100
▁blessing 100
▁fulfilled 100
gs 100
vest 100
▁Bar 100
▁inf 100
▁mur 100
▁pay 100
▁pun 100
▁gate 100
▁heed 100
▁humb 100
liness 100
▁Pause 100
▁chari 100
▁demon 100
▁obser 100
▁smite 100
▁write 100
▁perfor 100
▁vineyard 100
law 100
aint 100
alth 100
ange 100
orns 100
▁Pis 100
▁She 100
ently 100
uring 100
▁gift 100
▁pros 100
▁rain 100
▁wept 100
entius 100
ounded 100
▁south 100
▁spread 100
▁strengthen 100
ron 100
▁Ag 100
osed 100
▁Gab 100
▁bar 100
▁che 100
▁imp 100
▁show 100
▁break 100
born 100
oura 100
ying 100
▁bit 100
▁cro 100
peror 100
▁cond 100
▁shut 100
▁learn 100
▁lived 100
▁hidden 100
▁garment 100
▁Pisentius 100
ead 100
eph 100
▁sy 100
fort 100
pherd 100
▁Come 100
▁east 100
▁path 100
▁perce 100
▁procl 100
▁signs 100
▁thirst 100
▁circumc 100
▁messeng 100
ats 100
ney 100
uted 100
▁den 100
▁gro 100
ilies 100
otten 100
uthor 100
▁Duke 100
▁Give 100
▁once 100
▁scri 100
mighty 100
▁curse 100
▁sweet 100
▁Script 100
▁forget 100
▁unjust 100
▁account 100
▁compassion 100
▁commandment 100
▁By 100
▁ox 100
ided 100
lech 100
ream 100
▁add 100
▁inn 100
▁calf 100
▁deal 100
▁slew 100
▁womb 100
ervant 100
▁guard 100
▁Manasse 100
▁Almighty 100
▁desolate 100
eli 100
▁ir 100
enty 100
▁ast 100
ember 100
▁hair 100
▁Judea 100
▁clean 100
▁instru 100
▁poured 100
▁remove 100
▁strange 100
▁afterward 100
▁glorified 100
▁everything 100
If 100
men 100
ols 100
rom 100
run 100
orted 100
venge 100
▁rule 100
▁bones 100
▁exult 100
▁moved 100
▁ready 100
▁author 100
▁fruits 100
▁recomp 100
▁wealth 100
▁comfort 100
▁Jeremias 100
▁standing 100
▁afflicted 100
▁judgments 100
rs 100
ank 100
ape 100
hood 100
▁Don 100
▁Job 100
▁fin 100
▁hat 100
▁obe 100
▁Amor 100
▁bold 100
▁fail 100
▁jour 100
▁virg 100
Behold 100
▁early 100
▁incre 100
▁marve 100
▁since 100
lasting 100
▁caused 100
▁pieces 100
▁prayed 100
▁tribes 100
▁Emperor 100
▁supplic 100
▁Remember 100
▁shepherd 100
▁generations 100
ades 100
ilig 100
race 100
▁Woe 100
▁ves 100
▁heat 100
▁pure 100
▁tomb 100
▁boast 100
▁dilig 100
▁fount 100
▁plant 100
▁bitter 100
▁charge 100
▁judged 100
▁sister 100
▁vessel 100
▁forever 100
▁journey 100
▁removed 100
▁trouble 100
▁weeping 100
▁pleasure 100
▁straight 100
▁immediately 100
hon 100
oked 100
▁min 100
eared 100
▁Gali 100
▁desp 100
▁disc 100
▁goes 100
▁skin 100
edient 100
ressed 100
▁Every 100
▁alive 100
▁gifts 100
▁habit 100
▁satis 100
▁separ 100
▁table 100
▁healed 100
▁others 100
▁sinner 100
▁Sabbath 100
▁knowing 100
▁respect 100
▁serpent 100
▁anointed 100
▁proclaim 100
▁iniquities 100
▁remembered 100
ffe 100
pha 100
ued 100
▁En 100
agog 100
▁val 100
ected 100
ition 100
▁Most 100
▁seem 100
▁shad 100
▁Simon 100
▁devil 100
▁stumb 100
▁youth 100
▁escape 100
▁greater 100
▁appeared 100
▁multitudes 100
▁sacrifices 100
cess 100
rupt 100
▁reb 100
▁ris 100
nagog 100
▁Gaba 100
▁serv 100
▁birds 100
▁hated 100
▁trees 100
rection 100
▁overth 100
▁report 100
▁twenty 100
▁vanity 100
▁friends 100
▁perfect 100
▁prosper 100
▁quickly 100
▁testify 100
▁wonders 100
▁families 100
My 100
▁dri 100
rians 100
▁beha 100
▁bore 100
▁deep 100
▁dust 100
▁half 100
▁iron 100
▁pill 100
▁Ammon 100
▁arise 100
▁doing 100
▁manif 100
imelech 100
▁helper 100
▁person 100
▁synagog 100
▁everyone 100
avi 100
▁da 100
▁hy 100
This 100
anus 100
pare 100
wise 100
▁Sin 100
▁fav 100
▁Aben 100
▁drun 100
▁slain 100
▁tempt 100
▁deceit 100
▁famine 100
▁thence 100
▁thirty 100
▁Galilee 100
▁multiplied 100
ax 100
tt 100
.'' 100
iss 100
ates 100
azar 100
vern 100
ekias 100
▁Amen 100
▁list 100
▁neck 100
▁talk 100
ealous 100
▁carry 100
▁evils 100
▁north 100
▁breast 100
▁devour 100
▁offered 100
▁glorious 100
▁teaching 100
▁villages 100
▁authority 100
xt 100
pes 100
rus 100
▁Bo 100
▁St 100
aped 100
arch 100
urbs 100
▁cover 100
▁medit 100
▁spake 100
▁captiv 100
▁speech 100
▁proceed 100
▁suburbs 100
▁apostles 100
▁soldiers 100
ma 100
int 100
aced 100
aren 100
atha 100
▁Dan 100
▁age 100
▁Achi 100
▁past 100
▁grass 100
▁heads 100
▁honey 100
▁loves 100
▁white 100
▁condem 100
▁dishon 100
▁preach 100
▁season 100
▁endures 100
▁reported 100
▁everlasting 100
). 100
let 100
now 100
ror 100
▁Ca 100
▁em 100
with 100
▁Nab 100
▁dro 100
▁fat 100
▁hor 100
▁mag 100
▁Beth 100
▁Savi 100
▁fine 100
▁sitt 100
▁cloth 100
▁conce 100
▁wrong 100
▁wrote 100
▁formed 100
▁itself 100
▁charged 100
▁whoever 100
▁chariots 100
▁abundance 100
▁captivity 100
▁supplication 100
amb 100
ges 100
hel 100
ease 100
▁bed 100
▁dry 100
▁lod 100
▁run 100
▁too 100
▁lift 100
▁loud 100
▁prev 100
▁refu 100
▁wish 100
asures 100
ention 100
▁eaten 100
▁tears 100
▁terri 100
▁wives 100
▁around 100
▁killed 100
▁seeing 100
▁street 100
▁Abenner 100
▁confess 100
▁looking 100
▁perform 100
▁consider 100
▁rejoiced 100
Who 100
iel 100
▁ve 100
▁Gad 100
▁cup 100
▁sur 100
▁yea 100
ality 100
▁gird 100
▁subj 100
▁dream 100
▁idols 100
▁pride 100
▁snare 100
▁ceased 100
▁comple 100
▁punish 100
▁taught 100
▁walked 100
▁covered 100
▁created 100
▁seventh 100
▁upright 100
▁continue 100
▁Abimelech 100
end 100
ize 100
ped 100
▁er 100
amel 100
nant 100
▁cru 100
▁ran 100
▁rel 100
ready 100
▁Assy 100
▁arri 100
▁join 100
▁lust 100
▁next 100
▁pour 100
▁purp 100
ephtha 100
▁Herod 100
▁innoc 100
▁paths 100
▁raise 100
▁stars 100
▁venge 100
▁Chanan 100
▁astray 100
▁golden 100
▁served 100
▁vision 100
▁already 100
▁outside 100
▁manifest 100
▁vengeance 100
ere 100
▁vi 100
athi 100
bron 100
lies 100
oned 100
▁adv 100
▁dou 100
▁ren 100
▁hide 100
▁adult 100
▁belly 100
▁breat 100
▁cease 100
▁horse 100
▁makes 100
▁happen 100
▁prepare 100
▁therein 100
▁abundant 100
▁consumed 100
▁stretched 100
▁established 100
▁unrighteousness 100
ec 100
ls 100
Why 100
bed 100
sal 100
▁aw 100
cend 100
ited 100
mpet 100
▁Sar 100
▁Whi 100
▁Yet 100
▁dep 100
▁disp 100
▁lamp 100
▁oath 100
▁honor 100
▁sware 100
▁hungry 100
▁plague 100
▁shadow 100
▁afflict 100
▁trumpet 100
▁finished 100
▁thousands 100
▁abomination 100
jour 100
▁Pil 100
▁tor 100
iving 100
▁Esau 100
▁kins 100
▁west 100
▁Judas 100
▁deeds 100
▁image 100
▁named 100
▁ought 100
▁Pilate 100
▁feared 100
▁judges 100
▁sojour 100
▁observe 100
▁promise 100
▁towards 100
▁strangers 100
▁possession 100
by 100
ety 100
irs 100
xed 100
pass 100
▁get 100
▁lot 100
aring 100
orses 100
▁That 100
▁grow 100
▁pain 100
▁reap 100
▁wast 100
▁Amale 100
▁appro 100
▁grief 100
▁ruler 100
▁scatt 100
▁govern 100
▁horses 100
▁rulers 100
▁Chebron 100
▁counten 100
▁restore 100
▁scribes 100
▁numbered 100
▁Assyrians 100
▁scattered 100
IN 100
non 100
ury 100
hall 100
irth 100
▁nat 100
areth 100
▁Even 100
▁Mary 100
▁amaz 100
▁enqu 100
▁fill 100
▁gard 100
▁requ 100
▁eight 100
▁names 100
▁attend 100
▁failed 100
▁rather 100
▁riches 100
▁clothed 100
▁forsake 100
▁oppress 100
▁remnant 100
▁baptized 100
▁rejected 100
▁committed 100
▁messengers 100
It 100
We 100
ee 100
aan 100
asso 100
vous 100
▁Jeb 100
▁Mic 100
▁ins 100
▁mil 100
udden 100
▁Adam 100
▁beat 100
▁boat 100
arents 100
▁Chald 100
▁parts 100
▁widow 100
▁confid 100
▁family 100
▁letter 100
▁loaves 100
▁perver 100
▁profit 100
▁jealous 100
▁kinsman 100
▁knowest 100
▁parents 100
▁service 100
▁precious 100
▁household 100
▁countenance 100
ene 100
iam 100
acha 100
aded 100
uben 100
▁Tha 100
▁spr 100
▁High 100
▁maid 100
▁Micha 100
▁bonds 100
▁bride 100
ication 100
▁beauty 100
▁buried 100
▁clouds 100
▁endure 100
▁fourth 100
▁preser 100
▁speaks 100
▁corrupt 100
▁patient 100
▁remains 100
▁sitting 100
▁distress 100
▁fountain 100
▁moreover 100
▁yourself 100
▁Wherefore 100
▁satisfied 100
▁wonderful 100
▁possessions 100
Don 100
ber 100
ift 100
lst 100
▁At 100
▁El 100
eans 100
icho 100
maid 100
roud 100
▁Mad 100
▁From 100
▁aton 100
▁doth 100
▁moon 100
▁puri 100
▁rele 100
▁wash 100
▁Ruben 100
▁groan 100
▁mourn 100
assover 100
uddenly 100
▁excell 100
▁captain 100
▁prayers 100
iah 100
brew 100
ires 100
mber 100
rias 100
ries 100
▁Bas 100
▁Car 100
▁bad 100
▁obt 100
▁Eust 100
▁feed 100
▁milk 100
▁obey 100
▁root 100
▁sand 100
▁Devil 100
▁doors 100
▁grant 100
▁liken 100
▁plain 100
▁proud 100
aughter 100
oreover 100
servant 100
▁Hebrew 100
▁bodies 100
▁breath 100
▁burden 100
▁choose 100
▁comfor 100
▁former 100
▁hither 100
▁months 100
▁unless 100
▁Jericho 100
▁escaped 100
▁glorify 100
▁harvest 100
▁grievous 100
▁handmaid 100
▁mourning 100
▁patience 100
▁Chaldeans 100
▁afterwards 100
▁appearance 100
▁instruction 100
▁OF 100
▁el 100
hose 100
▁Ara 100
▁dec 100
▁occ 100
aving 100
ility 100
ometh 100
▁Many 100
▁With 100
▁bran 100
▁mark 100
erable 100
▁Shall 100
▁offic 100
▁spare 100
▁suffe 100
▁teeth 100
▁regard 100
▁stayed 100
▁virgin 100
▁burning 100
▁measure 100
▁streets 100
▁touched 100
urrection 100
▁merciful 100
▁offering 100
▁witnesses 100
▁recompense 100
ala 100
min 100
oll 100
rac 100
ames 100
oint 100
omes 100
▁cra 100
▁exh 100
▁pal 100
▁ram 100
▁Heli 100
▁bond 100
▁flow 100
▁gain 100
▁lamb 100
▁pity 100
▁tres 100
▁viol 100
avened 100
▁along 100
▁close 100
▁needy 100
ameless 100
▁brings 100
▁favour 100
▁making 100
▁spoils 100
▁divided 100
▁herself 100
▁incense 100
▁whereas 100
▁Moreover 100
▁clothing 100
▁suddenly 100
▁trespass 100
▁atonement 100
▁blameless 100
▁justified 100
du 100
▁; 100
cho 100
cus 100
ial 100
sol 100
urt 100
ases 100
empt 100
iven 100
part 100
▁cre 100
▁met 100
aches 100
ailed 100
chief 100
▁Turn 100
▁best 100
▁monk 100
▁murd 100
▁oxen 100
ibanus 100
▁array 100
▁arrow 100
▁flame 100
▁risen 100
▁smoke 100
▁wheat 100
▁Bethle 100
▁amazed 100
▁border 100
▁during 100
▁humble 100
▁hunger 100
▁prince 100
▁scatter 100
▁forgotten 100
▁diligently 100
▁disobedient 100
cy 100
ug 100
bul 100
cil 100
eon 100
its 100
ook 100
▁Ez 100
aken 100
edge 100
nest 100
osom 100
▁May 100
▁emb 100
▁sum 100
ander 100
asphe 100
▁Caes 100
▁afar 100
▁army 100
▁coll 100
▁drag 100
▁fish 100
▁lost 100
▁meat 100
▁resc 100
▁sack 100
▁song 100
▁stor 100
▁Phili 100
▁accus 100
▁fifty 100
▁keeps 100
▁memor 100
▁overc 100
▁short 100
▁spear 100
▁takes 100
▁wings 100
▁wound 100
▁Amalec 100
▁Heaven 100
▁Madiam 100
▁demons 100
▁shaken 100
▁blasphe 100
▁desires 100
▁hearing 100
▁parable 100
▁dwelling 100
▁suffered 100
▁thoughts 100
▁following 100
▁acceptable 100
▁habitation 100
sp 100
ara 100
hor 100
jah 100
shi 100
▁Yes 100
▁env 100
▁inv 100
▁sel 100
▁sow 100
iment 100
issed 100
rance 100
▁Baet 100
▁Cher 100
▁bull 100
▁fing 100
▁form 100
▁herd 100
▁psal 100
▁seat 100
▁shar 100
reated 100
▁Bring 100
▁Samar 100
▁daily 100
▁least 100
▁swear 100
edience 100
▁behalf 100
▁cometh 100
▁garden 100
▁rivers 100
▁silent 100
▁whilst 100
▁worshi 100
▁Chanaan 100
▁forgive 100
▁pleased 100
▁commands 100
▁forgiven 100
▁preached 100
▁provoked 100
▁synagogue 100
▁repentance 100
▁circumcision 100
▁resurrection 100
▁transgressors 100
art 100
bon 100
lem 100
mel 100
▁eag 100
▁sab 100
▁sor 100
▁top 100
▁Syri 100
▁disg 100
▁soon 100
athius 100
morrow 100
▁Their 100
▁flour 100
▁often 100
▁quiet 100
▁scour 100
▁seeks 100
▁throw 100
▁touch 100
▁pillar 100
▁thrown 100
▁wouldn 100
▁counted 100
▁earnest 100
▁purpose 100
▁sabbath 100
▁gladness 100
▁remained 100
▁Scripture 100
▁creatures 100
▁strengthened 100
ys 100
che 100
ell 100
son 100
atan 100
much 100
rust 100
▁Did 100
▁Ged 100
▁See 100
▁bas 100
▁fig 100
▁inj 100
▁tax 100
eterm 100
mbers 100
▁Fear 100
▁bind 100
▁cruc 100
▁else 100
▁fair 100
▁furn 100
▁male 100
▁prud 100
▁shed 100
▁unle 100
▁bosom 100
▁coast 100
▁hills 100
▁inter 100
▁stead 100
▁tremb 100
▁abound 100
▁bright 100
▁choice 100
▁determ 100
▁dwells 100
▁flocks 100
▁refuge 100
▁sanctu 100
▁Ezekias 100
▁defiled 100
▁bringing 100
▁mischief 100
▁receives 100
▁comforted 100
▁compassed 100
▁Eustathius 100
▁punishment 100
▁testimonies 100
Do 100
TH 100
ier 100
och 100
odu 100
▁Im 100
▁Me 100
▁Ne 100
akim 100
mell 100
ompl 100
reed 100
▁Mel 100
▁Pro 100
▁bus 100
▁won 100
ament 100
aries 100
▁Levi 100
▁Your 100
▁cust 100
▁exam 100
▁grew 100
▁hail 100
▁home 100
▁sees 100
▁stir 100
▁used 100
▁Baeth 100
▁Basan 100
▁chast 100
▁domin 100
▁faces 100
▁fools 100
▁lying 100
theless 100
▁advers 100
▁exhort 100
▁lament 100
▁listen 100
▁tables 100
▁Libanus 100
▁accompl 100
▁arrived 100
▁grieved 100
▁raiment 100
▁release 100
▁beautiful 100
▁continued 100
▁establish 100
▁determined 100
-- 100
bt 100
eep 100
ets 100
leb 100
▁Ty 100
adab 100
ging 100
inen 100
phan 100
▁Ant 100
▁Del 100
▁Rom 100
▁ban 100
▁ele 100
▁hum 100
▁int 100
▁pet 100
▁sex 100
joice 100
onoun 100
osthe 100
verty 100
▁Gree 100
▁Jess 100
▁Samp 100
▁Will 100
▁acts 100
▁empt 100
▁harm 100
▁held 100
▁magn 100
▁murm 100
▁rebu 100
▁road 100
▁tort 100
▁Again 100
▁broke 100
▁cross 100
▁exist 100
▁hoped 100
▁infor 100
▁persu 100
▁produ 100
▁sharp 100
▁swall 100
▁caught 100
▁fought 100
▁necess 100
▁orphan 100
▁someth 100
▁thorns 100
▁Sampson 100
▁poverty 100
▁pronoun 100
▁thirsty 100
▁village 100
▁willing 100
▁dominion 100
▁governor 100
▁innocent 100
▁ordinance 100
▁sanctuary 100
▁something 100
▁treasures 100
▁uncircumc 100
▁wherewith 100
▁assemblies 100
OR 100
Let 100
ama 100
irm 100
ran 100
use 100
▁Ma 100
olom 100
peak 100
ubim 100
▁bra 100
▁buy 100
▁dam 100
▁exp 100
▁lau 100
under 100
ursed 100
▁Have 100
▁Thee 100
▁crus 100
▁dire 100
▁firm 100
▁harl 100
▁harp 100
▁prop 100
▁spot 100
asmuch 100
olomon 100
▁Satan 100
▁Those 100
▁folly 100
▁hears 100
▁horns 100
▁linen 100
▁oppos 100
▁Gedeon 100
▁Philip 100
▁double 100
▁maketh 100
▁pursue 100
▁spring 100
▁Amorite 100
▁Saviour 100
▁Solomon 100
▁Whoever 100
▁besides 100
▁council 100
▁delight 100
▁descend 100
▁justice 100
▁kindled 100
▁labours 100
▁seeking 100
▁seventy 100
▁smitten 100
▁devoured 100
▁pleasing 100
▁secretly 100
▁Chananite 100
▁nakedness 100
▁wherefore 100
▁sufferings 100
▁throughout 100
▁unleavened 100
bb 100
oz 100
fty 100
arge 100
live 100
▁Jab 100
▁Not 100
▁Sed 100
▁Sel 100
cloth 100
stood 100
▁Make 100
▁anim 100
▁defe 100
▁exec 100
▁sail 100
▁suff 100
▁yoke 100
▁James 100
▁Never 100
▁While 100
▁cheer 100
▁drunk 100
▁exalt 100
▁immor 100
▁pract 100
▁store 100
▁tried 100
▁crying 100
▁cursed 100
▁region 100
▁seized 100
▁strife 100
▁Levites 100
▁condemn 100
▁praises 100
▁reveren 100
▁spirits 100
▁Amorites 100
▁Bethleem 100
▁adultery 100
▁deceived 100
▁disciple 100
▁prophesy 100
▁separate 100
▁treasure 100
▁sackcloth 100
▁slaughter 100
▁stumbling 100
▁testified 100
▁Scriptures 100
▁foundation 100
Go 100
ME 100
ari 100
dle 100
kes 100
ocr 100
ogn 100
thi 100
▁vo 100
pocr 100
ters 100
▁Gai 100
▁Jew 100
▁cam 100
▁dif 100
▁due 100
▁lep 100
▁rid 100
icing 100
▁Galg 100
▁Lamb 100
▁heav 100
▁mort 100
▁salt 100
▁tast 100
ounted 100
ourage 100
▁Hades 100
▁apart 100
▁greet 100
▁trave 100
▁damsel 100
▁eating 100
▁kissed 100
▁nought 100
▁recogn 100
▁waited 100
▁Hearken 100
▁Jephtha 100
▁chamber 100
▁changed 100
▁heathen 100
▁praying 100
▁walking 100
▁younger 100
▁Cherubim 100
▁multiply 100
▁perceive 100
▁perceived 100
▁Philistine 100
▁confounded 100
▁Immediately 100
ER 100
ON 100
lo 100
abb 100
ana 100
ked 100
ott 100
raw 100
▁Ch 100
arel 100
arer 100
haps 100
road 100
ware 100
▁Arab 100
▁Name 100
▁scar 100
▁seal 100
▁self 100
▁stat 100
▁brass 100
▁brook 100
▁chose 100
▁court 100
▁drank 100
▁drive 100
▁elder 100
▁empty 100
▁godly 100
▁hates 100
▁occas 100
▁plead 100
▁storm 100
▁tents 100
▁Jessae 100
▁abroad 100
▁armour 100
▁begged 100
▁fields 100
▁hypocr 100
▁profan 100
▁bondage 100
▁captive 100
▁company 100
▁despise 100
▁forward 100
▁thither 100
▁believes 100
▁captains 100
▁eastward 100
▁goodness 100
▁perished 100
▁prevailed 100
af 100
fo 100
agg 100
cks 100
ism 100
mit 100
nas 100
oli 100
abas 100
angu 100
apha 100
ield 100
room 100
▁Dam 100
▁Sal 100
▁dew 100
▁ign 100
▁ill 100
▁rus 100
▁use 100
There 100
Where 100
eness 100
▁Barn 100
▁ends 100
▁horn 100
▁leng 100
▁lies 100
▁myst 100
▁play 100
▁sell 100
▁sore 100
▁wear 100
▁Cades 100
▁Greet 100
▁advan 100
▁depth 100
▁goats 100
▁langu 100
▁olive 100
▁seize 100
▁tenth 100
▁thief 100
▁threw 100
▁truly 100
▁waste 100
▁Gabaon 100
▁betray 100
▁custom 100
▁forces 100
▁search 100
▁taking 100
▁terror 100
▁washed 100
▁weight 100
▁apparel 100
▁consume 100
▁courage 100
▁pursued 100
▁stretch 100
▁wounded 100
▁Barnabas 100
▁Jephthae 100
▁branches 100
▁declared 100
▁forsaken 100
▁crucified 100
▁increased 100
▁shepherds 100
▁suffering 100
▁confidence 100
▁sanctified 100
▁foundations 100
▁straightway 100
▁Nevertheless 100
fy 100
How 100
hom 100
osp 100
▁Ep 100
Take 100
ares 100
fast 100
idon 100
teen 100
▁Nay 100
▁Sad 100
▁dar 100
▁equ 100
▁isn 100
▁saf 100
groom 100
ution 100
▁Gosp 100
▁Hast 100
▁Some 100
▁news 100
▁veil 100
eacher 100
▁Arise 100
▁Sidon 100
▁birth 100
▁clear 100
▁deser 100
▁front 100
▁grave 100
▁guide 100
▁ignor 100
▁overt 100
▁quest 100
▁Elijah 100
▁Having 100
▁please 100
▁shewed 100
▁Neither 100
▁breasts 100
▁desired 100
▁furnace 100
▁learned 100
▁plagues 100
▁planted 100
▁gracious 100
▁increase 100
▁likewise 100
▁opposite 100
▁unjustly 100
▁rejoicing 100
;' 100
aal 100
ael 100
ley 100
▁Pl 100
Most 100
alon 100
emin 100
erty 100
onia 100
reth 100
secr 100
▁Ele 100
▁Our 100
▁Par 100
▁Pra 100
▁dog 100
▁fly 100
▁nin 100
▁sim 100
▁tit 100
arrow 100
▁Only 100
▁acqu 100
▁cave 100
▁cent 100
▁crow 100
▁dise 100
▁dism 100
▁eats 100
▁incl 100
▁orac 100
▁sits 100
▁weap 100
spring 100
▁Apost 100
▁Chett 100
▁Damas 100
▁Speak 100
▁ashes 100
▁asses 100
▁drawn 100
▁dried 100
▁goods 100
▁shine 100
▁smell 100
▁speed 100
▁walls 100
▁Gospel 100
▁Nathan 100
▁bought 100
▁burned 100
▁course 100
▁divide 100
▁enough 100
▁graven 100
▁helped 100
▁images 100
▁length 100
▁placed 100
▁rebuke 100
▁sexual 100
▁threat 100
▁widows 100
▁Rejoice 100
▁Samaria 100
▁clothes 100
▁consecr 100
▁drunken 100
▁general 100
▁mention 100
▁reigned 100
▁subject 100
▁trusted 100
▁vessels 100
▁whither 100
▁holiness 100
▁memorial 100
▁perverse 100
▁redeemed 100
▁troubles 100
▁weakness 100
▁whenever 100
▁overthrow 100
▁persecute 100
▁instructed 100
▁prosperity 100
▁uncleanness 100
▁transgressor 100
▁transgressions 100
vi 100
▁z 100
eps 100
sha 100
whi 100
▁(? 100
▁Az 100
Come 100
alks 100
chor 100
dume 100
held 100
most 100
osor 100
ross 100
vere 100
▁Art 100
▁Bet 100
▁Naz 100
▁Say 100
arted 100
place 100
▁Booz 100
▁Tyre 100
▁Whom 100
▁blot 100
▁case 100
▁conc 100
▁hurt 100
▁lack 100
▁quen 100
▁ruin 100
▁trav 100
giving 100
ifully 100
overed 100
ttered 100
▁Idume 100
▁Jebus 100
▁Syria 100
▁abide 100
▁dealt 100
▁desir 100
▁falls 100
▁grain 100
▁large 100
▁price 100
▁state 100
▁thres 100
▁yield 100
▁barley 100
▁barren 100
▁causes 100
▁cleans 100
▁consci 100
▁harlot 100
▁health 100
▁inside 100
▁sprink 100
▁whence 100
▁fasting 100
▁humbled 100
▁perhaps 100
▁teacher 100
▁Damascus 100
▁advanced 100
▁hardened 100
▁jealousy 100
▁sickness 100
▁excellent 100
▁inhabited 100
▁offspring 100
▁bridegroom 100
▁understood 100
▁abominations 100
ix 100
don 100
fru 100
char 100
hest 100
inks 100
irac 100
leep 100
sing 100
▁Lab 100
▁Tim 100
▁ext 100
▁fet 100
ables 100
adise 100
ining 100
iting 100
urely 100
▁Anti 100
▁Chus 100
▁Ethi 100
▁Geth 100
▁bask 100
▁braz 100
▁edge 100
▁fain 100
▁feel 100
▁virt 100
stance 100
▁Amnon 100
▁Gabaa 100
▁Judge 100
▁Maced 100
▁Masse 100
▁added 100
▁lusts 100
▁steal 100
▁tower 100
▁tread 100
▁walks 100
▁attack 100
▁clothe 100
▁finger 100
▁giving 100
▁latter 100
▁lawful 100
▁minist 100
▁resist 100
▁baptism 100
▁instead 100
▁lawless 100
▁peoples 100
▁stumble 100
▁uncover 100
▁uttered 100
▁disgrace 100
▁distance 100
▁greatest 100
▁instruct 100
▁minister 100
▁possible 100
▁sanctify 100
▁conceived 100
▁earnestly 100
▁greatness 100
▁inherited 100
▁reverence 100
▁spiritual 100
▁whosoever 100
▁conscience 100
▁immorality 100
▁overthrown 100
▁remembrance 100
▁transgressed 100
But 100
For 100
ctr 100
har 100
phi 100
ppa 100
rer 100
▁Ap 100
▁cu 100
▁pi 100
ands 100
hand 100
head 100
ulon 100
utes 100
▁Cho 100
▁Ese 100
▁Sea 100
▁Yea 100
▁sad 100
▁tid 100
▁unb 100
▁woe 100
▁Edom 100
▁Send 100
▁aven 100
▁bury 100
▁forn 100
▁lame 100
▁mock 100
▁faint 100
▁fully 100
▁laugh 100
▁relie 100
▁scorn 100
▁slumb 100
▁swift 100
▁withd 100
▁Achito 100
▁Esebon 100
▁Idumea 100
▁brazen 100
▁concub 100
▁counse 100
▁hasted 100
▁height 100
▁joined 100
▁reject 100
▁sealed 100
▁Deliver 100
▁However 100
▁healing 100
▁reached 100
▁rebuked 100
▁reprove 100
▁tidings 100
▁deserted 100
▁heavenly 100
▁likeness 100
▁meditate 100
▁obtained 100
▁overcome 100
▁terrible 100
▁Macedonia 100
▁dishonour 100
▁preaching 100
▁preserved 100
▁substance 100
▁abundantly 100
▁persecuted 100
▁worshipped 100
▁afflictions 100
▁accomplished 100
go 100
ING 100
ORD 100
ade 100
een 100
hys 100
rib 100
tic 100
▁Ph 100
They 100
When 100
ably 100
ault 100
ayed 100
othy 100
rest 100
▁Acc 100
▁Are 100
▁Day 100
▁Mac 100
▁amb 100
▁anx 100
▁bri 100
▁enl 100
▁kne 100
▁loc 100
▁mom 100
▁pow 100
▁rev 100
▁sta 100
▁try 100
cient 100
ening 100
ician 100
ifies 100
ishes 100
▁Baal 100
▁Look 100
▁Rise 100
▁Seon 100
▁carc 100
▁clay 100
▁deny 100
▁rent 100
▁room 100
▁sett 100
▁wont 100
ection 100
isance 100
rother 100
▁Grace 100
▁Other 100
▁doctr 100
▁fifth 100
▁lodge 100
▁marri 100
▁prote 100
▁repay 100
▁slept 100
▁worse 100
▁yours 100
▁Baruch 100
▁Caesar 100
▁Carmel 100
▁Isaiah 100
▁Noemin 100
▁asleep 100
▁change 100
▁coasts 100
▁moment 100
▁morrow 100
▁perpet 100
▁Eleazar 100
▁Galgala 100
▁Timothy 100
▁bearing 100
▁members 100
▁produce 100
▁virgins 100
▁weapons 100
▁workers 100
▁Paradise 100
▁Passover 100
▁boldness 100
▁petition 100
▁speedily 100
▁surround 100
▁companion 100
▁condemned 100
▁falsehood 100
▁messenger 100
▁persuaded 100
▁shoulders 100
▁steadfast 100
▁worshiped 100
▁bitterness 100
▁desolation 100
▁circumcised 100
ND 100
do 100
mar 100
ofs 100
rha 100
ung 100
▁Cy 100
akes 100
chem 100
chus 100
heth 100
mand 100
rees 100
rosy 100
ruck 100
▁Bel 100
▁Mag 100
▁Mar 100
▁Ner 100
▁Red 100
▁Sil 100
▁ali 100
▁hen 100
▁kid 100
▁nob 100
▁var 100
▁vow 100
ansom 100
asing 100
epart 100
olias 100
ually 100
wever 100
▁Nabu 100
▁gent 100
▁heap 100
▁ming 100
▁noon 100
▁quar 100
▁rebe 100
▁roll 100
abulon 100
▁Apoll 100
▁Jonas 100
▁Laban 100
▁allow 100
▁bowed 100
▁contr 100
▁hadst 100
▁loins 100
▁lowly 100
▁ships 100
▁sixty 100
▁turns 100
▁weary 100
justice 100
▁Praise 100
▁Savior 100
▁Though 100
▁beside 100
▁haught 100
▁mortal 100
▁nights 100
▁permit 100
▁ransom 100
▁rested 100
▁tender 100
▁tribul 100
▁Antioch 100
▁becomes 100
▁contend 100
▁entreat 100
▁fulfill 100
▁however 100
▁leprosy 100
▁passing 100
▁persons 100
▁pillars 100
▁prevail 100
▁prudent 100
▁scarlet 100
▁watched 100
▁Godolias 100
▁Nazareth 100
▁Sedekias 100
▁counsels 100
▁enquired 100
▁fullness 100
▁humility 100
▁officers 100
▁overtake 100
▁stronger 100
▁injustice 100
▁judgement 100
▁miserable 100
▁obeisance 100
▁proclaimed 100
▁synagogues 100
mn 100
su 100
ETH 100
God 100
act 100
app 100
ils 100
ium 100
ura 100
▁Ev 100
▁Ge 100
eace 100
mers 100
oted 100
peci 100
phes 100
rent 100
roat 100
uish 100
uous 100
▁Gaz 100
▁Ger 100
▁Mem 100
▁Sis 100
▁boy 100
▁enj 100
▁isl 100
▁mal 100
▁net 100
▁ste 100
▁Elis 100
▁Ruth 100
▁alar 100
▁arms 100
▁dawn 100
▁debt 100
▁dies 100
▁goat 100
▁imag 100
▁lend 100
▁meek 100
▁race 100
▁snow 100
▁star 100
▁suck 100
▁trad 100
itable 100
itions 100
urance 100
▁Nabal 100
▁ascri 100
▁awake 100
▁black 100
▁canst 100
▁coals 100
▁covet 100
▁error 100
▁goest 100
▁haste 100
▁labor 100
▁mirac 100
▁rocks 100
▁swore 100
▁thick 100
ourable 100
▁Baeths 100
▁Chaleb 100
▁camels 100
▁cleave 100
▁defile 100
▁direct 100
▁dragon 100
▁driven 100
▁either 100
▁locust 100
▁lodged 100
▁office 100
▁safety 100
▁severe 100
▁snares 100
▁throat 100
▁thrust 100
▁wander 100
pecially 100
▁Michael 100
▁Nephtha 100
▁ancient 100
▁centuri 100
▁complet 100
▁invited 100
▁knoweth 100
▁masters 100
▁matters 100
▁mystery 100
▁praised 100
▁sayings 100
▁soldier 100
▁spoiled 100
▁tempted 100
▁torment 100
▁drinking 100
▁marriage 100
▁marveled 100
▁occasion 100
▁passover 100
▁punished 100
▁assembled 100
▁deceitful 100
▁sorrowful 100
▁trembling 100
▁commanding 100
▁fellowship 100
▁neighbours 100
▁temptation 100
▁ungodliness 100
bl 100
Yes 100
ody 100
ory 100
reb 100
uia 100
▁ep 100
aket 100
ater 100
enth 100
esty 100
hite 100
odom 100
ored 100
▁Ael 100
▁Hel 100
▁ced 100
▁eng 100
▁eun 100
▁got 100
▁gre 100
▁hun 100
▁plu 100
▁pot 100
▁tal 100
▁wol 100
ately 100
ester 100
kened 100
press 100
▁Aser 100
▁alms 100
▁blem 100
▁expl 100
▁hell 100
▁hire 100
▁hymn 100
▁kiss 100
▁lose 100
▁oint 100
▁poll 100
▁post 100
▁prey 100
▁sear 100
▁vows 100
▁week 100
aketas 100
astery 100
fruits 100
▁Chusi 100
▁Great 100
▁Jabis 100
▁Mount 100
▁Sodom 100
▁aband 100
▁borne 100
▁enjoy 100
▁grown 100
▁guilt 100
▁lambs 100
▁lords 100
▁prove 100
▁recon 100
▁staff 100
▁value 100
▁winds 100
▁wroth 100
Blessed 100
Teacher 100
▁Ethiop 100
▁Sisara 100
▁Sychem 100
▁beware 100
▁eunuch 100
▁grapes 100
▁infirm 100
▁interp 100
▁leaves 100
▁purple 100
▁summon 100
▁Baethel 100
▁animals 100
▁collect 100
▁consent 100
▁crushed 100
▁dressed 100
▁endured 100
▁enquire 100
▁mercies 100
▁prophes 100
▁provoke 100
▁someone 100
▁travail 100
▁working 100
▁Chettite 100
▁Plaketas 100
▁boasting 100
▁careless 100
▁contrary 100
▁covering 100
▁doctrine 100
▁dwellers 100
▁kingdoms 100
▁language 100
▁purified 100
▁question 100
▁withered 100
▁wouldest 100
▁attention 100
▁belonging 100
▁godliness 100
▁perpetual 100
▁pronounce 100
▁vineyards 100
▁especially 100
▁sacrificed 100
▁uncircumcised 100
di 100
wo 100
ze 100
aly 100
ash 100
gar 100
hop 100
zed 100
▁Og 100
▁Ra 100
▁ev 100
▁ma 100
ards 100
atch 100
aved 100
eman 100
erce 100
lter 100
meon 100
phat 100
rain 100
rite 100
▁(?) 100
▁Pre 100
▁Set 100
▁cit 100
▁cri 100
▁eas 100
▁fur 100
▁lad 100
▁orn 100
herez 100
ishop 100
stone 100
which 100
▁Nine 100
▁Sina 100
▁Tham 100
▁abst 100
▁affe 100
▁cold 100
▁dang 100
▁dove 100
▁dung 100
▁fort 100
▁hang 100
▁lots 100
▁melt 100
▁palm 100
▁pest 100
▁rams 100
▁reck 100
athaim 100
azarus 100
teenth 100
▁Barac 100
▁Count 100
▁Ephes 100
▁Since 100
▁calam 100
▁cubit 100
▁fault 100
▁flood 100
▁force 100
▁heavy 100
▁hence 100
▁herds 100
▁lions 100
▁looks 100
▁mirth 100
▁noble 100
▁pains 100
▁piece 100
▁steps 100
▁thund 100
▁today 100
▁vowed 100
▁wages 100
ffering 100
hearted 100
rothers 100
vantage 100
▁Anchus 100
▁Daniel 100
▁Levite 100
▁Pherez 100
▁Prophe 100
▁anoint 100
▁boldly 100
▁expect 100
▁fierce 100
▁flower 100
▁forest 100
▁indign 100
▁inward 100
▁middle 100
▁obtain 100
▁powers 100
▁provok 100
▁purity 100
▁render 100
▁rescue 100
▁reveal 100
▁scribe 100
▁sinful 100
▁struck 100
▁swords 100
▁talent 100
▁talked 100
esterday 100
▁appoint 100
▁blemish 100
▁calling 100
▁message 100
▁officer 100
▁rescued 100
▁sojourn 100
▁talking 100
▁visited 100
▁Michaias 100
▁business 100
▁complete 100
▁creation 100
▁despised 100
▁measures 100
▁obedient 100
▁ornament 100
▁serpents 100
▁violence 100
▁Nephthali 100
▁advantage 100
▁affection 100
▁fountains 100
▁northward 100
▁obedience 100
▁patiently 100
▁southward 100
▁completely 100
▁subjection 100
▁disobedience 100
▁thanksgiving 100
IS 100
Now 100
Woe 100
hod 100
ick 100
ila 100
wor 100
▁ap 100
amed 100
angs 100
fold 100
ilty 100
irst 100
kind 100
lict 100
mael 100
phel 100
rial 100
▁Ang 100
▁Nau 100
▁Noe 100
▁Out 100
▁Per 100
▁Rac 100
▁clo 100
▁dig 100
▁fed 100
▁hed 100
▁maj 100
▁pen 100
▁pub 100
▁shi 100
▁tar 100
akers 100
erers 100
erily 100
ffect 100
ising 100
ortun 100
▁Acha 100
▁Asia 100
▁Ephr 100
▁Pray 100
▁Seir 100
▁Wilt 100
▁envy 100
▁phys 100
▁priv 100
▁robe 100
▁scor 100
▁stub 100
▁tail 100
bearer 100
chodon 100
ission 100
▁abhor 100
▁besie 100
▁burst 100
▁craft 100
▁divor 100
▁eagle 100
▁exact 100
▁exerc 100
▁lofty 100
▁pangs 100
▁relat 100
▁renew 100
▁sakes 100
▁shake 100
▁sixth 100
▁sworn 100
▁taste 100
▁waves 100
ossible 100
▁Apollo 100
▁Before 100
▁Greeks 100
▁Ismael 100
▁Nineve 100
▁Rachel 100
▁Symeon 100
▁burial 100
▁chains 100
▁chiefs 100
▁conver 100
▁danger 100
▁grieve 100
▁murder 100
▁quarre 100
▁refres 100
▁refuse 100
▁shield 100
▁stands 100
▁suffic 100
ortunity 100
▁Hebrews 100
▁Himself 100
▁chariot 100
▁devices 100
▁disobey 100
▁dispers 100
▁falling 100
▁keeping 100
▁kindred 100
▁leaders 100
▁mingled 100
▁mourned 100
▁scourge 100
▁silence 100
▁support 100
▁swallow 100
▁thereby 100
▁torture 100
suffering 100
▁cleansed 100
▁darkened 100
▁groaning 100
▁neighbor 100
▁parables 100
▁westward 100
chodonosor 100
▁centurion 100
▁magnified 100
▁threshing 100
▁Achitophel 100
▁Chananites 100
▁hypocrites 100
▁impossible 100
▁mercifully 100
▁prophesied 100
▁bondservant 100
▁Nabuchodonosor 100
,) 100
No 100
my 100
Are 100
com 100
eks 100
eme 100
fer 100
iba 100
irt 100
ode 100
pul 100
▁Ex 100
▁Of 100
agon 100
amys 100
chol 100
ding 100
eech 100
ency 100
ests 100
gran 100
phib 100
rach 100
ssed 100
tree 100
▁Get 100
▁air 100
▁bal 100
▁fit 100
▁iss 100
▁sav 100
▁sli 100
▁unp 100
▁wax 100
▁win 100
▁wra 100
achar 100
arest 100
eping 100
eries 100
isdom 100
odden 100
ourse 100
raced 100
▁Draw 100
▁Joan 100
▁Lift 100
▁Mine 100
▁Naue 100
▁Seek 100
▁Tell 100
▁figs 100
▁fold 100
▁less 100
▁loss 100
▁mean 100
▁mist 100
▁move 100
▁pome 100
▁pull 100
▁rept 100
▁scur 100
▁wasn 100
idered 100
isions 100
▁Arnon 100
▁Manoe 100
▁Right 100
▁abode 100
▁calls 100
▁cloak 100
▁crowd 100
▁doeth 100
▁event 100
▁fears 100
▁maint 100
▁manna 100
▁refus 100
▁revil 100
▁sides 100
▁spent 100
▁upper 100
▁worth 100
▁Abessa 100
▁Others 100
▁Saruia 100
▁arrows 100
▁ascend 100
▁beheld 100
▁bishop 100
▁calves 100
▁denied 100
▁depths 100
▁dreams 100
▁effect 100
▁flying 100
▁guilty 100
▁hatred 100
▁insult 100
▁loving 100
▁offend 100
▁openly 100
▁passes 100
▁perple 100
▁pestil 100
▁proved 100
▁purcha 100
▁voices 100
servants 100
▁Lazarus 100
▁Memphib 100
▁Thaeman 100
▁anxious 100
▁belongs 100
▁beseech 100
▁crooked 100
▁earthqu 100
▁founded 100
▁married 100
▁profane 100
▁shelter 100
▁stirred 100
▁stripes 100
▁turning 100
▁various 100
▁whereon 100
▁Jebosthe 100
▁accepted 100
▁creature 100
▁entering 100
▁pomegran 100
▁proceeds 100
▁restored 100
▁carefully 100
▁gathering 100
▁monastery 100
▁necessary 100
▁performed 100
▁beforehand 100
▁companions 100
▁corruption 100
▁distressed 100
▁honourable 100
▁oppression 100
▁priesthood 100
▁recognized 100
▁opportunity 100
▁Memphibosthe 100
CH 100
In 100
Is 100
air 100
aph 100
bar 100
bly 100
hir 100
hol 100
ima 100
tle 100
ugg 100
▁Na 100
▁ax 100
▁ur 100
abee 100
aeas 100
aias 100
ambo 100
area 100
athe 100
four 100
itus 100
more 100
olis 100
wers 100
▁AND 100
▁Jez 100
▁Mis 100
▁ago 100
▁ben 100
▁bru 100
▁dim 100
▁err 100
▁exc 100
▁fem 100
▁fle 100
▁fre 100
▁mor 100
▁sen 100
asses 100
inees 100
night 100
ollow 100
oring 100
ossom 100
uting 100
▁Also 100
▁Bapt 100
▁Beel 100
▁Siba 100
▁Sing 100
▁asks 100
▁bare 100
▁bott 100
▁gnas 100
▁inte 100
▁legs 100
▁mill 100
▁moth 100
▁proc 100
▁tear 100
▁thor 100
▁trib 100
▁valu 100
iathar 100
oughly 100
▁Judah 100
▁Pambo 100
▁Rapha 100
▁Selom 100
▁Whoso 100
▁aloud 100
▁citiz 100
▁doest 100
▁equal 100
▁freed 100
▁glean 100
▁grape 100
▁knees 100
▁ninth 100
▁noise 100
▁owner 100
▁seest 100
▁shewn 100
▁slugg 100
▁thank 100
emption 100
ersabee 100
fulness 100
▁Esaias 100
▁Wisdom 100
▁accuse 100
▁basket 100
▁consol 100
▁couldn 100
▁cubits 100
▁eighth 100
▁female 100
▁footst 100
▁girded 100
▁girdle 100
▁inform 100
▁marvel 100
▁mocked 100
▁nobles 100
▁orders 100
▁paraly 100
▁plough 100
▁rebell 100
▁ruined 100
▁seemed 100
▁seemly 100
▁supper 100
▁termin 100
▁trusts 100
▁unbeli 100
▁worked 100
ensation 100
▁Melchol 100
▁Phinees 100
▁anguish 100
▁blossom 100
▁burdens 100
▁commend 100
▁deceive 100
▁falsely 100
▁flowing 100
▁majesty 100
▁passion 100
▁slumber 100
▁sounded 100
▁sparrow 100
▁steward 100
▁whereby 100
▁Caesarea 100
▁Jebusite 100
▁accursed 100
▁carcases 100
▁counsell 100
▁kindness 100
▁observed 100
▁ointment 100
▁ordained 100
▁promised 100
▁vanities 100
▁accounted 100
▁endurance 100
▁guiltless 100
▁offerings 100
▁terrified 100
▁collectors 100
▁meditation 100
▁redemption 100
▁reproached 100
▁sufficient 100
▁thoroughly 100
▁adversaries 100
▁fornication 100
▁transgression 100
AS 100
AY 100
ED 100
EN 100
AIN 100
aia 100
cca 100
fts 100
hur 100
lig 100
ool 100
▁Di 100
▁Ly 100
▁Pr 100
Your 100
aged 100
airs 100
arim 100
five 100
iant 100
ords 100
rate 100
▁Ber 100
▁Cap 100
▁Iss 100
▁Pho 100
▁Sic 100
▁deg 100
▁fee 100
▁fil 100
▁hig 100
▁hom 100
▁hot 100
▁por 100
▁rob 100
anias 100
ating 100
ereth 100
henna 100
ighed 100
ously 100
oward 100
▁Dost 100
▁Here 100
▁Matt 100
▁Merc 100
▁bars 100
▁bene 100
▁bent 100
▁cell 100
▁chur 100
▁forb 100
▁frog 100
▁fury 100
▁hind 100
▁inqu 100
▁safe 100
▁slow 100
▁temp 100
▁town 100
▁unse 100
advent 100
iation 100
leness 100
seless 100
▁Being 100
▁adorn 100
▁bears 100
▁begot 100
▁begun 100
▁cakes 100
▁chaff 100
▁clust 100
▁const 100
▁delay 100
▁diffe 100
▁drove 100
▁ephod 100
▁fixed 100
▁green 100
▁haven 100
▁issue 100
▁leads 100
▁opens 100
▁press 100
▁revel 100
▁sober 100
▁sorry 100
▁trial 100
▁warri 100
▁Better 100
▁Depart 100
▁Joanan 100
▁Sicima 100
▁Themar 100
▁altars 100
▁corner 100
▁disapp 100
▁giveth 100
▁harden 100
▁market 100
▁mouths 100
▁plains 100
▁psalms 100
▁sailed 100
▁signal 100
▁simple 100
▁spared 100
▁swears 100
▁wished 100
▁Ephesus 100
▁Gehenna 100
▁alarmed 100
▁apostle 100
▁beneath 100
▁careful 100
▁devised 100
▁example 100
▁further 100
▁granted 100
▁merchan 100
▁offence 100
▁pasture 100
▁prevent 100
▁rightly 100
▁thrones 100
▁touches 100
▁valiant 100
adventure 100
▁Egyptian 100
▁approach 100
▁building 100
▁captives 100
▁compared 100
▁destroys 100
▁diligent 100
▁fastened 100
▁flourish 100
▁horsemen 100
▁ignorant 100
▁informed 100
▁murmured 100
▁promises 100
▁property 100
▁prophecy 100
▁purposed 100
▁wickedly 100
▁concubine 100
▁partakers 100
▁possessed 100
▁separated 100
▁swallowed 100
▁yesterday 100
▁earthquake 100
▁fatherless 100
▁grievously 100
▁consecrated 100
▁deliverance 100
ES 100
To 100
rr 100
AME 100
And 100
Get 100
aum 100
cam 100
gin 100
iff 100
tes 100
▁IN 100
▁Lo 100
Have 100
cher 100
erry 100
icia 100
ieth 100
ific 100
izer 100
nded 100
sent 100
shad 100
▁Arm 100
▁Aro 100
▁Asc 100
▁Bal 100
▁Dab 100
▁Law 100
▁Lot 100
▁Phy 100
▁Put 100
▁Rab 100
▁Tob 100
▁dug 100
▁lib 100
▁ver 100
arius 100
eturn 100
house 100
iding 100
igaia 100
itude 100
lives 100
oclet 100
othor 100
phath 100
usion 100
▁Anna 100
▁Asor 100
▁Azot 100
▁Book 100
▁Gaza 100
▁Rama 100
▁WORD 100
▁aren 100
▁cher 100
▁deaf 100
▁liar 100
▁line 100
▁meas 100
▁nine 100
▁pard 100
▁puts 100
▁rage 100
▁reed 100
▁robb 100
▁seas 100
▁shek 100
▁sigh 100
▁stro 100
▁unin 100
▁void 100
▁zeal 100
ernaum 100
gement 100
orrupt 100
though 100
▁Amess 100
▁Bless 100
▁Cross 100
▁Greek 100
▁Jonah 100
▁Thine 100
▁admon 100
▁ambus 100
▁armed 100
▁aston 100
▁bands 100
▁banqu 100
▁benef 100
▁favor 100
▁hedge 100
▁hired 100
▁minds 100
▁outer 100
▁purif 100
▁pursu 100
▁reach 100
▁scurf 100
▁seems 100
▁shoot 100
▁tombs 100
▁treat 100
▁wants 100
▁Choreb 100
▁Joakim 100
▁Jothor 100
▁Seeing 100
▁armies 100
▁arrive 100
▁asking 100
▁courts 100
▁discer 100
▁distur 100
▁feeble 100
▁gentle 100
▁lovers 100
▁loveth 100
▁misery 100
▁nature 100
▁rising 100
▁saidst 100
▁savour 100
▁sayest 100
▁sickle 100
▁stoned 100
▁stream 100
▁strike 100
▁summer 100
▁wheels 100
▁window 100
▁wounds 100
acharias 100
ocletian 100
▁Abigaia 100
▁Another 100
▁Apostle 100
▁Ascalon 100
▁abstain 100
▁allowed 100
▁charges 100
▁execute 100
▁foreign 100
▁incline 100
▁inflict 100
▁letters 100
▁mounted 100
▁oracles 100
▁orphans 100
▁quicken 100
▁running 100
▁tongues 100
▁trodden 100
▁waiting 100
▁weighed 100
▁wrapped 100
▁Abiathar 100
▁Baptizer 100
▁Bersabee 100
▁Massepha 100
▁approved 100
▁desiring 100
▁laboured 100
▁miracles 100
▁prisoner 100
▁prudence 100
▁reptiles 100
▁sentence 100
▁shoulder 100
▁summoned 100
▁trumpets 100
▁wondered 100
▁worshipp 100
▁Capernaum 100
▁Righteous 100
▁confusion 100
▁countries 100
▁dispersed 100
▁entreated 100
▁incorrupt 100
▁prisoners 100
▁provoking 100
▁sojourned 100
▁withstand 100
▁Baethsamys 100
▁Diocletian 100
▁abominable 100
▁exultation 100
▁lamentation 100
▁tabernacles 100
▁uncircumcision 100
.. 100
HA 100
PH 100
ba 100
fl 100
sk 100
lam 100
pri 100
rrh 100
yal 100
▁Oz 100
▁WH 100
Thou 100
abbi 100
cees 100
cent 100
chab 100
eila 100
elie 100
from 100
ghed 100
mind 100
ners 100
omor 100
rive 100
stri 100
tery 100
that 100
this 100
time 100
uphr 100
upon 100
▁Aod 100
▁Ast 100
▁Can 100
▁Dal 100
▁Ram 100
▁ack 100
▁ann 100
▁cou 100
▁flo 100
▁rav 100
▁shr 100
▁sol 100
▁tas 100
after 100
agger 100
becca 100
block 100
erous 100
estus 100
icate 100
itute 100
nings 100
oming 100
ompan 100
trees 100
urity 100
wards 100
where 100
▁Chel 100
▁Cons 100
▁Lest 100
▁Magd 100
▁Noah 100
▁Word 100
▁betr 100
▁cens 100
▁deed 100
▁diff 100
▁gall 100
▁heif 100
▁herb 100
▁idle 100
▁meal 100
▁sown 100
▁wide 100
ducees 100
iously 100
retion 100
▁Aroer 100
▁Euphr 100
▁First 100
▁Peace 100
▁Stand 100
▁Titus 100
▁dying 100
▁frogs 100
▁goeth 100
▁hasty 100
▁herit 100
▁holes 100
▁inner 100
▁insol 100
▁lower 100
▁purge 100
▁royal 100
▁sends 100
▁share 100
▁shout 100
▁slave 100
▁twice 100
retched 100
▁Azotus 100
▁Elipha 100
▁Festus 100
▁Machir 100
▁Martha 100
▁Return 100
▁Surely 100
▁acknow 100
▁behavi 100
▁contra 100
▁eighty 100
▁entang 100
▁estate 100
▁fasted 100
▁forbid 100
▁kindle 100
▁laying 100
▁morsel 100
▁native 100
▁natura 100
▁pledge 100
▁princi 100
▁proper 100
▁public 100
▁quench 100
▁showed 100
▁strait 100
▁stroke 100
▁tithes 100
▁unable 100
▁verily 100
▁victor 100
▁wholly 100
listines 100
▁Amessai 100
▁Jezrael 100
▁Jonadab 100
▁Rebecca 100
▁Whereas 100
▁arrayed 100
▁disease 100
▁distrib 100
▁envious 100
▁fainted 100
▁fearful 100
▁fingers 100
▁happens 100
▁leading 100
▁pressed 100
▁protect 100
▁refused 100
▁require 100
▁robbers 100
▁rushing 100
▁serving 100
▁stopped 100
▁talents 100
▁teaches 100
▁treated 100
▁violent 100
ification 100
▁Apostles 100
▁Issachar 100
▁besieged 100
▁betrayed 100
▁bitterly 100
▁covetous 100
▁diseases 100
▁fighting 100
▁husbands 100
▁midnight 100
▁ministry 100
▁overshad 100
▁psaltery 100
▁quenched 100
▁rejoices 100
▁sabbaths 100
▁searched 100
▁thunders 100
▁unbelief 100
▁watching 100
▁watchman 100
▁Euphrates 100
▁Sadducees 100
▁adversary 100
▁blessings 100
▁confident 100
▁departure 100
▁forasmuch 100
▁innocence 100
▁meditated 100
▁necessity 100
▁reasoning 100
▁boundaries 100
▁broughtest 100
▁considered 100
▁discovered 100
▁discretion 100
▁separation 100
▁visitation 100
▁Phylistines 100
▁compassions 100
▁consolation 100
▁indignation 100
▁compensation 100
▁condemnation 100
'; 100
); 100
gl 100
gu 100
sh 100
?'' 100
bre 100
flo 100
ger 100
gle 100
gor 100
iod 100
mas 100
two 100
ubs 100
yss 100
zer 100
▁Tr 100
Then 100
arii 100
eves 100
fall 100
iety 100
ince 100
ists 100
long 100
lten 100
oman 100
sook 100
▁Abi 100
▁Ale 100
▁Con 100
▁Gel 100
▁Rak 100
▁Ser 100
▁Tru 100
▁axe 100
▁lim 100
▁mat 100
▁oak 100
▁und 100
Every 100
These 100
ample 100
cetic 100
igned 100
iling 100
osing 100
othed 100
ption 100
rippa 100
venth 100
▁Bala 100
▁ages 100
▁aris 100
▁bill 100
▁bowl 100
▁dogs 100
▁exha 100
▁idol 100
▁mere 100
▁nail 100
▁paid 100
▁roof 100
▁rust 100
▁sows 100
▁vint 100
▁wars 100
▁wool 100
▁worm 100
ording 100
oureth 100
riarch 100
urious 100
▁Amman 100
▁Araba 100
▁Archi 100
▁Dabir 100
▁Dagon 100
▁Death 100
▁Evite 100
▁Joppa 100
▁Sadoc 100
▁Saint 100
▁Silas 100
▁abyss 100
▁admin 100
▁apply 100
▁celeb 100
▁draws 100
▁drops 100
▁eager 100
▁finds 100
▁heirs 100
▁kinds 100
▁lamps 100
▁marty 100
▁merry 100
▁myrrh 100
▁prosp 100
▁raven 100
▁rules 100
▁shook 100
▁sloth 100
▁stiff 100
▁straw 100
▁tarry 100
▁tithe 100
cerning 100
ointing 100
▁Gerges 100
▁Melchi 100
▁Mighty 100
▁Rakote 100
▁Sarrha 100
▁across 100
▁animal 100
▁aright 100
▁branch 100
▁closed 100
▁crafty 100
▁curses 100
▁devils 100
▁eleven 100
▁excess 100
▁feasts 100
▁freely 100
▁gained 100
▁gotten 100
▁guided 100
▁hateth 100
▁island 100
▁molten 100
▁notice 100
▁oracle 100
▁pardon 100
▁period 100
▁potter 100
▁prepar 100
▁relief 100
▁secure 100
▁sprang 100
▁surety 100
▁warned 100
▁Agrippa 100
▁Ananias 100
▁Beloved 100
▁accused 100
▁affairs 100
▁ascetic 100
▁ascribe 100
▁asunder 100
▁banquet 100
▁chasten 100
▁cleanse 100
▁content 100
▁cursing 100
▁defense 100
▁divorce 100
▁dropped 100
▁farmers 100
▁fetters 100
▁forsook 100
▁haughty 100
▁justify 100
▁liberty 100
▁marvell 100
▁natural 100
▁passage 100
▁putting 100
▁related 100
▁sandals 100
▁satisfy 100
▁setting 100
▁shekels 100
▁trample 100
▁victory 100
▁virtues 100
▁visions 100
▁whoring 100
▁wishest 100
▁zealous 100
▁Everyone 100
▁Pharisee 100
▁accompan 100
▁although 100
▁bringeth 100
▁chambers 100
▁conceive 100
▁contempt 100
▁creeping 100
▁directed 100
▁helpless 100
▁heritage 100
▁hindered 100
▁listened 100
▁preserve 100
▁reasoned 100
▁regarded 100
▁repented 100
▁reproofs 100
▁sleeping 100
▁sluggard 100
▁Armathaim 100
▁completed 100
▁deliverer 100
▁discourse 100
▁footstool 100
▁hereafter 100
▁marvelled 100
▁ornaments 100
▁otherwise 100
▁overcomes 100
▁perfected 100
▁practices 100
▁relatives 100
▁senseless 100
▁therewith 100
▁virginity 100
▁astonished 100
▁excellence 100
▁profitable 100
▁pronounced 100
▁recompence 100
▁trespasses 100
▁whomsoever 100
▁steadfastly 100
▁tribulation 100
▁incorruptible 100
., 100
EM 100
ga 100
ux 100
▁, 100
Did 100
aam 100
aws 100
der 100
etr 100
him 100
ids 100
inc 100
iph 100
isc 100
kel 100
ler 100
oom 100
ora 100
pal 100
pen 100
uff 100
vel 100
xes 100
▁Aw 100
▁Od 100
▁cy 100
Give 100
abel 100
aeus 100
chre 100
cont 100
enez 100
erer 100
istr 100
ixed 100
lemn 100
lets 100
oute 100
▁Aer 100
▁Ges 100
▁Hon 100
▁Med 100
▁Men 100
▁Mer 100
▁Mes 100
▁bab 100
▁ble 100
▁cud 100
▁imm 100
▁nur 100
▁spy 100
▁yes 100
Arise 100
aking 100
arded 100
aroth 100
icult 100
kelac 100
ollam 100
owing 100
redit 100
three 100
▁Abel 100
▁Adra 100
▁Amin 100
▁Call 100
▁Camp 100
▁Char 100
▁Debb 100
▁Hier 100
▁Jeph 100
▁Mark 100
▁Psal 100
▁Raab 100
▁Rome 100
▁Step 100
▁appe 100
▁bath 100
▁beam 100
▁beck 100
▁cand 100
▁chew 100
▁colt 100
▁conv 100
▁evid 100
▁heir 100
▁hoof 100
▁howl 100
▁imit 100
▁lake 100
▁leap 100
▁nour 100
▁perf 100
▁pool 100
▁sens 100
▁soft 100
ankinc 100
icians 100
minded 100
rained 100
rolled 100
▁Asael 100
▁Gomor 100
▁Phoen 100
▁Three 100
▁apple 100
▁beget 100
▁camel 100
▁chain 100
▁conqu 100
▁consp 100
▁corre 100
▁crush 100
▁deals 100
▁despa 100
▁dimin 100
▁dread 100
▁fiery 100
▁floor 100
▁humil 100
▁innum 100
▁marry 100
▁overl 100
▁perse 100
▁pierc 100
▁reser 100
▁ropes 100
▁sever 100
▁shore 100
▁songs 100
▁spend 100
▁vines 100
Whoever 100
▁Achima 100
▁Aermon 100
▁Andrew 100
▁Remmon 100
▁Syrian 100
▁beaten 100
▁cedars 100
▁church 100
▁comest 100
▁common 100
▁descri 100
▁devise 100
▁distin 100
▁drinks 100
▁fulfil 100
▁giants 100
▁heifer 100
▁injury 100
▁intend 100
▁joyful 100
▁justly 100
▁liveth 100
▁narrow 100
▁revile 100
▁serves 100
▁shaved 100
▁solemn 100
▁sorcer 100
▁spices 100
▁wanted 100
▁Odollam 100
▁Prophet 100
▁Samarit 100
▁balance 100
▁blotted 100
▁breadth 100
▁casting 100
▁charity 100
▁citizen 100
▁closely 100
▁cluster 100
▁crossed 100
▁examine 100
▁exhaust 100
▁feareth 100
▁feeding 100
▁fifteen 100
▁gathers 100
▁keepeth 100
▁listens 100
▁locusts 100
▁ordered 100
▁request 100
▁saluted 100
▁seasons 100
▁shouted 100
▁singing 100
▁slander 100
▁telling 100
▁tempest 100
▁thieves 100
▁thunder 100
▁travell 100
▁vintage 100
▁wearing 100
▁Adraazar 100
▁Aminadab 100
▁Consider 100
▁acquaint 100
▁contradi 100
▁converse 100
▁defender 100
▁dismayed 100
▁forehead 100
▁frankinc 100
▁honoured 100
▁pleasant 100
▁polluted 100
▁reckoned 100
▁sprinkle 100
▁stripped 100
▁teachers 100
▁treacher 100
▁wherever 100
▁Pherezite 100
▁anointing 100
▁companies 100
▁different 100
▁difficult 100
▁divisions 100
▁ignorance 100
▁interpret 100
▁journeyed 100
▁merchants 100
▁oppressed 100
▁perplexed 100
▁petitions 100
▁recognize 100
▁remaining 100
▁sprinkled 100
▁testifies 100
▁Ethiopians 100
▁accomplish 100
▁blasphemed 100
▁brightness 100
▁calamities 100
▁confession 100
▁correction 100
▁distresses 100
▁lightnings 100
▁pestilence 100
▁revelation 100
▁foolishness 100
▁innumerable 100
▁instruments 100
▁understands 100
▁faithfulness 100
▁frankincense 100
▁pomegranates 100
▁purification 100
▁compassionate 100
', 100
As 100
OD 100
Re 100
ST 100
bo 100
uz 100
IAS 100
Whi 100
cch 100
igs 100
ike 100
len 100
rol 100
six 100
uli 100
ume 100
zek 100
▁La 100
▁ow 100
Hail 100
Hear 100
Rise 100
aith 100
ales 100
amia 100
cing 100
esus 100
geon 100
give 100
lest 100
ming 100
mith 100
mity 100
oday 100
omas 100
opot 100
ouse 100
phec 100
rath 100
raud 100
rets 100
riel 100
sely 100
stru 100
umin 100
whel 100
▁Ask 100
▁Ass 100
▁Egl 100
▁Isc 100
▁Nic 100
▁Pat 100
▁Rep 100
▁Sap 100
▁Six 100
▁Tan 100
▁Tro 100
▁adj 100
▁fer 100
▁fow 100
▁gri 100
▁nay 100
▁num 100
▁pin 100
▁sus 100
▁vol 100
▁web 100
Rabbi 100
abbas 100
abeth 100
aming 100
assad 100
ching 100
elids 100
elius 100
floor 100
gered 100
inted 100
nding 100
nless 100
obaal 100
pline 100
retch 100
▁Alex 100
▁Cham 100
▁Does 100
▁Evil 100
▁Gaal 100
▁Like 100
▁Mess 100
▁Open 100
▁Pers 100
▁Seme 100
▁Sign 100
▁Such 100
▁alto 100
▁bere 100
▁bush 100
▁coat 100
▁cows 100
▁dash 100
▁drop 100
▁lays 100
▁lean 100
▁lent 100
▁mute 100
▁rend 100
▁succ 100
▁surn 100
▁tied 100
▁torn 100
▁wagg 100
▁wand 100
▁whel 100
▁wing 100
▁wolf 100
Father 100
aining 100
cchoth 100
icated 100
itting 100
▁Angel 100
▁Beths 100
▁Jesse 100
▁Roman 100
▁Thess 100
▁Whose 100
▁Would 100
▁agree 100
▁bathe 100
▁below 100
▁books 100
▁brick 100
▁bulls 100
▁caves 100
▁dance 100
▁decay 100
▁dress 100
▁enlar 100
▁erred 100
▁greed 100
▁harsh 100
▁impud 100
▁knock 100
▁liver 100
▁medic 100
▁pluck 100
▁pools 100
▁proof 100
▁reins 100
▁scorp 100
▁sepul 100
▁shown 100
▁skill 100
▁spies 100
▁strip 100
▁surve 100
▁token 100
▁treas 100
▁weeks 100
▁Achaia 100
▁Cursed 100
▁Enakim 100
▁Gather 100
▁Master 100
▁Olives 100
▁Rechab 100
▁Remove 100
▁Thomas 100
▁absent 100
▁arisen 100
▁assist 100
▁attain 100
▁avenge 100
▁befall 100
▁bottle 100
▁bowels 100
▁camest 100
▁consum 100
▁credit 100
▁degree 100
▁dipped 100
▁disreg 100
▁embark 100
▁enmity 100
▁extrem 100
▁fasten 100
▁flight 100
▁forgot 100
▁hinder 100
▁imagin 100
▁labore 100
▁lowest 100
▁propit 100
▁purify 100
▁rolled 100
▁slaves 100
▁strive 100
▁supply 100
▁tasted 100
▁thinks 100
▁timbre 100
▁upward 100
▁winter 100
▁wolves 100
mandrite 100
opotamia 100
ornelius 100
▁Accaron 100
▁Debbora 100
▁Sekelac 100
▁abandon 100
▁commits 100
▁concern 100
▁didrach 100
▁discern 100
▁encoura 100
▁eunuchs 100
▁eyelids 100
▁finding 100
▁guarded 100
▁injured 100
▁magnify 100
▁mankind 100
▁pierced 100
▁plucked 100
▁plunder 100
▁pointed 100
▁prosely 100
▁quarrel 100
▁resting 100
▁secrets 100
▁sisters 100
▁vinegar 100
▁wentest 100
▁Brothers 100
▁Jerobaal 100
▁Socchoth 100
▁banished 100
▁becoming 100
▁carrying 100
▁cheerful 100
▁divining 100
▁division 100
▁eighteen 100
▁exercise 100
▁fourteen 100
▁fruitful 100
▁hencefor 100
▁hireling 100
▁mightest 100
▁mightily 100
▁numerous 100
▁practice 100
▁profaned 100
▁reproved 100
▁securely 100
▁supposed 100
▁tomorrow 100
▁weakened 100
▁withdraw 100
▁withdrew 100
▁wretched 100
▁According 100
▁abandoned 100
▁appertain 100
▁believing 100
▁betrothed 100
▁confessed 100
▁delighted 100
▁desirable 100
▁entangled 100
▁firstborn 100
▁murmuring 100
▁oppressor 100
▁pleasures 100
▁provision 100
▁recompens 100
▁remission 100
▁sojourner 100
▁supposing 100
▁valuation 100
▁worthless 100
▁Massephath 100
▁Whatsoever 100
▁accusation 100
▁altogether 100
▁descending 100
▁discipline 100
▁fourteenth 100
▁testifying 100
▁Mesopotamia 100
▁accompanied 100
▁punishments 100
▁surrounding 100
▁disappointed 100
▁tribulations 100
▁Archimandrite 100
▁sanctification 100
:) 100
EA 100
Jo 100
RO 100
eb 100
).' 100
His 100
ION 100
Sir 100
alt 100
bor 100
edd 100
edu 100
emy 100
hal 100
hem 100
iet 100
ife 100
ior 100
isy 100
met 100
ola 100
old 100
uct 100
▁AL 100
▁BE 100
▁Gl 100
▁Oh 100
▁TO 100
▁eg 100
Amen 100
John 100
Tell 100
acon 100
ashi 100
bear 100
cade 100
ebed 100
ebul 100
elix 100
ival 100
king 100
resh 100
rous 100
rsis 100
sion 100
took 100
▁Aha 100
▁Cai 100
▁Cil 100
▁Has 100
▁Lac 100
▁Lay 100
▁Res 100
▁Seb 100
▁Sen 100
▁Sit 100
▁alo 100
▁der 100
▁det 100
▁dun 100
▁ens 100
▁ham 100
▁nan 100
▁pos 100
▁rou 100
▁tro 100
▁unw 100
Jesus 100
aphas 100
ariot 100
ators 100
chite 100
ciled 100
dened 100
edged 100
esses 100
giver 100
hamar 100
hathi 100
iated 100
itess 100
ldren 100
olish 100
plate 100
rison 100
rived 100
these 100
uries 100
zedek 100
▁Alas 100
▁Amos 100
▁Ased 100
▁Cast 100
▁Core 100
▁Dest 100
▁Eliz 100
▁Geds 100
▁Jair 100
▁LORD 100
▁Love 100
▁Mach 100
▁Orna 100
▁aged 100
▁asps 100
▁band 100
▁blew 100
▁blow 100
▁brid 100
▁cake 100
▁cald 100
▁dare 100
▁doub 100
▁dumb 100
▁ease 100
▁fest 100
▁laws 100
▁midw 100
▁outc 100
▁oven 100
▁pear 100
▁pigs 100
▁plan 100
▁rank 100
▁remo 100
▁rods 100
▁sets 100
▁stag 100
▁toil 100
bserve 100
ebedee 100
formed 100
headed 100
iality 100
loving 100
master 100
necked 100
pected 100
places 100
uredly 100
worthy 100
▁Abiud 100
▁Awake 100
▁Barne 100
▁Eglom 100
▁Enemy 100
▁Felix 100
▁Semei 100
▁Seven 100
▁Thamn 100
▁Theop 100
▁Which 100
▁alike 100
▁beard 100
▁blast 100
▁bowls 100
▁cedar 100
▁chees 100
▁cords 100
▁cries 100
▁displ 100
▁disqu 100
▁doves 100
▁excus 100
▁exile 100
▁fashi 100
▁fever 100
▁frost 100
▁frust 100
▁grows 100
▁hairs 100
▁holds 100
▁homer 100
▁hours 100
▁human 100
▁hymns 100
▁loose 100
▁manag 100
▁moist 100
▁nails 100
▁negle 100
▁occup 100
▁point 100
▁posts 100
▁prost 100
▁psalm 100
▁relig 100
▁roots 100
▁ruled 100
▁seats 100
▁shone 100
▁skins 100
▁solid 100
▁sorce 100
▁speck 100
▁stirs 100
▁thigh 100
▁thorn 100
▁tooth 100
▁trade 100
▁tramp 100
▁usury 100
▁wiser 100
▁worms 100
▁Amalek 100
▁Baetha 100
▁Balaam 100
▁Beware 100
▁Bochor 100
▁Follow 100
▁Lachis 100
▁Nerias 100
▁Romans 100
▁abides 100
▁almost 100
▁anchor 100
▁arises 100
▁arrest 100
▁bestow 100
▁censer 100
▁covers 100
▁crowns 100
▁dagger 100
▁defend 100
▁demand 100
▁devout 100
▁doings 100
▁exalts 100
▁excuse 100
▁firmly 100
▁fleece 100
▁gladly 100
▁goodly 100
▁member 100
▁memory 100
▁namely 100
▁needed 100
▁overse 100
▁palace 100
▁pitied 100
▁reared 100
▁reigns 100
▁riddle 100
▁rushed 100
▁scales 100
▁smites 100
▁stolen 100
▁theirs 100
▁wither 100
Brothers 100
wardness 100
▁Cilicia 100
▁Machmas 100
▁Observe 100
▁Tharsis 100
▁answers 100
▁attempt 100
▁avenged 100
▁baskets 100
▁bruised 100
▁cherubs 100
▁convers 100
▁corners 100
▁damsels 100
▁dragged 100
▁dungeon 100
▁engaged 100
▁enlight 100
▁entrust 100
▁gladden 100
▁growing 100
▁hateful 100
▁holdeth 100
▁holding 100
▁islands 100
▁opening 100
▁pitched 100
▁reading 100
▁refrain 100
▁returns 100
▁sending 100
▁settled 100
▁shining 100
▁sincere 100
▁sittest 100
▁stubble 100
▁success 100
▁temples 100
▁thicket 100
▁turneth 100
▁valleys 100
▁wanting 100
▁wearied 100
▁whereof 100
▁wouldst 100
▁writing 100
Therefore 100
▁Achimaas 100
▁Caiaphas 100
▁Iscariot 100
▁Manasses 100
▁Persians 100
▁Whatever 100
▁abhorred 100
▁admonish 100
▁ambassad 100
▁begotten 100
▁breaking 100
▁entrance 100
▁fastings 100
▁hundreds 100
▁laughter 100
▁maintain 100
▁measured 100
▁offended 100
▁overwhel 100
▁scourged 100
▁striving 100
▁stubborn 100
▁tortures 100
▁traveled 100
verlasting 100
▁Elizabeth 100
▁Thessalon 100
▁belongeth 100
▁descended 100
▁diligence 100
▁disgraced 100
▁excessive 100
▁languages 100
▁lightning 100
▁millstone 100
▁murderers 100
▁occasions 100
▁overthrew 100
▁physician 100
▁proceeded 100
▁readiness 100
▁sepulchre 100
▁violently 100
▁Concerning 100
▁circumcise 100
▁concubines 100
▁counsellor 100
▁courageous 100
▁graciously 100
▁henceforth 100
▁ministered 100
▁partiality 100
▁reconciled 100
▁reproaches 100
▁surrounded 100
▁Melchizedek 100
▁acknowledge 100
▁distributed 100
▁termination 100
▁waywardness 100
An 100
CE 100
On 100
St 100
nt 100
zz 100
▁: 100
All 100
ESS 100
HER 100
See 100
ads 100
aud 100
con 100
ebe 100
eus 100
fly 100
ida 100
key 100
kin 100
lay 100
mus 100
nto 100
oni 100
ony 100
pot 100
rim 100
rof 100
yed 100
▁Ac 100
▁Bl 100
▁Ed 100
▁Ga 100
▁HE 100
▁av 100
▁ut 100
Make 100
ator 100
cify 100
ctly 100
each 100
etor 100
geth 100
hany 100
hiet 100
icks 100
imes 100
kana 100
laud 100
lfur 100
nine 100
orts 100
otha 100
ping 100
prus 100
seat 100
unic 100
▁Eve 100
▁Fin 100
▁HIS 100
▁Isn 100
▁Jaz 100
▁Lea 100
▁MAY 100
▁Sub 100
▁WHO 100
▁ado 100
▁ded 100
▁fix 100
▁gaz 100
▁jaw 100
▁mud 100
▁owe 100
▁rud 100
▁sie 100
▁tum 100
▁unf 100
▁vex 100
▁vom 100
▁wha 100
Peace 100
Woman 100
alene 100
arnel 100
ashed 100
atham 100
cline 100
hites 100
irmed 100
isted 100
oning 100
oster 100
plant 100
rents 100
rings 100
smell 100
▁Agag 100
▁Aram 100
▁Coun 100
▁Didn 100
▁Help 100
▁Maas 100
▁Naas 100
▁None 100
▁Saba 100
▁Save 100
▁Selo 100
▁Sepp 100
▁True 100
▁agre 100
▁barn 100
▁beds 100
▁bows 100
▁emer 100
▁enri 100
▁fare 100
▁felt 100
▁flax 100
▁glut 100
▁hart 100
▁hasn 100
▁hunt 100
▁lain 100
▁late 100
▁lawy 100
▁lied 100
▁nest 100
▁nets 100
▁plot 100
▁roar 100
▁shoe 100
▁sink 100
▁tend 100
▁tens 100
▁turt 100
▁vile 100
▁wert 100
▁whis 100
▁worn 100
ainder 100
chable 100
father 100
footed 100
hether 100
ortion 100
ounced 100
priate 100
racter 100
▁About 100
▁Anath 100
▁Artem 100
▁Bosor 100
▁Caath 100
▁Creat 100
▁Cyrus 100
▁Eliab 100
▁Elius 100
▁Enter 100
▁Sabee 100
▁Sanct 100
▁Shiet 100
▁ahead 100
▁alien 100
▁block 100
▁burns 100
▁casts 100
▁claws 100
▁colle 100
▁cruel 100
▁darts 100
▁depos 100
▁divin 100
▁doubt 100
▁feeds 100
▁fierc 100
▁foxes 100
▁fresh 100
▁fring 100
▁hides 100
▁liber 100
▁liers 100
▁males 100
▁mixed 100
▁necks 100
▁plund 100
▁porch 100
▁queen 100
▁seals 100
▁skirt 100
▁sowed 100
▁thumb 100
▁towns 100
▁urged 100
▁weeds 100
▁weren 100
▁whelp 100
▁wiped 100
hathius 100
ocation 100
verance 100
▁Baalim 100
▁Cyprus 100
▁Dalida 100
▁Elisha 100
▁Galgal 100
▁Jewish 100
▁Saphan 100
▁amount 100
▁baptiz 100
▁bloody 100
▁borrow 100
▁breach 100
▁comely 100
▁compel 100
▁contem 100
▁darnel 100
▁device 100
▁devote 100
▁donkey 100
▁easier 100
▁extend 100
▁filthy 100
▁finish 100
▁fornic 100
▁framed 100
▁givest 100
▁goings 100
▁groves 100
▁hanged 100
▁helmet 100
▁injure 100
▁kindly 100
▁leaven 100
▁lilies 100
▁loosed 100
▁lovest 100
▁mantle 100
▁melted 100
▁murmur 100
▁ninety 100
▁overfl 100
▁parted 100
▁perils 100
▁plants 100
▁prover 100
▁relate 100
▁remind 100
▁riding 100
▁selves 100
▁slayer 100
▁sounds 100
▁sulfur 100
▁tribut 100
▁trying 100
▁tumult 100
▁unprof 100
▁waggon 100
▁worker 100
elieving 100
pleasing 100
smelling 100
▁Asedoth 100
▁Bethany 100
▁Bochori 100
▁Counsel 100
▁Finally 100
▁Raphain 100
▁Romanus 100
▁Stretch 100
▁Syrians 100
▁Teacher 100
▁adorned 100
▁confirm 100
▁contain 100
▁contest 100
▁customs 100
▁despair 100
▁dispute 100
▁earthen 100
▁evident 100
▁explain 100
▁fearing 100
▁fervent 100
▁forgave 100
▁froward 100
▁gardens 100
▁healthy 100
▁heavily 100
▁highest 100
▁longing 100
▁outward 100
▁pitcher 100
▁prolong 100
▁reapers 100
▁reaping 100
▁recover 100
▁relieve 100
▁reproof 100
▁rooster 100
▁sorrows 100
▁stature 100
▁statute 100
▁suppose 100
▁torrent 100
▁tribute 100
▁warrior 100
▁windows 100
▁wishing 100
▁yielded 100
▁Ephratha 100
▁Gomorrha 100
▁Jeremiah 100
▁Sanctify 100
▁abounded 100
▁attended 100
▁becometh 100
▁belonged 100
▁bestowed 100
▁blasphem 100
▁boundary 100
▁delights 100
▁delivers 100
▁denarius 100
▁deprived 100
▁discover 100
▁dishonor 100
▁embraced 100
▁evermore 100
▁examined 100
▁festival 100
▁gnashing 100
▁honeycom 100
▁inasmuch 100
▁inclined 100
▁interpre 100
▁laborers 100
▁manifold 100
▁midwives 100
▁persecut 100
▁powerful 100
▁presents 100
▁princess 100
▁quarrels 100
▁released 100
▁scourges 100
▁sensible 100
▁slothful 100
▁suitable 100
▁supplied 100
▁thinking 100
▁torrents 100
▁trembled 100
▁wondrous 100
▁Bethlehem 100
▁Magdalene 100
▁Thamnatha 100
▁agreement 100
▁ambuscade 100
▁blackness 100
▁blasphemy 100
▁character 100
▁childless 100
▁corrupted 100
▁declaring 100
▁direction 100
▁dishonest 100
▁disobeyed 100
▁disturbed 100
▁exhausted 100
▁extremity 100
▁firmament 100
▁hypocrisy 100
▁infirmity 100
▁lampstand 100
▁mysteries 100
▁paralytic 100
▁paralyzed 100
▁plundered 100
▁preserves 100
▁principal 100
▁purchased 100
▁questions 100
▁receiving 100
▁refreshed 100
▁remainder 100
▁Christians 100
▁Pherezites 100
▁counselled 100
▁diminished 100
▁friendship 100
▁gentleness 100
▁inhabitant 100
▁manifested 100
▁marvellous 100
▁perfection 100
▁physicians 100
▁prosperous 100
▁rebellious 100
▁straitened 100
▁whensoever 100
▁Everlasting 100
▁expectation 100
▁forgiveness 100
▁haughtiness 100
▁humiliation 100
▁persecuting 100
▁persecution 100
▁recompensed 100
▁bondservants 100
▁covetousness 100
▁peradventure 100
▁perseverance 100
▁unrighteously 100
▁interpretation 100
AD 100
AL 100
LY 100
So 100
aa 100
co 100
mp 100
ny 100
oi 100
▁? 100
Can 100
Man 100
May 100
Not 100
Son 100
aem 100
bel 100
but 100
hew 100
olt 100
val 100
▁BL 100
▁Eu 100
▁ul 100
EREM 100
Look 100
THER 100
acks 100
aker 100
aned 100
arly 100
bone 100
cias 100
clud 100
culi 100
ebee 100
edar 100
elli 100
good 100
hool 100
hore 100
iber 100
inth 100
iter 100
itre 100
ject 100
kins 100
lamm 100
lish 100
mana 100
math 100
mona 100
nels 100
only 100
orob 100
oron 100
phar 100
ploy 100
pphi 100
rers 100
roll 100
ruly 100
teth 100
when 100
▁Bes 100
▁Bre 100
▁Cor 100
▁Cry 100
▁Dem 100
▁Eut 100
▁Gam 100
▁Ind 100
▁Nas 100
▁Ple 100
▁Som 100
▁Sun 100
▁THA 100
▁Tra 100
▁bew 100
▁bul 100
▁ewe 100
▁leg 100
▁lux 100
▁mus 100
▁tip 100
▁tow 100
▁tur 100
▁ven 100
▁wel 100
Which 100
ative 100
ceive 100
enced 100
eress 100
holds 100
iable 100
iator 100
imeon 100
itary 100
liath 100
ocked 100
odice 100
opard 100
rated 100
saces 100
smith 100
zelli 100
▁Bama 100
▁Cain 100
▁Enac 100
▁Flee 100
▁Goth 100
▁Pont 100
▁Sell 100
▁Suba 100
▁Well 100
▁Were 100
▁argu 100
▁bank 100
▁bend 100
▁bone 100
▁bund 100
▁calm 100
▁cler 100
▁doer 100
▁eggs 100
▁girt 100
▁hewn 100
▁lady 100
▁loaf 100
▁loos 100
▁mire 100
▁pert 100
▁pots 100
▁rear 100
▁repe 100
▁ring 100
▁riot 100
▁soil 100
▁sple 100
▁stop 100
▁subd 100
▁surv 100
▁task 100
▁tetr 100
▁tore 100
▁upro 100
▁vult 100
▁wage 100
▁wave 100
▁whir 100
Depart 100
Follow 100
athite 100
culiar 100
ificer 100
meless 100
nowest 100
opolis 100
othite 100
perate 100
perors 100
rucify 100
uished 100
unning 100
▁Achar 100
▁Achaz 100
▁Aelim 100
▁Alpha 100
▁BLESS 100
▁Faith 100
▁JEREM 100
▁Jabin 100
▁Mercy 100
▁Nadab 100
▁Place 100
▁Psalm 100
▁aloof 100
▁beset 100
▁brace 100
▁chase 100
▁cheek 100
▁compl 100
▁dared 100
▁drown 100
▁embro 100
▁escap 100
▁filth 100
▁flees 100
▁grove 100
▁herbs 100
▁hoofs 100
▁kneel 100
▁lands 100
▁marks 100
▁needs 100
▁pitch 100
▁purse 100
▁regul 100
▁rider 100
▁sense 100
▁simil 100
▁sland 100
▁spots 100
▁trium 100
▁tunic 100
▁ulcer 100
▁unpun 100
▁whale 100
▁wines 100
▁wrest 100
▁yeast 100
Because 100
Hearken 100
Rejoice 100
amation 100
hildren 100
ileides 100
lethite 100
utation 100
▁Evites 100
▁Josias 100
▁Simeon 100
▁Sophar 100
▁Strive 100
▁Tobias 100
▁Whence 100
▁agreed 100
▁attach 100
▁banish 100
▁butter 100
▁chance 100
▁cheeks 100
▁compar 100
▁deacon 100
▁design 100
▁divine 100
▁eagles 100
▁easily 100
▁employ 100
▁enters 100
▁events 100
▁forced 100
▁foresk 100
▁hardly 100
▁hasten 100
▁hating 100
▁higher 100
▁intent 100
▁keeper 100
▁longed 100
▁madest 100
▁obeyed 100
▁pained 100
▁pearls 100
▁quaked 100
▁quiver 100
▁raises 100
▁record 100
▁revolt 100
▁riders 100
▁robber 100
▁safely 100
▁school 100
▁shines 100
▁sorely 100
▁tested 100
▁thread 100
▁trials 100
▁turtle 100
▁vainly 100
▁walled 100
▁weaned 100
▁wisely 100
iousness 100
istrates 100
kindness 100
orobabel 100
structed 100
▁Artemis 100
▁Chermel 100
▁Creator 100
▁Forgive 100
▁Goliath 100
▁Helkana 100
▁Incline 100
▁Ithamar 100
▁Laodice 100
▁Pharaoh 100
▁Rabbath 100
▁Salmana 100
▁Servant 100
▁Stephen 100
▁Through 100
▁Whither 100
▁ability 100
▁applied 100
▁avenger 100
▁baptize 100
▁blesses 100
▁bullock 100
▁caldron 100
▁casteth 100
▁ceasing 100
▁cheeses 100
▁clearly 100
▁cleaved 100
▁compare 100
▁conduct 100
▁crucify 100
▁cypress 100
▁divides 100
▁drought 100
▁embrace 100
▁existed 100
▁exposed 100
▁fatness 100
▁fleeing 100
▁fleshly 100
▁groaned 100
▁harlots 100
▁herbage 100
▁houseto 100
▁immoral 100
▁infants 100
▁inflamm 100
▁intreat 100
▁laughed 100
▁leaving 100
▁lighten 100
▁marries 100
▁miracle 100
▁mothers 100
▁neglect 100
▁pervert 100
▁plainly 100
▁platter 100
▁playing 100
▁proverb 100
▁provide 100
▁recount 100
▁regions 100
▁rejects 100
▁roaring 100
▁setteth 100
▁several 100
▁showing 100
▁slaying 100
▁springs 100
▁staying 100
▁streams 100
▁testing 100
▁wisheth 100
▁Astaroth 100
▁Barabbas 100
▁Berzelli 100
▁JEREMIAS 100
▁Likewise 100
▁Preacher 100
▁Rabsaces 100
▁administ 100
▁ascribed 100
▁attached 100
▁attacked 100
▁backward 100
▁behavior 100
▁beheaded 100
▁bereaved 100
▁calamity 100
▁candlest 100
▁craftily 100
▁disquiet 100
▁dwellest 100
▁eleventh 100
▁enlarged 100
▁hardness 100
▁heardest 100
▁hearkens 100
▁impudent 100
▁lamented 100
▁leavened 100
▁magician 100
▁mediator 100
▁overlook 100
▁peculiar 100
▁praising 100
▁produced 100
▁publicly 100
▁purchase 100
▁pursuing 100
▁required 100
▁reserved 100
▁reviling 100
▁security 100
▁sexually 100
▁sparrows 100
▁speaketh 100
▁statutes 100
▁swearing 100
▁tetrarch 100
▁threaten 100
▁trampled 100
▁transfer 100
▁treasury 100
▁unworthy 100
▁virtuous 100
▁warriors 100
▁Afterward 100
▁Baethoron 100
▁Cornelius 100
▁Elimelech 100
▁Jebusites 100
▁Judgement 100
▁Nathanael 100
▁Patriarch 100
▁Whosoever 100
▁artificer 100
▁ascending 100
▁benefited 100
▁collector 100
▁conscious 100
▁contended 100
▁destitute 100
▁didrachms 100
▁dismissed 100
▁entrusted 100
▁existence 100
▁imitators 100
▁mischiefs 100
▁pasturing 100
▁peaceably 100
▁prevented 100
▁privately 100
▁prospered 100
▁recovered 100
▁returning 100
▁shameless 100
▁subjected 100
▁tormented 100
▁tributary 100
▁uttermost 100
▁valiantly 100
▁winepress 100
▁Basileides 100
▁Gabaonites 100
▁adulteress 100
▁chastening 100
▁concerneth 100
▁everywhere 100
▁falsehoods 100
▁fierceness 100
▁foreigners 100
▁maintained 100
▁perceiving 100
▁unpunished 100
▁Eusthathius 100
▁ambassadors 100
▁appropriate 100
▁constrained 100
▁dishonoured 100
▁disregarded 100
▁distinction 100
▁drunkenness 100
▁exhortation 100
▁magistrates 100
▁preparation 100
▁threatening 100
▁unbelieving 100
▁uprightness 100
▁wheresoever 100
▁carelessness 100
▁consecration 100
▁proclamation 100
▁uninstructed 100
▁unprofitable 100
▁treacherously 100
▁whithersoever 100
▁lovingkindness 100
AR 100
Ag 100
By 100
FE 100
ca 100
gr 100
kn 100
no 100
uy 100
ws 100
!'' 100
Isn 100
MEN 100
OLY 100
Sit 100
ada 100
asy 100
bue 100
cia 100
ena 100
fth 100
gad 100
how 100
ica 100
jan 100
nam 100
oam 100
oul 100
phr 100
rif 100
see 100
sop 100
tos 100
unt 100
wed 100
zor 100
▁'' 100
▁AG 100
▁CO 100
▁Er 100
▁RE 100
▁SA 100
▁ec 100
From 100
adru 100
aean 100
aida 100
arth 100
atia 100
chin 100
chon 100
epha 100
even 100
ezer 100
face 100
hang 100
holy 100
host 100
iron 100
ntil 100
omed 100
ours 100
phah 100
rene 100
rete 100
ruct 100
seth 100
soci 100
stra 100
thou 100
uchi 100
unto 100
whor 100
xity 100
▁Agg 100
▁Asa 100
▁Com 100
▁Des 100
▁Epa 100
▁Est 100
▁Far 100
▁GOD 100
▁Jet 100
▁Luz 100
▁Lyd 100
▁Mas 100
▁Mol 100
▁Nav 100
▁Rag 100
▁Sac 100
▁Sep 100
▁Sur 100
▁Way 100
▁Wor 100
▁adm 100
▁bud 100
▁col 100
▁dan 100
▁deb 100
▁dip 100
▁doe 100
▁fra 100
▁fut 100
▁hin 100
▁hur 100
▁ice 100
▁key 100
▁mot 100
▁sme 100
▁smo 100
▁uns 100
▁urg 100
▁vap 100
▁vig 100
▁wed 100
AINST 100
Offer 100
Today 100
achor 100
aimed 100
amite 100
ammon 100
arers 100
arsus 100
asper 100
atche 100
ckets 100
doers 100
doing 100
ences 100
enite 100
erity 100
erred 100
goats 100
grity 100
icles 100
ierce 100
iless 100
inces 100
inner 100
isten 100
mente 100
oints 100
optos 100
ounce 100
racks 100
rench 100
seven 100
umble 100
urius 100
verse 100
zebul 100
▁AMEN 100
▁Arad 100
▁Bald 100
▁CAME 100
▁Care 100
▁Debl 100
▁Eliu 100
▁Fire 100
▁Gera 100
▁Gitt 100
▁HOLY 100
▁Icon 100
▁Jael 100
▁Just 100
▁Maon 100
▁Naph 100
▁Obed 100
▁Oreb 100
▁Pity 100
▁Test 100
▁Walk 100
▁bake 100
▁bald 100
▁bite 100
▁bulw 100
▁circ 100
▁comb 100
▁deem 100
▁dull 100
▁fatt 100
▁fert 100
▁hiss 100
▁hole 100
▁hosp 100
▁lint 100
▁mice 100
▁rope 100
▁rush 100
▁sang 100
▁sect 100
▁shot 100
▁snat 100
▁sole 100
▁spit 100
▁tale 100
▁unic 100
▁unli 100
▁unre 100
▁wipe 100
acheth 100
ainted 100
camore 100
ctions 100
enarii 100
etimes 100
omever 100
othing 100
pelled 100
semble 100
uously 100
▁Achin 100
▁Ascha 100
▁Athen 100
▁Begin 100
▁Earth 100
▁Emmor 100
▁Enoch 100
▁Glory 100
▁Jason 100
▁Jazer 100
▁Jobel 100
▁Teach 100
▁Tobit 100
▁Troas 100
▁Watch 100
▁Wrath 100
▁abuse 100
▁advoc 100
▁alarm 100
▁aware 100
▁baked 100
▁beach 100
▁boats 100
▁broad 100
▁brood 100
▁cares 100
▁catch 100
▁coats 100
▁convi 100
▁couch 100
▁cured 100
▁ended 100
▁ephah 100
▁exper 100
▁folds 100
▁hopes 100
▁infer 100
▁isles 100
▁kills 100
▁knead 100
▁lover 100
▁magic 100
▁meats 100
▁mitre 100
▁mound 100
▁oaths 100
▁older 100
▁plent 100
▁quant 100
▁razor 100
▁relax 100
▁remed 100
▁roast 100
▁rough 100
▁seeds 100
▁seeth 100
▁shave 100
▁shoes 100
▁siege 100
▁sighs 100
▁slipp 100
▁stick 100
▁swell 100
▁swine 100
▁tasks 100
▁taxes 100
▁twent 100
▁unlaw 100
▁vexed 100
▁vomit 100
▁wells 100
▁wheel 100
▁whirl 100
barians 100
charist 100
control 100
etorium 100
harvest 100
lerable 100
ourably 100
whoring 100
▁Amente 100
▁Arabia 100
▁Ephron 100
▁Gelbue 100
▁Hierax 100
▁Honour 100
▁Indeed 100
▁Jechon 100
▁Jether 100
▁Lystra 100
▁Navath 100
▁Raguel 100
▁Trajan 100
▁ambush 100
▁associ 100
▁bottom 100
▁bribes 100
▁commun 100
▁contro 100
▁debtor 100
▁decree 100
▁defied 100
▁despis 100
▁dissol 100
▁esteem 100
▁exting 100
▁greets 100
▁guards 100
▁guests 100
▁guides 100
▁honest 100
▁idolat 100
▁intell 100
▁knives 100
▁leader 100
▁leaped 100
▁loaded 100
▁malice 100
▁marked 100
▁moving 100
▁paying 100
▁pierce 100
▁plenty 100
▁prefer 100
▁pulled 100
▁quadru 100
▁sapphi 100
▁satisf 100
▁snared 100
▁spears 100
▁spider 100
▁splend 100
▁spouse 100
▁taketh 100
▁tokens 100
▁tossed 100
▁towers 100
▁trench 100
▁unholy 100
▁unsear 100
▁unwise 100
▁utmost 100
▁valour 100
▁virtue 100
▁volume 100
▁wasted 100
▁winged 100
▁yellow 100
cription 100
ribution 100
uchianus 100
▁AGAINST 100
▁Achicam 100
▁Achitob 100
▁Araboth 100
▁Eliphaz 100
▁Iconium 100
▁Letters 100
▁Philipp 100
▁Prepare 100
▁Sepphor 100
▁Without 100
▁abiding 100
▁abolish 100
▁angered 100
▁anxiety 100
▁conceit 100
▁cunning 100
▁custody 100
▁defence 100
▁defraud 100
▁denarii 100
▁devoted 100
▁distant 100
▁disting 100
▁disturb 100
▁eagerly 100
▁emperor 100
▁exulted 100
▁flaming 100
▁flatter 100
▁footmen 100
▁freedom 100
▁judging 100
▁labored 100
▁lacking 100
▁lifting 100
▁lodging 100
▁looketh 100
▁madness 100
▁marched 100
▁monkish 100
▁natives 100
▁nearest 100
▁numbers 100
▁outcast 100
▁palaces 100
▁partake 100
▁pitiful 100
▁plaster 100
▁pricked 100
▁prisons 100
▁regards 100
▁renewed 100
▁sheweth 100
▁shortly 100
▁smelled 100
▁sockets 100
▁strikes 100
▁suffers 100
▁suffice 100
▁surface 100
▁sweeter 100
▁terrify 100
▁thereon 100
▁torches 100
▁tremble 100
▁triumph 100
▁twelfth 100
▁washing 100
▁worketh 100
▁wronged 100
▁Ammanite 100
▁Anathoth 100
▁Emperors 100
▁Herodias 100
▁Laodicea 100
▁Maasaeas 100
▁Ramesses 100
▁Theopist 100
▁Whenever 100
▁arrested 100
▁articles 100
▁ascended 100
▁assigned 100
▁barracks 100
▁beckoned 100
▁besought 100
▁charmers 100
▁dealings 100
▁deceiver 100
▁delicate 100
▁derision 100
▁describe 100
▁disputes 100
▁drunkard 100
▁enduring 100
▁entreaty 100
▁executed 100
▁formerly 100
▁grinding 100
▁hardship 100
▁harmless 100
▁insulted 100
▁joyfully 100
▁kindreds 100
▁meekness 100
▁mightier 100
▁murderer 100
▁overtook 100
▁passions 100
▁portions 100
▁rebelled 100
▁reconcil 100
▁religion 100
▁requests 100
▁rewarded 100
▁scatters 100
▁services 100
▁solemnly 100
▁speakest 100
▁supplies 100
▁surnamed 100
▁swelling 100
▁sycamore 100
▁terribly 100
▁timbrels 100
▁valuable 100
▁whomever 100
▁withheld 100
▁withhold 100
▁youngest 100
▁Beelzebul 100
▁Bethsaida 100
▁Chettites 100
▁Eucharist 100
▁Forasmuch 100
▁Gergesite 100
▁Mercurius 100
▁adversity 100
▁answering 100
▁appearing 100
▁assuredly 100
▁baptizing 100
▁behaviour 100
▁beholding 100
▁blaspheme 100
▁brotherly 100
▁celebrate 100
▁childhood 100
▁cleansing 100
▁confirmed 100
▁conquered 100
▁continues 100
▁entertain 100
▁expecting 100
▁fashioned 100
▁handmaids 100
▁honeycomb 100
▁honorable 100
▁indignant 100
▁insolence 100
▁integrity 100
▁intending 100
▁mentioned 100
▁numbering 100
▁pestilent 100
▁posterity 100
▁protector 100
▁sorcerers 100
▁sorceries 100
▁springing 100
▁threshold 100
▁thundered 100
▁twentieth 100
▁uncovered 100
▁uprightly 100
▁utterance 100
▁willingly 100
▁wineskins 100
▁withstood 100
▁Afterwards 100
▁Barbarians 100
▁Israelites 100
▁Samaritans 100
▁Whensoever 100
▁acquainted 100
▁centenarii 100
▁dishonours 100
▁disquieted 100
▁forefather 100
▁glorifying 100
▁lampstands 100
▁passionate 100
▁perplexity 100
▁prostitute 100
▁provisions 100
▁sojourning 100
▁weaknesses 100
▁Eutuchianus 100
▁accordingly 100
▁breastplate 100
▁citizenship 100
▁counsellors 100
▁deceitfully 100
▁enlightened 100
▁fulfillment 100
▁habitations 100
▁marketplace 100
▁pomegranate 100
▁prophesying 100
▁stewardship 100
▁strengthens 100
▁temptations 100
▁worshipping 100
▁Peradventure 100
▁Thessalonica 100
▁acquaintance 100
▁appertaineth 100
▁inflammation 100
▁nevertheless 100
▁unsearchable 100
▁longsuffering 100
▁supplications 100
▁principalities 100
'? 100
.) 100
At 100
IC 100
IM 100
IO 100
Of 100
Th 100
da 100
dy 100
eg 100
eo 100
mi 100
ns 100
Hon 100
ICH 100
IFE 100
IME 100
Men 100
OPH 100
Our 100
Rep 100
ado 100
ago 100
ait 100
asa 100
bra 100
cce 100
chr 100
din 100
eat 100
eca 100
elu 100
fes 100
hab 100
hry 100
ieg 100
isp 100
lia 100
nes 100
ods 100
oec 100
ram 100
ria 100
rop 100
set 100
tol 100
ump 100
vid 100
▁', 100
▁Ah 100
▁CH 100
▁Ec 100
▁Ir 100
▁Ro 100
▁gn 100
▁iv 100
▁od 100
▁oh 100
.... 100
EACE 100
Even 100
Frie 100
NING 100
Pray 100
Send 100
Sirs 100
adia 100
aphi 100
aret 100
arks 100
chis 100
cial 100
cile 100
deth 100
eded 100
educ 100
emus 100
fted 100
gers 100
hant 100
henn 100
hook 100
iath 100
ieve 100
ildo 100
kely 100
lers 100
neys 100
onne 100
oped 100
ourd 100
rant 100
rehe 100
reme 100
rict 100
rink 100
rows 100
rung 100
stal 100
what 100
zard 100
▁ALL 100
▁App 100
▁Aqu 100
▁Bow 100
▁Buy 100
▁CON 100
▁Dae 100
▁Din 100
▁Dor 100
▁Enn 100
▁Hig 100
▁Its 100
▁Lod 100
▁Nah 100
▁Nom 100
▁Oza 100
▁Phe 100
▁Sau 100
▁Sus 100
▁Tap 100
▁Thr 100
▁aim 100
▁arr 100
▁avo 100
▁bat 100
▁bun 100
▁cav 100
▁cin 100
▁dru 100
▁fis 100
▁fun 100
▁gen 100
▁gir 100
▁mod 100
▁org 100
▁ori 100
▁pag 100
▁roe 100
▁sne 100
▁toe 100
▁unm 100
▁upb 100
▁vip 100
After 100
Again 100
Bring 100
Honor 100
ISION 100
Simon 100
Those 100
alled 100
amble 100
ameel 100
amphy 100
aphim 100
arate 100
arias 100
arned 100
avest 100
coast 100
elias 100
fruit 100
gnant 100
hange 100
hosha 100
iathi 100
igent 100
imuth 100
inite 100
inity 100
itish 100
iture 100
moute 100
namon 100
okott 100
oniel 100
onite 100
onsul 100
orate 100
ppado 100
pping 100
quent 100
rence 100
stles 100
there 100
thern 100
uffed 100
ulate 100
ulsed 100
ultiv 100
verns 100
versy 100
while 100
▁Aren 100
▁Doec 100
▁Elam 100
▁Epep 100
▁Gird 100
▁Hell 100
▁Hold 100
▁Howl 100
▁Inst 100
▁Into 100
▁Joas 100
▁Much 100
▁Ones 100
▁Rest 100
▁Shew 100
▁Shou 100
▁Slay 100
▁TETH 100
▁Than 100
▁Thec 100
▁Thol 100
▁Weep 100
▁babb 100
▁baby 100
▁bees 100
▁belt 100
▁blue 100
▁buck 100
▁curt 100
▁dear 100
▁depe 100
▁dign 100
▁digs 100
▁fact 100
▁fins 100
▁flew 100
▁frag 100
▁gaze 100
▁godd 100
▁heel 100
▁infl 100
▁kids 100
▁lear 100
▁lice 100
▁mina 100
▁mule 100
▁opin 100
▁perm 100
▁rate 100
▁resp 100
▁ride 100
▁sard 100
▁scre 100
▁seer 100
▁simp 100
▁sine 100
▁slip 100
▁sour 100
▁spun 100
▁susp 100
▁vehe 100
▁warm 100
▁wink 100
▁wore 100
Friend 100
Master 100
allelu 100
amples 100
archus 100
arenes 100
attern 100
bition 100
chicus 100
course 100
denago 100
eddara 100
ifying 100
ileans 100
irited 100
isheth 100
isible 100
odemus 100
phegor 100
priest 100
pulous 100
rating 100
▁Achor 100
▁Adoni 100
▁Aelom 100
▁Antil 100
▁Aphec 100
▁Ariel 100
▁Arist 100
▁Armen 100
▁Balac 100
▁Blood 100
▁Chast 100
▁Crete 100
▁Gazer 100
▁Honor 100
▁Jaboc 100
▁Jarim 100
▁Medes 100
▁Media 100
▁Misor 100
▁Nabau 100
▁Napht 100
▁Nasib 100
▁PEACE 100
▁Prisc 100
▁Raphi 100
▁Trust 100
▁Truth 100
▁WHICH 100
▁acted 100
▁amiss 100
▁armor 100
▁awoke 100
▁basis 100
▁blows 100
▁bount 100
▁clave 100
▁coins 100
▁conne 100
▁creep 100
▁dough 100
▁drach 100
▁fetch 100
▁fills 100
▁gains 100
▁glass 100
▁gloom 100
▁glutt 100
▁gourd 100
▁heals 100
▁helps 100
▁homes 100
▁imper 100
▁insat 100
▁ivory 100
▁liars 100
▁lifts 100
▁limbs 100
▁lines 100
▁locks 100
▁music 100
▁nurse 100
▁quite 100
▁robes 100
▁shorn 100
▁sling 100
▁sores 100
▁stole 100
▁succe 100
▁tails 100
▁tells 100
▁terms 100
▁track 100
▁troop 100
▁venom 100
▁waxed 100
▁woven 100
astered 100
avement 100
habited 100
iegated 100
masters 100
okottin 100
olished 100
pentine 100
▁Abiron 100
▁Aquila 100
▁Athens 100
▁Attend 100
▁Baldad 100
▁Chaber 100
▁Charge 100
▁Cyrene 100
▁Daebon 100
▁Epaphr 100
▁Gedsur 100
▁Humble 100
▁Listen 100
▁Mariam 100
▁Messab 100
▁Misach 100
▁Nachor 100
▁Pamphy 100
▁Pharan 100
▁Phares 100
▁Prepar 100
▁Remain 100
▁Salmon 100
▁Somnas 100
▁Tarsus 100
▁Thabor 100
▁aliens 100
▁ascent 100
▁babies 100
▁barbar 100
▁beggar 100
▁begins 100
▁behave 100
▁blight 100
▁boasts 100
▁bodily 100
▁brooks 100
▁bundle 100
▁clergy 100
▁cloths 100
▁crafts 100
▁create 100
▁cultiv 100
▁dances 100
▁dawned 100
▁denies 100
▁dinner 100
▁discus 100
▁disple 100
▁enquir 100
▁evildo 100
▁fables 100
▁farmer 100
▁fisher 100
▁fringe 100
▁geneal 100
▁griefs 100
▁hallow 100
▁hearth 100
▁hiding 100
▁hoping 100
▁immort 100
▁infant 100
▁jasper 100
▁laughs 100
▁lepers 100
▁lights 100
▁livest 100
▁locked 100
▁makest 100
▁mammon 100
▁martyr 100
▁minded 100
▁mourns 100
▁nostri 100
▁object 100
▁origin 100
▁partly 100
▁perfum 100
▁possib 100
▁rained 100
▁ravens 100
▁reaped 100
▁regret 100
▁renown 100
▁reprob 100
▁result 100
▁rotten 100
▁salute 100
▁shaven 100
▁shrine 100
▁shrink 100
▁smooth 100
▁soever 100
▁stadia 100
▁sticks 100
▁stores 100
▁stormy 100
▁transl 100
▁travel 100
▁undert 100
▁vipers 100
▁wallet 100
▁warmed 100
▁warred 100
▁yearly 100
▁youths 100
hysician 100
ometimes 100
standing 100
thearted 100
▁Aggaeus 100
▁Alexand 100
▁Anameel 100
▁Believe 100
▁Cappado 100
▁Cariath 100
▁Chusars 100
▁Corinth 100
▁Delight 100
▁Eliakim 100
▁Elisama 100
▁Galatia 100
▁Highest 100
▁Jehosha 100
▁Jephone 100
▁Joatham 100
▁Sabaoth 100
▁Saraeas 100
▁Sedrach 100
▁Selmona 100
▁Sinners 100
▁Spirits 100
▁Trinity 100
▁Whether 100
▁abounds 100
▁billows 100
▁blinded 100
▁bramble 100
▁bruises 100
▁calleth 100
▁carpent 100
▁causing 100
▁changes 100
▁cleaves 100
▁committ 100
▁conclud 100
▁conquer 100
▁crowned 100
▁crystal 100
▁debtors 100
▁degrees 100
▁departs 100
▁descent 100
▁devises 100
▁devours 100
▁dischar 100
▁display 100
▁drawing 100
▁earthly 100
▁endless 100
▁enjoyed 100
▁escapes 100
▁exactly 100
▁excuses 100
▁falleth 100
▁feeling 100
▁figures 100
▁filleth 100
▁fitting 100
▁forbear 100
▁furious 100
▁gateway 100
▁gathere 100
▁gleaned 100
▁grafted 100
▁greeted 100
▁hamlets 100
▁hearest 100
▁heareth 100
▁illumin 100
▁imagine 100
▁inquire 100
▁kidneys 100
▁knocked 100
▁lawyers 100
▁leaning 100
▁leopard 100
▁likened 100
▁maidens 100
▁manager 100
▁martyrs 100
▁meeting 100
▁mustard 100
▁needful 100
▁noticed 100
▁nourish 100
▁offices 100
▁opposed 100
▁parched 100
▁pattern 100
▁planned 100
▁prayest 100
▁private 100
▁profess 100
▁railing 100
▁rebuild 100
▁redeems 100
▁requite 100
▁resists 100
▁reviled 100
▁revived 100
▁rewards 100
▁seekest 100
▁sentest 100
▁shadows 100
▁sheaves 100
▁sinning 100
▁slipped 100
▁smiting 100
▁sorcery 100
▁sparing 100
▁speaker 100
▁special 100
▁spokest 100
▁spotted 100
▁strifes 100
▁suckled 100
▁surpass 100
▁swiftly 100
▁upbraid 100
▁visible 100
▁walkest 100
▁wanders 100
▁warring 100
▁weather 100
▁wedding 100
▁workman 100
allelujah 100
iathiarim 100
▁Abdenago 100
▁Abeddara 100
▁Abenezer 100
▁Arabians 100
▁BLESSING 100
▁Chelcias 100
▁Ethiopia 100
▁Inasmuch 100
▁Jephonne 100
▁Jerimuth 100
▁Philippi 100
▁Prophets 100
▁Raphidin 100
▁Seraphim 100
▁Servants 100
▁Shepherd 100
▁Tychicus 100
▁accusers 100
▁addition 100
▁adoption 100
▁ambition 100
▁appoints 100
▁assemble 100
▁baldness 100
▁builders 100
▁charging 100
▁cinnamon 100
▁citizens 100
▁contempl 100
▁decision 100
▁defended 100
▁despises 100
▁district 100
▁dwelleth 100
▁embarked 100
▁exalteth 100
▁exhorted 100
▁handsome 100
▁hitherto 100
▁imagined 100
▁imprison 100
▁inferior 100
▁injuries 100
▁insolent 100
▁inwardly 100
▁learning 100
▁medicine 100
▁occupied 100
▁overseer 100
▁pastures 100
▁peaceful 100
▁persuade 100
▁pleaseth 100
▁populous 100
▁practise 100
▁pregnant 100
▁procures 100
▁properly 100
▁prospers 100
▁province 100
▁provokes 100
▁ravished 100
▁reciting 100
▁repeated 100
▁sapphire 100
▁scorpion 100
▁searches 100
▁severely 100
▁shooteth 100
▁smallest 100
▁suckling 100
▁supports 100
▁surveyed 100
▁unlikely 100
▁unreason 100
▁vanished 100
▁vanishes 100
▁vehement 100
▁Alexander 100
▁Carmelite 100
▁Counselor 100
▁Galaadite 100
▁Galileans 100
▁Gothoniel 100
▁Nicodemus 100
▁Pamphylia 100
▁Phoenicia 100
▁Samaritan 100
▁Sidonians 100
▁amazement 100
▁anchorite 100
▁announced 100
▁assurance 100
▁certainty 100
▁collected 100
▁commander 100
▁commended 100
▁compelled 100
▁confesses 100
▁conspired 100
▁dedicated 100
▁described 100
▁dissolved 100
▁execution 100
▁exhorting 100
▁explained 100
▁extortion 100
▁faithless 100
▁fifteenth 100
▁foreheads 100
▁furniture 100
▁goldsmith 100
▁governors 100
▁greetings 100
▁groanings 100
▁husbandry 100
▁increases 100
▁innocency 100
▁intercess 100
▁invisible 100
▁listening 100
▁measuring 100
▁merciless 100
▁neighbors 100
▁nourished 100
▁oppresses 100
▁patriarch 100
▁peaceable 100
▁permitted 100
▁presented 100
▁proconsul 100
▁proselyte 100
▁rebellion 100
▁reconcile 100
▁scorpions 100
▁sevenfold 100
▁slumbered 100
▁sweetness 100
▁tolerable 100
▁tradition 100
▁travailed 100
▁traveller 100
▁wandering 100
▁Praetorium 100
▁Thaemanite 100
▁adulterers 100
▁approached 100
▁burdensome 100
▁comparison 100
▁consecrate 100
▁continuing 100
▁delivering 100
▁difficulty 100
▁encouraged 100
▁experience 100
▁overshadow 100
▁pertaining 100
▁powerfully 100
▁prophetess 100
▁propitious 100
▁proselytes 100
▁refreshing 100
▁sanctifies 100
▁similitude 100
▁travelling 100
▁turpentine 100
▁variegated 100
▁Antilibanus 100
▁Aristarchus 100
▁Destruction 100
▁Jehoshaphat 100
▁Preparation 100
▁accountants 100
▁authorities 100
▁controversy 100
▁establishes 100
▁forefathers 100
▁imagination 100
▁infirmities 100
▁intelligent 100
▁interpreted 100
▁overwhelmed 100
▁proclaiming 100
▁remembering 100
▁righteously 100
▁wonderfully 100
▁extinguished 100
▁fainthearted 100
▁marketplaces 100
▁persecutions 100
▁Chusarsathaim 100
▁contradiction 100
▁encouragement 100
): 100
AB 100
Ne 100
PA 100
TE 100
YR 100
bu 100
fu 100
ht 100
io 100
mo 100
ni 100
wd 100
ye 100
ADE 100
Bew 100
CHS 100
Che 100
ENT 100
EPH 100
LOR 100
Put 100
SEN 100
aar 100
akk 100
beg 100
CER 100
ERT 100
ERY 100
PON 100
bin 100
boc 100
bow 100
bur 100
cas 100
cep 100
col 100
eas 100
ebt 100
ele 100
gat 100
gen 100
gob 100
hos 100
ira 100
ker 100
off 100
ogy 100
ona 100
ops 100
pid 100
rid 100
rog 100
sga 100
sts 100
tri 100
ubb 100
wit 100
yrs 100
▁Gu 100
▁Hy 100
▁JO 100
▁Lu 100
▁ON 100
▁WE 100
▁ty 100
AMED 100
Aren 100
Didn 100
HAPH 100
IMEL 100
Paul 100
Thus 100
Well 100
With 100
acle 100
adel 100
agar 100
ageb 100
alry 100
anna 100
anqu 100
aris 100
avel 100
baid 100
bbed 100
bbit 100
body 100
deme 100
dled 100
dove 100
edec 100
emly 100
ends 100
erbe 100
goat 100
hela 100
herd 100
hill 100
hnas 100
illa 100
keth 100
mega 100
mond 100
odae 100
ouch 100
peds 100
phni 100
raba 100
rald 100
rawn 100
rier 100
rios 100
ripe 100
rons 100
some 100
ssop 100
ster 100
them 100
ties 100
tong 100
utor 100
will 100
wind 100
word 100
xion 100
▁AIN 100
▁Amb 100
▁Arc 100
▁Ase 100
▁Ban 100
▁Cle 100
▁DAL 100
▁Div 100
▁Hor 100
▁JOD 100
▁Jan 100
▁Leb 100
▁Lob 100
▁MEM 100
▁MON 100
▁Min 100
▁Nor 100
▁PHE 100
▁Pal 100
▁Pap 100
▁Rob 100
▁Ros 100
▁Sha 100
▁Swe 100
▁Tab 100
▁Tar 100
▁Two 100
▁WAS 100
▁Was 100
▁abs 100
▁aha 100
▁aid 100
▁arc 100
▁awe 100
▁bid 100
▁cap 100
▁dem 100
▁haw 100
▁jar 100
▁kin 100
▁lit 100
▁nap 100
▁obs 100
▁pap 100
▁pil 100
▁pip 100
▁pru 100
▁pus 100
▁rag 100
▁sob 100
▁voy 100
▁wea 100
▁wet 100
AMECH 100
Allow 100
Bless 100
Cheer 100
Great 100
LORIO 100
Moses 100
Shall 100
Stand 100
Their 100
Truly 100
acles 100
acrif 100
ading 100
aeans 100
again 100
akeda 100
aketh 100
angel 100
anity 100
aphat 100
apped 100
ashes 100
assed 100
asson 100
astus 100
atira 100
avier 100
aying 100
eaten 100
emath 100
enses 100
epend 100
erubb 100
etime 100
geons 100
ianus 100
ideth 100
ifted 100
imate 100
imely 100
ineem 100
ingly 100
iracy 100
irely 100
light 100
lings 100
mbals 100
oping 100
orous 100
orter 100
otent 100
pares 100
pheth 100
plain 100
ppers 100
rease 100
riads 100
riety 100
sente 100
sight 100
stasy 100
tends 100
tered 100
thage 100
thily 100
tribe 100
uding 100
vanus 100
yards 100
▁(?), 100
▁Aris 100
▁BETH 100
▁Ball 100
▁Bart 100
▁Bath 100
▁Bear 100
▁Beor 100
▁COME 100
▁Cana 100
▁Chen 100
▁Chet 100
▁Chor 100
▁Chur 100
▁Dina 100
▁Elie 100
▁Fill 100
▁Gall 100
▁Gods 100
▁Grie 100
▁HETH 100
▁Host 100
▁LIFE 100
▁Lead 100
▁Lear 100
▁Luza 100
▁Mamb 100
▁Phan 100
▁Pour 100
▁Read 100
▁Sara 100
▁Senn 100
▁Stri 100
▁Ther 100
▁Wors 100
▁adul 100
▁akin 100
▁alas 100
▁bagg 100
▁batt 100
▁beli 100
▁boil 100
▁cook 100
▁cord 100
▁crop 100
▁cuts 100
▁easy 100
▁educ 100
▁ensl 100
▁fawn 100
▁foal 100
▁foul 100
▁garb 100
▁girl 100
▁gnaw 100
▁gore 100
▁grey 100
▁hook 100
▁kine 100
▁knee 100
▁leaf 100
▁lewd 100
▁lily 100
▁lump 100
▁mans 100
▁nose 100
▁nurt 100
▁onto 100
▁ours 100
▁pair 100
▁pred 100
▁rack 100
▁rash 100
▁recl 100
▁ribs 100
▁ripe 100
▁savi 100
▁scep 100
▁stem 100
▁stud 100
▁thin 100
▁ting 100
▁toes 100
▁tops 100
▁trap 100
▁uses 100
▁view 100
▁warn 100
▁welc 100
Before 100
Beware 100
Coptos 100
Repent 100
atchet 100
christ 100
efiled 100
ensive 100
hangel 100
hatter 100
houses 100
ilings 100
inence 100
itness 100
ledged 100
lemias 100
licity 100
licted 100
making 100
monish 100
nowing 100
racing 100
racted 100
resses 100
seeing 100
zardan 100
zekiah 100
▁ALEPH 100
▁Amiel 100
▁Annas 100
▁Annon 100
▁Argob 100
▁Assur 100
▁Azeca 100
▁Baana 100
▁CHAPH 100
▁CHSEN 100
▁Caree 100
▁Claud 100
▁Derbe 100
▁Didst 100
▁Drink 100
▁Emath 100
▁Ennom 100
▁Exalt 100
▁Fight 100
▁GIMEL 100
▁Gaber 100
▁Gaius 100
▁Jamin 100
▁Jodae 100
▁Joses 100
▁Judin 100
▁LAMED 100
▁Leave 100
▁Maged 100
▁Nageb 100
▁Nomba 100
▁Ophni 100
▁Ozias 100
▁Phenn 100
▁Pride 100
▁Rahab 100
▁Sarah 100
▁Sinai 100
▁Think 100
▁Tiber 100
▁Truly 100
▁Water 100
▁Write 100
▁accur 100
▁appet 100
▁arrog 100
▁awful 100
▁babes 100
▁barns 100
▁blade 100
▁blame 100
▁board 100
▁bondw 100
▁bough 100
▁chews 100
▁crops 100
▁crows 100
▁crumb 100
▁cumin 100
▁dates 100
▁deeps 100
▁delic 100
▁discl 100
▁doers 100
▁elect 100
▁envel 100
▁exped 100
▁extol 100
▁fatal 100
▁flies 100
▁fords 100
▁forms 100
▁frame 100
▁ghost 100
▁giant 100
▁girds 100
▁gnash 100
▁gover 100
▁grope 100
▁happy 100
▁harps 100
▁heave 100
▁intem 100
▁joint 100
▁knelt 100
▁later 100
▁lends 100
▁leper 100
▁level 100
▁lieth 100
▁loath 100
▁loses 100
▁minas 100
▁moons 100
▁mules 100
▁nests 100
▁oblig 100
▁oboli 100
▁ostri 100
▁pagan 100
▁pours 100
▁prize 100
▁rests 100
▁rocky 100
▁ruins 100
▁sacks 100
▁saves 100
▁scoff 100
▁shady 100
▁sheaf 100
▁sheet 100
▁slack 100
▁space 100
▁sport 100
▁stabl 100
▁stank 100
▁steep 100
▁stork 100
▁stren 100
▁stuff 100
▁super 100
▁suspe 100
▁swept 100
▁torch 100
▁traff 100
▁trait 100
▁tries 100
▁wagon 100
▁waist 100
▁waits 100
▁wiles 100
▁wills 100
▁woods 100
Brother 100
CERNING 100
Neither 100
acherim 100
because 100
enezite 100
etrated 100
gathere 100
handise 100
isition 100
owardly 100
ropolis 100
seventh 100
stances 100
tongued 100
ustomed 100
versary 100
vidence 100
▁Abdeme 100
▁Angels 100
▁Canaan 100
▁Chobar 100
▁Choose 100
▁DALETH 100
▁Dathan 100
▁Edrain 100
▁GLORIO 100
▁Gadgad 100
▁Gedson 100
▁Govern 100
▁Hermon 100
▁Little 100
▁Maalon 100
▁Magdol 100
▁Makeda 100
▁Merari 100
▁Moloch 100
▁Phasga 100
▁Psalms 100
▁Respha 100
▁SAMECH 100
▁Sebama 100
▁Sebast 100
▁Siloam 100
▁Streng 100
▁Throne 100
▁Tsente 100
▁adjure 100
▁advice 100
▁affirm 100
▁afford 100
▁almond 100
▁appeal 100
▁beards 100
▁beings 100
▁belief 100
▁bounds 100
▁breaks 100
▁bridal 100
▁builds 100
▁bushes 100
▁circum 100
▁clefts 100
▁cloaks 100
▁crieth 100
▁crimin 100
▁dashed 100
▁deadly 100
▁detain 100
▁dimmed 100
▁dismay 100
▁dispos 100
▁divers 100
▁encomp 100
▁engage 100
▁enroll 100
▁exists 100
▁expert 100
▁expose 100
▁famous 100
▁fitted 100
▁floods 100
▁flowed 100
▁fowler 100
▁future 100
▁gavest 100
▁graces 100
▁graves 100
▁greedy 100
▁habits 100
▁handed 100
▁handle 100
▁hatest 100
▁hearer 100
▁herald 100
▁highly 100
▁holies 100
▁hunted 100
▁hyssop 100
▁impart 100
▁invite 100
▁joints 100
▁knocks 100
▁labors 100
▁limits 100
▁lintel 100
▁loosen 100
▁maimed 100
▁nearer 100
▁nearly 100
▁nobody 100
▁nursed 100
▁offers 100
▁olives 100
▁owners 100
▁pities 100
▁played 100
▁poison 100
▁ponder 100
▁puffed 100
▁purged 100
▁rabbit 100
▁really 100
▁remedy 100
▁restri 100
▁richly 100
▁rooted 100
▁routed 100
▁ruling 100
▁sandal 100
▁satyrs 100
▁saving 100
▁screen 100
▁seated 100
▁shared 100
▁sights 100
▁sinews 100
▁single 100
▁snatch 100
▁sprung 100
▁troops 100
▁trough 100
▁undone 100
▁unwill 100
▁uproar 100
▁urgent 100
▁useful 100
▁veiled 100
▁volunt 100
▁voyage 100
▁wanton 100
▁weapon 100
▁whispe 100
▁willed 100
▁wishes 100
ependent 100
ertainly 100
fruitful 100
▁Abineem 100
▁Barachi 100
▁Bathuel 100
▁Chasten 100
▁Crucify 100
▁Destroy 100
▁Eliphas 100
▁Gesirit 100
▁Godhead 100
▁Matthew 100
▁Melchis 100
▁Naasson 100
▁Perhaps 100
▁Phanuel 100
▁Pontius 100
▁Receive 100
▁Stephan 100
▁Taphnas 100
▁Thamnas 100
▁Thebaid 100
▁Thyself 100
▁Turning 100
▁Wherein 100
▁Worship 100
▁abideth 100
▁accuses 100
▁adjured 100
▁advised 100
▁aground 100
▁avenges 100
▁baggage 100
▁battles 100
▁beating 100
▁begging 100
▁behaved 100
▁benefit 100
▁besiege 100
▁boasted 100
▁bondman 100
▁carries 100
▁cavalry 100
▁chooses 100
▁circuit 100
▁cleared 100
▁convict 100
▁correct 100
▁couldst 100
▁cymbals 100
▁daytime 100
▁dealing 100
▁decided 100
▁delayed 100
▁demonst 100
▁deposit 100
▁dignity 100
▁dismiss 100
▁drowned 100
▁ecstasy 100
▁emerods 100
▁enlarge 100
▁failing 100
▁fertile 100
▁fifties 100
▁floweth 100
▁forests 100
▁girdles 100
▁gnashed 100
▁handful 100
▁hanging 100
▁heavier 100
▁heaving 100
▁hedgeho 100
▁honored 100
▁hostile 100
▁humbles 100
▁imitate 100
▁impiety 100
▁judgest 100
▁judgeth 100
▁kneaded 100
▁kneeled 100
▁leaping 100
▁leather 100
▁lentils 100
▁lighted 100
▁lowered 100
▁mortals 100
▁murders 100
▁myriads 100
▁nursing 100
▁offense 100
▁opinion 100
▁payment 100
▁persist 100
▁pigeons 100
▁pouring 100
▁precept 100
▁proving 100
▁publish 100
▁pursuit 100
▁rations 100
▁refresh 100
▁refuses 100
▁regular 100
▁renders 100
▁revenge 100
▁sailors 100
▁sardius 100
▁seaside 100
▁sendeth 100
▁servile 100
▁sharper 100
▁shewing 100
▁shouldn 100
▁sickles 100
▁spittle 100
▁station 100
▁stooped 100
▁subdued 100
▁succeed 100
▁sunrise 100
▁surname 100
▁sweetly 100
▁timbrel 100
▁unicorn 100
▁unspeak 100
▁untying 100
▁warning 100
▁watches 100
▁watered 100
▁weights 100
▁whisper 100
▁withers 100
criptions 100
erubbabel 100
istration 100
okottinoi 100
▁Achinaam 100
▁Admonish 100
▁Alphaeus 100
▁Arachite 100
▁Baethsan 100
▁Carthage 100
▁Children 100
▁Deblatha 100
▁Elamites 100
▁Faithful 100
▁Hezekiah 100
▁Josaphat 100
▁Lawgiver 100
▁Michaeas 100
▁Moabites 100
▁Romelias 100
▁Sauchite 100
▁Selemias 100
▁Separate 100
▁Sepphora 100
▁Silvanus 100
▁Thyatira 100
▁acquired 100
▁actually 100
▁advocate 100
▁appealed 100
▁attaches 100
▁befallen 100
▁believer 100
▁boastful 100
▁breaketh 100
▁burdened 100
▁changeth 100
▁channels 100
▁chastise 100
▁clusters 100
▁commends 100
▁comprehe 100
▁constant 100
▁cowardly 100
▁daylight 100
▁deceives 100
▁declined 100
▁distinct 100
▁divorces 100
▁dreadful 100
▁dropping 100
▁election 100
▁elements 100
▁enriched 100
▁enrolled 100
▁entirely 100
▁eternity 100
▁exceeded 100
▁exchange 100
▁existeth 100
▁expected 100
▁fainting 100
▁fettered 100
▁foreskin 100
▁garrison 100
▁glorying 100
▁housetop 100
▁impotent 100
▁impurity 100
▁inquired 100
▁intently 100
▁lifetime 100
▁manacles 100
▁merchant 100
▁mistress 100
▁moisture 100
▁nobleman 100
▁nostrils 100
▁observes 100
▁ordering 100
▁overflow 100
▁overlaid 100
▁perishes 100
▁position 100
▁possibly 100
▁preacher 100
▁preaches 100
▁prepares 100
▁priestly 100
▁procured 100
▁produces 100
▁profited 100
▁promoted 100
▁pursuers 100
▁recorder 100
▁redeemer 100
▁relative 100
▁requited 100
▁resisted 100
▁reverent 100
▁revolted 100
▁severity 100
▁shearing 100
▁shedding 100
▁shouldst 100
▁sleepest 100
▁snatched 100
▁solitary 100
▁splendid 100
▁standard 100
▁stumbles 100
▁survived 100
▁teacheth 100
▁thirteen 100
▁thistles 100
▁trustest 100
▁unlawful 100
▁unseemly 100
▁untimely 100
▁uttering 100
▁vexation 100
▁vultures 100
▁wandered 100
▁watchmen 100
▁worthily 100
▁wrathful 100
Hallelujah 100
Whatsoever 100
▁Adversary 100
▁Beginning 100
▁Benjamite 100
▁Christian 100
▁Ethiopian 100
▁Jechonias 100
▁Moabitess 100
▁Physician 100
▁Whereupon 100
▁alienated 100
▁associate 100
▁attendant 100
▁barbarian 100
▁believeth 100
▁blossomed 100
▁bracelets 100
▁chastened 100
▁complaint 100
▁conceited 100
▁concerned 100
▁conferred 100
▁conformed 100
▁consuming 100
▁correctly 100
▁covenants 100
▁cultivate 100
▁deception 100
▁deposited 100
▁devouring 100
▁discerned 100
▁displayed 100
▁enquiries 100
▁exercised 100
▁expedient 100
▁fastening 100
▁faultless 100
▁footsteps 100
▁fortified 100
▁frustrate 100
▁happeneth 100
▁heaviness 100
▁honoureth 100
▁indicated 100
▁lowliness 100
▁luxurious 100
▁martyrdom 100
▁marvelous 100
▁medicines 100
▁ministers 100
▁mortality 100
▁ointments 100
▁perishing 100
▁quietness 100
▁receiveth 100
▁reckoning 100
▁reclining 100
▁remembers 100
▁reprobate 100
▁respected 100
▁retreated 100
▁searching 100
▁servitude 100
▁sharpened 100
▁shortened 100
▁sometimes 100
▁teachings 100
▁terminate 100
▁thereupon 100
▁undefiled 100
▁wherefrom 100
▁whirlwind 100
▁withdrawn 100
▁Abdemelech 100
▁Amalekites 100
▁CONCERNING 100
▁Cappadocia 100
▁Chelethite 100
▁Gergesites 100
▁Heliopolis 100
▁Nabuzardan 100
▁Providence 100
▁Strengthen 100
▁abstinence 100
▁accurately 100
▁accustomed 100
▁admonished 100
▁commission 100
▁conspiracy 100
▁contention 100
▁contradict 100
▁craftiness 100
▁defilement 100
▁destroying 100
▁dispersion 100
▁distracted 100
▁excellency 100
▁expedition 100
▁faithfully 100
▁fatherhood 100
▁fornicator 100
▁gloriously 100
▁government 100
▁honourably 100
▁husbandman 100
▁ignorantly 100
▁inflicting 100
▁insatiable 100
▁instrument 100
▁liberality 100
▁metropolis 100
▁oppressors 100
▁penetrated 100
▁principles 100
▁quadrupeds 100
▁questioned 100
▁sackcloths 100
▁shamefully 100
▁simplicity 100
▁slanderers 100
▁sojourners 100
▁sprinkling 100
▁storehouse 100
▁translated 100
▁trespassed 100
▁unfruitful 100
▁wrongfully 100
withstanding 100
▁Sennacherim 100
▁approaching 100
▁blasphemous 100
▁bountifully 100
▁candlestick 100
▁confidently 100
▁convocation 100
▁cornerstone 100
▁discernment 100
▁disgraceful 100
▁distinguish 100
▁embroidered 100
▁handmaidens 100
▁independent 100
▁inquisition 100
▁inscription 100
▁intemperate 100
▁intercourse 100
▁merchandise 100
▁multiplying 100
▁provocation 100
▁retribution 100
▁treacherous 100
▁uninhabited 100
▁worshippers 100
▁Cariathiarim 100
▁Jezraelitess 100
▁acknowledged 100
▁conversation 100
▁fornications 100
▁instructions 100
▁intercession 100
▁successfully 100
▁Righteousness 100
▁administereth 100
▁consideration 100
▁contemplation 100
▁manifestation 100
▁administration 100
▁manifestations 100
▁reconciliation 100
'. 100
(? 100
AN 100
AT 100
Ca 100
De 100
EW 100
Ex 100
GY 100
OM 100
PT 100
bi 100
de 100
la 100
uk 100
wr 100
AND 100
ART 100
EWS 100
Eli 100
Hos 100
Out 100
Yet 100
aed 100
ald 100
ali 100
ane 100
any 100
asi 100
aun 100
bal 100
dne 100
eav 100
eel 100
elf 100
ema 100
gia 100
gri 100
hil 100
ims 100
iry 100
lk 100
zy 100
acy 100
era 100
isa 100
lit 100
lph 100
mec 100
olg 100
oma 100
onc 100
ply 100
pow 100
ppy 100
rad 100
rah 100
ril 100
ris 100
sar 100
tus 100
uck 100
ula 100
voc 100
who 100
▁'; 100
▁AM 100
▁Cl 100
▁Co 100
▁Dj 100
▁FA 100
▁MO 100
▁Ob 100
▁Om 100
▁PR 100
▁Sa 100
▁Sc 100
▁Su 100
▁ed 100
AINT 100
Away 100
Baal 100
Caes 100
Does 100
Fall 100
GYPT 100
Good 100
SADE 100
Saul 100
Some 100
That 100
Will 100
abar 100
addi 100
agad 100
aion 100
alim 100
arin 100
arse 100
asar 100
asqu 100
assa 100
bing 100
cede 100
cies 100
cill 100
cius 100
cken 100
cred 100
elic 100
enan 100
erez 100
erve 100
ethe 100
etri 100
fess 100
ffet 100
ffin 100
foot 100
geny 100
ical 100
icul 100
iece 100
iers 100
iken 100
imil 100
inon 100
ishb 100
ital 100
jure 100
kful 100
lead 100
moon 100
noph 100
ogel 100
omen 100
omew 100
onge 100
opag 100
phis 100
pill 100
yn 100
One 100
Thy 100
oea 100
unc 100
alty 100
beit 100
blem 100
heap 100
ials 100
irer 100
plar 100
pond 100
pses 100
pted 100
ptic 100
reck 100
riah 100
rian 100
rion 100
rors 100
sepp 100
ssus 100
sted 100
ugit 100
ulse 100
uned 100
used 100
work 100
worm 100
ymus 100
zron 100
▁APA 100
▁Aia 100
▁Bau 100
▁Buz 100
▁Cat 100
▁Cit 100
▁Cur 100
▁DAY 100
▁Dev 100
▁END 100
▁Eat 100
▁Ell 100
▁Eng 100
▁Ete 100
▁Gen 100
▁Hab 100
▁Jas 100
▁Jem 100
▁Jor 100
▁Lat 100
▁Lib 100
▁Mon 100
▁New 100
▁PRO 100
▁Pah 100
▁Peo 100
▁Pet 100
▁Pub 100
▁Ref 100
▁Reg 100
▁Run 100
▁San 100
▁Sob 100
▁Sto 100
▁Tho 100
▁Won 100
▁aud 100
▁awl 100
▁bag 100
▁bee 100
▁ber 100
▁box 100
▁cop 100
▁cot 100
▁eff 100
▁ful 100
▁gag 100
▁hol 100
▁hut 100
▁ink 100
▁kis 100
▁lee 100
▁nar 100
▁obv 100
▁owl 100
▁pac 100
▁pan 100
▁phi 100
▁tan 100
▁upl 100
ARTYR 100
Write 100
abled 100
accha 100
actor 100
akest 100
akkuk 100
aliel 100
)? 100
Wor 100
chie 100
oard 100
pots 100
they 100
zzar 100
▁Aet 100
▁Sec 100
▁ant 100
▁asp 100
▁cel 100
▁gle 100
▁rum 100
Haven 100
amest 100
apius 100
arach 100
ardis 100
asion 100
ateth 100
attin 100
batha 100
belie 100
bezek 100
bucha 100
chard 100
chers 100
chors 100
claim 100
ctims 100
doves 100
ealed 100
erchi 100
eteen 100
faced 100
first 100
hians 100
hilus 100
icted 100
iders 100
iency 100
ifter 100
ileth 100
ipped 100
irgin 100
iring 100
iscop 100
ively 100
known 100
lambs 100
lieth 100
lived 100
livet 100
lphur 100
marks 100
oined 100
oking 100
omach 100
omium 100
onder 100
onger 100
osity 100
piter 100
pleas 100
posts 100
quire 100
rabin 100
ranny 100
raved 100
redom 100
rieth 100
shore 100
stain 100
sters 100
teeth 100
tense 100
those 100
uence 100
umber 100
vable 100
vices 100
xture 100
▁Abie 100
▁Aend 100
▁Arim 100
▁Asom 100
▁Azor 100
▁Bana 100
▁Base 100
▁Bern 100
▁Body 100
▁Daed 100
▁Each 100
▁Emec 100
▁Five 100
▁Fors 100
▁Gebe 100
▁Geon 100
▁Gers 100
adai 100
eryl 100
shon 100
▁Add 100
▁Esd 100
▁dit 100
▁ere 100
ailer 100
asped 100
comed 100
heart 100
▁Cont 100
▁Disp 100
▁Glor 100
▁Heal 100
▁Hope 100
▁Iras 100
▁JEWS 100
▁Joel 100
▁Juli 100
▁Land 100
▁Life 100
▁Luke 100
▁Mase 100
▁Mile 100
▁Mult 100
▁Myst 100
▁Oron 100
▁Over 100
▁Phil 100
▁Phry 100
▁Pres 100
▁Sacr 100
▁Shen 100
▁Show 100
▁THAT 100
▁Tert 100
▁Wait 100
▁Wine 100
▁adds 100
▁alle 100
▁amid 100
▁anew 100
▁carn 100
▁caut 100
▁clim 100
▁coal 100
▁coin 100
▁cool 100
▁cost 100
▁cups 100
▁cure 100
▁dart 100
▁dens 100
▁dine 100
▁dyed 100
▁encl 100
▁enra 100
▁entr 100
▁fade 100
▁fame 100
▁farm 100
▁flog 100
▁flux 100
▁folk 100
▁fron 100
▁gild 100
▁grud 100
▁gulf 100
▁hadn 100
▁hawk 100
▁jaws 100
▁jest 100
▁knit 100
▁lair 100
▁leve 100
▁lick 100
▁lime 100
▁liqu 100
▁lobe 100
▁mars 100
▁owed 100
▁pine 100
▁plou 100
▁reco 100
▁reig 100
▁rode 100
▁sank 100
▁sedu 100
▁sift 100
▁spac 100
▁span 100
▁sted 100
▁stup 100
▁subm 100
▁subs 100
▁swar 100
▁swim 100
▁unce 100
▁unst 100
SE 100
ex 100
GIN 100
zec 100
enes 100
grie 100
icip 100
mmed 100
test 100
tops 100
yrus 100
▁Aus 100
▁Lys 100
▁elo 100
arene 100
ekiel 100
noute 100
ruits 100
▁Boaz 100
▁Seth 100
▁arch 100
▁balm 100
▁buys 100
▁insp 100
▁obsc 100
▁pins 100
▁plow 100
▁unve 100
▁vari 100
▁whip 100
▁winn 100
▁writ 100
Cursed 100
Whilst 100
altiel 100
apolis 100
asquer 100
athaea 100
blocks 100
bursts 100
cerity 100
ebulun 100
elican 100
ephres 100
ersion 100
estial 100
etrius 100
goings 100
ground 100
hatite 100
icking 100
ightly 100
itutes 100
leanan 100
leanse 100
looked 100
ltered 100
melech 100
oncert 100
ortant 100
phimus 100
plates 100
remeel 100
seness 100
shares 100
stones 100
struck 100
ulsion 100
umbers 100
urable 100
urings 100
urther 100
withal 100
▁Above 100
▁Aelon 100
▁Ammin 100
▁Among 100
▁BEGIN 100
▁Boast 100
▁Break 100
▁Caene 100
▁Cease 100
▁Could 100
▁Demas 100
▁Dwell 100
▁EGYPT 100
▁Estha 100
▁Gesem 100
▁Gosom 100
▁Herma 100
▁Hosts 100
▁Italy 100
▁Joach 100
▁Laisa 100
▁Learn 100
▁Lebna 100
▁Lechi 100
▁Light 100
▁Lydda 100
▁MONTH 100
ez 100
ERE 100
ancy 100
▁FOR 100
▁Maj 100
stock 100
▁(?). 100
▁Maan 100
▁unlo 100
ottage 100
otteth 100
▁Balla 100
▁Djeme 100
▁Maron 100
▁Merob 100
▁Omega 100
▁Opher 100
▁Oziel 100
▁Perez 100
▁Perga 100
▁Rabbi 100
▁Rogel 100
▁SAINT 100
▁Salem 100
▁Salom 100
▁Samaa 100
▁Samir 100
▁Saraa 100
▁Senna 100
▁Shout 100
▁Simil 100
▁South 100
▁Swear 100
▁TSADE 100
▁Tanes 100
▁Tishb 100
▁Today 100
▁World 100
▁abase 100
▁afore 100
▁agony 100
▁allot 100
▁aroma 100
▁avoid 100
▁banks 100
▁beams 100
▁beryl 100
▁bloom 100
▁booth 100
▁braid 100
▁broth 100
▁bunch 100
▁camps 100
▁cargo 100
▁cater 100
▁clubs 100
▁comel 100
▁crazy 100
▁crime 100
▁defer 100
▁diest 100
▁dieth 100
▁drums 100
▁envoy 100
▁farms 100
▁fixes 100
▁flute 100
▁forew 100
▁fowls 100
▁fraud 100
▁fugit 100
▁giver 100
▁grind 100
▁haply 100
▁heels 100
▁heres 100
▁heron 100
▁hinds 100
▁impet 100
▁incur 100
▁knife 100
▁laver 100
▁limit 100
▁longs 100
▁malic 100
▁march 100
▁meant 100
▁melts 100
▁monks 100
▁moral 100
▁navel 100
▁occur 100
▁odour 100
▁pairs 100
▁palms 100
▁parch 100
▁peril 100
▁phant 100
▁philo 100
▁piety 100
▁pipes 100
▁poppy 100
▁quake 100
▁ranks 100
▁rapid 100
▁reaps 100
▁repet 100
▁reven 100
▁rides 100
▁rises 100
▁rival 100
▁roads 100
▁rouse 100
▁ruddy 100
▁scape 100
▁shade 100
▁sings 100
▁skull 100
▁slays 100
▁slide 100
▁spied 100
▁split 100
▁start 100
▁stern 100
▁stink 100
▁stock 100
▁stops 100
▁story 100
▁stuck 100
▁sweep 100
▁thong 100
▁tills 100
▁toils 100
▁towel 100
▁trace 100
▁train 100
▁twins 100
▁unfit 100
▁unity 100
▁useth 100
▁valid 100
▁vanqu 100
▁vapor 100
▁vigil 100
▁waged 100
▁weigh 100
▁whore 100
▁yoked 100
Crucify 100
Forgive 100
Hosanna 100
ability 100
asingly 100
chamber 100
dnezzar 100
erciful 100
estined 100
estruct 100
grieved 100
hankful 100
holomew 100
ikenard 100
iphites 100
itality 100
ittered 100
itution 100
neither 100
nesaret 100
oration 100
planted 100
powered 100
respond 100
ructive 100
sepphon 100
skilled 100
venient 100
vereign 100
writing 100
▁Abarim 100
▁Abijah 100
▁Accept 100
▁Aendor 100
▁Ambram 100
▁Author 100
▁Baurim 100
▁Beroea 100
▁Coming 100
▁Darius 100
▁Divine 100
▁Echela 100
▁Eleale 100
▁FATHER 100
▁Forget 100
▁Gallio 100
▁Gesion 100
▁Grieve 100
▁Hereby 100
▁Hezron 100
▁Justus 100
▁Living 100
▁MARTYR 100
▁Madian 100
▁Mambre 100
▁Manaim 100
▁Melcha 100
▁Myself 100
▁Naphec 100
▁Nicola 100
▁Olivet 100
▁Palace 100
▁People 100
▁Phogor 100
▁Pontus 100
▁Prayer 100
▁Remind 100
▁Repent 100
▁Sardis 100
▁Sattin 100
▁Sodoma 100
▁Strife 100
▁Symoon 100
▁Thamar 100
▁Thecoe 100
▁Tholmi 100
▁Wealth 100
▁aboard 100
▁access 100
▁action 100
▁adding 100
▁admire 100
▁assign 100
▁attent 100
▁awaked 100
▁bewail 100
▁bricks 100
▁bridle 100
▁buffet 100
▁byssus 100
▁calmed 100
▁calved 100
▁canals 100
▁canker 100
▁choked 100
▁cister 100
▁coffer 100
▁coffin 100
▁collar 100
▁commem 100
▁creeps 100
▁criest 100
▁crowed 100
▁darest 100
▁decide 100
▁depend 100
▁differ 100
▁doubts 100
▁endeav 100
▁endeth 100
▁enrich 100
▁examin 100
▁faints 100
▁figure 100
▁fishes 100
▁fright 100
▁gently 100
▁gnawed 100
▁groans 100
▁hammer 100
▁hereby 100
▁hollow 100
▁horror 100
▁intest 100
▁invoke 100
▁jailer 100
▁lawyer 100
▁layeth 100
▁learnt 100
▁lender 100
▁loudly 100
▁luxury 100
▁maiden 100
▁malign 100
▁marrow 100
▁merely 100
▁mingle 100
▁motion 100
▁napkin 100
▁needle 100
▁nowise 100
▁peacem 100
▁perfid 100
▁pleads 100
▁polled 100
▁porter 100
▁powder 100
▁ragged 100
▁raging 100
▁reckon 100
▁restra 100
▁retain 100
▁riseth 100
▁roared 100
▁robbed 100
▁sacred 100
▁savage 100
▁sawest 100
▁scared 100
▁scroll 100
▁seethe 100
▁senses 100
▁settle 100
▁shafts 100
▁shamed 100
▁shoots 100
▁shower 100
▁sodden 100
▁softly 100
▁sowing 100
▁speedy 100
▁sponge 100
▁stages 100
▁staves 100
▁stocks 100
▁stored 100
▁strict 100
▁submit 100
▁sunset 100
▁tablet 100
▁tabret 100
▁tanner 100
▁thefts 100
▁thumbs 100
▁tilled 100
▁timber 100
▁traced 100
▁tracks 100
▁trance 100
▁tranqu 100
▁treads 100
▁unblem 100
▁unripe 100
▁unruly 100
▁unsett 100
▁upheld 100
▁utters 100
▁vanish 100
▁vapour 100
▁weaver 100
▁whiter 100
▁whorem 100
▁withal 100
▁worlds 100
▁wrongs 100
Children 100
Everyone 100
Whatever 100
acchaeus 100
angelist 100
begotten 100
chievous 100
coloured 100
nophrios 100
stricken 100
▁Abiezer 100
▁Acrabin 100
▁Against 100
▁Agapius 100
▁Apollos 100
▁Areopag 100
▁Arisoth 100
▁Assyria 100
▁Ataroth 100
▁Banaeas 100
▁Bernice 100
▁Besides 100
▁Casting 100
▁Chamaam 100
▁Citians 100
▁Cleanse 100
▁Didymus 100
▁Eleanan 100
▁Eliezer 100
▁Engaddi 100
▁Erastus 100
▁Fathers 100
▁Gabriel 100
▁Gittite 100
▁Howbeit 100
▁Josedec 100
▁Lodabar 100
▁Memphis 100
▁Miletus 100
▁Minaean 100
▁Nahshon 100
▁Nebucha 100
▁Nothing 100
▁Pharath 100
▁Phrygia 100
▁Princes 100
▁Putting 100
▁Restore 100
▁Tsentei 100
▁absence 100
▁accuser 100
▁acquire 100
▁advance 100
▁anchors 100
▁anywise 100
▁appears 100
▁applaud 100
▁approve 100
▁arrange 100
▁assured 100
▁atoning 100
▁attacks 100
▁audible 100
▁backbit 100
▁badness 100
▁beholds 100
▁berries 100
▁betroth 100
▁blasted 100
▁boiling 100
▁bulwark 100
▁burneth 100
▁callous 100
▁candles 100
▁carcass 100
▁caverns 100
▁censers 100
▁charmer 100
▁chatter 100
▁control 100
▁coppers 100
▁corpses 100
▁courier 100
▁courses 100
▁cutting 100
▁dancing 100
▁deceits 100
▁denying 100
▁deprive 100
▁designs 100
▁drachma 100
▁dreamed 100
▁emerald 100
▁emptied 100
▁emulate 100
▁enraged 100
▁express 100
▁fellows 100
▁filling 100
▁finally 100
▁findeth 100
▁flowers 100
▁forerun 100
▁fortify 100
▁fulness 100
▁furrows 100
▁garners 100
▁goddess 100
▁grabbed 100
▁hastily 100
▁heights 100
▁hissing 100
▁honours 100
▁houghed 100
▁howling 100
▁imposed 100
▁infancy 100
▁keepers 100
▁kindles 100
▁knewest 100
▁latchet 100
▁leadeth 100
▁legions 100
▁liftest 100
▁lifteth 100
▁manslay 100
▁masquer 100
▁mastery 100
▁mindful 100
▁ministr 100
▁missing 100
▁mockers 100
▁mocking 100
▁monthly 100
▁notable 100
▁nurture 100
▁objects 100
▁obvious 100
▁oneself 100
▁orchard 100
▁partial 100
▁partner 100
▁pelican 100
▁penalty 100
▁players 100
▁pleaded 100
▁pleases 100
▁poureth 100
▁presses 100
▁pretend 100
▁privily 100
▁progeny 100
▁pursues 100
▁quietly 100
▁rampart 100
▁reaches 100
▁rebukes 100
▁refined 100
▁removes 100
▁repents 100
▁reptile 100
▁ridicul 100
▁sadness 100
▁saviour 100
▁scepter 100
▁scurril 100
▁seeketh 100
▁selfish 100
▁shaking 100
▁sharply 100
▁shields 100
▁sighing 100
▁smaller 100
▁smoking 100
▁stagger 100
▁stained 100
▁statues 100
▁stepped 100
▁stomach 100
▁strings 100
▁sucking 100
▁sulphur 100
▁surveys 100
▁swarest 100
▁swifter 100
▁tablets 100
▁terrors 100
▁threats 100
▁tightly 100
▁tillage 100
▁tonight 100
▁tyranny 100
▁upwards 100
▁useless 100
▁usually 100
▁victims 100
▁vulture 100
▁wanteth 100
▁warming 100
▁wasting 100
▁weighty 100
▁whereto 100
▁worsted 100
Cornelius 100
acrifices 100
eneration 100
▁Armenius 100
▁Assemble 100
▁Chelaion 100
▁Epaphras 100
▁Etebatha 100
▁Galilean 100
▁Gamaliel 100
▁Gamarias 100
▁Gittites 100
▁Gomorrah 100
▁Habakkuk 100
▁Heliakim 100
▁Jeremeel 100
▁Macarius 100
▁Manasseh 100
▁Mountain 100
▁Naphtali 100
▁Nazarene 100
▁Parmoute 100
▁Phennana 100
▁Proclaim 100
▁Psalmist 100
▁Shenoute 100
▁Suddenly 100
▁Tiberias 100
▁Tishbite 100
▁Wherever 100
▁accusing 100
▁advances 100
▁announce 100
▁appetite 100
▁argument 100
▁avenging 100
▁babbling 100
▁balances 100
▁barefoot 100
▁becamest 100
▁bracelet 100
▁breathed 100
▁brighter 100
▁bringest 100
▁bullocks 100
▁bulwarks 100
▁changers 100
▁chapiter 100
▁chastens 100
▁comforts 100
▁commence 100
▁complain 100
▁conceals 100
▁conflict 100
▁councill 100
▁creditor 100
▁curtains 100
▁deceased 100
▁declares 100
▁decorate 100
▁dedicate 100
▁desireth 100
▁disposed 100
▁dividing 100
▁doubting 100
▁dunghill 100
▁eloquent 100
▁enclosed 100
▁encomium 100
▁endurest 100
▁entereth 100
▁equality 100
▁esteemed 100
▁fattened 100
▁fighteth 100
▁forgives 100
▁fortieth 100
▁fortress 100
▁fronting 100
▁function 100
▁gladdens 100
▁gleaming 100
▁gleaning 100
▁greeting 100
▁hallowed 100
▁hastened 100
▁headlong 100
▁highways 100
▁humbleth 100
▁idleness 100
▁infinite 100
▁intended 100
▁interest 100
▁kneeling 100
▁knocking 100
▁laughing 100
▁lawgiver 100
▁levelled 100
▁lewdness 100
▁lordship 100
▁magnific 100
▁military 100
▁mistreat 100
▁monsters 100
▁mourners 100
▁murdered 100
▁nineteen 100
▁overcame 100
▁overmuch 100
▁particip 100
▁partners 100
▁passages 100
▁performs 100
▁perfumes 100
▁perverts 100
▁pleading 100
▁ploughed 100
▁potsherd 100
▁precepts 100
▁pretense 100
▁prevails 100
▁progress 100
▁provided 100
▁quantity 100
▁recruits 100
▁reigning 100
▁relation 100
▁relieved 100
▁removing 100
▁rendered 100
▁renewing 100
▁reprover 100
▁reproves 100
▁repulsed 100
▁resemble 100
▁restrain 100
▁scorched 100
▁scorners 100
▁seashore 100
▁shameful 100
▁sharpens 100
▁sheddeth 100
▁shouting 100
▁slippery 100
▁sluggish 100
▁somewhat 100
▁sorcerer 100
▁southern 100
▁spacious 100
▁speckled 100
▁spoilers 100
▁standeth 100
▁stealing 100
▁stedfast 100
▁stirring 100
▁strictly 100
▁strongly 100
▁subsided 100
▁suspense 100
▁sweeping 100
▁thinkest 100
▁thirsted 100
▁throwing 100
▁tortured 100
▁trusting 100
▁untaught 100
▁unveiled 100
▁uplifted 100
▁uprooted 100
▁wantonly 100
▁watchful 100
▁welcomed 100
▁whoredom 100
▁worships 100
▁yielding 100
Everything 100
controlled 100
▁Amalekite 100
▁Amminadab 100
▁Authority 100
▁Berothite 100
▁Chenereth 100
▁Demetrius 100
▁Ephesians 100
▁Monastery 100
▁Mysteries 100
▁Nathanias 100
▁Petephres 100
▁Priscilla 100
▁Sacrament 100
▁Salvation 100
▁Shealtiel 100
▁Similarly 100
▁Stephanou 100
▁Trophimus 100
▁abolished 100
▁abounding 100
▁adulterer 100
▁advancing 100
▁aforetime 100
▁aggrieved 100
▁appeareth 100
▁beckoning 100
▁bestoweth 100
▁bondwoman 100
▁breathing 100
▁carpenter 100
▁caterpill 100
▁celestial 100
▁concluded 100
▁condition 100
▁congealed 100
▁connexion 100
▁consented 100
▁considers 100
▁consisted 100
▁container 100
▁continual 100
▁criminals 100
▁cupbearer 100
▁dangerous 100
▁deceivers 100
▁departing 100
▁despaired 100
▁discharge 100
▁doctrines 100
▁downwards 100
▁dwellings 100
▁effective 100
▁embracing 100
▁entangles 100
▁entrances 100
▁evidently 100
▁evildoers 100
▁executing 100
▁exercises 100
▁expensive 100
▁fervently 100
▁fishermen 100
▁foolishly 100
▁foreskins 100
▁forgetful 100
▁forsaking 100
▁fragrance 100
▁fugitives 100
▁gathereth 100
▁genealogy 100
▁happening 100
▁hedgehogs 100
▁housetops 100
▁hypocrite 100
▁including 100
▁inflicted 100
▁intreated 100
▁labouring 100
▁landmarks 100
▁loathsome 100
▁magnifies 100
▁meditates 100
▁obligated 100
▁ostriches 100
▁outbursts 100
▁outgoings 100
▁outwardly 100
▁overseers 100
▁perverted 100
▁plastered 100
▁plenteous 100
▁ploughing 100
▁pollution 100
▁pondering 100
▁positions 100
▁powerless 100
▁preferred 100
▁preparing 100
▁presently 100
▁protected 100
▁provinces 100
▁relations 100
▁reminding 100
▁revilings 100
▁satisfies 100
▁scorching 100
▁separates 100
▁sincerity 100
▁soundness 100
▁sovereign 100
▁sparingly 100
▁spikenard 100
▁strangled 100
▁supported 100
▁supporter 100
▁surpasses 100
▁suspended 100
▁sweetened 100
▁temperate 100
▁threatens 100
▁trackless 100
▁travelled 100
▁treatment 100
▁unlearned 100
▁voluntary 100
▁whereunto 100
▁whisperer 100
▁widowhood 100
▁wondering 100
▁yellowish 100
▁zealously 100
estructible 100
▁Achimelech 100
▁Adonibezek 100
▁Antichrist 100
▁Arimathaea 100
▁Baetharaba 100
▁Dispersion 100
▁Ephrathite 100
▁Gennesaret 100
▁Phelethite 100
▁Theophilus 100
▁Theopistus 100
▁abstaining 100
▁acceptance 100
▁adulterous 100
▁banishment 100
▁beforetime 100
▁birthright 100
▁blasphemer 100
▁carelessly 100
▁celebrated 100
▁centurions 100
▁charitable 100
▁cheerfully 100
▁comeliness 100
▁commandest 100
▁commending 100
▁committeth 100
▁confessing 100
▁continence 100
▁convenient 100
▁conversant 100
▁correspond 100
▁countrymen 100
▁delicately 100
▁delivereth 100
▁destroyeth 100
▁difference 100
▁disconcert 100
▁dispirited 100
▁displeased 100
▁distribute 100
▁divination 100
▁embittered 100
▁flattering 100
▁forbidding 100
▁frightened 100
▁frustrated 100
▁gloominess 100
▁greediness 100
▁hailstones 100
▁hospitable 100
▁humiliated 100
▁increaseth 100
▁management 100
▁manifestly 100
▁marvelling 100
▁occupation 100
▁oliveyards 100
▁opposition 100
▁originally 100
▁overlooked 100
▁overthrows 100
▁perfecting 100
▁performing 100
▁permission 100
▁personally 100
▁perversely 100
▁perverting 100
▁prophecies 100
▁quantities 100
▁restricted 100
▁salutation 100
▁signifying 100
▁singleness 100
▁skillfully 100
▁stablished 100
▁straitness 100
▁stretching 100
▁terminates 100
▁thirteenth 100
▁threatened 100
▁torturings 100
▁traditions 100
▁travailing 100
▁unbeliever 100
▁undertaken 100
▁unmerciful 100
▁unthankful 100
▁vehemently 100
▁withstands 100
▁worshipper 100
holokottinoi 100
▁Bartholomew 100
▁Instruction 100
▁Phoenicians 100
▁Sebastianus 100
▁apostleship 100
▁appertained 100
▁battlements 100
▁beautifully 100
▁blasphemies 100
▁celebrating 100
▁coppersmith 100
▁corruptible 100
▁destructive 100
▁disposition 100
▁divinations 100
▁divorcement 100
▁earnestness 100
▁flourishing 100
▁handwriting 100
▁hospitality 100
▁illuminated 100
▁immortality 100
▁interpreter 100
▁lawlessness 100
▁mischievous 100
▁overpowered 100
▁overshadows 100
▁perpetually 100
▁predestined 100
▁prostitutes 100
▁reproachful 100
▁revelations 100
▁storehouses 100
▁strongholds 100
▁thunderings 100
▁transferred 100
▁unblemished 100
▁unspeakable 100
▁wherewithal 100
▁whoremonger 100
▁administered 100
▁breastplates 100
▁candlesticks 100
▁dispensation 100
▁imaginations 100
▁overshadowed 100
▁perfidiously 100
▁perverseness 100
▁propitiation 100
▁unreasonable 100
▁Thessalonians 100
▁acquaintances 100
▁circumstances 100
▁congregations 100
▁dishonourable 100
▁establishment 100
▁forgetfulness 100
▁neighbourhood 100
▁prescriptions 100
▁steadfastness 100
▁transgressing 100
▁understandest 100
▁Nebuchadnezzar 100
▁indestructible 100
▁notwithstanding 100
LE 100
Le 100
WN 100
yb 100
... 100
ABY 100
Ask 100
HAR 100
ICT 100
IST 100
ITE 100
ams 100
eer 100
fig 100
gab 100
igg 100
iud 100
lac 100
lim 100
liv 100
mos 100
myr 100
tfu 100
udi 100
▁FO 100
▁Fe 100
▁Fo 100
▁Pa 100
▁Si 100
(?). 100
ABYL 100
Abra 100
Call 100
ERAL 100
Four 100
IONS 100
NETH 100
Shew 100
aath 100
abus 100
adem 100
anes 100
aphs 100
aria 100
aric 100
azin 100
back 100
bill 100
bles 100
boam 100
bunc 100
dles 100
doer 100
eled 100
ephi 100
ggle 100
glig 100
haim 100
icri 100
isha 100
knew 100
lius 100
llim 100
maal 100
mbol 100
nare 100
okes 100
onze 100
opas 100
oths 100
oung 100
pper 100
reek 100
reel 100
rong 100
roth 100
rtle 100
swer 100
▁i 100
neg 100
pse 100
tam 100
asim 100
came 100
dest 100
ilis 100
imus 100
neth 100
oral 100
orus 100
rumb 100
tory 100
udas 100
ybod 100
ynia 100
zzle 100
▁Aff 100
▁BRO 100
▁Bac 100
▁COM 100
▁Cal 100
▁Cos 100
▁Cut 100
▁DES 100
▁Ecb 100
▁End 100
▁FRO 100
▁Gae 100
▁Gre 100
▁HIM 100
▁Had 100
▁Ham 100
▁Hew 100
▁Lau 100
▁Mal 100
▁Mor 100
▁Nem 100
▁Pam 100
▁Sem 100
▁Sup 100
▁Try 100
▁bol 100
▁cuc 100
▁dow 100
▁egg 100
▁yew 100
Belie 100
Faith 100
First 100
HECHS 100
Leave 100
Since 100
Watch 100
about 100
achim 100
aemon 100
amine 100
amoth 100
antly 100
appro 100
ariel 100
athed 100
atory 100
board 100
cents 100
cibly 100
cketh 100
creat 100
ebted 100
ecias 100
eloth 100
eneth 100
ephas 100
erves 100
estic 100
ethla 100
flood 100
folds 100
found 100
gment 100
going 100
holic 100
hooks 100
htway 100
iches 100
idest 100
ifest 100
igris 100
ilisk 100
imony 100
imoth 100
itans 100
lfare 100
maalo 100
mpion 100
myrna 100
nacle 100
otest 100
Bar 100
EAR 100
Pro 100
bas 100
car 100
ios 100
nan 100
oes 100
sia 100
uge 100
yes 100
▁Ta 100
▁Tw 100
essi 100
haru 100
hias 100
itha 100
wood 100
▁Aes 100
▁Ari 100
▁Sot 100
▁cow 100
▁non 100
▁pla 100
David 100
ambri 100
llath 100
otion 100
phesy 100
ppled 100
rafty 100
rator 100
ridge 100
ticip 100
tlety 100
tuned 100
uaios 100
unged 100
utala 100
uteth 100
white 100
wreck 100
zards 100
▁Abba 100
▁Abia 100
▁Ahab 100
▁Ahaz 100
▁Asan 100
▁Asel 100
▁Assu 100
▁Atbo 100
▁Away 100
▁Beat 100
▁Beer 100
▁Bela 100
▁CERT 100
▁Chal 100
▁Dire 100
▁Dist 100
▁Dudi 100
▁Esna 100
▁Fare 100
▁Fast 100
▁Fort 100
▁Gola 100
▁Gona 100
▁Heap 100
▁Helc 100
▁Hill 100
▁Jedd 100
▁Liby 100
▁Omar 100
▁Osee 100
▁PHAR 100
▁PRAY 100
▁PROP 100
▁Pass 100
▁Path 100
▁Pent 100
▁Phin 100
▁Reho 100
▁Rhod 100
▁Roge 100
▁Roob 100
▁Siph 100
▁Song 100
▁THER 100
▁WERE 100
▁Wash 100
▁agit 100
▁ails 100
▁anti 100
▁axes 100
▁babe 100
▁blac 100
▁brut 100
▁budd 100
▁butt 100
▁chry 100
▁club 100
OS 100
vo 100
vy 100
ITH 100
Pre 100
iur 100
pan 100
uce 100
whe 100
THIS 100
arus 100
enge 100
eper 100
gest 100
nter 100
▁Aug 100
▁Gra 100
▁JOA 100
▁Nun 100
▁Old 100
▁dir 100
▁dut 100
▁hem 100
▁squ 100
▁sup 100
▁tin 100
Enter 100
atane 100
bezec 100
feits 100
iteth 100
mated 100
ppose 100
rhite 100
▁Envy 100
▁Lyca 100
▁cori 100
▁disd 100
▁diss 100
▁duty 100
▁ecli 100
▁exqu 100
▁eyew 100
▁feat 100
▁fick 100
▁foes 100
▁foll 100
▁fram 100
▁fret 100
▁gait 100
▁goal 100
▁halt 100
▁huge 100
▁loan 100
▁mass 100
▁narr 100
▁nigg 100
▁null 100
▁owes 100
▁pant 100
▁perd 100
▁pipe 100
▁pits 100
▁rect 100
▁revi 100
▁saff 100
▁scow 100
▁situ 100
▁slab 100
▁spin 100
▁sten 100
▁suit 100
▁symp 100
▁tall 100
▁thri 100
▁tool 100
▁trun 100
▁unaw 100
▁ungu 100
▁unqu 100
▁unsh 100
▁vent 100
ABYLON 100
Caesar 100
ENERAL 100
ablish 100
acinth 100
akened 100
amegar 100
aneous 100
apping 100
asseth 100
ataath 100
bation 100
before 100
bishop 100
buncle 100
crease 100
ctacle 100
enchre 100
?) 100
LD 100
Se 100
eze 100
fet 100
ips 100
iri 100
lod 100
oza 100
sin 100
was 100
Cond 100
Whom 100
adow 100
buke 100
eens 100
enas 100
ifra 100
ppus 100
▁Dec 100
▁Lif 100
▁Mak 100
▁Sou 100
▁ath 100
▁sed 100
eight 100
jured 100
vance 100
vites 100
▁Fore 100
▁Tart 100
▁itch 100
▁real 100
▁spat 100
▁sunk 100
▁swan 100
▁trod 100
▁vind 100
etrate 100
fluous 100
fourth 100
hearse 100
holars 100
iatory 100
icriae 100
ifrage 100
isadai 100
iverer 100
kerchi 100
ldiers 100
lerate 100
mental 100
oditus 100
omoron 100
opards 100
ovable 100
parent 100
ppharu 100
radath 100
retans 100
rifice 100
saying 100
senain 100
strong 100
struct 100
▁Abdon 100
▁Aelam 100
▁Aelus 100
▁Aenan 100
▁Angai 100
▁Arboc 100
▁Asaph 100
▁Ausis 100
▁Awful 100
▁Aziph 100
▁Balad 100
▁Bezek 100
▁Chelc 100
▁Curse 100
▁ENDED 100
▁Ebron 100
▁Ellel 100
▁Emiud 100
▁Encom 100
▁Esdri 100
▁Feast 100
▁Gebal 100
▁Ghost 100
▁Guide 100
▁Hagar 100
▁Hymen 100
▁Iroth 100
▁Itaby 100
▁Jassa 100
▁Latin 100
▁Laugh 100
▁Lodge 100
▁Lydia 100
▁Maker 100
▁Masur 100
GH 100
Ye 100
rt 100
sa 100
zi 100
Abb 100
GHT 100
omf 100
rit 100
sos 100
sta 100
wat 100
wls 100
▁Ae 100
▁SE 100
▁ST 100
▁Sk 100
▁ah 100
Abba 100
Fear 100
Feed 100
cian 100
enon 100
erah 100
idan 100
lace 100
pous 100
▁MAN 100
▁Net 100
▁gad 100
▁mir 100
aling 100
arent 100
chest 100
ecost 100
iance 100
otham 100
roups 100
share 100
staff 100
their 100
▁Adas 100
▁Etam 100
▁Ital 100
▁Till 100
▁amen 100
▁barg 100
▁dish 100
▁kite 100
▁skil 100
▁stam 100
▁vest 100
antial 100
upiter 100
▁Anger 100
▁Assos 100
▁Cause 100
▁Macha 100
▁Netop 100
▁Oboth 100
▁Ommin 100
▁Orion 100
▁Phalt 100
▁Phino 100
▁Prove 100
▁Rasim 100
▁Repay 100
▁Salam 100
▁Salpa 100
▁Segor 100
▁Serve 100
▁Sessi 100
▁Skull 100
▁Sobac 100
▁Stach 100
▁THERE 100
▁Tanis 100
▁Tarry 100
▁Theco 100
▁Touch 100
▁Trans 100
▁WORDS 100
▁alleg 100
▁aloes 100
▁annul 100
▁arbit 100
▁baths 100
▁bribe 100
▁cance 100
▁cared 100
▁chann 100
▁clerk 100
▁cliff 100
▁colts 100
▁conso 100
▁copul 100
▁daint 100
▁ditch 100
▁dowry 100
▁epile 100
CT 100
iu 100
Eat 100
asp 100
imp 100
zan 100
▁Sh 100
▁TH 100
Cast 100
erus 100
hera 100
hoob 100
iday 100
lect 100
meas 100
moth 100
▁Ist 100
▁Mab 100
▁SIC 100
▁Tre 100
▁dom 100
ealot 100
itter 100
order 100
▁Adon 100
▁Hail 100
▁Lust 100
▁Mabd 100
▁Ress 100
▁alab 100
▁bash 100
▁dews 100
▁hare 100
▁sale 100
▁vats 100
▁whit 100
enists 100
▁Istob 100
▁Lords 100
▁Rhoob 100
▁ 100
e 100
t 100
h 100
o 100
a 100
n 100
s 100
i 100
r 100
d 100
l 100
u 100
m 100
f 100
, 100
w 100
y 100
c 100
g 100
b 100
p 100
v 100
. 100
k 100
A 100
I 100
' 100
; 100
L 100
T 100
G 100
: 100
J 100
S 100
B 100
H 100
? 100
F 100
M 100
W 100
j 100
E 100
C 100
O 100
P 100
D 100
- 100
x 100
N 100
z 100
R 100
q 100
) 100
( 100
Y 100
! 100
