▁ⲛ 100
ⲟⲩ 100
▁ⲉ 100
▁ⲁ 100
▁ⲙ 100
ⲡⲉ 100
ⲧⲉ 100
▁ϩ 100
▁ⲁⲩ 100
ⲛⲉ 100
ⲉⲓ 100
ⲛⲁ 100
ϫⲉ 100
▁ⲁⲩⲱ 100
ⲧⲁ 100
ⲟⲥ 100
ⲣⲉ 100
ⲁⲓ 100
ⲟⲗ 100
▁. 100
▁ⲙⲡ 100
▁ⲡⲉ 100
ⲟⲟⲩ 100
▁ϫⲉ 100
ⲛⲟⲩ 100
▁ⲡ 100
ⲙⲁ 100
ⲃⲟⲗ 100
ⲧⲛ 100
▁ⲉⲃⲟⲗ 100
▁ⲛⲁ 100
▁ⲉⲧ 100
ⲙⲉ 100
ϩⲉ 100
ⲇⲉ 100
ⲣⲟ 100
ⲓⲥ 100
ϣⲁ 100
ⲟⲉⲓ 100
ⲕⲁ 100
▁ⲇⲉ 100
▁ⲙⲙ 100
ⲛⲧ 100
ⲣⲁ 100
▁ⲁϥ 100
ⲧⲏ 100
▁ⲛⲧ 100
▁ⲙⲡⲉ 100
▁ⲛⲉ 100
ⲟⲛ 100
▁ⲙⲛ 100
ⲥⲁ 100
ϫⲟⲉⲓ 100
▁ⲛⲧⲉ 100
▁ⲉϩ 100
ϫⲟⲉⲓⲥ 100
▁ⲟⲩ 100
ⲙⲡ 100
ⲛⲟ 100
ϩⲏ 100
▁· 100
▁ϩⲛ 100
ϫⲱ 100
▁ⲛⲛⲉ 100
ⲱⲧ 100
ϣⲱ 100
ⲣⲱ 100
▁ⲛⲟⲩ 100
ⲗⲁ 100
ϭⲓ 100
ⲃⲉ 100
ⲥⲉ 100
ⲓⲁ 100
ⲣⲁⲓ 100
▁ⲉϥ 100
ⲁⲣ 100
▁ⲉⲩ 100
ⲟⲟ 100
ϣⲏ 100
ⲱⲛ 100
ⲁⲩ 100
ⲛⲟⲩⲧⲉ 100
ϣⲉ 100
ϫⲓ 100
ⲛⲧⲁ 100
▁ⲁⲛ 100
▁ϩⲓ 100
▁ⲧⲏ 100
ϣⲱⲡⲉ 100
▁ⲛϭⲓ 100
ϩⲏⲧ 100
ϩⲁ 100
ⲟⲩⲛ 100
▁ⲧⲉ 100
ⲓⲙ 100
ⲏⲥ 100
ϣⲏⲣⲉ 100
▁ⲉⲣⲟ 100
▁ⲉⲡ 100
ⲣⲟⲩ 100
ⲙⲡⲉ 100
ⲕⲉ 100
▁ⲉϩⲣⲁⲓ 100
ⲥⲱ 100
ⲟϥ 100
ϩⲓ 100
ⲙⲟⲩ 100
▁ϣⲁ 100
ϩⲟⲟⲩ 100
▁ⲧ 100
ⲁϥ 100
ⲧⲟⲩ 100
▁ⲛⲧⲁ 100
▁ϩⲙⲡ 100
ⲣⲱⲙⲉ 100
ⲃⲱ 100
ⲙⲙⲁ 100
ⲏⲩ 100
ⲡⲁ 100
▁ⲉⲧⲉ 100
ⲙⲛⲧ 100
ⲏⲗ 100
▁ϯ 100
ⲧϥ 100
ⲛⲁⲩ 100
▁ⲛⲛ 100
▁ϩⲛⲟⲩ 100
ⲕⲁϩ 100
ⲟⲣ 100
ϣⲁϫⲉ 100
▁ⲛⲁⲓ 100
▁ⲛⲓⲙ 100
ⲟⲩⲱ 100
▁ⲅ 100
▁ⲉϫ 100
▁ⲙⲙⲟⲥ 100
ϩⲉⲛ 100
ϩⲙ 100
▁ⲅⲁⲣ 100
ϩⲟ 100
ⲣⲓ 100
ⲙⲏ 100
▁ⲡⲉϫ 100
ⲧⲟ 100
▁ⲛⲁϥ 100
ⲕⲱ 100
▁ⲉϩⲟⲩⲛ 100
▁ⲧⲁ 100
ⲣⲉϥ 100
ⲟⲕ 100
ⲃⲁ 100
ⲟⲩⲥ 100
▁ⲛϩⲏⲧ 100
ⲃⲱⲕ 100
▁ⲥ 100
▁ⲉⲡⲉ 100
▁ⲧⲏⲣⲟⲩ 100
ⲟⲙ 100
ϭⲉ 100
ⲧⲱ 100
ⲛⲉⲩ 100
ⲡϫⲟⲉⲓⲥ 100
ⲟⲩⲁ 100
▁ϩⲁ 100
▁ⲛⲧϩⲉ 100
▁ⲉⲣ 100
ⲩⲥ 100
ⲁⲥ 100
▁ⲛⲅ 100
ⲗⲏ 100
▁ϩⲙⲡⲉ 100
▁ⲉⲣⲟϥ 100
ⲱⲧⲙ 100
▁ⲉⲓ 100
▁ⲡⲉⲧ 100
ⲟⲓ 100
▁ⲙⲡϫⲟⲉⲓⲥ 100
▁ⲕⲁ 100
▁ϥ 100
ⲩⲉ 100
ⲟⲟⲥ 100
ⲣⲣⲟ 100
ⲁⲃ 100
ⲛⲏ 100
▁ⲙⲙⲟϥ 100
▁ⲛⲥⲁ 100
▁ⲁⲓ 100
▁ⲥⲉ 100
ⲙⲟⲥ 100
ⲕⲟ 100
ⲥⲟ 100
ϭⲱ 100
ⲣⲏ 100
▁ⲉⲣⲉ 100
▁ⲡϫⲟⲉⲓⲥ 100
▁ⲛⲁⲩ 100
▁ⲡⲉϫⲁϥ 100
▁ⲛϥ 100
▁ϩⲛⲧ 100
▁ⲉⲛⲧⲁ 100
▁ⲉⲧⲃⲉ 100
ⲕⲏ 100
▁ⲛⲥⲉ 100
ⲣⲁⲏⲗ 100
ⲓⲥⲣⲁⲏⲗ 100
▁ⲛⲛⲁ 100
ⲛⲟⲕ 100
▁ⲉⲛⲉ 100
▁ⲙⲡⲉϥ 100
ϣⲓ 100
ⲥⲟⲟⲩ 100
ⲛⲟⲥ 100
ⲙⲙⲁⲩ 100
▁ⲧⲏⲣ 100
▁ⲙⲙⲟⲟⲩ 100
ⲓⲕ 100
▁ϫⲉⲉ 100
ⲟⲩⲉ 100
▁ⲡⲁⲓ 100
ⲗⲁⲟⲥ 100
ϩⲱ 100
ⲗⲉ 100
ⲧⲟⲥ 100
▁ⲕⲁⲧⲁ 100
▁ⲡⲁ 100
▁ϯⲛⲁ 100
ⲏⲥⲟⲩⲥ 100
ⲥⲱⲧⲙ 100
ⲥⲏ 100
▁ϫⲉⲁ 100
▁ⲙⲡⲛⲟⲩⲧⲉ 100
▁ⲙⲛⲛⲉ 100
▁ϭⲉ 100
▁ϩⲛⲛⲉ 100
ϣⲧ 100
ⲗⲗⲁ 100
ⲧⲏⲥ 100
ⲛⲧⲉ 100
ϭⲟⲙ 100
ⲗⲟ 100
▁ϩⲱ 100
▁ⲉϫⲱ 100
ⲛⲟϭ 100
ⲭⲏ 100
ⲡⲉⲧ 100
ⲙⲧⲟ 100
ⲁⲓⲟⲥ 100
ⲡⲏ 100
▁ⲁⲛⲟⲕ 100
ⲡⲟⲗ 100
▁ⲛⲥ 100
ϩⲁⲗ 100
▁ⲙⲙⲁ 100
▁ϩⲛⲧⲉ 100
ϫⲟⲟⲥ 100
▁ⲁⲥ 100
▁ⲁⲗⲗⲁ 100
ⲅⲉ 100
▁ⲕ 100
ⲗⲟⲥ 100
ⲙⲓ 100
▁ⲙⲡⲁ 100
▁ⲥⲉⲛⲁ 100
▁ⲙⲡⲣ 100
ⲣⲟⲥ 100
▁ⲛⲏ 100
▁ϫⲓ 100
ϣⲟⲟ 100
ⲟⲟⲩⲉ 100
ⲩⲧⲛ 100
ⲓⲏⲥⲟⲩⲥ 100
▁ⲙⲛⲛ 100
ϣⲟ 100
ϣⲟⲟⲡ 100
ϩⲟⲩ 100
▁ⲉⲧⲙⲙⲁⲩ 100
ϩⲙϩⲁⲗ 100
ⲛⲟⲃⲉ 100
▁ϥⲛⲁ 100
ϣⲁⲛ 100
ⲛⲉⲓ 100
ⲏⲏ 100
▁ⲙⲡⲓⲥⲣⲁⲏⲗ 100
▁ⲏ 100
▁ⲟⲛ 100
ⲣⲓⲥ 100
ⲙⲛ 100
▁ⲛⲁⲕ 100
ϭⲓϫ 100
▁ⲉⲛ 100
ⲟⲟϣⲉ 100
ⲏⲓ 100
ⲱⲛϩ 100
▁ⲛⲧⲉⲧⲛ 100
ⲣⲁⲛ 100
ⲛⲧⲁϥ 100
ⲣⲡ 100
ⲟⲧⲉ 100
▁ⲙⲛⲟⲩ 100
▁ⲧⲏⲣϥ 100
▁ϩⲓⲧ 100
ⲧⲕ 100
▁ⲉⲧⲣⲉ 100
ⲇⲓⲕ 100
ⲟⲩⲱϣ 100
ⲉⲣⲉ 100
ⲉⲓⲇ 100
▁ⲛⲥⲱ 100
ⲉⲛ 100
ⲗⲓ 100
▁ⲉⲥ 100
ⲓⲱ 100
▁ⲛϩⲉⲛ 100
ⲡⲓⲥ 100
▁ⲉϥϫⲱ 100
▁ⲛⲏⲧⲛ 100
▁ⲡⲉϫⲉ 100
ⲓⲟⲩ 100
▁ⲛⲉϥ 100
ⲙⲟⲟⲩ 100
ⲍⲉ 100
ⲇⲁⲩ 100
▁ⲉϫⲛ 100
ⲇⲁⲩⲉⲓⲇ 100
ⲓⲥⲉ 100
ⲡⲟⲗⲓⲥ 100
▁ⲉⲕ 100
ⲛⲁⲓ 100
▁ϫⲉⲕⲁ 100
ⲟⲉⲓϣ 100
ⲇⲁ 100
▁ⲉⲣⲟⲟⲩ 100
▁ⲙⲁ 100
ⲱⲧⲛ 100
ⲅⲁ 100
ⲡⲓ 100
ⲉⲓⲱⲧ 100
▁ⲛⲉⲩ 100
ⲗⲁⲁⲩ 100
ⲉⲩⲉ 100
ⲙⲟⲟϣⲉ 100
ⲥⲟⲟⲩⲛ 100
ⲛⲉϩ 100
ⲧⲥ 100
ⲩⲭⲏ 100
▁ⲙⲡⲉⲕ 100
▁ⲉⲓⲥ 100
ⲏⲩⲉ 100
ⲑⲁ 100
ⲯⲩⲭⲏ 100
ⲧⲛⲁ 100
▁ⲛϩ 100
▁ⲉⲣⲟⲓ 100
▁ⲡⲛⲟⲩⲧⲉ 100
ⲡⲁⲓ 100
ⲙⲙ 100
▁ⲁⲕ 100
ⲛⲏⲩ 100
ϩⲓⲙⲉ 100
▁ⲛⲛⲉϥ 100
ϩⲱⲃ 100
ⲉⲓⲣⲉ 100
ϣⲟⲩ 100
ⲡⲣⲟ 100
▁ϩⲣⲁⲓ 100
▁ⲛⲧⲟϥ 100
ⲧⲉⲧⲛ 100
ⲇⲓⲕⲁⲓⲟⲥ 100
ϣⲓⲛⲉ 100
▁ⲛⲙⲙⲁ 100
ϥⲓ 100
ϫⲁⲓ 100
ϥⲉ 100
ⲃⲏ 100
ⲭⲣⲓⲥ 100
ⲧⲟⲟⲩ 100
▁ϣⲱⲡⲉ 100
▁ⲧⲁⲓ 100
▁ⲙⲛⲡ 100
▁ⲟⲩⲇⲉ 100
ⲭⲣⲓⲥⲧⲟⲥ 100
▁ϩⲓϫ 100
▁ϫⲉⲟⲩ 100
▁ⲡϣⲏⲣⲉ 100
ϩⲣ 100
ⲛⲉⲩⲙⲁ 100
ⲟⲧ 100
ⲙⲉⲉⲩⲉ 100
.. 100
ⲱϣ 100
▁ⲡⲉⲕ 100
ⲃⲃ 100
ⲡⲉϥ 100
ⲑⲛⲟⲥ 100
▁ⲛϩⲏⲧϥ 100
ϩⲧ 100
ⲧⲣⲉ 100
ϩⲟⲧⲉ 100
ⲡⲛⲟⲩⲧⲉ 100
ϩⲉⲑⲛⲟⲥ 100
ⲛⲟⲙ 100
▁ⲉⲣⲟⲕ 100
▁ϫⲉⲛ 100
ⲑⲏ 100
ϩⲃ 100
ⲱⲣ 100
ϫⲟⲟⲩ 100
▁ⲛⲛⲉⲩ 100
ⲧⲙ 100
ⲕⲟⲩ 100
▁ⲛⲛⲉⲕ 100
▁ⲡⲉϥ 100
▁ⲛⲉⲧ 100
ⲟⲟⲧϥ 100
▁ⲛⲧⲉϥ 100
ⲗⲁⲥ 100
ⲧⲱⲟⲩⲛ 100
ϩⲓⲏ 100
ⲣⲁⲧϥ 100
▁ⲛⲧⲟⲕ 100
ⲅⲏ 100
ϣⲟⲣ 100
▁ⲥⲁ 100
▁ⲡⲉⲧⲛⲁ 100
▁ϩⲏ 100
▁ⲧⲉⲛⲟⲩ 100
ⲇⲓⲁ 100
ⲧϩⲉ 100
ⲣⲉϩ 100
ⲩⲥⲏⲥ 100
▁ⲛⲛⲉⲧ 100
ⲱⲩⲥⲏⲥ 100
ⲙⲟⲩⲧⲉ 100
▁ⲙⲡⲉⲙⲧⲟ 100
ⲃⲁⲗ 100
▁ⲉⲛⲁ 100
ⲡⲟ 100
ⲁϫⲉ 100
▁ϩⲉⲛ 100
ⲓⲁⲥ 100
ⲅⲅⲉ 100
▁ⲉⲧⲉⲧⲛ 100
ⲕⲏⲙⲉ 100
ⲟⲩⲁⲁⲃ 100
▁ⲙⲙⲟⲓ 100
▁ⲛϭⲓⲡ 100
ⲫⲏ 100
▁ⲛϩⲟⲟⲩ 100
ⲡⲛⲉⲩⲙⲁ 100
ⲓⲉ 100
▁ⲓⲏⲥⲟⲩⲥ 100
ⲟⲩⲗ 100
▁ⲙⲙⲁⲩ 100
ϣⲟⲣⲡ 100
▁ⲧϩⲉ 100
ⲡⲉⲕ 100
▁ⲉϫⲙⲡ 100
▁ⲛⲙ 100
ⲛⲏⲥ 100
ⲥⲟⲩ 100
ϣϥ 100
ⲛⲟⲙⲟⲥ 100
ⲁⲧ 100
▁ϫⲉⲕⲁⲁⲥ 100
▁ⲡⲉⲛⲧⲁϥ 100
ⲧⲟⲛ 100
ⲗⲏⲗ 100
ⲛⲟϥ 100
▁ⲙⲏ 100
▁ⲁϥⲉⲓ 100
▁ⲛⲧⲁϥ 100
ⲧⲏⲩⲧⲛ 100
ⲣⲭ 100
ⲩⲛⲏ 100
ϩⲁⲓ 100
ⲛⲧⲁⲩ 100
ⲥϩⲓⲙⲉ 100
▁ⲙⲛⲧ 100
ⲛⲉϥ 100
▁ⲛⲧⲉⲩ 100
▁ⲉϥⲉ 100
ⲙⲏⲧⲉ 100
ϩⲁⲡ 100
ϩⲛ 100
ⲣⲓⲟⲛ 100
ⲟⲩⲱⲙ 100
ⲣⲙ 100
▁ⲉⲧⲛⲁ 100
▁ⲉⲧⲁ 100
▁ⲧⲏⲩⲧⲛ 100
▁ⲛϩⲏⲧⲟⲩ 100
ⲫⲩ 100
▁ⲉϣ 100
ⲙⲏⲏ 100
▁ϣⲁⲉ 100
ⲱϥ 100
ϩⲧⲉ 100
▁ⲡⲣⲣⲟ 100
ⲧⲉϥ 100
ⲡⲉⲓ 100
▁ⲙⲙⲟⲕ 100
▁ⲉⲙⲁ 100
▁ⲉⲕⲉ 100
▁ϫⲉⲉⲓ 100
▁ⲕⲁⲧⲁⲧϩⲉ 100
ⲙⲉϩ 100
ⲫⲁ 100
ϩⲙⲟⲟⲥ 100
ⲛⲟⲩϥ 100
▁ϩⲛⲛ 100
▁ⲛⲣⲱⲙⲉ 100
▁ⲙⲡⲉⲓ 100
▁ⲁⲩⲉⲓ 100
ⲥⲩ 100
ⲧⲉⲓ 100
ϩⲃⲏⲩⲉ 100
ⲡⲁⲣⲁ 100
ⲧⲉⲩⲉ 100
▁ⲙⲡⲕⲁϩ 100
▁ⲁϥⲧⲁ 100
ϯⲛⲁ 100
ⲣⲱⲧⲛ 100
▁ⲉⲩϫⲱ 100
▁ⲛⲁⲥ 100
▁ⲉⲧⲃⲉⲡⲁⲓ 100
ⲑⲉ 100
▁ⲙⲡⲟⲩ 100
ⲙⲏⲏϣⲉ 100
▁.. 100
ϩⲓⲉ 100
ⲟⲡ 100
▁ⲉⲣⲟⲥ 100
ⲏϩ 100
ⲭⲁ 100
ⲇⲁⲓ 100
▁ⲛⲧⲉⲣⲉϥ 100
▁ⲟⲩⲁ 100
▁ϫⲉⲛⲧ 100
▁ⲉⲡⲉϥ 100
ϫⲛ 100
▁ⲛⲧⲁⲩ 100
ⲛⲁⲥ 100
ⲱⲙ 100
ⲧⲓⲥ 100
▁ⲉϣⲱⲡⲉ 100
ⲧⲣ 100
ⲱⲥ 100
▁ϫⲱ 100
ⲕⲗⲏ 100
ⲟⲗⲉ 100
ⲉⲓⲙⲉ 100
ϣⲉⲉⲣⲉ 100
ⲟⲉⲓⲕ 100
ⲧⲁⲕⲟ 100
▁ϣⲁⲉⲛⲉϩ 100
ⲟⲛⲥ 100
▁ⲉϣϫⲉ 100
▁ⲡⲟⲩⲁ 100
ϩⲧⲏ 100
▁ⲙⲉ 100
▁ⲛϭⲓⲛ 100
▁ⲉⲛⲧⲁϥ 100
▁ⲛⲁⲛ 100
▁ⲙⲡⲉⲧ 100
▁ⲧⲉⲧⲛ 100
▁ⲉⲙⲁⲧⲉ 100
▁ⲛϣⲏⲣⲉ 100
ⲣⲏⲩ 100
ϭⲱϣⲧ 100
▁ⲣ 100
ⲟⲩϩ 100
ϩⲣⲁⲓ 100
▁ϫⲓⲛ 100
▁ⲟⲩⲛ 100
ϫⲱⲱ 100
▁ϩⲓⲧⲛ 100
▁ⲉⲧⲟⲟ 100
ⲗⲏⲙ 100
▁ⲛⲛϣⲏⲣⲉ 100
ϭⲟⲛⲥ 100
ⲑⲩⲥ 100
▁ϩⲙⲡⲉϥ 100
ⲛⲟⲙⲓⲁ 100
ⲕⲱⲧⲉ 100
▁ⲉⲧⲟⲩⲁⲁⲃ 100
ⲕⲟⲥ 100
ⲉⲓⲛⲉ 100
ⲏⲏⲧⲉ 100
▁ⲛⲧⲟⲟⲩ 100
ⲅⲅⲉⲗⲟⲥ 100
ϫⲓⲛ 100
ⲗⲗⲟ 100
ⲣⲟⲙⲡⲉ 100
ϩⲁⲣⲉϩ 100
ⲣⲟⲩⲥⲁ 100
ⲉⲓⲛ 100
ⲗⲉⲓ 100
ⲛⲟⲟⲩ 100
ⲣⲟⲩⲥⲁⲗⲏⲙ 100
ⲟⲉⲓⲛ 100
▁ϩⲏⲏⲧⲉ 100
ϩⲓⲉⲣⲟⲩⲥⲁⲗⲏⲙ 100
▁ⲧⲛ 100
ⲱⲛⲉ 100
ⲧⲟⲩⲁ 100
▁ⲙⲛⲡⲉ 100
ⲗⲁⲥⲥⲁ 100
ⲇⲓⲕⲁⲓⲟⲥⲩⲛⲏ 100
▁ⲉⲡⲁ 100
ⲛⲉⲕ 100
▁ⲛⲧⲉⲕ 100
ⲣⲟϥ 100
ⲧⲁⲥ 100
ⲥⲃ 100
ⲡⲱⲧ 100
ⲥⲟⲡ 100
▁ϣ 100
▁ⲕⲛⲁ 100
ⲧⲓ 100
▁ϫ 100
ⲥⲟⲛ 100
ⲕⲟⲩⲓ 100
ⲡⲣⲟⲫⲏ 100
▁ⲉⲁ 100
▁ⲙⲙⲱⲧⲛ 100
▁ⲉⲧⲉⲣⲉ 100
ϩⲱⲛ 100
▁ϣⲁⲣⲉ 100
ⲙⲛⲧⲣⲉ 100
ϭⲙ 100
ⲟⲛⲏ 100
ⲥⲏⲧ 100
ⲧⲉⲕ 100
ⲥⲙⲟⲩ 100
▁ⲁϥⲃⲱⲕ 100
ⲧⲟⲩⲁⲁⲃ 100
ϩⲥ 100
▁ϩⲙⲡⲕⲁϩ 100
▁ⲉⲩⲉ 100
▁ⲁⲡ 100
ϭⲱⲛⲧ 100
ⲣⲱⲟⲩ 100
▁ⲛⲧⲱⲧⲛ 100
ⲧⲱⲛ 100
ⲥⲧⲉ 100
ϫⲁϫⲉ 100
ⲣⲛⲟⲃⲉ 100
▁ⲉⲣⲁⲧϥ 100
▁ⲛϩⲉ 100
ϣⲙ 100
ⲥⲟⲫ 100
▁ⲇⲁⲩⲉⲓⲇ 100
ϫⲡ 100
ⲁϩⲉ 100
ⲟⲛϩ 100
ⲕⲱⲃ 100
ⲟⲩⲱϣⲃ 100
▁ⲉⲧⲣⲉϥ 100
▁ⲙⲡⲣⲱⲙⲉ 100
ⲣⲱⲛ 100
▁ⲉⲧⲣⲉⲩ 100
ⲕⲁⲕ 100
ⲟⲗⲏ 100
▁... 100
▁ⲉⲧⲟⲩ 100
▁ϣⲟⲟⲡ 100
▁ⲁϥϫⲓ 100
ⲟⲥⲉ 100
▁ⲛⲉⲓ 100
ⲡⲏⲣⲉ 100
▁ⲛϭⲓⲛⲉ 100
ⲁⲣⲓⲥ 100
▁ϩⲓϫⲙⲡ 100
ϩⲟⲩⲟ 100
▁ⲙⲙⲟⲛ 100
ⲣϩⲟⲧⲉ 100
▁ⲡⲉⲧⲉ 100
ⲥⲃⲱ 100
▁ⲥⲱⲧⲙ 100
▁ⲛⲟⲩⲱⲧ 100
ⲗⲩ 100
▁ⲙⲁⲣ 100
▁ⲁⲥϣⲱⲡⲉ 100
ⲣⲟⲛ 100
ⲣⲁⲧⲟⲩ 100
▁ⲡⲉⲕⲛⲟⲩⲧⲉ 100
ⲧⲁⲙⲓ 100
▁ⲛⲁϣⲱⲡⲉ 100
ⲃⲟ 100
▁ϣⲏ 100
▁ⲙⲡⲉⲥ 100
ⲓⲟⲩⲇⲁⲓ 100
ⲡⲱ 100
▁ⲁϥϯ 100
▁ⲛⲙⲙⲁϥ 100
ⲟⲩⲱϩ 100
ⲙⲱⲩⲥⲏⲥ 100
ϩⲩ 100
▁ⲙⲡⲓ 100
▁ⲡⲉϫⲁⲩ 100
ϣⲗⲏⲗ 100
ⲥⲛⲏⲩ 100
▁ⲥⲛⲁⲩ 100
▁ⲧⲏⲣⲥ 100
▁ⲙⲛⲛⲥⲁ 100
ⲧⲱⲣ 100
ⲑⲃⲃ 100
▁ⲉϣⲁ 100
▁ⲛⲣⲉϥ 100
▁ⲛⲧⲉⲓ 100
ⲕⲗⲏⲣⲟ 100
ⲣⲏⲛⲏ 100
ⲁⲣⲭ 100
▁ⲛⲧⲛ 100
▁ⲙⲡⲉⲩ 100
▁ⲛⲧⲉⲣⲟⲩ 100
▁ⲛⲛⲟⲩ 100
▁ⲛⲥⲱϥ 100
ⲁⲗ 100
▁ⲉⲧⲉⲧ 100
▁ⲙⲛϩⲉⲛ 100
▁ⲧⲱ 100
ⲡⲓⲥⲧⲓⲥ 100
▁ⲛⲇⲁⲩⲉⲓⲇ 100
ⲣⲁϣⲉ 100
ϣⲡⲏⲣⲉ 100
▁ⲉϫⲱϥ 100
▁ϩⲙⲡⲙⲁ 100
ⲣⲙⲛ 100
▁ϫⲉⲡ 100
ⲥⲱⲙⲁ 100
ⲟⲩⲱⲛϩ 100
ⲟⲩⲟⲉⲓϣ 100
ⲕⲟⲧⲕ 100
▁ⲉⲛⲧⲁⲩ 100
ⲓⲙⲁ 100
ⲟⲩⲟ 100
ⲡⲟⲥ 100
ⲧⲁⲡⲣⲟ 100
ⲥⲁⲣ 100
▁ⲡⲉⲛ 100
ⲛⲧⲟⲩ 100
▁ϩⲛϩⲉⲛ 100
ⲥⲱϣⲉ 100
▁ⲉϥⲛⲁ 100
ⲓⲛⲉ 100
ⲏⲏⲃ 100
ⲧⲁⲓ 100
ⲗⲟⲟⲗⲉ 100
ϩⲓⲟⲟⲩⲉ 100
▁ⲙⲡⲣⲣⲟ 100
ⲙⲁϩⲧⲉ 100
▁ⲉⲡⲉⲥⲏⲧ 100
ⲥⲉⲃ 100
ⲧⲁⲩ 100
ϫⲱⲕ 100
ⲫⲣⲁ 100
ϣⲓⲡⲉ 100
ⲕⲱϩⲧ 100
ⲡⲣⲟⲫⲏⲧⲏⲥ 100
ϩⲓⲥⲉ 100
▁ϩⲏⲧϥ 100
▁ⲡⲉⲭⲣⲓⲥⲧⲟⲥ 100
▁ⲛⲃ 100
ⲅⲁⲑ 100
ⲉⲟⲟⲩ 100
ⲟⲩϫⲁⲓ 100
▁ϣⲏⲙ 100
ⲣⲏⲧⲉ 100
▁ϫⲉⲉⲓⲥ 100
▁ⲉⲁϥ 100
ⲣⲓⲛⲉ 100
ⲓⲁⲕⲱⲃ 100
▁ⲉⲡϫⲟⲉⲓⲥ 100
▁ⲁⲡⲁ 100
ⲑⲃⲃⲓ 100
ϩⲣⲟⲟⲩ 100
ϩⲁⲙ 100
ϭⲙϭⲟⲙ 100
▁ⲉⲣⲉⲡ 100
ⲑⲏⲧⲏⲥ 100
▁ⲉⲣⲱⲧⲛ 100
ⲙⲁⲁⲩ 100
ⲥⲱⲟⲩϩ 100
▁ϩⲉ 100
ⲏⲧⲉ 100
ⲛⲁⲙ 100
▁ⲉⲧⲛ 100
▁ϫⲉⲁⲩ 100
▁ⲙⲡⲙⲁ 100
ⲓⲛ 100
ϫⲛⲉ 100
▁ⲉⲧⲃ 100
ⲑⲁⲗⲁⲥⲥⲁ 100
▁ⲛⲛⲣⲱⲙⲉ 100
ⲱⲧⲡ 100
ϫⲓⲥⲉ 100
▁ϫⲉⲙⲡ 100
▁ϫⲉⲡϫⲟⲉⲓⲥ 100
▁ⲛⲓⲱ 100
▁ⲉⲡⲙⲁ 100
▁ⲛⲕⲏⲙⲉ 100
ⲁⲕ 100
▁ⲧⲉϥ 100
ⲥⲧ 100
ⲱⲃ 100
ϣⲟⲙⲛⲧ 100
▁ⲙⲁⲣⲉ 100
ϩⲏⲕⲉ 100
.... 100
▁ⲛϣⲁ 100
ⲉⲓⲧ 100
▁ⲡⲉⲓ 100
ⲙⲛⲧⲣⲣⲟ 100
▁ⲙⲡϩⲟⲟⲩ 100
ⲛⲁⲅ 100
▁ⲛⲉⲕ 100
▁ⲛⲙⲡ 100
▁ⲉϫⲙⲡⲉ 100
ⲡⲉⲧϩⲟⲟⲩ 100
▁ⲉϫⲱⲟⲩ 100
ⲧⲁⲙ 100
▁ⲧⲟⲧⲉ 100
ⲭⲱ 100
ⲣⲓⲁ 100
ⲗⲗⲟⲫⲩ 100
ⲡⲉⲧⲛⲁ 100
▁ⲙⲡⲉϩⲟⲟⲩ 100
ⲧⲁϫ 100
ⲧⲃⲃ 100
▁ⲁⲩϯ 100
▁ⲛⲧⲉⲣⲉ 100
▁ⲡⲉϫⲉⲡϫⲟⲉⲓⲥ 100
▁ϩⲓⲧⲙⲡ 100
▁ⲛⲛⲁϩⲣ 100
ⲃⲧ 100
ϩⲁϩ 100
▁ⲛⲕ 100
ⲑⲗⲓ 100
ϭⲥ 100
ⲛⲟϫ 100
ⲛⲧϥ 100
ⲥⲏϥⲉ 100
▁ϩⲛⲧⲉϥ 100
▁ⲙⲛⲛⲉϥ 100
ⲇⲓ 100
▁ⲛϣ 100
▁ⲙⲛⲛⲉⲩ 100
▁ⲛⲟⲩⲟⲉⲓϣ 100
▁ⲙⲙⲉ 100
ⲟⲣⲅⲏ 100
▁ⲉϩⲉⲛ 100
▁ⲡⲕⲁϩ 100
ⲥⲉⲃⲏⲥ 100
▁ϣⲁϩⲣⲁⲓ 100
▁ⲙⲡⲗⲁⲟⲥ 100
ⲡⲓⲥⲧⲉⲩⲉ 100
▁ⲙⲡⲉⲛ 100
▁ⲡⲉⲧⲛ 100
ⲓⲟⲩⲇⲁ 100
ⲥⲓ 100
ⲧⲁⲛ 100
ϫⲁⲓⲉ 100
ⲛⲁϣ 100
ⲥⲁⲃ 100
ⲧⲉⲩ 100
ϫⲟⲥⲉ 100
▁ⲛϩⲏⲧⲥ 100
ⲁⲁϥ 100
ⲃⲟⲗⲏ 100
ϩⲏⲏⲧⲉ 100
▁ϩⲓϫⲙⲡⲕⲁϩ 100
ⲕⲗ 100
▁ⲉⲧⲙ 100
ⲙⲙⲁⲟ 100
ⲑⲩⲥⲓⲁ 100
▁ⲓⲱ 100
▁ϣⲁϥ 100
ϣⲟϫⲛⲉ 100
▁ϫⲉⲁⲓ 100
▁ϩⲛⲛⲉⲩ 100
ⲥⲉⲓ 100
▁ⲃⲱⲕ 100
▁ⲛⲙⲙⲁⲩ 100
▁ⲛⲛⲉⲧⲛ 100
▁ⲛⲣⲟⲙⲡⲉ 100
▁ⲱ 100
▁ⲉϯ 100
ⲥⲁⲣⲝ 100
▁ϫⲉⲕⲁⲥ 100
ⲟϣ 100
ⲥⲁϩ 100
ⲧⲁⲁϥ 100
▁ⲛϣⲟⲣⲡ 100
ϫⲟⲟ 100
ⲣⲓⲙⲉ 100
▁ϫⲉⲁⲛⲟⲕ 100
ϣⲙϣⲉ 100
ⲣⲙⲙⲁⲟ 100
▁ⲁⲧⲉⲧⲛ 100
ⲧⲏⲣⲓⲟⲛ 100
ϥⲛⲁ 100
ⲯⲁⲗ 100
ⲙⲓϣⲉ 100
▁ⲉⲣⲟⲛ 100
ⲛⲧⲟⲗⲏ 100
▁ⲉⲧⲃⲏⲏ 100
ⲕⲟⲥⲙⲟⲥ 100
ⲛⲛⲏⲥ 100
▁ⲉϫⲛⲧ 100
ⲗⲗⲟⲫⲩⲗⲟⲥ 100
▁ⲛϯ 100
▁ⲁϥⲟⲩⲱϣⲃ 100
▁ⲡⲙⲁ 100
▁ⲛⲧⲉⲡ 100
▁ⲉϩⲟⲩⲉ 100
ⲣⲟⲕ 100
▁ⲉⲧϩ 100
ⲑⲏⲕⲏ 100
▁ⲡⲣⲱⲙⲉ 100
ⲑⲩ 100
▁ⲉⲁⲩ 100
ⲟⲗⲓⲥ 100
ϩⲁⲛⲛⲏⲥ 100
ⲉⲧ 100
▁ⲛⲧⲁⲓ 100
▁ⲟⲩⲟⲛ 100
ⲱⲕ 100
▁ϫⲉⲛⲉ 100
▁ⲃ 100
ⲡⲉⲩ 100
▁ⲗⲁⲁⲩ 100
▁ⲁⲣⲓ 100
ϫⲱⲱⲣⲉ 100
▁ⲉⲩⲛⲁ 100
ⲧⲟⲩⲏϩ 100
ⲧϩⲏⲧ 100
ⲙⲟⲟⲩⲧ 100
ⲇⲏ 100
ⲣⲙⲁ 100
▁ϩⲙⲡⲁ 100
▁ϩⲙⲡⲉϩⲟⲟⲩ 100
▁ⲛⲧⲟⲟ 100
▁ϩⲛⲛⲉϥ 100
ⲧⲡ 100
ϣⲧⲟⲣ 100
ⲉⲣⲉⲩⲥ 100
ϫⲓⲛϭⲟⲛⲥ 100
ⲇⲓⲁⲑⲏⲕⲏ 100
▁ⲉⲛⲉϩ 100
ⲉⲣ 100
ⲣⲣⲉ 100
▁ⲛⲕⲉ 100
ⲁⲣⲱⲛ 100
ⲧⲁⲁⲩ 100
ⲫⲁⲣⲁ 100
ϣⲧⲟⲣⲧⲣ 100
▁ⲛϭⲓⲡϫⲟⲉⲓⲥ 100
ⲓⲥⲁ 100
ⲗⲱⲛ 100
▁ⲁⲛⲟⲛ 100
▁ⲛⲧⲡⲉ 100
▁ⲛⲧⲉⲩⲛⲟⲩ 100
ⲇⲟⲩ 100
ⲉⲓⲁ 100
▁ⲉⲙⲡ 100
▁ⲛⲙⲙ 100
ⲛⲟⲩϫⲉ 100
▁ϫⲉⲉⲣⲉ 100
▁ⲉⲧⲟⲟⲧϥ 100
ⲥⲙⲏ 100
ⲥⲛⲟϥ 100
ⲅⲁⲑⲟⲛ 100
ⲥⲁⲗ 100
ⲧⲁⲗ 100
▁ϫⲉⲁϥ 100
ⲫⲁⲣⲁⲱ 100
ϩⲁⲧ 100
ϭⲟⲗ 100
▁ⲛⲁϣ 100
▁ⲛⲕⲁ 100
▁ⲛⲧⲉⲧ 100
ⲁⲛ 100
ⲕⲁⲁϥ 100
ⲣⲭⲱⲛ 100
▁ⲉⲧⲉⲧⲛⲉ 100
ⲓⲟⲥ 100
ⲁⲩⲗⲟⲥ 100
ⲛⲟⲙⲉⲓ 100
ⲣⲟⲟⲩ 100
ⲧⲏⲣ 100
ⲟⲩⲱⲛ 100
ⲥⲁⲃⲉ 100
▁ⲁⲡϫⲟⲉⲓⲥ 100
ⲣⲡⲟⲥ 100
ⲕⲣⲓⲛⲉ 100
ⲥⲟⲫⲓⲁ 100
ⲫⲣⲁⲛⲉ 100
▁ⲛϭⲓⲓⲏⲥⲟⲩⲥ 100
ⲉⲥ 100
ϫⲡⲟ 100
▁ⲛⲉⲧⲉ 100
ⲟⲩⲉⲣⲏⲧⲉ 100
▁ⲙⲁⲩ 100
▁ⲛⲁⲣ 100
▁ⲁⲩϫⲓ 100
▁ⲛⲟⲩⲁ 100
ϫⲟ 100
ϣⲏⲛ 100
▁ⲛⲟ 100
ⲡⲟⲩ 100
ⲭⲁⲣⲓⲥ 100
ⲁⲁⲩ 100
ⲡⲁⲣ 100
▁ϩⲓⲱ 100
ϫⲏ 100
ϣⲕⲁⲕ 100
▁ϩⲱⲱϥ 100
ϣⲟⲩⲉⲓⲧ 100
ⲥϩⲁⲓ 100
ⲧⲣⲁ 100
▁ⲙⲉⲛ 100
▁ⲛⲓⲟⲩⲇⲁ 100
▁ϩⲛⲧⲉⲕ 100
▁ⲙⲡⲉⲧⲛ 100
▁ⲛⲧⲉⲓϩⲉ 100
ⲥⲕ 100
ⲟⲩⲥⲟⲡ 100
▁ϩⲙⲡⲉⲕ 100
▁ⲉⲛⲁϣⲱ 100
ⲙⲏⲛ 100
▁ϩⲁⲧ 100
▁ⲉⲉⲓ 100
ⲛⲓ 100
ⲙⲙⲟ 100
ⲏⲥⲓⲁ 100
ⲟⲟⲛⲉ 100
▁ϩⲓϫⲛ 100
▁ⲉⲡⲕⲁϩ 100
▁ϩⲓⲟⲩⲥⲟⲡ 100
ⲏⲑ 100
▁ⲙⲙⲛⲧ 100
▁ⲉⲧⲃⲉⲟⲩ 100
ⲃⲏⲣ 100
ⲩⲗⲏ 100
ⲉⲩ 100
ⲧⲃⲉ 100
ⲧⲣⲉⲩ 100
▁ϩⲛⲧⲡⲉ 100
▁ϫⲉⲛⲧⲟⲕ 100
▁ⲉⲛⲧⲁⲡϫⲟⲉⲓⲥ 100
ϣⲁⲓ 100
ⲯⲓⲥ 100
ⲡⲟⲗⲉ 100
▁ⲉⲛⲉϥ 100
ⲣⲣⲱⲟⲩ 100
ⲭⲉ 100
ⲧⲟⲓ 100
ϩⲧⲏϥ 100
▁ϩⲁⲡ 100
▁ⲙⲡϥ 100
ⲇⲱ 100
ϩⲣⲁ 100
ⲟⲉⲓⲧ 100
▁ϯϫⲱ 100
▁ⲡⲟⲩ 100
ⲟⲣⲇⲁ 100
▁ⲡⲉⲛⲛⲟⲩⲧⲉ 100
ⲙⲁⲥ 100
▁ⲛⲉⲥ 100
▁ⲟⲩⲉ 100
▁ϩⲓϫⲱ 100
▁ⲛⲙⲙⲁⲓ 100
ⲟⲣⲇⲁⲛⲏⲥ 100
ϩⲙⲉ 100
ⲓⲟⲛ 100
▁ⲙⲛⲁ 100
▁ϫⲉⲁⲛ 100
ⲙⲟⲩⲏⲗ 100
▁ⲉⲕϣⲁⲛ 100
ⲡⲟⲣ 100
ⲣⲱϥ 100
ⲟⲩⲉϩ 100
ⲫⲩⲗⲏ 100
▁ⲛⲛⲉⲓ 100
▁ⲉⲣϣⲁⲛ 100
▁ϫⲉⲉⲓⲥϩⲏⲏⲧⲉ 100
ϩⲏⲩ 100
ⲕⲁⲗⲉⲓ 100
▁ⲟⲩⲣⲱⲙⲉ 100
ⲣⲏⲧ 100
ϣⲱⲱⲧ 100
▁ⲡⲉⲩ 100
ⲙⲉⲣⲓ 100
▁ϫⲉⲡⲁ 100
ⲡⲉⲣⲙⲁ 100
ⲧⲛⲛⲟⲟⲩ 100
ϫⲓⲥ 100
ⲣⲓⲟⲥ 100
ⲣⲁϩⲁⲙ 100
▁ⲙⲁⲣⲉϥ 100
ⲕⲁⲣⲡⲟⲥ 100
▁ⲡⲁϣⲏⲣⲉ 100
▁ϩⲛⲧⲙⲏⲧⲉ 100
ⲕⲗⲏⲣⲟⲛⲟⲙⲓⲁ 100
ⲟⲩⲧ 100
ⲥⲏϩ 100
▁ⲉⲟⲩ 100
ⲕⲁⲕⲉ 100
▁ⲉⲡⲛⲟⲩⲧⲉ 100
ⲍⲁ 100
ⲉⲓⲟ 100
ⲑⲁⲛ 100
ⲡⲁϩ 100
▁ϩⲓⲧⲟⲟ 100
▁ⲙⲛⲛⲉⲧ 100
ⲙⲟ 100
ⲃⲉⲥ 100
▁ⲉⲓⲉ 100
ⲃⲟⲏⲑ 100
▁ⲛϭⲓⲡⲉ 100
▁ⲛⲙⲙⲁⲕ 100
ⲉⲓⲣⲏⲛⲏ 100
ⲙⲁⲑⲏⲧⲏⲥ 100
▁ⲛⲓⲏⲥⲟⲩⲥ 100
ⲅⲣⲁ 100
▁ⲛⲏⲩ 100
ⲟⲩⲟⲓ 100
▁ϩⲛⲧⲁ 100
▁ϫⲟⲟⲥ 100
ⲛⲉⲧ 100
ⲧⲟϥ 100
▁ⲉϥⲟ 100
▁ⲛϩⲏ 100
ⲟⲩⲱϣⲧ 100
▁ⲡϣⲁϫⲉ 100
ⲓⲧⲉ 100
▁ⲉⲡⲉⲕ 100
▁ⲁϥϫⲟⲟⲩ 100
ϩⲩⲡ 100
ⲙⲟⲧ 100
ⲙⲱⲛ 100
▁ⲛⲥⲓ 100
ⲥⲟⲡⲥ 100
▁ϫⲉⲡⲉ 100
▁ⲛϭⲓⲟⲩ 100
▁ⲉϫⲙⲡⲕⲁϩ 100
ⲕϩ 100
ϩⲉⲗ 100
ⲛⲁⲅⲱ 100
ⲱⲧⲟⲥ 100
ⲣⲟⲛⲟⲥ 100
▁ⲉϥϣⲁⲛ 100
ⲃⲉⲛ 100
ⲡⲱⲣ 100
▁ϩⲱⲛ 100
ⲙⲛⲧⲁ 100
ϫⲁ 100
▁ϫⲉϯ 100
ⲅⲁⲡⲏ 100
▁ⲛⲉⲣⲉ 100
▁ⲙⲛⲛⲥⲱ 100
▁ⲛϣⲁϫⲉ 100
▁ⲛϭⲟⲛⲥ 100
ⲡⲟⲗⲉⲙⲟⲥ 100
▁ⲁϥⲧⲱⲟⲩⲛ 100
ⲣⲉϥⲣⲛⲟⲃⲉ 100
ⲙⲉⲥ 100
ⲛⲉϭ 100
ⲱⲃϣ 100
▁ϩⲱⲥ 100
▁ⲛⲧⲁⲕ 100
▁ⲟⲩⲱϣ 100
ⲑⲗⲓⲯⲓⲥ 100
▁ⲉⲧⲟⲟⲧⲟⲩ 100
ⲕⲛⲁ 100
ⲟⲙⲉ 100
ⲡⲗⲁ 100
ⲣⲡⲉ 100
▁ⲙⲟⲩ 100
▁ⲥⲛⲁ 100
ⲁⲇ 100
ⲑⲁⲣ 100
▁ⲁⲩⲃⲱⲕ 100
▁ϩⲓⲧⲟⲟⲧϥ 100
ϭⲟ 100
ⲡϥ 100
▁ⲛϥⲛⲁ 100
▁ϩⲛⲛⲉⲕ 100
▁ϫⲉⲛⲧⲁ 100
▁ⲛⲁⲛⲟⲩ 100
▁ⲡⲗⲁⲟⲥ 100
ⲑⲣⲟⲛⲟⲥ 100
▁ⲛⲧⲟⲟⲧϥ 100
ϩⲟⲙ 100
ⲓⲍⲉ 100
ϩⲙⲟⲧ 100
▁ⲛⲛϩⲉⲑⲛⲟⲥ 100
ϣⲡ 100
ⲧⲉⲧ 100
ⲧⲃⲃⲟ 100
▁ⲡⲓⲥⲣⲁⲏⲗ 100
ⲱⲃⲉ 100
ϣⲃⲏⲣ 100
ⲡⲕⲁϩ 100
▁ⲉⲡⲉⲓ 100
▁ⲉⲧⲣⲁ 100
ⲉⲓⲱ 100
ⲣⲁⲧ 100
ⲧⲉⲛ 100
ⲧⲏⲩ 100
▁ⲛⲧⲕ 100
ⲕⲁⲁⲩ 100
ϣⲁⲛⲟⲩ 100
▁ϩⲛⲛⲁ 100
ⲥⲁϩⲛⲉ 100
▁ϩⲙⲡⲉⲩ 100
▁ⲉϫⲛⲧⲉ 100
▁ⲛϩⲟⲩⲟ 100
ⲛⲁⲅⲱⲅⲏ 100
▁ϩⲛⲟⲩⲛⲟϭ 100
▁ⲛⲧⲡⲟⲗⲓⲥ 100
▁ⲛϭ 100
ⲣⲉⲙ 100
ⲙⲧⲟⲛ 100
▁ⲛⲛⲁⲓ 100
ⲉⲓⲟⲧⲉ 100
▁ⲛϭⲓⲙⲱⲩⲥⲏⲥ 100
▁ⲙⲡⲉⲭⲣⲓⲥⲧⲟⲥ 100
ⲅⲉⲓ 100
▁ϫⲉϩ 100
▁ⲧⲉⲕ 100
▁ⲛⲟⲩⲉ 100
ⲣⲁⲓⲟⲥ 100
▁ⲉϫⲛⲟⲩ 100
ⲱϩ 100
▁ϣⲁϫⲉ 100
▁ϫⲉⲙⲁ 100
ⲑⲃⲃⲓⲟ 100
ⲛⲕⲟⲧⲕ 100
▁ⲥⲁⲟⲩⲗ 100
ⲕⲗⲏⲥⲓⲁ 100
▁ⲙⲙⲱⲩⲥⲏⲥ 100
ⲏⲣ 100
ⲁⲡⲉ 100
ⲗⲟⲛ 100
ⲙⲉⲓ 100
▁ⲁⲩⲣ 100
▁ⲉⲛⲉⲩ 100
▁ⲧⲡⲟⲗⲓⲥ 100
ⲃⲛ 100
ⲅⲟⲥ 100
ⲕⲱⲧ 100
ϣⲱⲛⲉ 100
ⲁⲅⲅⲉ 100
▁ⲉⲓⲛⲁ 100
▁ⲉⲧⲉϥ 100
ⲡⲟⲧⲟⲩ 100
▁ⲙⲛⲡⲉϥ 100
▁ⲛⲉⲛⲧⲁⲩ 100
▁ⲁϥⲙⲟⲩⲧⲉ 100
ⲡⲉⲧⲛⲁⲛⲟⲩϥ 100
ⲗⲡ 100
ⲛⲉⲥ 100
ⲟⲗⲟ 100
ϭⲉⲡⲏ 100
ⲓⲧⲏⲥ 100
▁ⲉϫⲱⲓ 100
ⲁⲅⲅⲉⲗⲓ 100
▁ⲛⲥⲁⲟⲩⲗ 100
ⲉⲓⲏⲥⲟⲩⲥ 100
ⲱⲣⲕ 100
ⲙⲏⲧⲛ 100
ⲙⲁⲁϫⲉ 100
ⲧⲟⲗ 100
▁ⲉⲡⲏⲓ 100
▁ⲧⲛⲛⲁ 100
▁ⲙⲁⲣⲟⲩ 100
ⲃⲟⲧ 100
▁ⲛϣⲉ 100
ϫⲱⲱⲙⲉ 100
▁ϫⲉⲛⲓⲙ 100
▁ⲛⲥⲱⲟⲩ 100
ⲥⲟⲟⲩⲧⲛ 100
ⲟϭ 100
ⲉⲡⲉ 100
ⲱⲧⲉ 100
▁ϣⲁⲩ 100
ⲛⲟⲩⲃ 100
ⲇⲓⲕⲁⲓ 100
ⲛⲉⲓⲟⲧⲉ 100
▁ϫⲉⲉⲧⲃⲉ 100
▁ⲛⲧⲉⲩϣⲏ 100
ⲟⲃ 100
ⲫⲓ 100
ⲕⲟⲛ 100
ⲗⲓⲗ 100
ⲩⲗⲱⲛ 100
▁ⲁⲩⲧⲁ 100
▁ⲉⲧϩⲛ 100
ⲧⲟⲟⲩⲉ 100
▁ⲧⲉⲧⲛⲁ 100
▁ⲧⲱⲟⲩⲛ 100
▁ⲁϥϣⲱⲡⲉ 100
ⲣⲟⲓ 100
ⲩⲧⲉ 100
▁ϫⲉϥ 100
▁ⲁⲓⲥ 100
ⲕⲁⲧⲁ 100
ϩⲓⲧⲟⲩ 100
ⲕⲟⲟⲩⲉ 100
ⲟⲩⲥⲓⲁ 100
ⲑⲩⲥⲓⲁⲥ 100
ⲁϩⲉⲣⲁⲧϥ 100
▁ⲛⲁⲃ 100
ⲥⲁϣϥ 100
▁ⲛⲧⲃⲁ 100
ⲛⲁⲑⲁⲛ 100
ⲡⲁⲧⲁⲥ 100
ϣⲟⲩϣⲟⲩ 100
▁ⲁϥⲛⲁⲩ 100
ⲥⲡⲉⲣⲙⲁ 100
ⲉⲓⲥ 100
▁ⲙⲛⲛⲁ 100
▁ⲛϯⲛⲁ 100
▁ϩⲱⲥⲧⲉ 100
▁ϫⲉϯⲛⲁ 100
▁ⲕⲉ 100
ⲡⲣⲉ 100
ⲛⲟⲟⲩⲥ 100
ⲥⲁⲟⲩⲗ 100
▁ⲛⲛⲉϩⲟⲟⲩ 100
ⲑⲩⲥⲓⲁⲥⲧⲏⲣⲓⲟⲛ 100
ϩⲟϥ 100
ϩⲱⲧ 100
ϫⲣⲟ 100
ϯⲥⲃⲱ 100
▁ⲛⲉⲧⲛ 100
▁ⲛⲛⲉⲥ 100
▁ⲉⲧⲣⲉⲕ 100
ⲣⲉⲙⲃⲟⲗⲏ 100
▁ⲟ 100
ⲭⲓ 100
ⲙⲁⲓ 100
ⲙⲟⲣ 100
▁ⲉⲙⲛ 100
▁ⲉⲥⲉ 100
▁ⲛⲁⲧ 100
ⲥⲟⲫⲟⲥ 100
▁ϫⲓⲛⲧⲉ 100
ϣⲁⲩ 100
ⲃⲱⲗ 100
ⲱⲙⲁ 100
ϣⲱϫⲡ 100
ⲥⲟⲧⲡ 100
▁ⲛⲧⲉⲣ 100
ⲓⲕⲧⲱⲣ 100
▁ϣⲁⲛⲧⲉ 100
ⲓⲉⲣⲉⲩⲥ 100
▁ⲛⲉⲗⲟⲟⲗⲉ 100
▁ⲛⲟⲩⲣⲱⲙⲉ 100
ⲥⲩⲛⲁⲅⲱⲅⲏ 100
ⲕⲧⲟ 100
ⲗⲏⲛ 100
ⲙⲟⲕ 100
ⲟⲟⲣ 100
▁ⲙⲏⲡ 100
ϩⲓⲟⲙⲉ 100
▁ϫⲉⲥⲉ 100
▁ⲛⲧⲉⲥ 100
▁ⲥⲙⲟⲩ 100
▁ⲕⲁⲧⲁⲡ 100
ⲁⲙⲁϩⲧⲉ 100
ⲝⲟⲩⲥⲓⲁ 100
... 100
ⲙⲓⲛ 100
ⲟⲩⲓ 100
ⲧⲣⲉϥ 100
▁ⲛϩⲱⲃ 100
▁ⲛⲥⲱⲓ 100
ⲙⲁⲉⲓⲛ 100
ⲛⲉⲓⲣⲉ 100
ⲃⲛⲟⲟⲩⲉ 100
ⲏⲣⲡ 100
▁ⲉⲧⲓ 100
▁ϫⲉⲛⲁ 100
▁ⲉϫⲱⲕ 100
ⲥⲁⲓⲟⲥ 100
ⲥⲉⲉⲡⲉ 100
▁ϩⲛⲧⲉⲩ 100
▁ⲡⲉⲛⲧⲁ 100
ⲩⲧⲉⲣⲟⲥ 100
▁ⲛⲙⲙⲏⲧⲛ 100
ⲗⲱⲥ 100
ⲡⲏⲧ 100
ⲣⲁⲕ 100
ⲙⲟⲩϩ 100
ⲃⲱⲧⲟⲥ 100
ⲟⲩⲛⲟⲥ 100
ⲣⲁⲥⲧⲉ 100
▁ϩⲓⲧϩⲏ 100
▁ϩⲛⲛⲉⲧ 100
▁ϫⲉⲙⲡⲉ 100
ⲙⲟⲩⲟⲩⲧ 100
ⲥⲛⲟⲟⲩⲥ 100
▁ⲉⲣⲁⲧⲟⲩ 100
▁ⲙⲡⲟⲗⲓⲥ 100
▁ⲛϩⲙϩⲁⲗ 100
ⲥⲃⲩⲧⲉⲣⲟⲥ 100
ⲃⲥ 100
ϣⲱⲡ 100
ⲕⲏⲛⲏ 100
ⲛⲁⲁⲩ 100
▁ⲉⲧϩⲓ 100
▁ⲙⲛⲡⲁ 100
▁ⲛⲧⲉⲛ 100
▁ϩⲙⲡⲏⲓ 100
▁ϫⲉⲃⲱⲕ 100
▁ⲙⲡⲙⲧⲟ 100
▁ⲃⲓⲕⲧⲱⲣ 100
▁ⲉⲡⲉϥⲣⲁⲛ 100
ⲃⲁⲧⲟⲛ 100
ⲃⲩⲗⲱⲛ 100
▁ⲙⲡⲛⲁⲩ 100
▁ⲁϥϣⲁϫⲉ 100
ⲡⲁⲣⲉⲙⲃⲟⲗⲏ 100
ϭⲃ 100
ⲛⲁϥ 100
ⲥⲙⲁ 100
ⲡⲟⲛⲏ 100
▁ⲥⲟⲟⲩ 100
ⲛⲉⲣⲏⲩ 100
ⲣⲏⲙⲟⲥ 100
▁ϩⲁⲙⲏⲛ 100
▁ϩⲓⲛⲁⲓ 100
ⲛⲟϭⲛⲉϭ 100
▁ⲛⲓⲁⲕⲱⲃ 100
▁ⲛⲧⲉⲡⲛⲟⲩⲧⲉ 100
ⲡⲣⲉⲥⲃⲩⲧⲉⲣⲟⲥ 100
ⲥⲏⲫ 100
▁ⲉⲣⲁ 100
▁ϫⲉⲁⲕ 100
ⲛⲟⲩⲟⲩ 100
ⲥⲁⲗⲱⲙ 100
▁ⲛⲧⲙⲛⲧ 100
ⲡⲉⲧⲟⲩⲁⲁⲃ 100
ϣⲥ 100
ⲛⲉⲁ 100
ⲥⲱϣ 100
ⲙⲉⲗⲉ 100
▁ϫⲉⲙⲛ 100
▁ⲥⲛⲧⲉ 100
ⲟⲩⲉϩⲥⲁϩⲛⲉ 100
ϩⲁⲏ 100
▁ⲏⲛ 100
ⲉⲓⲃ 100
ⲭⲁⲣ 100
▁ⲉⲧⲡⲉ 100
ⲧⲁⲙⲓⲟ 100
▁ⲉⲧⲉⲣⲉⲡϫⲟⲉⲓⲥ 100
ϣⲣ 100
▁ϥⲓ 100
▁ⲁϥⲣ 100
ⲓⲥⲧⲁ 100
ⲛⲉⲧⲛ 100
▁ⲉⲣⲉⲟⲩ 100
▁ⲛⲃⲣⲣⲉ 100
▁ⲉⲡⲁϩⲟⲩ 100
ⲗⲱ 100
ϩⲁⲣ 100
ⲕⲓⲙ 100
▁ⲕⲁⲓ 100
▁ⲛⲓⲉ 100
ⲡⲓⲍⲉ 100
▁ⲉϣⲁⲩ 100
▁ⲙⲡⲏⲓ 100
▁ϫⲉⲙⲡⲣ 100
▁ⲛⲙⲙⲁⲛ 100
▁ⲙⲡⲣⲧⲣⲉ 100
▁ⲙⲡⲉϥⲙⲧⲟ 100
▁ⲙⲛⲛⲥⲁⲛⲁⲓ 100
ⲙⲏⲧ 100
ϣⲁⲛⲧ 100
ⲉⲣⲏⲩ 100
ϩⲩⲡⲟⲙ 100
▁ⲉϫⲛⲛ 100
ⲛⲉⲓⲱⲧ 100
ⲧⲟⲗⲟⲥ 100
▁ⲙⲛⲧⲉϥ 100
▁ⲙⲡⲉⲓⲙⲁ 100
▁ⲛϩⲉⲑⲛⲟⲥ 100
ⲥⲁⲃⲃⲁⲧⲟⲛ 100
ⲕⲗⲏⲣⲟⲛⲟⲙⲉⲓ 100
ϫⲁⲥ 100
ⲥⲓⲥ 100
ⲙⲛⲧⲉ 100
▁ϩⲱⲟⲩ 100
▁ϩⲁⲧϩⲏ 100
▁ϫⲉⲉⲛⲉ 100
▁ⲙⲡⲙⲟⲩ 100
▁ⲛⲟⲩⲟⲛ 100
▁ⲟⲩⲛⲟϭ 100
▁ⲉⲧϣⲟⲟⲡ 100
▁ⲛⲛⲁϩⲣⲛ 100
ⲣⲡⲙⲉⲉⲩⲉ 100
▁ⲉⲧⲃⲏⲏⲧϥ 100
▁ϩⲙ 100
ⲕⲱϩ 100
ⲗⲉⲩ 100
ⲙⲓⲛⲉ 100
ⲙⲕⲁϩ 100
ⲣⲓⲕⲉ 100
▁ⲉⲛⲉⲕ 100
ⲙⲟⲥⲧⲉ 100
ⲟⲩⲱϣϥ 100
ⲟⲩⲟⲉⲓⲛ 100
ⲡⲁⲧⲁⲥⲥⲉⲓ 100
ⲡⲟⲥⲧⲟⲗⲟⲥ 100
ⲱⲑ 100
ⲧⲟϣ 100
▁ϩⲁⲣ 100
▁ⲉⲩⲟ 100
▁ⲛϩⲛ 100
ⲥⲛⲁⲩ 100
▁ⲛⲥⲱⲕ 100
ⲟⲩⲛⲟϥ 100
▁ⲛⲛⲟⲩⲃ 100
ⲡⲙⲉⲉⲩⲉ 100
ⲣⲙⲛⲕⲏⲙⲉ 100
ⲃⲁⲡ 100
ⲗⲓⲁ 100
ⲥⲟⲃ 100
ⲧⲱⲧ 100
ⲱⲁⲃ 100
ⲡⲣⲟⲥ 100
ⲧⲁϣⲉ 100
ⲛⲟⲩϭⲥ 100
ⲣⲙⲛϩⲏⲧ 100
▁ⲛⲉⲧⲉⲣⲉ 100
▁ϩⲛⲧϩⲓⲉⲣⲟⲩⲥⲁⲗⲏⲙ 100
ϫⲡⲓ 100
ϭⲱⲗⲡ 100
▁ⲁϩⲉ 100
ⲕⲟⲧϥ 100
▁ⲙⲡⲁⲓ 100
▁ⲟⲩⲟⲓ 100
▁ⲉⲧⲣⲉⲛ 100
ϭⲛ 100
ⲇⲏⲥ 100
ⲕⲧⲟϥ 100
ϩⲟⲓⲧⲉ 100
▁ϩⲟⲧⲉ 100
▁ⲉⲓⲙⲉ 100
▁ⲙⲡⲣⲏ 100
ⲧⲱⲱⲃⲉ 100
ⲙⲓⲁⲥ 100
ⲛⲟⲩⲉ 100
ⲧⲟⲩϫ 100
▁ⲁⲛⲁⲩ 100
ⲃⲟⲗⲟⲥ 100
▁ⲉⲩϣⲁⲛ 100
▁ⲟⲩⲱϣⲃ 100
▁ϫⲉⲉⲧⲃⲉⲟⲩ 100
ϩϥ 100
ϩⲣⲉ 100
ϫⲱⲙ 100
ϫⲟⲟϥ 100
ⲙⲉⲣⲉ 100
ⲙⲡⲉϥ 100
▁ⲁϥⲕⲱ 100
▁ⲉⲕⲛⲁ 100
▁ⲡⲗⲏⲛ 100
ⲕⲁⲑⲁⲣ 100
ⲥⲁϩⲟⲩ 100
▁ⲉϫⲛⲛⲉ 100
▁ⲡⲉϫⲁⲥ 100
ⲧⲁⲯⲩⲭⲏ 100
▁ⲙⲛⲛⲥⲱⲥ 100
▁ⲙⲡⲓⲟⲣⲇⲁⲛⲏⲥ 100
ⲃⲓ 100
ϣⲟⲙ 100
ϭⲱⲃ 100
ⲃⲏⲕ 100
ⲣⲏⲥ 100
▁ⲡⲕⲉ 100
▁ⲧⲱⲛ 100
▁ϯⲛⲁϯ 100
▁ⲉϫⲱⲛ 100
▁ⲛⲥⲟⲡ 100
▁ⲡⲁⲣⲁ 100
ⲙⲉⲣⲓⲧ 100
▁ϩⲁⲣⲟϥ 100
▁ⲉⲛⲧⲁⲕ 100
▁ⲛϣⲱⲡⲉ 100
ⲇⲓⲕⲁⲓⲱⲙⲁ 100
▁ϩⲛⲛⲉϩⲟⲟⲩ 100
ⲛⲉϫ 100
▁ϩⲓⲡ 100
ⲛⲟϫϥ 100
ⲡⲓⲑⲩ 100
ⲣϩⲱⲃ 100
ⲣⲁⲓⲙ 100
ⲥⲁⲧⲉ 100
ⲫⲣⲁⲓⲙ 100
▁ⲉⲧⲃⲉⲡ 100
▁ⲙⲫⲁⲣⲁⲱ 100
▁ⲁⲡⲛⲟⲩⲧⲉ 100
▁ⲉⲛⲁϣⲱⲟⲩ 100
ⲧⲩ 100
▁ⲁⲛⲅ 100
ⲭⲁⲛⲁ 100
ⲕⲟⲧⲟⲩ 100
ⲣⲓⲧⲏⲥ 100
▁ϫⲉⲡⲁⲓ 100
▁ⲛϭⲓⲛⲁ 100
▁ⲡⲁⲛⲟⲩⲧⲉ 100
ⲁⲅⲅⲉⲗⲓⲟⲛ 100
ⲇⲩ 100
ⲫⲉ 100
ⲃⲟⲩ 100
ⲕⲉⲩ 100
ⲡⲁⲥ 100
▁ⲉϫⲓ 100
ⲡⲣⲣⲟ 100
ⲣⲟⲩϩⲉ 100
▁ⲛⲥϩⲓⲙⲉ 100
▁ⲁⲩⲧⲱⲟⲩⲛ 100
ⲙⲛⲧⲙⲛⲧⲣⲉ 100
▁ⲉⲧϩⲓⲉⲣⲟⲩⲥⲁⲗⲏⲙ 100
ⲁⲧⲉ 100
ⲛⲁⲛ 100
ⲥⲁϣ 100
ⲭⲱⲣⲁ 100
▁ϩⲱⲱⲕ 100
▁ϭⲱϣⲧ 100
ⲫⲁⲣⲓⲥ 100
▁ⲙⲡⲟⲛⲏ 100
▁ⲛⲗⲁⲁⲩ 100
ⲣⲙⲛⲧⲣⲉ 100
▁ⲉⲧⲉⲧⲛⲁ 100
▁ⲛⲧⲁⲡϫⲟⲉⲓⲥ 100
ⲫⲁⲣⲓⲥⲥⲁⲓⲟⲥ 100
ϩⲱⲡ 100
ⲃⲁⲓ 100
ⲥⲩⲛ 100
ⲱϫⲛ 100
ⲗⲉⲉⲧ 100
ⲥⲱⲃⲉ 100
ⲣⲟⲟⲩϣ 100
▁ⲛⲉⲧⲛⲁ 100
ⲱⲧⲧⲏⲩⲧⲛ 100
▁ⲛϭⲓⲛϣⲏⲣⲉ 100
ϣⲁϥ 100
ⲁⲧϥ 100
ⲣⲱⲃ 100
ⲧⲱϣ 100
▁ⲛϣⲟ 100
▁ⲛϩⲟ 100
ⲙⲡϣⲁ 100
▁ⲉⲛⲁⲓ 100
ⲅⲉⲛⲉⲁ 100
▁ϩⲓϫⲱϥ 100
▁ⲙⲛⲡⲉⲕ 100
▁ⲉⲧⲟⲟⲧⲕ 100
▁ⲙⲁⲩⲁⲁϥ 100
▁ϩⲟ 100
ⲛⲱⲛ 100
ⲟⲟϥ 100
ⲡⲱϩ 100
ⲧⲟⲟ 100
ϩⲧⲏⲕ 100
ⲙⲁⲁⲧ 100
ⲙⲁⲥⲉ 100
ⲣⲉⲓⲁ 100
ⲧⲉⲩⲥ 100
▁ⲉⲧⲉⲛ 100
ⲁⲣⲭⲱⲛ 100
ⲧⲁϫⲣⲟ 100
▁...... 100
▁ⲙⲏⲡⲟⲧⲉ 100
▁ⲛϭⲓⲛⲉⲧ 100
▁ϩⲛⲟⲩⲙⲛⲧ 100
ⲏⲡ 100
ϯⲟⲩ 100
ⲃⲁⲁ 100
ⲥⲉⲡ 100
▁ⲇⲓⲁ 100
ⲧⲁⲁⲥ 100
ϭⲉⲣⲱⲃ 100
▁ⲉⲛⲁⲩ 100
ⲥⲡⲟⲧⲟⲩ 100
▁ⲁⲩϣⲱⲡⲉ 100
▁ⲛⲧⲙⲏⲧⲉ 100
▁ϩⲙⲡⲧⲟⲟⲩ 100
ϩⲏⲡ 100
ⲇⲟⲕ 100
ⲗⲗⲉ 100
ⲡⲩⲗⲏ 100
ⲧⲥⲁⲃ 100
▁ϣⲓⲛⲉ 100
ⲕⲁⲕⲓⲁ 100
ⲙⲡⲏⲩⲉ 100
▁ϫⲉⲛⲁⲓ 100
ϩⲁⲗⲁⲥⲥⲁ 100
ⲇⲓⲁⲃⲟⲗⲟⲥ 100
ⲏⲧ 100
▁ⲣⲱ 100
ⲙⲁⲣ 100
ⲣⲭⲏ 100
ⲏⲩⲧⲛ 100
ⲙⲙⲁϥ 100
ⲥⲱⲧⲡ 100
▁ⲛⲙⲡⲉ 100
ⲙⲟⲟⲛⲉ 100
ⲟⲩⲛⲁⲙ 100
ⲧⲉϩⲓⲏ 100
▁ϩⲏⲧⲟⲩ 100
▁ⲙⲙⲁⲧⲉ 100
▁ⲉⲧⲟⲩⲛⲁ 100
▁ⲛⲛⲉⲛⲧⲁⲩ 100
ⲁϩⲉⲣⲁⲧⲟⲩ 100
ϣⲱⲥ 100
ⲁⲓⲁ 100
ⲙⲓⲁ 100
ⲭⲙⲁ 100
ϩⲱⲧⲃ 100
▁ⲁϥⲓ 100
ⲥⲟⲃⲧ 100
ⲃⲉⲛⲓⲁ 100
ⲡⲣⲱⲙⲉ 100
ⲧⲉⲗⲏⲗ 100
▁ⲛⲥⲉⲧⲙ 100
▁ⲡⲉϫⲁⲓ 100
▁ϫⲉϩⲛⲟⲩ 100
▁ⲁϥⲥⲱⲧⲙ 100
▁ⲙⲡϣⲁϫⲉ 100
▁ⲛⲧⲟⲟⲧⲟⲩ 100
▁ⲁⲣⲓⲡⲙⲉⲉⲩⲉ 100
ϣⲱⲗ 100
ⲟⲟϩ 100
ⲥⲛⲧⲉ 100
▁ⲁⲩϩⲉ 100
▁ⲙⲛⲧⲉ 100
▁ⲧⲙⲛⲧ 100
ⲑⲗⲓⲃⲉ 100
ⲛⲟⲩϩⲙ 100
▁ϩⲓⲱⲱϥ 100
▁ⲉⲛⲧⲁⲓ 100
▁ⲛⲥⲉⲛⲁ 100
▁ⲡⲉⲓⲱⲧ 100
▁ⲉⲡⲉⲓⲙⲁ 100
▁ⲙⲡϣⲏⲣⲉ 100
▁ⲡⲉⲧⲛⲛⲟⲩⲧⲉ 100
ⲕⲓ 100
ⲁⲗⲉ 100
ⲧⲙⲉ 100
ϣⲙⲙⲟ 100
ϩⲗⲗⲟ 100
▁ϩⲱⲃ 100
ⲛⲉⲓⲁ 100
▁ϫⲉⲙⲏ 100
ⲛⲁⲓⲟⲥ 100
ⲛⲉⲓⲙⲉ 100
▁ⲙⲡⲱⲛϩ 100
ⲡⲁⲉⲓⲱⲧ 100
▁ⲙⲱⲩⲥⲏⲥ 100
▁ⲛϭⲓⲡⲉⲧ 100
▁ⲙⲡⲁⲉⲓⲱⲧ 100
ⲣⲛ 100
ϣⲧⲉ 100
ϫⲟⲩ 100
ⲡⲱϣ 100
▁ⲛⲉⲛ 100
ⲑⲓⲟⲥ 100
▁ϣⲁⲛⲧ 100
▁ⲛⲁⲙⲉ 100
▁ⲛⲧⲟⲥ 100
ⲃⲟⲏⲑⲉⲓ 100
▁ⲛⲟⲩⲛⲟϭ 100
▁ⲉϥⲟⲩⲁⲁⲃ 100
▁ⲙⲡⲉⲕⲙⲧⲟ 100
▁ⲙⲡⲉϥⲉⲓⲱⲧ 100
ⲡⲉⲧϣⲟⲩⲉⲓⲧ 100
▁ⲛⲛⲁⲗⲗⲟⲫⲩⲗⲟⲥ 100
ⲡⲏⲓ 100
▁ϩⲁϩ 100
▁ϫⲱⲕ 100
▁ⲉⲛϥ 100
ⲛⲧⲁⲕ 100
▁ⲟⲩⲃⲉ 100
ⲇⲱⲣⲟⲛ 100
ϩⲉⲗⲡⲓⲥ 100
▁ⲁϥⲙⲟⲩ 100
ⲕⲗⲏⲣⲟⲥ 100
▁ⲡⲁⲉⲓⲱⲧ 100
▁ⲉⲧⲡⲟⲗⲓⲥ 100
▁ϫⲓⲛⲧⲉⲛⲟⲩ 100
▁ⲛⲛⲁⲥⲉⲃⲏⲥ 100
ϩⲏⲛ 100
ⲥⲁⲛ 100
ⲥⲓⲁ 100
▁ⲉⲧⲟ 100
ⲗⲁⲁⲇ 100
ⲧⲁⲩⲟ 100
▁ϩⲓϩⲏ 100
▁ⲉϣⲁϥ 100
▁ⲉⲡⲉⲩ 100
▁ⲙⲛⲧⲁ 100
▁ⲉⲧⲛⲏⲩ 100
▁ϩⲙⲡⲧⲣⲉ 100
ⲉⲩⲫⲣⲁⲛⲉ 100
▁ⲉⲣϣⲁⲛⲟⲩ 100
▁ϩⲱⲧⲧⲏⲩⲧⲛ 100
▁ⲛⲉⲧⲉⲣⲉⲡϫⲟⲉⲓⲥ 100
ϣⲛ 100
ϣϣⲉ 100
▁ⲕⲱ 100
ⲭⲟⲥ 100
▁ⲛⲅⲁ 100
▁ⲛⲛⲧ 100
▁ⲡⲉⲥ 100
ⲟⲩⲏϩ 100
ⲡⲁⲛⲧ 100
ⲧⲏⲣϥ 100
▁ϫⲟⲟⲩ 100
▁ⲉϯⲛⲁ 100
▁ⲉⲃⲱⲕ 100
▁ⲛϭⲓⲧ 100
▁ϫⲉⲧⲁⲓ 100
▁ⲁⲓⲛⲁⲩ 100
▁ⲉⲧϫⲟⲥⲉ 100
▁ⲙⲛⲛⲉⲧⲛ 100
▁ϥⲛⲁϣⲱⲡⲉ 100
ⲉⲓⲏ 100
ⲓⲣⲉ 100
ⲟⲙϥ 100
▁ϣⲁⲡ 100
▁ⲛⲁϯ 100
▁ⲧⲉⲧ 100
ⲓⲙⲱⲛ 100
▁ⲛϩⲁϩ 100
ⲇⲓⲇⲟⲩ 100
ⲛⲁⲥⲥⲏ 100
ⲯⲁⲗⲙⲁ 100
ϩⲁⲓⲃⲉⲥ 100
▁ⲛⲥⲓⲱⲛ 100
ⲡⲉϩⲟⲟⲩ 100
▁ⲁⲓϫⲟⲟⲥ 100
▁ⲙⲡⲉⲟⲟⲩ 100
▁ϩⲛⲧⲉϩⲓⲏ 100
▁ⲙⲡⲉⲛⲧⲁϥ 100
▁ⲇⲓⲁⲯⲁⲗⲙⲁ 100
▁ⲛⲇⲓⲕⲁⲓⲟⲥ 100
▁ϩⲙⲡⲓⲥⲣⲁⲏⲗ 100
ϩⲕⲟ 100
ϭⲓⲛ 100
ⲗⲟϭ 100
ⲙⲁⲛ 100
ⲧⲏⲛ 100
ϩⲟⲉⲓ 100
ϫⲟⲟⲣ 100
ⲛⲧⲁⲓ 100
▁ϫⲉⲧⲉ 100
▁ϫⲓⲛⲛ 100
▁ⲁϥϥⲓ 100
▁ⲉⲧⲉⲕ 100
▁ⲙⲁⲣⲛ 100
▁ⲛⲛⲉⲛ 100
ⲛⲧⲉⲧⲛ 100
ⲡⲁϩⲟⲩ 100
ⲣⲁⲧⲱⲣ 100
ⲥⲃⲧⲱⲧ 100
ⲧϩⲟⲟⲩ 100
ⲧⲛⲧⲱⲛ 100
▁ⲁⲩⲛⲁⲩ 100
▁ⲟⲩⲱⲛϩ 100
ⲧⲁϫⲣⲏⲩ 100
▁ⲡⲁⲩⲗⲟⲥ 100
▁ϩⲛⲧⲥⲱϣⲉ 100
ⲡⲁⲣⲁⲕⲁⲗⲉⲓ 100
▁ⲛⲛⲉⲧⲟⲩⲁⲁⲃ 100
▁ⲛⲧⲑⲁⲗⲁⲥⲥⲁ 100
ⲏⲛ 100
ⲣϭ 100
ϩⲟⲣ 100
ⲁⲁⲥ 100
ⲛⲏⲓ 100
ⲛⲟⲛ 100
ϩⲟⲩⲛ 100
▁ⲉⲙⲉ 100
▁ⲛϩⲁ 100
▁ⲛⲛⲓ 100
ⲓⲕⲟⲥ 100
ⲧⲁϩⲉ 100
ⲭⲏⲣⲁ 100
▁ⲁⲩϥⲓ 100
▁ⲉⲛⲉⲧ 100
▁ⲛⲟⲃⲉ 100
ⲟⲩⲏⲏⲃ 100
ⲡⲉⲧⲣⲁ 100
ⲣⲟⲉⲓⲥ 100
ϣⲉⲗⲉⲉⲧ 100
ⲃⲏⲥⲁⲗⲱⲙ 100
▁ⲉⲛⲁⲛⲟⲩϥ 100
▁ϩⲛⲟⲩϭⲉⲡⲏ 100
▁ⲛⲧⲇⲓⲕⲁⲓⲟⲥⲩⲛⲏ 100
ϥⲟ 100
ⲃϩ 100
ϫⲱϩ 100
ⲃⲁⲣ 100
ⲭⲟⲣ 100
ϩⲙⲟⲩ 100
ϫⲁⲥⲓ 100
▁ⲉⲩⲁ 100
▁ⲙⲙⲛ 100
▁ⲡⲏⲓ 100
ⲟⲩⲉϣ 100
ⲡⲉⲧⲛ 100
ϩⲓⲉⲓⲃ 100
ϯⲉⲟⲟⲩ 100
▁ⲛϥⲧⲙ 100
ⲛⲟϫⲟⲩ 100
ⲥⲱⲧⲏⲣ 100
▁ϩⲙⲡⲉⲓ 100
ϩⲓⲉⲣⲉⲩⲥ 100
▁ϣⲁⲣⲉⲟⲩ 100
▁ⲡⲙⲉⲉⲩⲉ 100
ⲓⲟⲩⲇⲁⲓⲁ 100
ϫϥ 100
ϣⲣⲡ 100
ϫⲓⲧϥ 100
ⲕⲓⲁⲥ 100
ϫⲓⲧⲟⲩ 100
▁ⲉⲥϫⲱ 100
ⲟⲉⲓⲗⲉ 100
ⲡⲱⲱⲛⲉ 100
ⲧⲁⲓⲏⲩ 100
▁ϩⲁⲣⲉϩ 100
▁ϩⲓⲧⲛⲟⲩ 100
▁ϩⲛⲛⲉⲧⲛ 100
ⲙⲙⲁⲧⲉⲩⲥ 100
ⲟⲕⲣⲁⲧⲱⲣ 100
ⲥⲙⲁⲙⲁⲁⲧ 100
▁ⲡⲉⲡⲛⲉⲩⲙⲁ 100
▁ⲙⲡⲉⲡⲛⲉⲩⲙⲁ 100
ϩⲓⲧ 100
ⲛⲧⲏ 100
ⲧⲏⲕ 100
ⲫⲟⲥ 100
▁ⲁϥⲥ 100
▁ⲡⲁⲥ 100
ⲃⲉⲕⲉ 100
ⲕⲁⲁⲧ 100
ⲙⲙⲱⲛ 100
▁ⲛⲧⲙⲉ 100
ⲇⲁⲓⲟⲥ 100
ⲧⲁⲉⲓⲟ 100
▁ϣⲁⲣⲟϥ 100
▁ⲁⲩⲡⲱⲧ 100
▁ⲛϣⲙⲙⲟ 100
▁ⲧⲏⲣⲧⲛ 100
▁ϩⲛⲕⲏⲙⲉ 100
▁ϯⲥⲟⲟⲩⲛ 100
▁ⲉⲃⲟⲗϫⲉ 100
▁ⲉⲧⲛⲁⲛⲟⲩϥ 100
▁ⲙⲡⲉⲛϫⲟⲉⲓⲥ 100
▁ⲛϩⲏⲧⲧⲏⲩⲧⲛ 100
▁ϩⲛⲟⲩⲉⲓⲣⲏⲛⲏ 100
ⲡⲁⲛⲧⲟⲕⲣⲁⲧⲱⲣ 100
ⲙⲥ 100
ⲕⲧⲉ 100
ϫⲁϩⲙ 100
▁ⲟⲩⲧⲉ 100
ⲁⲣⲭⲉⲓ 100
ⲡⲉⲓⲣⲁ 100
▁ϣⲁⲣⲟⲓ 100
▁ⲉⲧⲕⲛⲁ 100
ⲟⲗⲟⲅⲉⲓ 100
▁ⲉⲡⲧⲟⲟⲩ 100
▁ⲙⲡⲁⲗⲁⲟⲥ 100
▁ⲙⲡⲛⲟⲙⲟⲥ 100
▁ⲛⲛⲁϩⲣⲙⲡ 100
▁ⲥⲁⲙⲟⲩⲏⲗ 100
ⲃⲉⲛⲓⲁⲙⲓⲛ 100
ϭⲟⲟ 100
ⲕⲱⲛ 100
ⲭⲉⲓ 100
ⲱϩⲥ 100
ϫⲓϫⲉ 100
▁ⲟⲩⲱ 100
ⲗⲏⲣⲟ 100
ⲡⲁϣⲉ 100
ⲥⲱⲧⲉ 100
ϣⲁⲛⲉⲓ 100
ⲕⲧⲟⲟⲩ 100
ⲣⲉϥϫⲓ 100
ⲟⲩⲁϩⲟⲩ 100
▁ⲉⲡϣⲁϫⲉ 100
▁ⲙⲛⲗⲁⲁⲩ 100
▁ⲛⲉⲥⲛⲏⲩ 100
▁ⲛⲛϣⲁϫⲉ 100
▁ⲁϥϩⲙⲟⲟⲥ 100
ⲣⲭⲓⲉⲣⲉⲩⲥ 100
ⲧⲁϣⲉⲟⲉⲓϣ 100
▁ϩⲓⲧⲙⲡⲛⲟⲩⲧⲉ 100
▁ⲡⲉϫⲉⲓⲏⲥⲟⲩⲥ 100
ⲕⲏⲓ 100
ϩⲱⲟⲩ 100
ϫⲡⲓⲟ 100
▁ϫⲉⲧ 100
▁ⲛϫⲓ 100
▁ⲧⲉⲩ 100
ⲓⲉⲣⲟ 100
ϫⲓⲛϫⲏ 100
▁ⲛⲁϩⲉ 100
▁ⲛⲥⲁⲡ 100
ⲅⲁⲗⲓⲗ 100
ⲅⲉⲙⲱⲛ 100
ⲡⲁϩⲧϥ 100
▁ⲛⲉⲛⲉϩ 100
▁ⲛⲟⲉⲓⲕ 100
ⲕⲁⲣⲓⲟⲥ 100
▁ϩⲙⲡⲙⲉϩ 100
▁ⲉⲡϩⲟⲟⲩ 100
▁ⲛⲁⲣⲭⲱⲛ 100
▁ⲉϥⲉϣⲱⲡⲉ 100
▁ⲛⲓⲟⲩⲇⲁⲓ 100
▁ⲙⲡⲕⲟⲥⲙⲟⲥ 100
ⲅⲣⲁⲙⲙⲁⲧⲉⲩⲥ 100
ⲍⲱ 100
ϭⲟⲣ 100
▁ⲁⲃ 100
ⲃⲃⲉ 100
ⲃⲏⲑ 100
ⲇⲁⲥ 100
ⲓⲙⲏ 100
ⲙⲏⲣ 100
ⲟⲡⲥ 100
ⲡⲉⲥ 100
ⲃⲟⲧⲉ 100
ⲛϩⲏⲧ 100
ⲟⲩⲉⲙ 100
ⲧⲁϩⲟ 100
ⲁⲓⲧⲉⲓ 100
ⲛⲁϩⲙⲉ 100
▁ϫⲉⲉϥⲉ 100
▁ϫⲉⲛⲛⲉ 100
▁ⲙⲟⲟϣⲉ 100
ⲑⲏⲣⲓⲟⲛ 100
ϫⲁⲥⲓϩⲏⲧ 100
ⲉⲣⲉⲙⲓⲁⲥ 100
ⲥⲁⲙⲟⲩⲏⲗ 100
ⲡⲁⲣⲁⲇⲓⲇⲟⲩ 100
ⲗⲙ 100
ϯⲡⲉ 100
▁ⲛⲓ 100
ⲥⲱⲕ 100
ⲭⲁⲗ 100
ⲱⲣϫ 100
▁ⲡⲱⲧ 100
▁ⲧⲟⲩ 100
ⲁⲧⲟⲩ 100
ⲣⲁⲧⲉ 100
ϣⲧⲉⲕⲟ 100
▁ⲉϫⲱⲥ 100
ⲅⲣⲁⲫⲏ 100
ⲗⲩⲡⲉⲓ 100
▁ⲉⲥⲱⲧⲙ 100
ⲑⲃⲃⲓⲏⲩ 100
▁ϣⲁⲣⲱⲧⲛ 100
▁ϩⲓⲧⲙⲡⲉ 100
▁ⲉⲡⲉϥⲏⲓ 100
▁ⲙⲛⲛϣⲏⲣⲉ 100
▁ϩⲓⲧⲟⲟⲧⲟⲩ 100
▁ⲛⲁⲃⲣⲁϩⲁⲙ 100
▁ⲙⲡⲉⲟⲩⲟⲉⲓϣ 100
▁ⲛⲧⲃⲁⲃⲩⲗⲱⲛ 100
ⲡⲥ 100
ϣⲃⲉ 100
ϣⲧⲣ 100
▁ϣⲉ 100
▁ⲁϫⲛ 100
▁ⲁⲓϯ 100
▁ⲁⲩⲥ 100
ⲇⲟⲩⲝ 100
ⲕⲣⲟϥ 100
ⲗⲩⲡⲏ 100
▁ϩⲱⲱⲛ 100
ⲓⲥⲁⲁⲕ 100
ⲙⲉⲗⲉⲭ 100
ⲛϣⲏⲣⲉ 100
ⲥⲕⲩⲛⲏ 100
ⲥⲟⲃⲧⲉ 100
ⲧⲁⲙⲓⲉ 100
ⲧⲉⲓⲣⲉ 100
▁ϣⲁⲣⲉⲡ 100
▁ⲙⲛⲧⲉⲕ 100
ⲇⲁⲓⲙⲱⲛ 100
▁ⲉⲛⲁϣⲱϥ 100
▁ⲧⲉⲧⲛⲛⲁ 100
▁ϫⲉⲁⲡϫⲟⲉⲓⲥ 100
ⲇⲟ 100
ϫⲡⲉ 100
ϯⲙⲉ 100
▁ϭⲱ 100
ⲕⲁⲛ 100
ⲣⲭⲟⲥ 100
ⲥⲱⲛⲉ 100
▁ⲙⲉⲣⲉ 100
ⲑⲉⲛⲟⲥ 100
ⲧⲁⲥⲥⲉ 100
▁ⲙⲛⲡⲉⲧ 100
ⲃⲁⲡⲧⲓⲥ 100
ⲟⲩⲟⲙⲟⲩ 100
ⲥⲟⲩⲧⲱⲛ 100
▁ⲉϫⲙⲡⲉϥ 100
▁ⲥⲛⲁϣⲱⲡⲉ 100
▁ⲉϫⲛⲧⲏⲩⲧⲛ 100
ϭⲁ 100
ⲅⲝ 100
ϣϫⲉ 100
ϭⲣⲟ 100
ⲥⲁⲓ 100
ⲧⲁⲕ 100
▁ϩⲛⲁ 100
ⲣⲁⲧⲕ 100
ⲥⲟⲧⲉ 100
ⲥⲱⲛⲧ 100
ⲭⲣⲏⲥ 100
▁ⲙⲙⲓⲛ 100
▁ⲙⲡⲣⲟ 100
▁ⲛϩⲁⲧ 100
▁ⲛϭⲓⲁ 100
ⲅⲁⲑⲟⲥ 100
ⲓⲙⲓⲛⲉ 100
ⲥϣⲱⲡⲉ 100
▁ϩⲛϩⲱⲃ 100
▁ϫⲉⲁⲛⲅ 100
▁ⲉⲓϣⲁⲛ 100
▁ⲛⲛⲉⲩⲉ 100
▁ⲛⲥⲁϣϥ 100
▁ⲥⲟⲟⲩⲛ 100
ⲧⲟⲩⲛⲟⲥ 100
ϩⲓⲧⲟⲩⲱϥ 100
▁ⲛⲙⲡⲏⲩⲉ 100
▁ⲛⲟⲩⲙⲛⲧ 100
▁ϩⲛⲛϩⲉⲑⲛⲟⲥ 100
▁ⲛⲧⲇⲓⲁⲑⲏⲕⲏ 100
▁ϩⲙⲡⲉⲭⲣⲓⲥⲧⲟⲥ 100
ⲃϣ 100
ⲃⲓⲱ 100
ⲍⲁⲣ 100
ⲙⲉⲕ 100
ⲟⲩⲣ 100
ⲥⲁⲩ 100
ϩⲉⲛⲉ 100
ϭⲟⲟⲩ 100
▁ϣⲁⲧ 100
▁ϩⲛⲡ 100
ⲃⲁⲱⲑ 100
ⲛⲟⲩⲥ 100
ⲛⲧⲁⲛ 100
ⲟⲩⲟⲛ 100
ϩⲟⲓⲛⲉ 100
▁ϫⲉϫⲓ 100
▁ⲛⲉⲩⲛ 100
▁ⲛⲣⲣⲟ 100
ⲙⲟⲉⲓⲧ 100
▁ϫⲉⲟⲩⲛ 100
▁ⲁϥⲡⲱⲧ 100
ⲇⲓⲁⲕⲟⲛ 100
ⲙⲟⲟⲩⲧϥ 100
ⲣⲭⲣⲉⲓⲁ 100
ⲁⲅⲅⲉⲗⲟⲥ 100
▁ϩⲓⲡⲁϩⲟⲩ 100
▁ⲙⲡⲉⲥⲛⲁⲩ 100
▁ⲉⲧⲉⲧⲛϣⲁⲛ 100
ⲇⲁⲓⲙⲱⲛⲓⲟⲛ 100
ⲡⲉⲭⲣⲓⲥⲧⲟⲥ 100
▁ⲁⲧ 100
ⲇⲁⲛ 100
ⲏⲛⲉ 100
ϫⲱϩⲙ 100
▁ϣⲁⲛ 100
▁ⲁⲩⲁ 100
▁ⲉⲩⲛ 100
ⲙⲟⲩⲓ 100
ⲛⲧⲟϣ 100
ⲧⲁⲗⲟ 100
ⲃⲉⲛⲛⲏ 100
ⲙⲉⲣⲓⲥ 100
ⲡⲗⲁⲛⲁ 100
ϣϭⲙϭⲟⲙ 100
▁ⲉϣⲁⲣⲉ 100
▁ⲛⲙⲙⲁⲥ 100
▁ⲛⲥⲁⲧⲉ 100
ⲭⲣⲏⲥⲧⲟⲥ 100
▁ⲁⲩⲥⲱⲟⲩϩ 100
▁ϩⲙⲡⲉⲡⲛⲉⲩⲙⲁ 100
▁ⲡⲉϫⲉⲇⲁⲩⲉⲓⲇ 100
▁ⲛⲧϩⲓⲉⲣⲟⲩⲥⲁⲗⲏⲙ 100
ⲉⲙ 100
ⲡⲧ 100
▁ⲁϣ 100
ⲑⲁⲃ 100
ⲟⲗⲥ 100
ϣⲓⲣⲉ 100
▁ⲁⲉⲓ 100
▁ⲁⲛⲁ 100
ⲕⲉⲉⲥ 100
ⲕⲉⲙⲁ 100
ⲙⲉⲛⲏ 100
ⲙⲙⲟⲛ 100
▁ⲉⲓⲣⲉ 100
▁ⲉⲟⲟⲩ 100
▁ⲉⲡⲁⲓ 100
▁ⲉⲣⲉⲛ 100
▁ⲙⲟⲩϩ 100
▁ⲛϣⲏⲛ 100
▁ⲛⲅⲧⲙ 100
▁ⲛⲧⲁⲡ 100
▁ⲣⲱⲙⲉ 100
ⲫⲁⲛⲟⲥ 100
ϩⲧⲟⲟⲩⲉ 100
▁ⲉϥⲛⲏⲩ 100
▁ⲉⲡⲙⲟⲩ 100
▁ⲛⲉⲓⲱⲧ 100
▁ⲟⲩⲛⲟⲩ 100
▁ϩⲛⲧϭⲓϫ 100
▁ⲉⲧⲃⲉϫⲉ 100
▁ⲛⲁⲥⲛⲏⲩ 100
▁ⲛⲧⲉⲧⲛⲁ 100
▁ⲧϣⲉⲉⲣⲉ 100
ⲡⲓⲕⲁⲗⲉⲓ 100
▁ⲛϭⲓⲡⲣⲣⲟ 100
▁ⲛⲟⲩϣⲏⲣⲉ 100
▁ϫⲓⲛⲛϣⲟⲣⲡ 100
ⲙⲛⲧⲥⲛⲟⲟⲩⲥ 100
▁ⲡⲡⲁⲛⲧⲟⲕⲣⲁⲧⲱⲣ 100
ϩⲟⲧ 100
ⲕⲟⲓ 100
ⲛⲛⲁ 100
ϣⲧⲏⲛ 100
▁ⲉϫⲉ 100
▁ⲕⲁⲛ 100
▁ⲛⲅⲉ 100
ⲕⲁⲁⲥ 100
ⲙⲟⲩⲛ 100
ⲧⲱϭⲉ 100
ϩⲟⲟⲩⲧ 100
▁ϫⲉⲉⲕ 100
▁ⲁⲓϫⲓ 100
ⲗⲁⲧⲟⲥ 100
ⲛⲟⲩⲱⲙ 100
ⲣⲡⲱⲃϣ 100
ⲥⲕⲏⲛⲏ 100
▁ⲉⲉⲓⲣⲉ 100
▁ⲙⲡⲉⲧⲉ 100
▁ⲛϩⲏⲧⲕ 100
▁ⲛⲅⲃⲱⲕ 100
▁ⲛⲛⲉⲧⲉ 100
ⲃⲉⲛⲛⲏⲣ 100
ⲡⲓⲥⲧⲟⲥ 100
ⲣϣⲡⲏⲣⲉ 100
ⲯⲁⲗⲙⲟⲥ 100
▁ⲁϥϫⲟⲟⲥ 100
▁ⲁⲓⲥⲱⲧⲙ 100
▁ⲉⲩⲣⲱⲙⲉ 100
▁ⲛⲉⲥⲟⲟⲩ 100
▁ⲡⲉⲧⲉⲣⲉ 100
ⲡⲓⲑⲩⲙⲓⲁ 100
▁ⲉⲧⲉⲧⲛⲛⲁ 100
▁ⲛⲧⲉϥϭⲓϫ 100
ⲡⲁⲣⲁⲃⲟⲗⲏ 100
▁ϩⲛⲧⲡⲟⲗⲓⲥ 100
▁ⲉⲓⲥϩⲏⲏⲧⲉ 100
▁ⲛⲁⲅⲅⲉⲗⲟⲥ 100
▁ⲛⲧⲙⲛⲧⲣⲣⲟ 100
▁ϩⲛⲛⲉⲧⲙⲟⲟⲩⲧ 100
ⲕⲣ 100
ⲃⲏⲛ 100
ⲅⲓⲁ 100
ϣⲁⲁⲣ 100
▁ϣⲁⲓ 100
ⲁⲣⲉϩ 100
ⲗⲓⲃⲁ 100
ⲡⲏⲅⲏ 100
ⲣⲓⲭⲱ 100
ⲧⲁⲗⲉ 100
▁ϣⲓⲡⲉ 100
▁ⲁϥϩⲉ 100
▁ⲉⲧⲏⲡ 100
▁ⲉⲩⲙⲁ 100
▁ⲛⲛⲓⲙ 100
▁ⲡⲣⲁⲛ 100
ⲣⲓⲥⲓⲥ 100
▁ϩⲟⲧⲁⲛ 100
▁ⲕⲁⲗⲱⲥ 100
▁ⲙⲙⲱⲁⲃ 100
▁ⲛⲉⲃⲟⲧ 100
▁ⲛⲥⲁⲟⲩ 100
▁ⲡⲉⲟⲟⲩ 100
▁ⲉⲧϩⲟⲟⲩ 100
▁ⲙⲛⲡⲕⲁϩ 100
▁ⲙⲡⲁⲙⲧⲟ 100
▁ⲙⲡⲧⲟⲟⲩ 100
▁ⲛⲁⲁⲣⲱⲛ 100
▁ⲛⲁⲙⲙⲱⲛ 100
▁ⲛⲟⲩⲛⲁⲙ 100
▁ⲛⲣⲟⲩϩⲉ 100
▁ⲡⲉⲧⲣⲟⲥ 100
▁ⲁϥⲙⲟⲟϣⲉ 100
▁ⲛⲉⲫⲣⲁⲓⲙ 100
▁ⲛⲧⲁⲯⲩⲭⲏ 100
ⲅⲁⲗⲓⲗⲁⲓⲁ 100
ⲙⲟⲣⲣⲁⲓⲟⲥ 100
▁ϩⲙⲡϫⲟⲉⲓⲥ 100
▁ⲙⲡⲉϥⲗⲁⲟⲥ 100
ⲗⲏⲣⲟⲛⲟⲙⲉⲓ 100
▁ⲁϥⲡⲁⲧⲁⲥⲥⲉⲓ 100
▁ⲡⲉⲡⲣⲟⲫⲏⲧⲏⲥ 100
ϫϩ 100
ϩⲟⲥ 100
ⲅⲙⲁ 100
ⲗⲁϩ 100
ϣϭⲟⲙ 100
ϩⲃⲥⲱ 100
▁ϩⲏⲧ 100
▁ϫⲉⲕ 100
ⲛⲟⲩⲛ 100
ⲡⲁⲍⲉ 100
ⲥⲃⲃⲉ 100
▁ϫⲉⲉϥ 100
▁ⲉⲓⲧⲉ 100
▁ⲉⲙⲡⲉ 100
▁ⲙⲡⲓⲥ 100
▁ⲙⲡⲣϯ 100
▁ⲛⲙⲟⲩ 100
▁ⲛⲛⲁⲩ 100
ⲟⲓⲕⲟⲩ 100
ⲧⲁⲥⲓⲥ 100
▁ϩⲙⲡⲁⲓ 100
▁ϫⲉⲉⲓⲉ 100
▁ⲉⲧϩⲛⲧ 100
▁ⲉⲧⲟⲛϩ 100
▁ⲙⲙⲏⲛⲉ 100
▁ⲙⲟⲩⲧⲉ 100
▁ⲙⲡⲙⲉϩ 100
▁ⲛⲥⲁⲃⲉ 100
▁ⲛⲧⲉⲧⲙ 100
ⲯⲁⲗⲗⲉⲓ 100
▁ⲁϥⲉⲓⲛⲉ 100
▁ⲁⲩⲟⲩⲱⲙ 100
▁ⲥⲁⲃⲁⲱⲑ 100
▁ⲡⲉϥϣⲏⲣⲉ 100
▁ⲙⲡⲟⲛⲏⲣⲟⲛ 100
▁ⲛⲧⲉⲓⲙⲓⲛⲉ 100
ϩⲕ 100
▁ϭ 100
ⲱⲡ 100
ⲅⲓⲥ 100
ⲕⲁⲩ 100
ⲧⲓⲁ 100
ϩⲁⲗⲁ 100
▁ⲉⲧⲱ 100
▁ⲛⲙⲛ 100
▁ⲧⲡⲉ 100
ⲙϩⲓⲧ 100
ⲥⲓⲟⲩ 100
ⲥⲓⲱⲛ 100
ⲧⲛⲟϭ 100
▁ⲕⲟⲩⲓ 100
ϩⲟⲉⲓⲧⲉ 100
▁ⲙⲛⲛⲉⲕ 100
▁ⲛϫⲁⲓⲉ 100
▁ⲛⲉⲧⲟⲩ 100
ⲗⲓⲃⲁⲛⲟⲥ 100
▁ϫⲉⲧⲱⲟⲩⲛ 100
▁ⲉⲧⲛⲙⲙⲁϥ 100
▁ⲛⲉⲧⲟⲩⲏϩ 100
▁ⲡⲁϫⲟⲉⲓⲥ 100
ⲙⲛⲧⲣⲙⲙⲁⲟ 100
ⲟⲓⲕⲟⲩⲙⲉⲛⲏ 100
▁ⲛⲧⲁⲡⲛⲟⲩⲧⲉ 100
▁ⲉⲙ 100
ⲕⲁⲥ 100
ⲗⲟⲓ 100
ⲛⲁϩ 100
ⲣⲁϣ 100
ⲣⲉⲕ 100
ⲥⲟϭ 100
ⲫⲑⲁ 100
ϫⲓⲧⲥ 100
ϭⲃⲟⲓ 100
ⲉⲓⲟⲩ 100
ⲓⲕⲟⲛ 100
ⲗⲡⲓⲥ 100
ⲡⲱϩⲧ 100
ⲥⲁϩⲱ 100
ⲧⲉⲓⲁ 100
ϣⲟⲙⲧⲉ 100
ϩⲓⲟⲩⲉ 100
▁ϩⲁⲧⲛ 100
▁ⲁϫⲓⲥ 100
▁ⲉⲕϫⲱ 100
▁ⲙⲁⲩⲁ 100
▁ⲛϭⲓϫ 100
▁ⲛⲁϫⲓ 100
▁ⲛⲛⲟϭ 100
ⲧⲉⲩϣⲏ 100
▁ϫⲉⲉⲩⲉ 100
▁ⲉⲡⲣⲁⲛ 100
▁ⲛϩⲏⲧⲛ 100
ⲁⲛⲟⲙⲓⲁ 100
ϩⲉⲗⲡⲓⲍⲉ 100
▁ⲁϥⲉⲓⲣⲉ 100
▁ⲉⲡⲉϥⲙⲁ 100
▁ⲛⲟⲩⲏⲏⲃ 100
▁ⲁⲓⲏⲥⲟⲩⲥ 100
▁ⲙⲛⲁⲁⲣⲱⲛ 100
▁ⲙⲡⲛⲉⲩⲙⲁ 100
▁ⲙⲙⲁⲛⲁⲥⲥⲏ 100
ⲛⲱ 100
ⲇⲱⲛ 100
ⲡⲉⲛ 100
ⲣⲱϩ 100
ⲧⲏϥ 100
ϫⲡⲟϥ 100
ϭⲗⲟϭ 100
▁ⲙⲡⲕ 100
▁ⲡⲓⲥ 100
ⲏⲥⲓⲥ 100
ⲙⲛⲧϥ 100
ⲟⲓⲗⲉ 100
ⲟⲓⲛⲉ 100
ⲣⲱⲕϩ 100
ϥⲧⲟⲟⲩ 100
ϩⲁⲣⲙⲁ 100
ϩⲛⲁⲁⲩ 100
▁ⲉⲧⲉⲩ 100
▁ⲛⲁⲉⲓ 100
ⲕⲁⲛⲇⲁ 100
ⲟⲩⲟⲛϩ 100
ϫⲓϣⲓⲡⲉ 100
▁ⲉⲗⲁⲁⲩ 100
▁ⲛϩⲣⲟⲩ 100
▁ⲛϭⲓⲓⲱ 100
▁ⲡⲉϫⲉⲡ 100
ⲥⲩⲣⲓⲟⲥ 100
▁ϩⲛⲟⲩⲙⲉ 100
▁ⲁⲩⲥⲱⲧⲙ 100
▁ⲉϥϩⲟⲟⲩ 100
▁ⲛϭⲓϩⲉⲛ 100
▁ϫⲉⲛⲧⲱⲧⲛ 100
▁ϩⲙⲡⲉϥϩⲏⲧ 100
▁ϩⲛⲧⲡⲓⲥⲧⲓⲥ 100
▁ⲁϥⲁϩⲉⲣⲁⲧϥ 100
▁ⲙⲛⲛⲉⲩⲉⲣⲏⲩ 100
ⲑⲓ 100
ⲑⲙ 100
▁ⲥⲟ 100
ⲇⲁⲃ 100
ⲉⲓⲙ 100
ⲛⲉⲛ 100
ⲣⲙⲡ 100
ϥⲱⲧⲉ 100
ϩⲏⲃⲉ 100
ϩⲓⲏⲙ 100
▁ⲉⲩⲥ 100
▁ⲛⲧⲟ 100
ⲏⲏϣⲉ 100
ⲕⲉⲩⲏ 100
▁ⲁⲥⲉⲓ 100
▁ⲉⲩϫⲓ 100
ⲧⲉⲧⲛⲁ 100
▁ⲉϫⲱⲧⲛ 100
▁ⲉⲧⲉⲙⲡ 100
▁ⲉⲧⲥⲏϩ 100
▁ⲛϭⲓⲡⲁ 100
▁ⲉⲧⲟⲟⲧⲛ 100
▁ⲛⲅϫⲟⲟⲥ 100
▁ⲛⲧⲥⲱϣⲉ 100
▁ⲡⲉϩⲟⲟⲩ 100
▁ⲡⲟⲩⲏⲏⲃ 100
▁ⲛⲧϣⲉⲉⲣⲉ 100
▁ϩⲛⲟⲩⲥⲁⲧⲉ 100
▁ⲛⲛⲉⲓϣⲁϫⲉ 100
▁ⲛⲟⲩⲥϩⲓⲙⲉ 100
▁ⲛⲧⲉϥⲯⲩⲭⲏ 100
▁ⲥⲉⲛⲁϣⲱⲡⲉ 100
▁ⲉⲣⲉⲡϫⲟⲉⲓⲥ 100
▁ⲛⲛⲇⲓⲕⲁⲓⲟⲥ 100
ϥⲱ 100
ⲣⲕ 100
ⲁⲩⲱ 100
ⲏⲟⲩ 100
ⲗⲏⲕ 100
ⲙϩⲁ 100
ⲭⲉⲃ 100
ϩⲩⲗⲏ 100
ϫⲛⲟⲩ 100
ϭⲗⲓⲗ 100
▁ⲁϥⲁ 100
ⲁⲣⲛⲁ 100
ⲛⲉⲩⲉ 100
ⲟⲟⲧⲉ 100
ⲥⲟⲩⲟ 100
▁ⲉϩⲣⲁ 100
▁ⲛϫⲓⲛ 100
▁ⲛⲱⲛⲉ 100
ⲟⲩⲥⲏⲥ 100
ⲟⲩⲧⲱⲛ 100
▁ⲉⲧϩⲙⲡ 100
▁ⲉⲧⲃⲉⲧ 100
▁ⲡⲁⲥⲟⲛ 100
ⲑⲩⲣⲓⲟⲛ 100
▁ϫⲉⲥⲉⲛⲁ 100
▁ⲉⲧⲉⲡⲁⲓ 100
▁ⲡϩⲙϩⲁⲗ 100
ⲡⲉⲓⲣⲁⲍⲉ 100
▁ⲉϥⲙⲟⲟϣⲉ 100
▁ϩⲙⲡⲉⲩϩⲏⲧ 100
▁ϫⲉⲡⲛⲟⲩⲧⲉ 100
▁ⲓⲱϩⲁⲛⲛⲏⲥ 100
▁ⲡⲉⲕϩⲙϩⲁⲗ 100
ⲭⲁⲛⲁⲛⲁⲓⲟⲥ 100
▁ⲛⲧⲉⲣⲉϥⲛⲁⲩ 100
ϫⲃ 100
ϣⲱϥ 100
ϥⲁⲓ 100
ⲃⲁⲥ 100
ⲅⲱⲛ 100
ⲉⲓⲉ 100
ⲕⲁⲡ 100
ϣⲟⲩⲱ 100
▁ⲙⲙⲟ 100
ⲛⲁϩⲃ 100
ⲛⲧⲁⲥ 100
ⲡⲱⲣϣ 100
ϣⲁϩⲟⲙ 100
▁ⲓⲱⲁⲃ 100
▁ⲙⲡⲣⲣ 100
▁ⲛⲥⲟⲩ 100
▁ⲛⲧⲟⲩ 100
ⲛⲟⲩⲱϣ 100
ⲛⲧⲟⲟⲩ 100
▁ϣⲁⲃⲟⲗ 100
▁ⲉⲧϥⲛⲁ 100
▁ⲓⲁⲕⲱⲃ 100
▁ⲛⲕⲱϩⲧ 100
▁ⲧⲉϩⲓⲏ 100
ⲱⲟⲩⲥⲏⲥ 100
▁ϣⲁⲛⲧⲟⲩ 100
▁ⲉⲛϣⲁϫⲉ 100
▁ⲉⲧⲉϩⲓⲏ 100
ⲗⲉⲩⲓⲧⲏⲥ 100
▁ⲛⲟⲩⲙⲟⲟⲩ 100
ⲃⲁⲡⲧⲓⲥⲙⲁ 100
▁ϩⲉⲛⲕⲟⲟⲩⲉ 100
ⲁⲣⲭⲓⲉⲣⲉⲩⲥ 100
▁ⲛⲃⲉⲛⲓⲁⲙⲓⲛ 100
ⲓⲟ 100
▁ⲡⲱ 100
ⲅⲁⲣ 100
ⲟⲣⲧ 100
ⲡⲓⲣ 100
ⲧⲱⲕ 100
▁ⲁⲡⲉ 100
ⲁⲓⲁⲥ 100
ⲃⲏⲩⲉ 100
ⲗⲩⲅⲏ 100
ϣⲁϥⲧⲉ 100
▁ⲁϥϫⲱ 100
▁ⲉⲓϫⲱ 100
▁ⲉⲛⲥⲉ 100
▁ⲛⲥⲙⲏ 100
ⲙⲛⲧⲟⲩ 100
ⲥⲁϣϥⲉ 100
ⲧⲱⲙⲛⲧ 100
▁ϣⲁⲣⲟⲕ 100
▁ϩⲟⲓⲛⲉ 100
▁ⲁϥϩⲱⲛ 100
▁ⲙⲡⲟⲩⲁ 100
▁ⲙⲡⲟⲩⲥ 100
▁ⲛⲥⲁⲡⲉ 100
ⲧⲁⲛⲟⲉⲓ 100
ⲧⲟⲩϫⲟⲓ 100
▁ϩⲙⲡⲣⲁⲛ 100
▁ⲁⲩⲉⲓⲛⲉ 100
▁ⲉⲣⲉⲛⲉϥ 100
▁ⲉⲣⲉⲡⲉϥ 100
ⲡⲉϥⲉⲓⲱⲧ 100
ϩⲩⲡⲟⲙⲟⲛⲏ 100
▁ϣⲁⲉϩⲣⲁⲓ 100
▁ϩⲙⲡⲧⲣⲉϥ 100
▁ⲉⲡϫⲓⲛϫⲏ 100
▁ⲛⲟⲩϣⲁϫⲉ 100
▁ⲙⲡⲉϥϣⲏⲣⲉ 100
▁ⲛⲛⲉϩⲃⲏⲩⲉ 100
ⲡⲣⲟⲫⲏⲧⲉⲩⲉ 100
▁ⲛⲛⲉϥϩⲙϩⲁⲗ 100
▁ϩⲓⲧⲙⲡϫⲟⲉⲓⲥ 100
ⲅⲓ 100
ⲗϩ 100
ⲗⲥ 100
ϣⲁϩ 100
▁ⲓⲉ 100
ⲑⲟⲥ 100
ⲕⲃⲁ 100
ⲛⲁⲣ 100
ⲣⲁϩ 100
ⲣⲟϣ 100
ϣⲓⲃⲉ 100
ϩⲏⲛⲉ 100
▁ⲁⲁⲩ 100
▁ⲁⲙⲏ 100
▁ⲁⲣⲁ 100
▁ⲛⲃⲁ 100
ⲇⲩⲛⲁ 100
ⲥⲧⲣⲁ 100
▁ⲉⲡⲉⲧ 100
ⲇⲏⲙⲟⲥ 100
ⲑⲓⲥⲧⲁ 100
ⲙⲁⲗⲏⲕ 100
ⲣⲁⲥⲟⲩ 100
ⲥⲉⲡⲥⲱ 100
ϣⲡϩⲙⲟⲧ 100
▁ϫⲉϩⲉⲛ 100
▁ϫⲉⲡⲉⲧ 100
▁ⲛⲉⲩϫⲱ 100
ⲭⲉⲃⲣⲱⲛ 100
▁ϫⲉⲧⲉⲧⲛ 100
▁ⲉⲧⲟⲩⲏϩ 100
▁ϩⲓⲧⲉϩⲓⲏ 100
▁ⲁϥⲡⲁϩⲧϥ 100
▁ⲕⲁⲧⲁⲛⲉⲩ 100
▁ⲙⲛⲛⲕⲉⲙⲁ 100
▁ⲡⲉⲧϣⲟⲟⲡ 100
ⲭⲁⲗⲇⲁⲓⲟⲥ 100
▁ⲉⲡⲉϩⲣⲟⲟⲩ 100
▁ϩⲛⲧⲉⲣⲏⲙⲟⲥ 100
▁ⲛⲛⲣⲙⲛⲕⲏⲙⲉ 100
▁ⲛⲧⲉⲡϫⲟⲉⲓⲥ 100
ⲩⲣ 100
ϫⲏⲕ 100
▁ⲡⲓ 100
ⲁⲕⲉ 100
ⲏⲡⲉ 100
ⲗⲟⲙ 100
ⲧⲉⲥ 100
ⲫⲟⲣ 100
ϭⲓⲛⲉ 100
▁ⲁⲓⲣ 100
▁ⲉϥϩ 100
▁ⲉⲁⲥ 100
▁ⲉⲧϥ 100
▁ⲧⲉⲓ 100
ⲙⲓⲥⲉ 100
ⲟⲩⲧⲛ 100
ⲡⲉⲍⲁ 100
ⲧⲱⲙⲁ 100
▁ϥⲛⲏⲩ 100
▁ϫⲉⲉⲩ 100
▁ⲛⲃⲁⲗ 100
▁ⲛⲟⲩⲥ 100
ⲕⲉⲟⲩⲁ 100
ⲟⲩⲛⲟⲩ 100
ⲡⲁϩⲣⲉ 100
ⲣⲙⲣⲁϣ 100
▁ϣⲁⲛⲧϥ 100
▁ⲉⲙⲓϣⲉ 100
▁ⲛⲛⲟⲃⲉ 100
▁ⲛⲧϭⲟⲙ 100
▁ⲡⲉⲧⲉⲛ 100
▁ⲡⲉⲧⲟⲩ 100
ⲓⲟⲩⲇⲁⲥ 100
ⲙⲡⲟⲗⲓⲥ 100
▁ⲁϥⲕⲧⲟϥ 100
▁ⲁⲩⲉⲓⲣⲉ 100
▁ⲛϣⲟⲙⲛⲧ 100
▁ⲛⲛⲉⲧⲛⲁ 100
▁ⲡⲛⲟⲙⲟⲥ 100
ⲇⲩⲛⲁⲧⲟⲥ 100
▁ⲉϩⲧⲟⲟⲩⲉ 100
▁ⲙⲡⲉⲕⲉⲓⲱⲧ 100
▁ⲧϩⲁⲗⲁⲥⲥⲁ 100
ⲃⲛⲏ 100
ⲇⲟⲥ 100
ⲛⲧⲥ 100
ⲟⲡϥ 100
ⲱϩⲉ 100
ϣⲁⲁⲧ 100
ϩⲉⲛⲁ 100
ϩⲱⲃⲥ 100
▁ⲉⲕⲁ 100
▁ⲛϥϯ 100
ⲃⲗⲗⲉ 100
ⲟⲛⲧⲉ 100
ⲡⲓⲅⲝ 100
ϫⲛⲟⲩϥ 100
▁ϩⲛⲅⲁ 100
▁ϫⲉⲧⲁ 100
▁ϫⲓⲛⲉ 100
▁ⲉⲛⲉⲓ 100
▁ⲛⲅⲛⲁ 100
▁ⲛⲱⲛϩ 100
▁ⲟⲩⲙⲉ 100
▁ⲡⲃⲟⲗ 100
ⲙⲛⲧⲁⲧ 100
ⲛⲁϩⲧⲉ 100
ⲧⲁⲙⲟⲓ 100
▁ⲁⲩⲙⲟⲩ 100
▁ⲉϫⲛⲧⲁ 100
▁ⲉⲣⲁⲧⲥ 100
▁ⲛⲛⲟⲩϫ 100
▁ⲡⲉϥⲛⲁ 100
▁ⲛⲁⲓⲁⲧϥ 100
▁ⲛⲁⲧϩⲏⲧ 100
▁ⲛⲓⲱⲥⲏⲫ 100
▁ⲛⲛⲟⲩⲧⲉ 100
▁ⲛⲧⲉϩⲓⲏ 100
ⲃⲁⲃⲩⲗⲱⲛ 100
ⲧⲉⲥϩⲓⲙⲉ 100
▁ⲡⲟⲩⲟⲉⲓⲛ 100
ⲛⲧⲃⲛⲟⲟⲩⲉ 100
▁ϩⲙⲡⲛⲟⲙⲟⲥ 100
▁ⲙⲡⲉϥⲣⲁⲥⲧⲉ 100
ⲟⲇ 100
ϣⲏⲓ 100
▁ⲗⲟ 100
ⲁⲛⲉ 100
ⲑⲁⲓ 100
ⲗⲓⲡ 100
ⲗⲓⲥ 100
ⲙⲙⲉ 100
ⲙⲡⲁ 100
ⲣⲱⲓ 100
ⲧⲟϭ 100
ϩⲣⲁϥ 100
▁ⲁⲛⲉ 100
ⲗⲉⲉⲙ 100
ⲣⲉϥϯ 100
ⲣⲣⲣⲟ 100
ⲥⲟⲩⲛ 100
ⲭⲟⲩⲥ 100
ϩⲟⲙⲛⲧ 100
ϫⲓⲟⲟⲣ 100
ϭⲟⲓⲗⲉ 100
ϭⲟⲟⲗⲉ 100
▁ⲁϥϭⲱ 100
▁ⲙⲙⲟⲩ 100
▁ⲛⲉⲩⲥ 100
ⲓⲙⲏⲧⲓ 100
ⲫⲓⲗⲓⲡ 100
▁ϩⲛⲛⲁⲓ 100
▁ϩⲛⲟⲩⲁ 100
▁ϯϩⲧⲏⲕ 100
▁ⲁϥϫⲡⲟ 100
▁ⲛⲧⲉⲣⲓ 100
ⲇⲟⲕⲓⲙⲁ 100
▁ϩⲁⲣⲟⲟⲩ 100
▁ϩⲛⲟⲩⲙⲁ 100
▁ϫⲉⲙⲁⲣⲉ 100
▁ϫⲉⲛⲧⲟϥ 100
▁ⲁϥⲟⲩⲱϩ 100
ⲕⲉⲛⲧⲟⲗⲏ 100
ⲛⲏⲥⲧⲉⲩⲉ 100
ⲟⲓⲃⲱⲧⲟⲥ 100
ⲡⲟⲧⲁⲥⲥⲉ 100
▁ⲙⲡⲉⲕⲣⲁⲛ 100
▁ⲛⲟⲩⲕⲟⲩⲓ 100
▁ⲉⲧⲛⲁϣⲱⲡⲉ 100
▁ⲛⲛⲉⲩⲉⲣⲏⲩ 100
▁ⲡⲉϫⲉⲥⲁⲟⲩⲗ 100
▁ϩⲙⲡⲉⲟⲩⲟⲉⲓϣ 100
▁ⲁⲩⲁϩⲉⲣⲁⲧⲟⲩ 100
▁ⲁϥⲟⲩⲉϩⲥⲁϩⲛⲉ 100
ⲃⲣ 100
ⲣⲩ 100
ϩⲟⲓ 100
ϫⲱϥ 100
▁ϣⲟ 100
ⲇⲁⲙ 100
ⲕⲉⲇ 100
ⲣⲁⲥ 100
ⲥⲁⲙ 100
ⲧⲁⲡ 100
ⲱⲙⲉ 100
ϩⲣⲟⲕ 100
▁ⲁϥⲉ 100
▁ⲉϥϯ 100
▁ⲥⲟⲧ 100
ⲃⲧⲱⲧ 100
ⲓⲙⲟⲩ 100
ⲡⲟⲩⲁ 100
ⲣⲙϩⲉ 100
ϥⲟⲧⲟⲩ 100
▁ϩⲙⲙⲁ 100
▁ϫⲓⲥⲉ 100
▁ⲉϩⲱⲃ 100
▁ⲛⲧⲁⲛ 100
▁ⲡⲙⲉϩ 100
▁ⲡⲛⲟϭ 100
ⲇⲓϩⲁⲙ 100
ⲙⲁⲣⲓⲁ 100
ⲛⲟⲩⲛⲉ 100
ⲡⲁⲥⲭⲁ 100
ⲧⲁⲗϭⲟ 100
ϩⲁⲗⲁⲧⲉ 100
▁ⲉⲣⲉⲡⲁ 100
▁ⲛⲅⲛⲁⲩ 100
▁ⲛⲉⲛⲧⲁ 100
ⲃⲁⲁⲙⲡⲉ 100
ⲏⲥⲁⲓⲁⲥ 100
ⲙⲛⲧⲛⲟϭ 100
▁ⲛϥϣⲱⲡⲉ 100
▁ⲛϫⲱⲱⲣⲉ 100
ⲁⲃⲣⲁϩⲁⲙ 100
ⲃⲏⲑⲗⲉⲉⲙ 100
ⲙⲟⲟⲩⲧⲟⲩ 100
ⲣⲟⲩⲟⲉⲓⲛ 100
ⲧⲉⲓⲣⲏⲛⲏ 100
▁ϩⲙⲡⲉⲓⲙⲁ 100
▁ⲉⲩⲫⲣⲁⲛⲉ 100
ⲇⲟⲕⲓⲙⲁⲍⲉ 100
▁ϩⲙⲡⲛⲟⲩⲧⲉ 100
▁ⲙⲡⲉϥⲥⲱⲙⲁ 100
▁ⲛⲟⲩⲙⲏⲏϣⲉ 100
▁ⲛⲧⲉⲥⲕⲏⲛⲏ 100
▁ⲛⲁⲗⲗⲟⲫⲩⲗⲟⲥ 100
ϩⲁⲉ 100
▁ⲥⲱ 100
ⲏⲃⲉ 100
ⲕⲁⲓ 100
ⲣⲟⲧ 100
ⲱⲥⲕ 100
▁ϣϣⲉ 100
▁ϩⲓⲥ 100
▁ϭⲟⲙ 100
▁ⲱϫⲛ 100
ⲙⲁⲕϩ 100
ⲟⲩϣⲏ 100
ⲧⲉⲣⲉ 100
ϫⲟⲉⲓⲧ 100
▁ϩⲟⲟⲩ 100
▁ⲉⲛⲛⲁ 100
▁ⲉⲣⲉⲧ 100
▁ⲙⲛⲓⲱ 100
▁ⲙⲡⲉⲣ 100
▁ⲛϭⲟⲙ 100
▁ⲛⲛⲁⲥ 100
ⲛⲣⲱⲙⲉ 100
ⲥⲟⲩⲱⲛ 100
▁ϩⲁⲣⲟⲥ 100
▁ϩⲓⲧⲛⲧ 100
▁ϫⲉⲉⲕⲉ 100
▁ⲉϫⲙⲡⲁ 100
▁ⲙⲉⲉⲩⲉ 100
▁ⲛⲟⲩⲙⲁ 100
▁ⲡⲧⲟⲟⲩ 100
ⲟⲩⲛⲧⲁϥ 100
ⲭⲟⲣⲧⲟⲥ 100
▁ϩⲁⲣⲱⲧⲛ 100
▁ⲉϥϣⲁϫⲉ 100
▁ⲉϫⲛⲧⲉϥ 100
▁ⲉⲓⲙⲏⲧⲓ 100
▁ⲧⲁⲯⲩⲭⲏ 100
ⲃⲁⲓϣⲓⲛⲉ 100
ⲧⲃⲛⲟⲟⲩⲉ 100
▁ⲓⲱⲛⲁⲑⲁⲛ 100
▁ⲛϩⲧⲟⲟⲩⲉ 100
▁ⲛⲅⲁⲗⲁⲁⲇ 100
ⲙⲉⲧⲁⲛⲟⲉⲓ 100
ⲫⲓⲗⲓⲡⲡⲟⲥ 100
▁ϩⲙⲡⲉⲕϩⲏⲧ 100
▁ⲉⲡⲡⲟⲗⲉⲙⲟⲥ 100
▁ⲉϫⲙⲡⲓⲥⲣⲁⲏⲗ 100
ϫⲙ 100
▁ⲃⲁ 100
▁ⲏⲉ 100
▁ⲱϣ 100
ⲓⲧⲛ 100
ⲙⲓⲟ 100
ⲛⲁⲕ 100
ⲣⲧⲩ 100
▁ⲡⲣⲟ 100
ⲃⲟⲩⲥ 100
ⲃⲱⲱⲛ 100
ⲕⲟⲧⲥ 100
ⲙⲟⲕϩ 100
ⲣⲙⲣⲙ 100
ⲥⲱⲟⲩ 100
ⲧⲁⲩⲉ 100
ⲧⲟⲗⲏ 100
ⲧⲱⲣⲡ 100
ϣⲟⲣϣⲣ 100
ϩⲓⲥⲧⲁ 100
ϭⲟⲟⲙⲉ 100
▁ⲁⲓⲉⲓ 100
▁ⲛⲁϩⲣ 100
▁ⲟⲩⲱϩ 100
▁ⲧⲁⲕⲟ 100
ⲕⲟⲡⲟⲥ 100
ⲙⲛⲧⲛⲁ 100
ⲟⲩⲟⲙϥ 100
ⲣⲁⲛⲁϥ 100
ⲧⲁϫⲣⲉ 100
ⲧⲥⲃⲃⲉ 100
▁ϩⲁⲧⲉϥ 100
▁ϫⲉⲛⲉϥ 100
▁ϭⲙϭⲟⲙ 100
▁ⲉⲕⲏⲙⲉ 100
▁ⲉⲣⲉⲡⲉ 100
▁ⲙⲙⲓⲥⲉ 100
▁ⲛⲧⲉⲣϥ 100
ⲟⲩⲉⲃⲟⲗ 100
ⲡⲁⲣⲁⲅⲉ 100
ⲧⲁⲩⲣⲟⲩ 100
ϣⲟⲩϩⲏⲛⲉ 100
ϩⲏⲅⲉⲙⲱⲛ 100
▁ϩⲁⲛⲟⲃⲉ 100
▁ⲁϥⲥⲙⲟⲩ 100
▁ⲁⲩϫⲟⲟⲩ 100
▁ⲉϫⲛⲛⲉϥ 100
▁ⲉϫⲛⲛⲉⲩ 100
▁ⲉⲧⲉⲓⲣⲉ 100
▁ⲟⲩⲟⲉⲓϣ 100
ⲕⲁⲑⲓⲥⲧⲁ 100
ⲥⲩⲛⲑⲓⲟⲥ 100
........ 100
▁ϩⲛⲛϣⲏⲣⲉ 100
▁ϫⲉⲉϣⲱⲡⲉ 100
▁ⲛⲧⲁⲧⲉⲧⲛ 100
▁ⲧⲉⲥϩⲓⲙⲉ 100
▁ⲛⲁⲙⲉⲣⲁⲧⲉ 100
▁ⲛⲛⲓⲟⲩⲇⲁⲓ 100
▁ϩⲛⲛⲉϩⲃⲏⲩⲉ 100
▁ⲛⲣⲉϥⲣⲛⲟⲃⲉ 100
▁ⲕⲏ 100
ⲃⲟⲥ 100
ⲗⲁⲕ 100
ⲗⲉⲃ 100
ⲯⲱⲛ 100
ϩⲱⲧⲡ 100
▁ϣⲁⲥ 100
▁ϫⲉⲥ 100
ⲛⲏⲟⲩ 100
ⲟⲛⲟⲛ 100
ⲩⲗⲟⲥ 100
ϣϣⲕⲁⲕ 100
▁ⲉⲙⲙⲁ 100
▁ⲉⲧϩⲁ 100
▁ⲟⲩⲱⲙ 100
▁ⲧⲁⲁⲩ 100
ⲟⲩⲁϣϥ 100
ⲡⲉⲓⲑⲉ 100
ⲣⲱⲇⲏⲥ 100
▁ϣⲟⲙⲛⲧ 100
▁ϫⲉϥⲛⲁ 100
▁ϫⲉⲛⲧⲕ 100
▁ⲥⲱⲟⲩϩ 100
ⲃⲣⲁⲓⲟⲥ 100
ⲡⲉⲕϩⲏⲧ 100
ϫⲓϫⲉⲉⲩⲉ 100
▁ϩⲛⲧⲉⲧⲛ 100
▁ϫⲉⲉϣϫⲉ 100
▁ϫⲉⲉⲃⲟⲗ 100
▁ⲉϥϣⲟⲟⲡ 100
▁ⲉⲧⲣⲉⲧⲛ 100
▁ⲙⲙⲓⲛⲙⲙ 100
▁ⲙⲙⲟⲟϣⲉ 100
▁ⲙⲡⲉⲧⲛⲁ 100
▁ⲙⲡⲙⲟⲟⲩ 100
▁ⲙⲡⲛⲟⲃⲉ 100
▁ϩⲙⲡⲧⲣⲉⲩ 100
▁ϫⲉⲉⲧⲉⲧⲛ 100
▁ϫⲉⲟⲩⲛⲟⲩ 100
▁ⲉⲧⲉⲧⲛϫⲱ 100
▁ⲙⲡⲙⲛⲧⲣⲉ 100
▁ⲛⲧⲥⲟⲫⲓⲁ 100
▁ⲟⲩⲥϩⲓⲙⲉ 100
▁ⲁⲃⲏⲥⲁⲗⲱⲙ 100
▁ⲛϭⲓⲛⲣⲱⲙⲉ 100
▁ⲛϭⲓⲡⲗⲁⲟⲥ 100
▁ⲛⲧⲡⲓⲥⲧⲓⲥ 100
ⲙⲛⲧⲣⲙⲛϩⲏⲧ 100
ϣⲟⲧ 100
ϩⲣⲱ 100
ⲓⲡⲉ 100
ⲕⲟⲗ 100
ⲛⲏϫ 100
ⲣⲱⲕ 100
ⲧⲥⲁ 100
ⲫⲁⲥ 100
▁ⲉⲡⲓ 100
▁ⲙⲉϥ 100
ⲟⲗⲟⲙ 100
ⲡⲱⲣϫ 100
ⲣⲏⲙⲁ 100
ⲣⲱⲧⲉ 100
ⲥⲡⲓⲣ 100
ⲧⲙⲟⲩ 100
ϣⲃⲉⲉⲣ 100
▁ϫⲉⲁⲥ 100
▁ⲉⲓⲛⲉ 100
▁ⲉⲟⲩⲁ 100
▁ⲛⲅϫⲓ 100
▁ⲛⲥⲟⲛ 100
▁ⲡⲥⲟⲛ 100
▁ⲥⲁϣϥ 100
ⲕⲟⲛⲉⲓ 100
ⲙⲁⲥⲧⲓ 100
ⲛⲁⲭⲟⲥ 100
ϣⲧⲣⲧⲱⲣ 100
ϭⲟⲟⲩⲛⲉ 100
▁ϩⲙⲟⲟⲥ 100
▁ⲉϫⲛⲛⲁ 100
▁ⲙⲡⲟⲩⲉ 100
▁ⲙⲡⲣⲁⲛ 100
▁ⲛⲕⲣⲟϥ 100
▁ⲛⲧⲉⲟⲩ 100
ⲍⲉⲕⲓⲁⲥ 100
ⲧⲛⲁϩⲧⲉ 100
ⲭⲁⲛⲁⲁⲛ 100
▁ϫⲉⲛⲧⲁⲩ 100
▁ϫⲉⲟⲩϣⲁ 100
▁ⲉϥϫⲟⲥⲉ 100
▁ⲉⲧⲃⲉⲡⲉ 100
▁ⲉⲩϩⲟⲟⲩ 100
▁ⲙⲡⲉⲃⲟⲧ 100
ⲓⲟⲩⲟⲉⲓϣ 100
ⲙⲛⲧⲕⲟⲩⲓ 100
ⲡⲟⲛⲏⲣⲟⲥ 100
▁ⲙⲛⲡⲗⲁⲟⲥ 100
▁ⲙⲡⲉⲗⲁⲁⲩ 100
▁ⲙⲡⲉⲩⲙⲧⲟ 100
▁ϫⲉⲓⲏⲥⲟⲩⲥ 100
▁ⲁⲩⲟⲩⲁϩⲟⲩ 100
▁ⲛⲧⲁϥϣⲱⲡⲉ 100
▁ⲉⲣⲉⲡⲛⲟⲩⲧⲉ 100
▁ⲙⲛⲛⲉϥϣⲏⲣⲉ 100
▁ⲙⲛⲡⲓⲥⲣⲁⲏⲗ 100
▁ⲛⲧⲉⲕⲕⲗⲏⲥⲓⲁ 100
▁ⲛⲧⲉⲣⲟⲩⲥⲱⲧⲙ 100
▁ⲧϩⲓⲉⲣⲟⲩⲥⲁⲗⲏⲙ 100
ϯⲁ 100
ⲕⲩ 100
ⲩϩ 100
ϩⲙⲡ 100
ϭⲟⲧ 100
ⲅⲟⲣ 100
ⲇⲣⲁ 100
ⲛⲧⲕ 100
ⲧⲛϩ 100
ⲱⲟⲩ 100
ϣϩⲏⲧ 100
ϭⲱⲣϭ 100
▁ⲙⲉⲩ 100
▁ⲧⲉⲥ 100
▁ⲧⲟⲟ 100
ⲛⲟⲓⲁ 100
ⲣⲉϥⲣ 100
ⲣⲱϩⲧ 100
ⲥⲱⲣⲙ 100
ⲧⲓⲍⲉ 100
ⲭⲙⲁⲗ 100
ⲱⲣⲉⲓ 100
▁ϫⲉϣⲁ 100
▁ⲁⲩϫⲱ 100
▁ⲉⲡⲉⲥ 100
▁ⲉⲣⲱϥ 100
▁ⲙⲏⲧⲓ 100
▁ⲛϩⲙⲉ 100
▁ⲡϩⲏⲧ 100
▁ⲡⲣⲟⲥ 100
▁ⲧⲏⲣⲛ 100
ⲅⲉⲛⲟⲥ 100
ⲗⲏⲣⲟⲥ 100
ⲗⲱⲥⲓⲁ 100
ⲙⲉⲥⲧⲉ 100
ⲛⲁⲅⲕⲏ 100
ⲥⲙⲓⲛⲉ 100
ⲧⲁⲛⲁⲥ 100
ⲧⲃⲃⲏⲩ 100
▁ϩⲛⲧⲉⲥ 100
▁ⲉϥⲟⲩⲟ 100
▁ⲉⲟⲩⲱⲙ 100
▁ⲙⲛⲛⲉⲥ 100
▁ⲛϩⲟⲧⲉ 100
ⲕⲗⲟⲟⲗⲉ 100
ⲧⲥⲁⲃⲟⲓ 100
ϣⲁⲛϩⲧⲏϥ 100
▁ϫⲉⲛⲛⲉⲩ 100
▁ⲁϥⲧⲁⲁϥ 100
▁ⲁⲙⲁϩⲧⲉ 100
▁ⲁⲩⲧⲁⲁⲩ 100
▁ⲙⲙⲛⲧⲣⲉ 100
▁ⲛϭⲓⲛⲉϥ 100
▁ⲛⲁⲧⲁⲕⲟ 100
ⲟⲣⲫⲁⲛⲟⲥ 100
▁ϫⲉⲛⲧⲉⲧⲛ 100
▁ⲁⲃⲣⲁϩⲁⲙ 100
▁ⲁⲩⲙⲟⲩⲧⲉ 100
▁ⲁⲩⲟⲩⲱϣⲃ 100
▁ⲧⲉⲭⲁⲣⲓⲥ 100
ⲁⲅⲅⲉⲗⲓⲍⲉ 100
▁ⲙⲡⲉⲓϣⲁϫⲉ 100
▁ⲙⲡⲉⲧϩⲟⲟⲩ 100
▁ⲙⲡⲣⲣϩⲟⲧⲉ 100
▁ⲛϩⲣⲟⲩⲃⲏⲛ 100
▁ⲛⲧⲉⲣⲉϥⲉⲓ 100
▁ⲛⲧⲉⲣⲟⲩⲉⲓ 100
▁ⲛⲓⲱϩⲁⲛⲛⲏⲥ 100
▁ⲧⲉⲧⲛⲥⲟⲟⲩⲛ 100
▁ⲉⲕⲗⲏⲣⲟⲛⲟⲙⲉⲓ 100
ϣϥⲉ 100
ϣⲉⲡ 100
ϩⲱⲙ 100
ϯⲥⲟ 100
ⲉⲓⲣ 100
ⲟⲗϭ 100
ⲟⲣⲙ 100
ⲫⲓⲁ 100
ϣⲟⲩⲟ 100
ϩⲧⲏⲩ 100
▁ϩⲓⲉ 100
▁ⲉⲅⲁ 100
ⲃⲁⲥⲁ 100
ⲍⲱⲟⲛ 100
ⲕⲗⲟⲙ 100
ⲥⲧⲱⲧ 100
ⲧⲱⲱⲣ 100
▁ϣⲏⲣⲉ 100
▁ϩⲓⲡⲉ 100
▁ⲙⲡⲁⲣ 100
▁ⲛⲉⲙⲛ 100
▁ⲣⲁϣⲉ 100
▁ⲧϭⲓϫ 100
ⲟⲩⲟⲉⲓ 100
ⲧⲁⲫⲟⲥ 100
ⲭⲣⲏⲙⲁ 100
▁ϩⲓⲱⲟⲩ 100
▁ϫⲉⲛⲉⲩ 100
▁ⲉϣⲁϫⲉ 100
▁ⲉⲥϣⲁⲛ 100
▁ⲛϩⲏⲕⲉ 100
▁ⲛⲟⲩⲛⲁ 100
ⲣϩⲙϩⲁⲗ 100
ⲧⲁϩⲟⲟⲩ 100
ⲧⲁⲛⲟⲓⲁ 100
ϩⲓⲉⲣⲓⲭⲱ 100
ϭⲓⲃⲱⲧⲟⲥ 100
▁ϩⲛⲥⲓⲱⲛ 100
▁ϫⲉⲥⲱⲧⲙ 100
▁ⲁϥⲕⲁⲁϥ 100
▁ⲉⲡⲧⲏⲣϥ 100
▁ⲉⲣϣⲁⲛⲡ 100
▁ⲙⲛⲟⲩⲟⲛ 100
▁ⲙⲡⲥⲱⲙⲁ 100
▁ⲛⲛϩⲏⲕⲉ 100
▁ⲡⲉϫⲉⲓⲱ 100
▁ⲡⲉⲛⲧⲁⲩ 100
ⲕⲉⲛⲟⲩⲧⲉ 100
ⲧⲣⲁⲡⲉⲍⲁ 100
▁ϩⲙⲡⲁϩⲏⲧ 100
▁ⲁⲙⲱⲩⲥⲏⲥ 100
▁ⲁⲩⲙⲟⲟϣⲉ 100
▁ⲙⲛⲛⲣⲱⲙⲉ 100
▁ⲙⲡⲉⲥⲙⲟⲧ 100
▁ⲙⲡⲣⲧⲣⲉⲩ 100
▁ⲛϩⲉⲛⲛⲟϭ 100
▁ⲛϭⲓⲟⲩⲟⲛ 100
▁ⲛⲟⲩϩⲟⲟⲩ 100
ⲩⲥⲧⲏⲣⲓⲟⲛ 100
▁ϩⲛⲟⲩϩⲟⲟⲩ 100
▁ⲉⲣϣⲁⲛⲟⲩⲁ 100
▁ⲛϩⲉⲛϣⲁϫⲉ 100
▁ⲡⲇⲓⲕⲁⲓⲟⲥ 100
▁ⲉⲧϩⲛⲙⲡⲏⲩⲉ 100
▁ⲛⲛⲁⲥⲥⲩⲣⲓⲟⲥ 100
▁ⲙⲡⲉⲩⲁⲅⲅⲉⲗⲓⲟⲛ 100
ϣⲱⲙ 100
ϩⲣⲃ 100
ϩⲧⲟ 100
ϭⲥⲉ 100
ⲗⲁⲓ 100
ⲗⲟⲅ 100
ⲝⲓⲥ 100
ⲟϩⲉ 100
ⲣⲓⲧ 100
ϫⲣⲟⲡ 100
▁ⲉⲓⲁ 100
▁ⲛϩⲩ 100
▁ⲛⲟϭ 100
▁ⲛⲥⲩ 100
ⲁⲍⲁⲣ 100
ⲑⲁⲣⲁ 100
ⲗⲗⲟⲥ 100
ⲙⲛⲧⲥ 100
ⲥⲙⲟⲧ 100
ⲧⲙⲁⲓ 100
ϩⲁⲙⲏⲛ 100
▁ϥⲛⲁϯ 100
▁ⲙⲡⲕⲉ 100
▁ⲙⲧⲟⲛ 100
▁ⲛⲥⲉϯ 100
ⲗⲉⲩⲉⲓ 100
ⲙϩⲁⲁⲩ 100
▁ⲕⲁϩⲏⲩ 100
▁ⲛⲟⲩϭⲥ 100
ⲃⲟⲏⲑⲓⲁ 100
ⲧⲁⲑⲓⲟⲥ 100
▁ϩⲛⲡⲕⲁϩ 100
▁ϫⲉⲁⲙⲟⲩ 100
▁ⲛⲁⲧⲁⲁϥ 100
▁ⲛⲟⲩϫⲁⲓ 100
▁ⲛⲧⲟⲟⲧⲕ 100
▁ⲟⲩⲉⲃⲟⲗ 100
ⲛⲉϩⲃⲏⲩⲉ 100
ⲡⲉⲩⲟⲩⲟⲓ 100
▁ϩⲙⲡⲗⲁⲟⲥ 100
▁ⲉⲡⲉϩⲟⲩⲟ 100
▁ⲉⲩⲙⲟⲟϣⲉ 100
▁ⲛⲟⲩⲕⲱϩⲧ 100
▁ⲟⲩⲙⲏⲏϣⲉ 100
ⲭⲙⲁⲗⲱⲥⲓⲁ 100
▁ⲉⲛⲧⲁⲧⲉⲧⲛ 100
▁ⲙⲡⲁϫⲟⲉⲓⲥ 100
▁ⲛϫⲓⲛϭⲟⲛⲥ 100
▁ⲛⲛⲉⲧⲟⲩⲏϩ 100
▁ⲛⲧⲉⲣⲟⲩⲛⲁⲩ 100
▁ⲡⲉⲥⲩⲛⲑⲓⲟⲥ 100
▁ⲉⲣⲉⲡϩⲓⲉⲣⲉⲩⲥ 100
▁ⲛϩⲉⲛⲡⲉⲧϩⲟⲟⲩ 100
ⲩⲟ 100
ϩⲟⲡ 100
ϭⲟⲥ 100
ⲃⲉⲉ 100
ⲅⲟⲩ 100
ⲗⲟϥ 100
ⲛⲉⲣ 100
ϣⲱⲧⲉ 100
▁ⲉⲥⲟ 100
▁ⲉⲧϯ 100
▁ⲛⲅϯ 100
▁ⲛⲅⲣ 100
▁ⲛⲓⲁ 100
ⲅⲁⲗⲁ 100
ⲇⲉⲱⲛ 100
ⲇⲣⲁⲕ 100
ⲕⲧⲟⲓ 100
ⲙⲡⲉⲩ 100
ⲛⲏⲙⲁ 100
ⲛⲟⲉⲓ 100
ⲛⲟⲩⲁ 100
ϣⲟⲟⲩⲉ 100
ϭⲟⲣϭⲥ 100
▁ϥⲛⲁⲣ 100
▁ϥⲥⲏϩ 100
▁ϫⲉⲉⲣ 100
▁ϫⲓⲛⲁ 100
▁ⲛⲅⲁⲇ 100
▁ⲛⲙⲡⲁ 100
▁ⲛⲥⲁⲃ 100
ⲗⲁⲥⲥⲉ 100
ⲙⲉⲥⲧⲱ 100
ⲧⲏⲏⲃⲉ 100
▁ϩⲁⲣⲟⲓ 100
▁ϯⲛⲁⲕⲱ 100
▁ⲙⲟⲛⲟⲛ 100
▁ⲛⲓⲱⲁⲃ 100
▁ⲛⲛϭⲟⲙ 100
ⲉⲛⲧⲟⲗⲏ 100
ⲟⲩⲣⲱⲙⲉ 100
▁ϣⲁⲡⲛⲁⲩ 100
▁ϩⲓϫⲛⲧⲉ 100
▁ⲁϥⲕⲟⲧϥ 100
▁ⲉⲡⲉⲓⲇⲏ 100
▁ⲉⲧⲙⲧⲣⲉ 100
▁ⲙⲙⲏⲏϣⲉ 100
▁ⲙⲡⲉⲓⲱⲧ 100
ⲡⲉϥⲟⲩⲟⲓ 100
ⲡⲟⲛⲏⲣⲓⲁ 100
▁ϫⲉⲁⲧⲉⲧⲛ 100
▁ⲁϥⲟⲩⲱⲛϩ 100
▁ⲁϩⲉⲣⲁⲧϥ 100
▁ⲙⲡⲉⲛⲓⲡⲉ 100
▁ⲛⲛⲉϥϭⲓϫ 100
▁ⲡⲉⲛⲉⲓⲱⲧ 100
ⲇⲓⲁⲕⲟⲛⲉⲓ 100
ⲙⲙⲁⲑⲏⲧⲏⲥ 100
ⲡⲁⲣⲑⲉⲛⲟⲥ 100
▁ϩⲛⲧⲉϥϭⲓϫ 100
▁ϩⲛⲧⲉⲫⲩⲗⲏ 100
▁ⲙⲡⲉⲕⲗⲁⲟⲥ 100
▁ⲛⲛⲉϥⲙⲁⲑⲏⲧⲏⲥ 100
ⲓⲧ 100
ϩⲛⲉ 100
ϩⲣⲏ 100
ⲇⲓⲱ 100
ⲓϣⲉ 100
ⲝⲟⲙ 100
ⲟⲑⲉ 100
ⲟⲕϩ 100
ⲣⲉⲥ 100
ⲣⲱⲥ 100
ϣⲧⲁⲙ 100
ϣⲱⲣⲡ 100
▁ⲁⲕϯ 100
▁ⲉϩⲉ 100
▁ⲉⲁⲛ 100
▁ⲉⲕⲱ 100
▁ⲙⲉϩ 100
▁ⲙⲛⲉ 100
▁ⲛⲛⲟ 100
ⲉⲓⲧⲉ 100
ⲕⲁⲁⲕ 100
ⲗⲉⲩⲉ 100
ⲗⲏⲅⲏ 100
ⲙⲟⲩⲗ 100
ⲙⲣⲣⲉ 100
ⲟⲩⲱⲧ 100
ⲧⲣⲓⲁ 100
ⲧⲱⲃϩ 100
ϣⲟⲛⲧⲉ 100
ϩⲃⲟⲩⲣ 100
ϩⲏⲥⲓⲁ 100
▁ⲁⲛⲉⲓ 100
▁ⲙⲛϩⲛ 100
▁ⲙⲡⲁⲥ 100
▁ⲛϭⲓⲥ 100
▁ⲛⲣⲱϥ 100
▁ⲛⲥⲁⲣ 100
▁ⲛⲥⲱⲥ 100
▁ⲛⲧⲁⲥ 100
▁ⲡⲉⲧϯ 100
ⲡϣⲏⲣⲉ 100
ⲡⲗⲩⲅⲏ 100
ⲣⲁⲥⲓⲥ 100
ⲣⲏⲥⲓⲁ 100
ⲥⲩⲣⲓⲁ 100
ⲧⲁⲙⲟⲕ 100
ⲩⲥⲱⲧⲙ 100
▁ϩⲛⲛⲉⲥ 100
▁ϫⲉⲡⲉⲕ 100
▁ϯⲛⲁϫⲓ 100
▁ⲉϥⲟⲛϩ 100
▁ⲉⲛϣⲁⲛ 100
▁ⲉⲟⲩⲟⲛ 100
▁ⲉⲩⲛⲏⲩ 100
▁ⲉⲩⲛⲟϭ 100
▁ⲕⲉⲟⲩⲁ 100
▁ⲙⲡⲁⲣⲁ 100
▁ⲛⲟⲩϣⲏ 100
▁ⲛⲥⲁⲛⲉ 100
▁ⲧⲟⲟⲧϥ 100
ⲇⲣⲁⲕⲱⲛ 100
ⲓⲙⲟⲟϣⲉ 100
ⲕⲁⲡⲛⲟⲥ 100
ⲙⲡϣⲓⲛⲉ 100
ⲛⲟⲩⲏⲏⲃ 100
ⲟⲗⲟⲕⲁⲩ 100
ⲧⲁⲣⲭⲟⲥ 100
ϩⲓⲧⲟⲩⲱⲕ 100
▁ϫⲉⲛⲉⲣⲉ 100
▁ⲉⲣⲉⲧⲉϥ 100
▁ⲛⲟⲩⲣⲣⲟ 100
▁ⲛⲟⲩⲥⲟⲡ 100
▁ⲛⲟⲩⲱⲛⲉ 100
▁ⲛⲥⲁⲃⲟⲗ 100
ⲃⲁⲡⲧⲓⲍⲉ 100
ⲓⲕⲟⲥⲙⲟⲥ 100
ⲡⲟⲣⲛⲉⲓⲁ 100
ⲧⲥⲟⲩⲧⲱⲛ 100
ⲱϩⲁⲛⲛⲏⲥ 100
▁ⲉⲩⲉϣⲱⲡⲉ 100
▁ⲙⲡⲙⲏⲏϣⲉ 100
▁ⲛⲥⲉϣⲱⲡⲉ 100
▁ⲛⲭⲁⲛⲁⲁⲛ 100
▁ⲡⲉϥⲉⲓⲱⲧ 100
▁ⲡⲓⲥⲧⲉⲩⲉ 100
ⲇⲓⲁⲕⲟⲛⲓⲁ 100
ϩⲟⲙⲟⲗⲟⲅⲉⲓ 100
▁ⲛⲧⲁϥϫⲟⲟⲥ 100
▁ⲛⲛⲉⲡⲣⲟⲫⲏⲧⲏⲥ 100
ⲍⲏ 100
ⲡⲣ 100
ⲥϥ 100
ϣⲁⲕ 100
ϫⲏⲩ 100
▁ϫⲛ 100
ⲃⲉϥ 100
ⲃⲉⲗ 100
ⲃⲉⲣ 100
ⲕⲉⲧ 100
ⲟⲣϫ 100
ⲧⲙⲁ 100
ⲧⲛⲟ 100
ⲱⲣⲉ 100
ϩⲏⲃⲥ 100
▁ϩⲣⲁ 100
▁ⲉϩⲛ 100
▁ⲓⲱⲃ 100
▁ⲕⲓⲙ 100
▁ⲛⲥⲏ 100
▁ⲛⲥⲟ 100
▁ⲛⲧⲙ 100
▁ⲟⲛϩ 100
ⲁϣⲁⲓ 100
ⲃⲓⲏⲛ 100
ⲕⲟⲟⲩ 100
ⲗⲟⲩⲗ 100
ⲛϣⲟⲧ 100
ⲛⲟⲩϫ 100
ⲥⲱϣϥ 100
ⲧⲟⲙⲥ 100
ⲧⲥⲃⲱ 100
ⲧⲱϩⲥ 100
ⲩⲣⲟⲥ 100
ϩⲓⲕⲱⲛ 100
ϩⲧⲏⲧⲛ 100
▁ϩⲁⲧⲉ 100
▁ⲁⲙⲟⲩ 100
▁ⲁⲧⲉⲧ 100
▁ⲁⲩⲕⲁ 100
▁ⲁⲩⲕⲱ 100
▁ⲉϥⲉϯ 100
▁ⲙⲡⲥⲁ 100
▁ⲛⲁⲭⲓ 100
▁ⲛⲏⲟⲩ 100
▁ⲟⲉⲓⲕ 100
▁ⲟⲩⲙⲁ 100
▁ⲡⲉⲧⲓ 100
ⲑⲏⲥⲓⲥ 100
ⲕⲟⲛⲟⲙ 100
ⲕⲣⲙⲣⲙ 100
ⲙⲙⲟⲟⲩ 100
ⲡⲉⲓⲱⲧ 100
ⲥⲧⲟⲗⲏ 100
▁ϩⲛⲛⲉⲛ 100
▁ϫⲉⲟⲩⲁ 100
▁ⲙⲡϩⲁⲡ 100
▁ⲛϩⲟⲩⲛ 100
▁ⲡⲉϫⲉⲁ 100
ⲛⲉⲥⲟⲟⲩ 100
ⲧⲁⲙⲓⲟϥ 100
▁ϣⲧⲟⲣⲧⲣ 100
▁ϫⲉⲁⲛⲟⲛ 100
▁ⲉⲁⲧⲉⲧⲛ 100
▁ⲉⲛϣⲏⲣⲉ 100
▁ⲙⲡⲟⲉⲓⲕ 100
▁ⲛⲛⲧⲉⲧⲛ 100
▁ⲛⲥⲉⲛⲁϣ 100
▁ⲟⲩϣⲏⲣⲉ 100
▁ⲧⲉⲛⲧⲁⲥ 100
ⲡⲓⲑⲩⲙⲉⲓ 100
▁ϩⲓⲡϫⲁⲓⲉ 100
▁ϩⲙⲡϣⲁϫⲉ 100
▁ϩⲙⲡⲉⲣⲡⲉ 100
▁ϩⲙⲡⲕⲁⲕⲉ 100
▁ⲙⲡⲉϥⲣⲁⲛ 100
▁ⲛϯⲥⲟⲟⲩⲛ 100
▁ⲛⲉϩⲃⲏⲩⲉ 100
▁ⲛⲟⲩⲟⲉⲓⲛ 100
▁ⲁϥⲁⲙⲁϩⲧⲉ 100
▁ⲉⲡⲕⲟⲥⲙⲟⲥ 100
▁ⲙⲛⲙⲱⲩⲥⲏⲥ 100
▁ⲙⲡⲟⲛⲏⲣⲟⲥ 100
▁ⲛϩⲉⲛⲣⲱⲙⲉ 100
▁ⲛϭⲓⲫⲁⲣⲁⲱ 100
▁ⲛⲛⲉⲣⲣⲱⲟⲩ 100
▁ⲡⲉⲯⲁⲗⲙⲟⲥ 100
▁ϩⲙⲡⲕⲟⲥⲙⲟⲥ 100
▁ϫⲉⲁⲡⲛⲟⲩⲧⲉ 100
▁ⲛϭⲓⲡⲛⲟⲩⲧⲉ 100
▁.......... 100
▁ⲛⲛⲣⲉϥⲣⲛⲟⲃⲉ 100
ⲣϩ 100
ϩⲱⲕ 100
▁ⲉⲉ 100
ⲗⲟⲩ 100
ⲙⲛⲁ 100
ⲙⲟⲛ 100
ⲛⲓⲁ 100
ⲡⲁϣ 100
ⲡⲁⲧ 100
ⲡⲟⲟ 100
ⲣⲱⲑ 100
ⲧⲏⲓ 100
ϩⲏⲧⲥ 100
ϭⲱⲧⲡ 100
▁ⲉⲓⲟ 100
▁ⲉⲧⲕ 100
▁ⲉⲧⲥ 100
▁ⲛϣⲓ 100
▁ⲱⲣⲕ 100
ⲙⲏⲥⲉ 100
ⲙⲗⲁϩ 100
ⲛⲓⲡⲉ 100
ⲟⲩⲉⲓ 100
ⲣⲟⲩⲃ 100
ⲥⲥⲁⲓ 100
ϣⲙⲟⲩⲛ 100
ϥⲉⲟⲟⲩ 100
ϩⲉⲣⲁⲧ 100
▁ϩⲁⲡⲉ 100
▁ϫⲉⲧⲛ 100
▁ⲉⲥⲛⲁ 100
▁ⲉⲧϫⲓ 100
▁ⲉⲧⲉⲡ 100
▁ⲙⲛϩⲉ 100
▁ⲙⲡϣⲁ 100
▁ⲡⲉⲧⲟ 100
▁ⲡⲱⲃϣ 100
ⲙⲉⲣⲟⲥ 100
ⲣⲉⲙⲏⲧ 100
ⲧⲁⲗⲁⲓ 100
▁ϩⲙⲡⲉⲥ 100
▁ϫⲉⲛⲧⲉ 100
▁ⲉⲛⲧⲁⲛ 100
▁ⲙⲡϩⲏⲧ 100
▁ⲛϩⲉⲛⲁ 100
▁ⲛⲙϩⲉⲛ 100
▁ⲡⲁⲣⲁⲛ 100
▁ⲡⲉⲧϫⲱ 100
ⲙⲟⲥⲩⲛⲏ 100
ⲟⲗⲟⲙⲱⲛ 100
ⲥⲟⲟⲩϩⲥ 100
ϩⲁⲣϣϩⲏⲧ 100
ϩⲟⲩⲉⲓⲧⲉ 100
▁ϩⲓϫⲛⲟⲩ 100
▁ϫⲉⲛⲧⲁⲓ 100
▁ⲁϥϣⲗⲏⲗ 100
▁ⲉϩⲁⲣⲉϩ 100
▁ⲉⲙⲟⲟϣⲉ 100
▁ⲉⲩϣⲁϫⲉ 100
▁ⲕⲁⲧⲁⲡⲉ 100
▁ⲛϣⲉⲉⲣⲉ 100
▁ⲛⲁϣⲏⲣⲉ 100
▁ⲛⲛⲉⲛⲧⲁ 100
▁ⲛⲛⲉⲧⲟⲩ 100
ⲟⲩⲥϩⲓⲙⲉ 100
ⲡⲉⲓϣⲁϫⲉ 100
ⲣⲧⲩⲣⲓⲟⲛ 100
ϩⲉⲃⲣⲁⲓⲟⲥ 100
▁ϩⲛⲙⲡⲏⲩⲉ 100
▁ϩⲛⲧⲥⲏϥⲉ 100
▁ϫⲉϩⲁⲙⲏⲛ 100
▁ⲉⲥⲉϣⲱⲡⲉ 100
▁ⲉⲧⲙⲟⲟϣⲉ 100
▁ⲙⲛⲧⲉⲩϣⲏ 100
▁ⲙⲡⲉⲥϩⲁⲓ 100
▁ⲙⲡⲓⲥⲧⲟⲥ 100
▁ⲛⲧⲉⲧⲛⲧⲙ 100
ⲕⲁⲑⲁⲣⲧⲟⲛ 100
▁ⲙⲙⲓⲛⲙⲙⲟϥ 100
▁ⲛϭⲓⲡⲣⲱⲙⲉ 100
▁ⲛⲧⲉⲧⲛⲃⲱⲕ 100
ⲟⲗⲟⲕⲁⲩⲧⲱⲙⲁ 100
▁ⲛⲁⲡⲟⲥⲧⲟⲗⲟⲥ 100
▁ⲉⲧⲡⲁⲣⲉⲙⲃⲟⲗⲏ 100
▁ⲕⲁⲧⲁⲛⲉⲩⲇⲏⲙⲟⲥ 100
▁ⲙⲛⲛⲉⲡⲣⲉⲥⲃⲩⲧⲉⲣⲟⲥ 100
ϫⲉⲕ 100
ϭⲏⲣ 100
▁ⲁϩ 100
▁ⲁⲗ 100
ⲑⲣⲁ 100
ⲡⲓⲉ 100
ⲧⲟⲣ 100
ⲧⲡⲉ 100
ϣⲟⲡⲧ 100
ϥⲓⲧϥ 100
ϩⲙⲉϥ 100
▁ⲁⲓⲁ 100
▁ⲉⲁⲓ 100
▁ⲙⲡⲛ 100
▁ⲛⲧⲱ 100
▁ⲡⲁⲣ 100
▁ⲧⲉⲛ 100
ⲃⲟⲉⲥ 100
ⲓⲕⲓⲁ 100
ⲟⲙⲡⲉ 100
ⲣⲁϩⲧ 100
ⲣⲱϣⲉ 100
ⲥⲁϩⲉ 100
ⲧⲁⲕⲉ 100
ⲩⲧⲟⲥ 100
ϩⲧⲱⲱⲣ 100
ϫⲓϭⲟⲗ 100
▁ϩⲁⲟⲩ 100
▁ϫⲉⲛϯ 100
▁ⲁϥⲱϣ 100
▁ⲁϩⲉⲛ 100
▁ⲉϥϩⲛ 100
▁ⲉⲛⲓⲙ 100
▁ⲉⲣϣⲁ 100
▁ⲙⲡⲱⲧ 100
▁ⲛϩⲣⲁ 100
ⲙⲏⲏⲧⲉ 100
ⲛⲟⲩϥⲉ 100
ⲡⲁⲣⲁⲅ 100
ⲡⲗⲁⲟⲥ 100
ⲥⲟⲟⲩϩ 100
ⲥⲟⲧⲡϥ 100
ⲧⲏⲅⲟⲣ 100
▁ϣⲁⲛⲧⲓ 100
▁ⲉⲛⲉⲧⲛ 100
▁ⲉⲣⲱⲙⲉ 100
▁ⲙⲫⲩⲗⲏ 100
▁ⲛⲉⲧϩⲛ 100
▁ⲥⲉⲛⲏⲩ 100
ⲛⲉⲕⲃⲁⲗ 100
ⲛⲟⲩϫⲁⲓ 100
ⲧⲁⲩⲣⲟⲥ 100
ⲧⲟⲩⲛⲉⲥ 100
▁ϩⲙⲡⲉⲧⲛ 100
▁ⲉⲧⲃⲉⲛⲉ 100
▁ⲕⲥⲟⲟⲩⲛ 100
▁ⲙⲡⲉⲕϩⲟ 100
▁ⲙⲡⲟⲩϩⲉ 100
▁ⲡⲉϥⲥⲟⲛ 100
▁ⲡⲉⲧⲛⲏⲩ 100
▁ⲧⲁⲅⲁⲡⲏ 100
▁ⲧⲛⲛⲟⲟⲩ 100
ⲟⲓⲕⲟⲛⲟⲙ 100
ⲡⲓⲥⲧⲟⲗⲏ 100
ⲥⲁⲙⲁⲣⲓⲁ 100
▁ϩⲛⲟⲩⲙⲟⲩ 100
▁ϫⲉⲛⲣⲱⲙⲉ 100
▁ⲁϥⲁⲣⲭⲉⲓ 100
▁ⲁϥⲟⲩⲱϣⲧ 100
▁ⲉϥϣⲁⲛⲉⲓ 100
▁ⲉⲓⲏⲥⲟⲩⲥ 100
▁ⲙⲡϫⲱⲱⲙⲉ 100
▁ⲙⲡⲉⲥⲛⲟϥ 100
ⲛⲁⲥⲧⲁⲥⲓⲥ 100
▁ϩⲛⲟⲩⲙⲟⲟⲩ 100
▁ⲁⲩⲣϣⲡⲏⲣⲉ 100
▁ⲙⲙⲁⲇⲓϩⲁⲙ 100
▁ⲛⲛⲉϥϣⲏⲣⲉ 100
▁ⲛⲧⲉⲥϩⲓⲙⲉ 100
▁ϫⲉⲡⲁϫⲟⲉⲓⲥ 100
▁ⲙⲡⲉⲛⲛⲟⲩⲧⲉ 100
▁ⲛⲧⲉⲧⲛϣⲱⲡⲉ 100
▁ⲛϭⲓⲛⲓⲟⲩⲇⲁⲓ 100
▁ⲉϩⲉⲛⲡⲉⲧϩⲟⲟⲩ 100
▁ⲟⲩⲡⲉⲧϣⲟⲩⲉⲓⲧ 100
▁ⲛⲛⲁϩⲣⲙⲡⲛⲟⲩⲧⲉ 100
ⲁⲙ 100
ⲉϣ 100
ϩⲱⲗ 100
ϫⲁϥ 100
ⲁⲃⲏ 100
ⲇⲓⲥ 100
ⲛⲧⲱ 100
ⲟⲣⲁ 100
ⲡⲟⲛ 100
ⲡⲟⲧ 100
ⲥⲙⲛ 100
ⲥⲭⲏ 100
ⲭⲓⲁ 100
▁ⲙⲁⲗ 100
▁ⲛⲏⲓ 100
▁ⲡⲥⲁ 100
▁ⲧⲃⲃ 100
ⲃⲣⲣⲉ 100
ⲉⲛⲉϩ 100
ⲙⲉⲱⲛ 100
ⲛⲟⲩϩ 100
ⲟⲙⲧⲉ 100
ⲡⲓⲧⲉ 100
ⲡⲱϣⲥ 100
ⲧⲁⲓⲟ 100
ⲫⲑⲁⲉ 100
▁ϯⲛⲏⲩ 100
▁ⲁϥⲕⲁ 100
▁ⲉⲡⲉⲛ 100
▁ⲉⲡⲥⲁ 100
▁ⲛⲅⲉⲓ 100
▁ⲛⲉⲓⲉ 100
▁ⲛⲉⲙⲁ 100
▁ⲛⲟⲩϣ 100
▁ⲧⲉⲛⲁ 100
ⲣϩⲟⲩⲟ 100
ⲥⲟⲩⲧⲛ 100
ⲧⲁⲅⲙⲁ 100
ⲧⲟⲟⲧϥ 100
ⲭⲓⲗⲓⲁ 100
ϣⲉⲟⲉⲓϣ 100
▁ϩⲓⲧⲟⲩ 100
▁ϩⲛⲣⲱϥ 100
▁ϫⲉⲁⲙⲏ 100
▁ⲁⲁⲣⲱⲛ 100
▁ⲉⲉⲓⲙⲉ 100
▁ⲉⲛϭⲓϫ 100
▁ⲙⲏⲡⲱⲥ 100
▁ⲙⲛⲧⲣⲉ 100
▁ⲛϩⲏⲧⲉ 100
▁ⲛⲃⲗⲗⲉ 100
▁ⲛⲕⲁⲕⲉ 100
▁ⲛⲕⲛⲧⲉ 100
▁ⲛⲥⲱⲧⲛ 100
▁ⲟⲩⲁⲁϥ 100
▁ⲟⲩⲁⲁⲃ 100
▁ⲡⲉⲃⲟⲗ 100
▁ⲡⲙⲟⲟⲩ 100
ⲉⲛⲕⲟⲧⲕ 100
ⲡⲉⲧⲣⲟⲥ 100
ⲡⲗⲁⲥⲥⲉ 100
ⲥⲧⲩⲗⲟⲥ 100
ⲫⲣⲁⲅⲓⲥ 100
ϩⲟⲣⲁⲥⲓⲥ 100
▁ϩⲛⲧⲙⲛⲧ 100
▁ⲙⲁⲩⲁⲁⲧ 100
▁ⲛϩⲟⲙⲛⲧ 100
▁ⲛϩⲟⲟⲩⲧ 100
▁ⲛⲁⲛⲟⲩⲥ 100
▁ⲛⲕⲉⲥⲟⲡ 100
▁ⲛⲛⲟⲉⲓⲕ 100
▁ⲛⲣⲙⲙⲁⲟ 100
▁ⲛⲥⲟⲫⲟⲥ 100
▁ⲛⲧⲁⲓⲉⲓ 100
▁ⲛⲧⲥⲏϥⲉ 100
▁ⲧⲥⲟⲫⲓⲁ 100
ⲡⲟⲛⲏⲣⲟⲛ 100
▁ϩⲁⲧⲉϥϩⲏ 100
▁ⲙⲡⲁⲩⲗⲟⲥ 100
▁ⲙⲡⲉϥⲥⲟⲛ 100
▁ⲛⲁⲅⲁⲑⲟⲛ 100
▁ⲛⲉϥϣⲟⲟⲡ 100
▁ⲛⲧⲉϥϭⲟⲙ 100
▁ⲡⲕⲟⲥⲙⲟⲥ 100
ⲙⲛⲧⲁⲧϩⲏⲧ 100
ϩⲩⲡⲟⲙⲉⲓⲛⲉ 100
▁ϩⲙⲡⲉⲥⲛⲟϥ 100
▁ⲁⲩϣⲧⲟⲣⲧⲣ 100
▁ⲙⲙⲁⲑⲏⲧⲏⲥ 100
▁ⲙⲡⲁⲥⲉⲃⲏⲥ 100
▁ⲙⲡⲟⲩⲟⲉⲓⲛ 100
▁ⲛⲧⲉϥⲙⲁⲁⲩ 100
▁ⲛⲧⲉϥⲟⲣⲅⲏ 100
▁ⲛⲧⲉⲡϩⲩⲗⲏ 100
▁ⲟⲩⲡⲛⲉⲩⲙⲁ 100
▁ⲡⲉϫⲉⲡⲣⲣⲟ 100
▁ⲡⲉⲛϫⲟⲉⲓⲥ 100
▁ⲧⲉϥⲥϩⲓⲙⲉ 100
ⲭⲓⲗⲓⲁⲣⲭⲟⲥ 100
▁ⲙⲡⲇⲓⲕⲁⲓⲟⲥ 100
▁ⲙⲡⲉⲕϩⲙϩⲁⲗ 100
▁ⲛⲥⲁⲡϫⲟⲉⲓⲥ 100
▁ⲁⲩϯⲡⲉⲩⲟⲩⲟⲓ 100
▁ⲛⲟⲩⲇⲓⲁⲑⲏⲕⲏ 100
▁ⲙⲡⲙⲁⲣⲧⲩⲣⲓⲟⲛ 100
ⲃⲗ 100
ⲗϫ 100
ϭⲁⲓ 100
▁ⲅⲉ 100
▁ⲥⲓ 100
ⲁⲣⲓ 100
ⲕⲓⲛ 100
ⲗⲓⲙ 100
ⲛⲓⲙ 100
ⲣⲩⲥ 100
ⲥⲟⲥ 100
ⲥⲱⲣ 100
ⲧϥⲓ 100
ⲧⲃⲁ 100
ⲧⲱϩ 100
ⲫⲣⲟ 100
ⲭⲓⲥ 100
ϩⲣⲁⲕ 100
ϭⲣⲱϩ 100
ϯⲧⲱⲛ 100
▁ⲉϥⲓ 100
▁ⲡⲣⲏ 100
ⲅⲓⲟⲥ 100
ⲉⲓⲇⲱ 100
ⲗⲓⲍⲉ 100
ⲗⲟⲟⲩ 100
ⲙⲛⲱⲛ 100
ⲛⲟⲩⲱ 100
ⲟⲗⲥⲗ 100
ⲟⲟⲩⲛ 100
ⲟⲩⲏⲩ 100
ⲣⲁⲧⲥ 100
ⲣⲃⲟⲗ 100
ⲥⲉⲛⲁ 100
ⲧⲓⲙⲁ 100
ⲧⲱϩⲙ 100
ⲧⲱⲗⲙ 100
ϩⲁⲧⲏⲩ 100
▁ϣⲁⲟⲩ 100
▁ϫⲉⲛⲅ 100
▁ⲁⲥϫⲓ 100
▁ⲉϥⲕⲏ 100
▁ⲛⲥⲁϥ 100
▁ⲛⲧⲟϣ 100
▁ⲡⲱⲛϩ 100
ⲑⲉⲧⲉⲓ 100
ⲛⲁⲇⲁⲃ 100
ⲛⲟⲩⲱϩ 100
ⲧⲁϩⲟϥ 100
ⲧⲟⲩϫⲉ 100
ⲫⲏⲧⲏⲥ 100
ϩⲉⲃⲱⲱⲛ 100
ϩⲟⲩⲟⲣⲧ 100
ϩⲥⲁϩⲛⲉ 100
▁ϥⲛⲁϫⲓ 100
▁ϩⲁⲛⲉϥ 100
▁ϩⲙϩⲁⲗ 100
▁ϯϣⲟⲟⲡ 100
▁ϯⲛⲁϫⲱ 100
▁ⲁⲓⲃⲱⲕ 100
▁ⲉϩⲣⲁϥ 100
▁ⲉⲡⲣⲣⲟ 100
▁ⲕⲁⲧⲁⲧ 100
▁ⲛⲧⲁⲩⲥ 100
▁ⲛⲧⲉⲡⲉ 100
▁ⲛⲧⲉⲣⲛ 100
▁ⲥⲉⲛⲁⲣ 100
▁ⲧϩⲓⲙⲉ 100
ⲉⲓⲟⲟⲩⲉ 100
ⲏⲗⲩⲧⲟⲥ 100
ⲙⲁⲣⲣⲟⲥ 100
ⲙⲁⲥⲕⲟⲥ 100
ⲙⲉⲗⲉⲧⲁ 100
ⲙⲟⲕⲙⲉⲕ 100
ⲧⲁⲛϩⲟⲩ 100
ⲭⲁⲣⲓⲍⲉ 100
▁ϩⲁϩⲧⲏϥ 100
▁ϩⲓϫⲱⲟⲩ 100
▁ϩⲙⲡⲧⲣⲁ 100
▁ϫⲉϩⲣⲁⲓ 100
▁ϫⲉⲛϯⲛⲁ 100
▁ϫⲉⲛⲧⲁϥ 100
▁ⲁϥⲣⲓⲙⲉ 100
▁ⲁϥⲧⲁⲁⲩ 100
▁ⲁϥⲧⲣⲉⲩ 100
▁ⲉϥⲛⲁϣⲧ 100
▁ⲉⲣⲉϩⲉⲛ 100
▁ⲛϫⲟⲉⲓⲥ 100
▁ⲛⲧⲟⲟⲧⲥ 100
▁ⲛⲧⲥⲁⲣⲝ 100
ⲉⲓⲇⲱⲗⲟⲛ 100
ⲛⲧⲟⲩⲉⲓⲏ 100
ⲧⲁⲙⲓⲟⲟⲩ 100
ⲧⲉⲕⲯⲩⲭⲏ 100
▁ϩⲛⲟⲩϩⲁⲡ 100
▁ϩⲛⲟⲩϭⲟⲙ 100
▁ϩⲛⲟⲩⲱⲣϫ 100
▁ϫⲉⲡⲉⲧⲛⲁ 100
▁ϯⲛⲁⲉⲓⲛⲉ 100
▁ⲁⲩⲟⲩⲱϣⲧ 100
▁ⲁⲩⲣϩⲟⲧⲉ 100
▁ⲕⲁⲧⲁⲡⲉϥ 100
▁ⲙⲡⲉⲕⲥⲟⲛ 100
▁ⲛⲉⲩϣⲟⲟⲡ 100
▁ⲛⲛⲉⲥⲛⲏⲩ 100
▁ⲛⲛⲉⲩϭⲓϫ 100
▁ⲛⲥⲉϫⲟⲟⲥ 100
▁ⲡⲉⲧⲟⲩⲏϩ 100
▁ϫⲉⲡⲁⲉⲓⲱⲧ 100
▁ⲙⲁⲧⲟⲩϫⲟⲓ 100
▁ⲛⲣⲉϥⲙⲓϣⲉ 100
▁ⲛⲧⲉⲧⲛⲛⲁⲩ 100
ⲉⲓⲱϩⲁⲛⲛⲏⲥ 100
ⲝⲟⲙⲟⲗⲟⲅⲉⲓ 100
ⲭⲉⲓⲙⲁⲣⲣⲟⲥ 100
▁......... 100
▁ⲉⲛⲧⲁϥϫⲟⲟⲥ 100
▁ⲛⲁⲃⲏⲥⲁⲗⲱⲙ 100
▁ⲛⲛⲉⲛⲉⲓⲟⲧⲉ 100
▁ⲙⲡⲥⲁⲃⲃⲁⲧⲟⲛ 100
▁ⲛⲧⲉⲣⲉϥⲥⲱⲧⲙ 100
▁ⲛⲛⲉⲭⲁⲗⲇⲁⲓⲟⲥ 100
▁ⲛⲧⲟⲓⲕⲟⲩⲙⲉⲛⲏ 100
▁ⲛⲧⲡⲁⲣⲉⲙⲃⲟⲗⲏ 100
▁ⲡⲉϫⲉⲥⲁⲙⲟⲩⲏⲗ 100
ⲡⲕ 100
ϩⲏⲗ 100
ϩⲛⲧ 100
▁ϥⲟ 100
▁ϩⲩ 100
▁ⲛϫ 100
ⲁⲓⲥ 100
ⲁⲣⲏ 100
ⲗⲏⲧ 100
ⲗⲥⲱ 100
ⲛⲏⲃ 100
ⲟⲩⲭ 100
ⲧⲁϥ 100
ϣⲣϣⲱ 100
ϩⲓϫⲛ 100
ϭⲣⲟϭ 100
▁ϩⲛⲉ 100
▁ϯⲟⲩ 100
▁ⲁⲩⲉ 100
▁ⲉⲕⲟ 100
▁ⲏⲟⲩ 100
▁ⲛⲃⲗ 100
▁ⲧⲙⲉ 100
ⲃⲁⲱⲛ 100
ⲃⲏⲙⲁ 100
ⲅⲓⲍⲉ 100
ⲉⲓⲁⲥ 100
ⲝⲁⲛⲉ 100
ⲣⲓⲁⲥ 100
ⲥⲟⲃⲕ 100
ϣⲁⲛⲧⲁ 100
ϣⲁⲛⲧⲙ 100
ϥⲓⲧⲟⲩ 100
ϫⲓⲥⲃⲱ 100
ϫⲛⲁⲁⲩ 100
▁ϩⲓⲥⲉ 100
▁ϯⲛⲁⲣ 100
▁ⲉϥϫⲓ 100
▁ⲉϥⲟϣ 100
▁ⲉⲙⲡϥ 100
▁ⲉⲡⲟⲩ 100
▁ⲉⲧⲙⲉ 100
▁ⲉⲧⲱⲛ 100
▁ⲉⲩⲕⲏ 100
▁ⲙⲡⲉⲡ 100
▁ⲛϩⲁⲉ 100
▁ⲛϭⲱⲃ 100
▁ⲛⲛⲕⲁ 100
▁ⲟⲩⲱⲛ 100
▁ⲧⲛⲁⲩ 100
ⲇⲱⲗⲟⲛ 100
ⲕⲁⲧⲟⲛ 100
ⲗⲟⲅⲭⲏ 100
ⲙⲁⲓⲟⲥ 100
ⲙⲡⲩⲗⲏ 100
ⲛⲧⲏⲧⲛ 100
ⲟⲩⲱⲗⲥ 100
ⲥⲁⲛⲟⲩ 100
ⲧⲁⲗⲟϥ 100
ⲧⲥⲁⲃⲉ 100
ϣⲟⲩⲱⲟⲩ 100
▁ⲁⲡⲕⲁϩ 100
▁ⲉⲣⲉⲧⲉ 100
▁ⲉⲧⲁⲁϥ 100
▁ⲙⲡⲣⲟⲩ 100
▁ⲡⲇⲟⲩⲝ 100
ⲃⲟⲩⲛⲟⲥ 100
ⲇⲉⲕⲓⲁⲥ 100
ⲡⲁⲧⲣⲓⲁ 100
ⲡⲉⲩϩⲏⲧ 100
ⲣⲟⲕϩⲟⲩ 100
▁ϣⲁⲧⲛⲁⲩ 100
▁ϩⲛⲧⲙⲉϩ 100
▁ϫⲉⲉϥⲛⲁ 100
▁ϫⲉⲛⲧϩⲉ 100
▁ϫⲉⲡⲥⲁϩ 100
▁ϯⲛⲁⲃⲱⲕ 100
▁ⲁϥⲟⲩⲱⲙ 100
▁ⲁⲙⲏⲓⲧⲛ 100
▁ⲁⲩⲕⲱⲧⲉ 100
▁ⲉϥϫⲁϩⲙ 100
▁ⲉⲃⲟⲗϩⲙ 100
▁ⲉⲡϣⲏⲣⲉ 100
▁ⲉⲣⲉⲛⲉⲩ 100
▁ⲉⲧⲉⲣⲉⲡ 100
▁ⲙⲙⲉⲉⲣⲉ 100
▁ⲙⲡⲟⲩⲱϣ 100
▁ⲛⲉϩⲟⲟⲩ 100
▁ⲛⲥⲁϩⲉⲛ 100
▁ⲡⲁⲗⲁⲟⲥ 100
▁ⲡⲉϥⲣⲁⲛ 100
▁ⲡⲉⲛⲧⲁⲕ 100
▁ⲥⲉⲛⲁϫⲓ 100
▁ⲧⲉⲫⲩⲗⲏ 100
ⲙⲙⲱⲩⲥⲏⲥ 100
ⲥⲁⲗⲡⲓⲅⲝ 100
ⲥⲁⲗⲡⲓⲍⲉ 100
ⲧⲟⲩⲛⲟⲥϥ 100
▁ϩⲙⲡⲉϥⲏⲓ 100
▁ⲉⲛⲁϣⲁϫⲉ 100
▁ⲉⲡⲉϩⲟⲟⲩ 100
▁ⲙⲡⲉϥϩⲏⲧ 100
▁ⲙⲡⲉⲕϩⲏⲧ 100
▁ⲙⲡⲣϫⲟⲟⲥ 100
▁ⲛⲁⲓⲁⲧⲟⲩ 100
▁ⲛⲧⲉⲧⲛϫⲓ 100
ⲁⲃⲏⲥⲁⲗⲱⲙ 100
ⲛⲟⲩⲉⲣⲏⲧⲉ 100
▁ϩⲓϫⲛⲡⲕⲁϩ 100
▁ϩⲛⲧⲉⲟⲩϣⲏ 100
▁ⲉⲛⲉϩⲃⲏⲩⲉ 100
▁ⲛⲓⲱⲛⲁⲑⲁⲛ 100
▁ⲛⲛⲉⲩϣⲏⲣⲉ 100
▁ⲛⲟⲩⲑⲩⲥⲓⲁ 100
▁ⲡⲉⲧⲙⲟⲟϣⲉ 100
▁ⲉⲧⲛⲁⲛⲟⲩⲟⲩ 100
▁ⲉⲧⲣⲉϥϣⲱⲡⲉ 100
▁ⲙⲛⲧⲥⲛⲟⲟⲩⲥ 100
▁ⲙⲡⲁⲅⲅⲉⲗⲟⲥ 100
▁ⲛⲛⲉⲧⲙⲟⲟⲩⲧ 100
ⲡⲣⲟⲥⲏⲗⲩⲧⲟⲥ 100
▁ϩⲛⲟⲩⲡⲓⲥⲧⲓⲥ 100
▁ⲛⲧⲕⲟⲓⲃⲱⲧⲟⲥ 100
ⲕⲁⲧⲟⲛⲧⲁⲣⲭⲟⲥ 100
▁ⲙⲡⲉⲧϩⲓⲧⲟⲩⲱϥ 100
▁ϩⲛⲟⲩⲇⲓⲕⲁⲓⲟⲥⲩⲛⲏ 100
▁ⲙⲫ 100
ⲗⲱⲙ 100
ⲛⲕⲁ 100
ⲣⲏⲛ 100
ⲥⲏϭ 100
ϣⲟⲡϥ 100
▁ⲉⲩϯ 100
▁ⲥⲃⲱ 100
ⲁⲓⲁⲓ 100
ⲉⲓⲏⲩ 100
ⲕⲓⲃⲉ 100
ⲗⲁⲙⲡ 100
ⲙⲉϣⲧ 100
ⲙⲟⲣϥ 100
ⲙⲟⲩⲣ 100
ⲙⲡⲉⲓ 100
ⲟⲇⲟⲗ 100
ⲧⲁϣⲟ 100
ⲧⲁⲙⲉ 100
ⲩⲥⲓⲥ 100
ϣⲟⲡⲟⲩ 100
ϩⲓⲛⲏⲃ 100
▁ϩⲏⲧⲥ 100
▁ϩⲛⲕⲁ 100
▁ϫⲟⲟϥ 100
▁ⲉϫⲉⲛ 100
▁ⲕⲱⲧⲉ 100
▁ⲙⲡϩⲟ 100
▁ⲛⲁⲣⲁ 100
▁ⲛⲥⲁⲧ 100
▁ⲡⲙⲟⲩ 100
▁ⲥϩⲁⲓ 100
ⲑⲁⲙⲁⲣ 100
ⲗⲁⲁⲧⲉ 100
ⲗⲁⲧⲏⲥ 100
ⲛⲟϥⲣⲉ 100
ⲡⲁⲣⲭⲏ 100
ϫⲓϫⲉⲟⲩ 100
▁ϩⲛⲧⲉⲓ 100
▁ϫⲉⲛⲛⲁ 100
▁ⲉⲛϥⲛⲁ 100
▁ⲉⲛⲉⲣⲉ 100
▁ⲉⲩⲛⲁⲣ 100
▁ⲙⲛⲡⲉⲥ 100
▁ⲛⲁⲃⲱⲕ 100
▁ⲛⲛⲉⲕⲉ 100
▁ⲛⲥⲉⲉⲓ 100
▁ⲡⲛⲟⲃⲉ 100
▁ⲥⲉⲛⲁϯ 100
ⲓⲉⲣⲱⲟⲩ 100
ⲗⲟⲩⲗⲁⲓ 100
ⲛⲉϩⲟⲟⲩ 100
ⲡⲁⲣⲁⲃⲁ 100
ⲥⲟⲩⲱⲛϥ 100
ⲩⲫⲣⲁⲛⲉ 100
ⲫⲣⲟⲛⲉⲓ 100
ϭⲙⲡϣⲓⲛⲉ 100
▁ϣⲁⲛⲧⲉϥ 100
▁ϩⲓⲧⲛⲛⲉ 100
▁ϫⲉⲉⲓⲛⲁ 100
▁ⲁϥⲧⲁⲙⲓ 100
▁ⲁⲓϣⲱⲡⲉ 100
▁ⲁⲓⲉⲓⲙⲉ 100
▁ⲉϫⲙⲡⲉⲕ 100
▁ⲉϫⲛϩⲉⲛ 100
▁ⲉⲁⲙⲛⲧⲉ 100
▁ⲉⲡⲉⲕⲣⲟ 100
▁ⲉⲧⲉⲧⲛⲟ 100
▁ⲉⲧⲕⲱⲧⲉ 100
▁ⲉⲩϣⲟⲟⲡ 100
▁ⲙⲡⲓⲉⲣⲟ 100
▁ⲛϣⲡⲏⲣⲉ 100
▁ⲛⲅⲥⲱⲧⲙ 100
▁ⲛⲗⲉⲩⲉⲓ 100
▁ⲛⲧⲁϥⲉⲓ 100
▁ⲟⲩⲕⲟⲩⲓ 100
▁ⲡⲁⲣⲭⲱⲛ 100
ⲧⲛⲛⲟⲟⲩⲧ 100
ϣⲁⲩⲙⲟⲩⲧⲉ 100
▁ⲁⲩϩⲙⲟⲟⲥ 100
▁ⲉϫⲛⲧⲁⲡⲉ 100
▁ⲉⲣⲉϣⲁⲛⲧ 100
▁ⲙⲛⲛⲉⲩⲕⲉ 100
▁ⲙⲡⲡⲁⲥⲭⲁ 100
▁ⲛⲁⲅⲁⲑⲟⲥ 100
▁ⲛⲁⲥⲉⲃⲏⲥ 100
▁ⲛⲙⲡⲟⲗⲓⲥ 100
▁ⲛⲛⲉⲥⲟⲟⲩ 100
▁ⲛⲟⲩⲗⲁⲟⲥ 100
▁ⲛⲧⲉⲕϭⲓϫ 100
ⲇⲁⲙⲁⲥⲕⲟⲥ 100
ⲇⲓⲁⲕⲟⲛⲟⲥ 100
ⲓⲟⲣⲇⲁⲛⲏⲥ 100
ⲕⲁⲑⲁⲣⲥⲓⲁ 100
ⲕⲁⲛⲇⲁⲗⲟⲛ 100
ⲡⲁⲣϩⲏⲥⲓⲁ 100
ⲡⲓⲥⲕⲟⲡⲟⲥ 100
▁ϩⲛⲟⲩⲕⲱϩⲧ 100
▁ϩⲛⲧⲉⲩⲛⲟⲩ 100
▁ϩⲛⲧⲧⲁⲡⲣⲟ 100
▁ⲉϥⲛⲁϣⲱⲡⲉ 100
▁ⲉⲑⲁⲗⲁⲥⲥⲁ 100
▁ⲉⲧⲉⲣⲏⲙⲟⲥ 100
ⲙⲩⲥⲧⲏⲣⲓⲟⲛ 100
▁ⲙⲛⲛⲉⲧⲟⲩⲏϩ 100
▁ⲛⲙⲡⲉⲧϩⲟⲟⲩ 100
▁ⲛⲛⲉϥϩⲟⲓⲧⲉ 100
▁ⲛⲛⲉⲩⲉⲓⲟⲧⲉ 100
▁ⲛⲟⲩⲉⲓⲣⲏⲛⲏ 100
▁ⲡⲉⲧⲛⲁϣⲱⲡⲉ 100
▁ϩⲙⲡⲡⲟⲗⲉⲙⲟⲥ 100
▁ⲡⲉⲛⲧⲁϥϣⲱⲡⲉ 100
▁ⲙⲡⲡⲉⲧⲛⲁⲛⲟⲩϥ 100
▁ⲓ 100
ϣⲏⲡ 100
ϣⲱⲧ 100
ϩⲉⲧ 100
ⲁⲓⲑ 100
ⲕⲟϥ 100
ⲗϭⲉ 100
ⲛⲛⲉ 100
ⲛⲧⲛ 100
ⲟⲃϣ 100
ⲧⲣⲟ 100
ⲧⲱⲙ 100
ϣⲟⲃⲉ 100
ϩⲣⲟⲩ 100
ϩⲧⲏⲓ 100
ϫⲉⲣⲟ 100
▁ⲁⲛⲣ 100
▁ⲕⲧⲟ 100
▁ⲛⲁⲉ 100
ⲁⲓⲣⲉ 100
ⲃⲱⲧⲉ 100
ⲉⲙⲓⲛ 100
ⲗⲓⲟⲥ 100
ⲛⲧϩⲉ 100
ⲛⲧⲏϭ 100
ⲣⲏϭⲉ 100
ⲣⲓⲍⲉ 100
ⲣⲟⲙⲁ 100
ⲥⲃⲧⲉ 100
▁ϩⲁⲡⲥ 100
▁ϩⲓⲟⲩ 100
▁ⲁϩⲁϩ 100
▁ⲉⲕⲉϯ 100
▁ⲉⲛⲉⲥ 100
▁ⲛⲁⲡⲁ 100
▁ⲛⲣⲁⲛ 100
▁ⲡⲣⲉϥ 100
▁ⲧⲁⲁϥ 100
▁ⲧⲁⲙⲓ 100
ⲇⲣⲓⲟⲛ 100
ⲗⲁⲭⲓⲥ 100
ⲗⲟⲓϭⲉ 100
ⲗⲱⲛⲏⲥ 100
ⲛⲁϣⲧⲉ 100
ⲡⲗⲏⲅⲏ 100
ⲥⲉⲃⲱⲛ 100
ⲧⲉⲧⲛⲉ 100
ⲩⲣⲅⲟⲥ 100
ϭⲁⲙⲟⲩⲗ 100
▁ϩⲁⲣⲟⲕ 100
▁ϩⲁⲧⲉⲕ 100
▁ϩⲛⲙⲙⲁ 100
▁ϫⲉⲡⲉⲓ 100
▁ⲁⲥⲃⲱⲕ 100
▁ⲁⲩⲛⲟϭ 100
▁ⲉⲙⲡⲟⲩ 100
▁ⲉⲣⲁⲧⲕ 100
▁ⲉⲣⲉⲛⲁ 100
▁ⲉⲧⲁϩⲉ 100
▁ⲉⲧⲙⲛⲧ 100
▁ⲕⲣⲓⲛⲉ 100
▁ⲙⲡⲏⲩⲉ 100
▁ⲛⲉⲟⲟⲩ 100
▁ⲛⲍⲱⲟⲛ 100
▁ⲛⲏⲥⲁⲩ 100
▁ⲛⲙⲧⲟⲛ 100
▁ⲛⲣⲁϣⲉ 100
▁ⲛⲥⲓⲟⲩ 100
▁ⲛⲥⲱⲉⲓ 100
▁ⲛⲧⲁⲓⲥ 100
▁ⲡⲁϩⲏⲧ 100
▁ⲥⲃⲧⲱⲧ 100
ⲕⲟⲓⲛⲱⲛ 100
ⲕⲟⲩⲛⲁⲙ 100
ⲗⲁⲙⲡⲁⲥ 100
ⲣⲏⲙⲓⲁⲥ 100
ϥⲉⲛⲧⲟⲗⲏ 100
ϥⲓⲣⲟⲟⲩϣ 100
▁ϣⲁⲣⲟⲟⲩ 100
▁ϩⲁⲣⲁⲧϥ 100
▁ϫⲉⲛⲛⲉⲕ 100
▁ⲁϥⲟⲩⲱⲛ 100
▁ⲁⲕϣⲱⲡⲉ 100
▁ⲁⲡⲁϩⲏⲧ 100
▁ⲁⲩϣⲁϫⲉ 100
▁ⲉϫⲛⲛⲉⲕ 100
▁ⲉⲧⲙⲏⲧⲉ 100
▁ⲙⲙⲁⲧⲟⲓ 100
▁ⲙⲛⲧⲙⲛⲧ 100
▁ⲛϫⲟⲉⲓⲧ 100
▁ⲛⲉⲛⲧⲁϥ 100
▁ⲛⲧⲉⲧⲛϯ 100
▁ⲛⲧⲡⲩⲗⲏ 100
▁ⲡⲉⲧⲛⲁϯ 100
▁ⲡⲙⲏⲏϣⲉ 100
▁ⲡⲛⲉⲩⲙⲁ 100
▁ⲥⲉⲛⲁϩⲉ 100
ⲑⲩⲥⲓⲁⲍⲉ 100
ⲕⲉⲥⲉⲉⲡⲉ 100
ⲛⲏⲥⲧⲉⲓⲁ 100
ⲡⲓⲗⲁⲧⲟⲥ 100
ⲥⲉⲡⲥⲱⲡϥ 100
ⲧⲉϥⲙⲁⲁⲩ 100
ⲧⲛⲛⲟⲟⲩϥ 100
▁ϫⲉⲟⲩⲛⲟϭ 100
▁ⲁⲧⲁⲯⲩⲭⲏ 100
▁ⲙⲡⲣⲧⲣⲉϥ 100
▁ⲛⲁⲙⲟⲟϣⲉ 100
▁ⲛⲧⲉⲯⲩⲭⲏ 100
▁ⲧⲛⲥⲟⲟⲩⲛ 100
ⲡⲁⲅⲅⲉⲗⲟⲥ 100
ⲡⲁⲣⲣⲏⲥⲓⲁ 100
▁ϩⲛⲟⲩⲣⲁϣⲉ 100
▁ⲉⲣⲉⲡⲣⲱⲙⲉ 100
▁ⲉⲧⲃⲏⲏⲧⲟⲩ 100
▁ⲙⲡⲉⲓⲗⲁⲟⲥ 100
▁ⲙⲡⲉⲧϫⲟⲥⲉ 100
▁ⲛⲧⲉⲥⲕⲩⲛⲏ 100
▁ⲡⲉⲧⲥⲟⲟⲩⲛ 100
ⲕⲁⲛⲇⲁⲗⲓⲍⲉ 100
▁ⲙⲛⲛⲉϥⲣⲱⲙⲉ 100
▁ⲙⲡⲗⲓⲃⲁⲛⲟⲥ 100
▁ⲛⲛⲉⲧⲛⲉⲣⲏⲩ 100
▁ⲛⲛⲉⲩⲛⲟⲩⲧⲉ 100
▁ⲥⲉⲛⲁⲙⲟⲩⲧⲉ 100
▁ϩⲛⲧⲉⲧⲛⲙⲏⲧⲉ 100
▁ⲙⲡⲇⲓⲁⲃⲟⲗⲟⲥ 100
▁ⲛϭⲓⲛϩⲉⲑⲛⲟⲥ 100
▁ⲛⲧⲉⲧⲛⲥⲟⲟⲩⲛ 100
▁ⲛⲧⲥⲩⲛⲁⲅⲱⲅⲏ 100
▁ⲙⲡⲉⲑⲩⲥⲓⲁⲥⲧⲏⲣⲓⲟⲛ 100
ⲕϥ 100
ϩⲟⲛ 100
▁ⲁⲣ 100
▁ⲛⲭ 100
▁ⲧⲟ 100
ⲅⲁⲥ 100
ⲅⲉⲑ 100
ⲙⲉϥ 100
ⲛⲧⲓ 100
ⲣⲉⲓ 100
ⲧⲁⲣ 100
ϣⲥⲛⲉ 100
ϫⲉⲛⲉ 100
▁ϫⲉⲙ 100
▁ⲁϥⲧ 100
▁ⲉϥⲣ 100
▁ⲉⲣⲛ 100
▁ⲧⲱⲕ 100
ⲃⲟⲩⲣ 100
ⲉⲓⲟⲛ 100
ⲙⲡⲟⲩ 100
ⲛⲟϫⲧ 100
ⲟⲛⲓⲁ 100
ⲟⲩⲓⲁ 100
ⲧⲁⲩⲱ 100
ⲭⲱⲣⲏ 100
ϫⲡⲟⲟⲩ 100
▁ϣⲕⲁⲕ 100
▁ϩⲁⲧⲙ 100
▁ϩⲓⲣⲛ 100
▁ⲁⲩϭⲱ 100
▁ⲉϫⲛⲡ 100
▁ⲕⲧⲟϥ 100
▁ⲙⲙⲁⲓ 100
▁ⲛϥϫⲓ 100
▁ⲛϭⲓⲉ 100
▁ⲛⲁⲛⲁ 100
▁ⲛⲅⲁⲣ 100
▁ⲛⲥⲉⲣ 100
ⲇⲏⲥⲓⲥ 100
ⲍⲁⲭⲁⲣ 100
ⲑⲃⲃⲓⲉ 100
ⲓⲉⲛⲉϩ 100
ⲗⲅⲁⲗⲁ 100
ⲗⲡⲓⲍⲉ 100
ⲟⲩⲁϩϥ 100
ⲟⲩⲗⲱⲛ 100
ⲥⲩⲅⲅⲉ 100
ⲧⲃⲃⲟϥ 100
ⲧⲛⲟⲃⲉ 100
ⲧⲟⲙⲥϥ 100
ⲧⲟⲩϫⲟ 100
ⲭⲁⲗⲉⲃ 100
ⲭⲣⲉⲓⲁ 100
ϯⲛⲟⲩϥⲉ 100
▁ϩⲁⲣⲟⲛ 100
▁ϩⲓϫⲛⲧ 100
▁ϩⲛⲡⲙⲁ 100
▁ϫⲉⲕⲛⲁ 100
▁ϫⲓⲛⲡⲉ 100
▁ⲉϯϩⲱⲛ 100
▁ⲉⲧⲃⲉⲛ 100
▁ⲛϣⲱⲣⲡ 100
▁ⲛⲁⲙⲟⲩ 100
▁ⲛⲁⲛⲁⲩ 100
▁ⲛⲣⲉϥϯ 100
▁ⲟⲩⲟⲛϩ 100
ⲃⲁⲗϩⲏⲧ 100
ⲃⲟⲏⲑⲟⲥ 100
ⲓⲙⲉⲗⲉⲭ 100
ⲕⲉⲗⲉⲩⲉ 100
ⲛⲁϩⲙⲉⲧ 100
ⲥⲧⲣⲁⲧⲏ 100
ϥⲁⲓϣⲓⲛⲉ 100
ϫⲉⲛⲉⲡⲱⲣ 100
▁ϫⲉⲙⲙⲟⲛ 100
▁ⲁϥϣⲓⲛⲉ 100
▁ⲁⲩⲧⲁⲙⲉ 100
▁ⲉϥⲉⲓⲛⲉ 100
▁ⲉϥⲉⲓⲣⲉ 100
▁ⲉⲡϫⲟⲉⲓ 100
▁ⲉⲡⲣⲱⲙⲉ 100
▁ⲉⲧⲃⲉⲡⲁ 100
▁ⲉⲧⲱⲙⲛⲧ 100
▁ⲙⲙⲁⲉⲓⲛ 100
▁ⲙⲡⲁϩⲏⲧ 100
▁ⲙⲡⲁⲣⲁⲛ 100
▁ⲙⲡⲕⲱϩⲧ 100
▁ⲙⲡⲙⲁⲥⲉ 100
▁ⲛϭⲓⲛⲉⲩ 100
▁ⲛⲁⲟⲩⲱϩ 100
▁ⲛⲛⲁⲃⲁⲗ 100
▁ⲛⲟⲩϩⲁⲡ 100
▁ⲡⲉⲧⲉⲛϥ 100
▁ⲡⲉⲧⲛⲁϣ 100
▁ⲧⲧⲁⲡⲣⲟ 100
ⲗⲏⲗⲟⲩⲓⲁ 100
ⲛⲉⲩⲉⲣⲏⲩ 100
ⲡⲟⲣⲛⲉⲩⲉ 100
▁ϩⲛⲛⲣⲱⲙⲉ 100
▁ϫⲓⲛⲉⲛⲉϩ 100
▁ⲁϥⲣϩⲟⲧⲉ 100
▁ⲁⲩⲕⲟⲧⲟⲩ 100
▁ⲉⲕⲉϫⲟⲟⲥ 100
▁ⲉⲧⲃⲉⲡⲉⲕ 100
▁ⲉⲧⲧⲁⲓⲏⲩ 100
▁ⲛⲉⲧϣⲟⲟⲡ 100
▁ⲛⲓⲉⲥⲥⲁⲓ 100
▁ⲛⲟⲩⲟⲉⲓⲕ 100
▁ⲛⲧⲉϥⲁⲡⲉ 100
▁ⲡⲉϩⲣⲟⲟⲩ 100
▁ⲡⲉⲕⲉⲓⲱⲧ 100
ⲍⲁⲭⲁⲣⲓⲁⲥ 100
ⲙⲁⲕⲁⲣⲓⲟⲥ 100
ⲙⲛⲧϣⲁϥⲧⲉ 100
ⲣⲉϥϫⲓⲟⲩⲉ 100
ⲣⲙⲉⲓⲟⲟⲩⲉ 100
▁ϣⲁⲡⲉϩⲟⲟⲩ 100
▁ⲉⲛⲉⲓϣⲁϫⲉ 100
▁ⲉⲡⲉϣⲧⲉⲕⲟ 100
▁ⲙⲡⲉϥⲉⲟⲟⲩ 100
▁ⲙⲡⲉϥⲟⲩⲱϣ 100
▁ⲙⲡⲉϩⲣⲟⲟⲩ 100
▁ⲛϩⲓⲉⲣⲓⲭⲱ 100
▁ⲛⲇⲩⲛⲁⲧⲟⲥ 100
▁ⲡⲁⲅⲅⲉⲗⲟⲥ 100
▁ⲡⲉⲥⲡⲉⲣⲙⲁ 100
▁ⲉⲧⲃⲉⲧⲏⲩⲧⲛ 100
▁ⲙⲛⲧⲉϥⲙⲁⲁⲩ 100
▁ⲙⲡⲉⲑⲩⲣⲓⲟⲛ 100
▁ⲛϭⲓⲡⲉⲧⲣⲟⲥ 100
▁ⲛⲛⲉⲕϩⲙϩⲁⲗ 100
▁ⲛⲧⲓⲟⲩⲇⲁⲓⲁ 100
▁ⲡⲇⲓⲁⲃⲟⲗⲟⲥ 100
ϩⲟⲗⲟⲕⲁⲩⲧⲱⲙⲁ 100
▁ⲁϥϯⲡⲉϥⲟⲩⲟⲓ 100
▁ⲉⲡⲉⲭⲣⲓⲥⲧⲟⲥ 100
▁ⲛⲛⲉⲧⲛⲉⲓⲟⲧⲉ 100
▁ϩⲛⲟⲩϫⲓⲛϭⲟⲛⲥ 100
▁ⲛⲛⲉⲡⲣⲉⲥⲃⲩⲧⲉⲣⲟⲥ 100
ⲁⲑ 100
ⲥⲣ 100
ⲩⲙ 100
ϣⲏⲙ 100
ϩⲥⲉ 100
▁ⲅⲁ 100
▁ⲥⲃ 100
ⲁⲡⲁ 100
ⲗⲁⲙ 100
ⲗⲓⲛ 100
ⲡⲏⲥ 100
ⲡⲥⲱ 100
ⲣϣⲉ 100
ⲣⲓⲣ 100
ⲥⲁⲫ 100
ϣⲟⲟⲥ 100
ϩⲣⲟϣ 100
▁ϫⲉⲱ 100
▁ⲃⲱⲗ 100
▁ⲕⲃⲁ 100
▁ⲡⲗⲁ 100
▁ⲡⲛⲁ 100
▁ⲧⲣⲉ 100
ⲁⲓⲱⲛ 100
ⲁⲣⲙⲁ 100
ⲇⲓⲟⲛ 100
ⲉⲃⲟⲗ 100
ⲏⲗⲟⲥ 100
ⲕⲧⲟⲛ 100
ⲙⲡⲉⲕ 100
ⲛⲉⲩⲏ 100
ⲟⲃϩⲉ 100
ⲟⲡⲟⲩ 100
ⲟⲥⲟⲛ 100
ⲡⲗⲁⲝ 100
ⲣⲉⲧⲏ 100
ⲥⲟⲩⲱ 100
ⲧⲏⲧⲛ 100
ⲧⲱⲣⲉ 100
ϫⲱⲱⲗⲉ 100
▁ϩⲉⲛⲉ 100
▁ϫⲉⲙⲉ 100
▁ϯⲛⲁⲩ 100
▁ⲁⲩⲥⲱ 100
▁ⲉⲛⲟⲩ 100
▁ⲉⲧϫⲱ 100
▁ⲉⲧⲃⲏ 100
▁ⲙⲛⲁⲃ 100
▁ⲙⲡⲁⲧ 100
▁ⲛⲥⲱⲛ 100
▁ⲡⲉⲧⲕ 100
▁ⲥⲟⲧⲡ 100
ⲇⲓⲥⲟⲥ 100
ⲓⲕⲓⲙⲁ 100
ⲓⲙⲟⲑⲉ 100
ⲕⲁⲉⲓⲧ 100
ⲙⲟⲩⲛⲅ 100
ⲛⲉⲓⲛⲉ 100
ⲟⲩⲛⲟϭ 100
ⲟⲩⲱϣⲥ 100
ⲥⲕⲉⲩⲏ 100
ⲥⲟⲉⲓⲧ 100
▁ϥⲧⲟⲟⲩ 100
▁ϫⲓⲛⲙⲡ 100
▁ⲁϥⲧⲣⲉ 100
▁ⲉⲧⲉⲙⲛ 100
▁ⲉⲧⲉⲟⲩ 100
▁ⲛⲉⲓⲛⲁ 100
▁ⲛⲉⲩⲛⲁ 100
▁ⲛⲛⲣⲉϥ 100
▁ⲛⲥⲉϫⲓ 100
▁ⲛⲥⲓⲛⲁ 100
▁ⲛⲥⲛⲟϥ 100
▁ⲛⲥⲱⲧⲡ 100
▁ⲟⲩⲕⲁϩ 100
▁ⲧⲁⲣⲭⲏ 100
▁ⲧⲡⲁϣⲉ 100
ⲗⲉⲁⲍⲁⲣ 100
ⲛⲁϣⲱⲡⲉ 100
ⲡⲁϩⲧⲟⲩ 100
ⲡⲉⲛⲓⲡⲉ 100
ⲥⲟⲧⲙⲟⲩ 100
ⲧⲁⲅⲁⲡⲏ 100
ϭⲣⲟⲟⲙⲡⲉ 100
▁ϫⲉϣⲁϫⲉ 100
▁ϫⲉⲛⲧⲁⲕ 100
▁ϫⲓⲛⲙⲙⲁ 100
▁ϯϩⲧⲏⲧⲛ 100
▁ⲁϥϭⲱⲛⲧ 100
▁ⲁⲩϫⲟⲟⲥ 100
▁ⲉⲡⲉⲟⲟⲩ 100
▁ⲉⲡⲧⲁⲕⲟ 100
▁ⲉⲧⲃⲏⲏⲧ 100
▁ⲉⲧⲉⲧⲁⲓ 100
▁ⲉⲩⲉⲓⲣⲉ 100
▁ⲕⲁⲧⲁⲧⲉ 100
▁ⲙⲙⲉⲣⲓⲧ 100
▁ⲙⲡⲉϥϩⲟ 100
▁ⲙⲡⲉϥⲏⲓ 100
▁ⲙⲡⲕⲁⲧⲁ 100
▁ⲛϥⲧⲟⲟⲩ 100
▁ⲛⲧⲉⲣⲉⲡ 100
▁ⲛⲧⲟⲣⲅⲏ 100
▁ⲡⲉⲧⲛⲛⲁ 100
▁ⲥⲟⲟⲩⲧⲛ 100
ⲓⲙⲟⲑⲉⲟⲥ 100
ⲙⲱⲟⲩⲥⲏⲥ 100
ⲛⲉⲓϣⲁϫⲉ 100
ⲟⲇⲟⲗⲓⲁⲥ 100
▁ϩⲁⲧⲉⲕϩⲏ 100
▁ϩⲓⲟⲩⲛⲁⲙ 100
▁ϩⲙⲡϫⲁⲓⲉ 100
▁ⲁϥⲛⲟⲩϭⲥ 100
▁ⲉⲡⲉⲛⲧⲁϥ 100
▁ⲕⲁⲧⲁⲧⲉϥ 100
▁ⲛⲛⲁϣⲁϫⲉ 100
▁ⲡⲁⲙⲉⲣⲓⲧ 100
ⲙⲡⲉⲧϩⲟⲟⲩ 100
▁ϥⲥⲙⲁⲙⲁⲁⲧ 100
▁ϩⲛⲟⲩϣⲥⲛⲉ 100
▁ϯⲛⲁⲟⲩⲱⲛϩ 100
▁ⲁⲓϫⲓϣⲕⲁⲕ 100
▁ⲉϫⲙⲡⲧⲟⲟⲩ 100
▁ⲉⲧⲙⲛⲧⲣⲣⲟ 100
▁ⲙⲛⲓⲏⲥⲟⲩⲥ 100
▁ⲛϭⲓⲡϣⲏⲣⲉ 100
▁ⲛⲛⲉⲩⲛⲟⲃⲉ 100
▁ⲛⲟⲩⲙⲁⲉⲓⲛ 100
▁ⲛⲥⲁⲙⲟⲩⲏⲗ 100
▁ⲛⲧⲉⲓⲣⲏⲛⲏ 100
ⲥⲭⲏⲙⲟⲥⲩⲛⲏ 100
▁ϩⲛⲧⲉⲩⲙⲏⲧⲉ 100
▁ⲉϥⲁϩⲉⲣⲁⲧϥ 100
▁ⲉⲧⲟⲩⲙⲟⲩⲧⲉ 100
▁ⲙⲡⲉⲑⲣⲟⲛⲟⲥ 100
▁ⲟⲩⲇⲓⲕⲁⲓⲟⲥ 100
▁ϩⲛⲟⲩⲥⲟⲟⲩⲧⲛ 100
▁ⲉⲛⲧⲁⲡⲛⲟⲩⲧⲉ 100
▁ⲙⲛⲛⲉϥϩⲙϩⲁⲗ 100
▁ⲙⲡⲣⲉϥⲣⲛⲟⲃⲉ 100
▁ⲙⲡⲣⲧⲣⲉⲗⲁⲁⲩ 100
ϩⲉⲕⲁⲧⲟⲛⲧⲁⲣⲭⲟⲥ 100
▁ⲉⲗ 100
▁ⲙⲟ 100
▁ⲛⲍ 100
▁ⲧⲙ 100
ⲁⲧⲕ 100
ⲃⲉⲕ 100
ⲏⲗⲱ 100
ⲓⲭⲁ 100
ⲓⲱⲧ 100
ⲛⲁⲭ 100
ⲥⲱϥ 100
ⲫⲉⲥ 100
ϣⲓⲕⲉ 100
ϩⲁⲧⲉ 100
ϩⲟⲙⲧ 100
ϭⲟⲡϥ 100
▁ϩⲏⲗ 100
▁ϩⲓⲁ 100
▁ϩⲟⲙ 100
▁ⲉϥⲥ 100
▁ⲟⲩⲕ 100
ⲃⲓⲟⲥ 100
ⲇⲉⲩⲉ 100
ⲕⲁⲣⲙ 100
ⲕⲱⲛⲥ 100
ⲙⲯⲱⲛ 100
ⲛⲧⲓⲟ 100
ⲡⲏⲩⲉ 100
ⲣⲭⲉⲓ 100
ⲥⲓϣⲉ 100
ⲧⲱⲟⲩ 100
ⲭⲁⲗⲁ 100
ϩⲓⲉⲓⲧ 100
ϫⲃⲃⲉⲥ 100
ϫⲛⲟⲟⲩ 100
▁ϩⲉⲛⲁ 100
▁ϩⲧⲏϥ 100
▁ϩⲧⲏⲕ 100
▁ϫⲉⲁⲡ 100
▁ⲁϣⲁⲓ 100
▁ⲉϫⲉⲙ 100
▁ⲉⲁⲁϥ 100
▁ⲉⲁⲁⲩ 100
▁ⲉⲧϩⲉ 100
▁ⲉⲧⲉⲥ 100
▁ⲕⲁⲁⲧ 100
▁ⲙⲛⲙⲁ 100
▁ⲙⲡⲟⲣ 100
▁ⲛⲅⲁⲓ 100
▁ⲛⲛⲉϩ 100
▁ⲡϩⲱⲃ 100
▁ⲡⲉⲧⲁ 100
▁ⲧϭⲟⲙ 100
▁ⲧⲁⲡⲉ 100
ⲉⲥⲟⲟⲩ 100
ⲗⲗⲁⲕⲏ 100
ⲙⲉⲗⲟⲥ 100
ⲡⲉⲕⲣⲟ 100
ⲣⲟⲟⲩⲧ 100
ⲥⲁϩⲱϥ 100
ⲧⲁⲛϩⲟ 100
ⲧⲙⲁⲓⲟ 100
ⲫⲟⲣⲉⲓ 100
ϣⲟⲩⲱⲃⲉ 100
ϣⲡϩⲓⲥⲉ 100
ϩⲟⲡⲗⲟⲛ 100
▁ϥϣⲟⲟⲡ 100
▁ϩⲁⲧⲉⲩ 100
▁ⲙⲛⲡⲏⲓ 100
▁ⲛϩⲱⲧⲡ 100
▁ⲛⲁϩⲣⲙ 100
▁ⲛⲉϥϫⲱ 100
▁ⲛⲥⲉϩⲉ 100
▁ⲛⲧⲉⲛⲁ 100
▁ⲡⲁⲗⲓⲛ 100
▁ⲣⲛⲟⲃⲉ 100
▁ⲧⲉⲥⲙⲏ 100
ⲁⲥⲡⲁⲍⲉ 100
ⲙⲙⲏⲏϣⲉ 100
ⲡⲩⲣⲅⲟⲥ 100
ⲧⲁⲕⲟⲟⲩ 100
ⲧⲁⲙⲱⲧⲛ 100
ⲧⲉⲕϭⲓϫ 100
ⲧⲧⲏⲩⲧⲛ 100
ϩⲉⲇⲣⲓⲟⲛ 100
▁ϫⲉⲉⲣⲉⲡ 100
▁ⲁϥⲉⲓⲙⲉ 100
▁ⲁϥⲧⲁϩⲟ 100
▁ⲁⲩⲧⲁⲕⲟ 100
▁ⲉϥϣⲓⲛⲉ 100
▁ⲉϥϯⲥⲃⲱ 100
▁ⲉⲡⲗⲁⲟⲥ 100
▁ⲉⲥϫⲟⲟⲣ 100
▁ⲉⲧⲛⲁϣⲧ 100
▁ⲉⲧⲥⲟⲧⲡ 100
▁ⲙⲁⲩⲁⲁⲩ 100
▁ⲙⲡⲉⲣⲏⲧ 100
▁ⲛϭⲓⲟⲩⲁ 100
▁ⲛⲁⲥⲙⲟⲩ 100
▁ⲛⲅⲉⲓⲣⲉ 100
▁ⲛⲟⲩⲏⲣⲡ 100
▁ⲛⲧⲉⲥⲃⲱ 100
▁ⲟⲩϣⲁϫⲉ 100
ⲃⲓⲙⲉⲗⲉⲭ 100
ⲕⲉⲇⲟⲛⲓⲁ 100
ⲣⲟⲩⲃⲉⲓⲛ 100
▁ϥⲛⲁϫⲟⲟⲥ 100
▁ϩⲙⲡϣⲁⲁⲣ 100
▁ϩⲙⲡⲉϥⲙⲁ 100
▁ϩⲛⲟⲩⲕⲁϩ 100
▁ⲁϥϫⲓⲧⲟⲩ 100
▁ⲁⲣⲓϩⲟⲧⲉ 100
▁ⲁⲩⲕⲧⲟⲟⲩ 100
▁ⲉϥϩⲙⲟⲟⲥ 100
▁ⲉϥⲥⲟⲟⲩⲛ 100
▁ⲉⲛⲁⲛⲟⲩⲥ 100
▁ⲉⲥⲟⲩⲁⲁⲃ 100
▁ⲉⲧⲙⲧⲣⲉⲩ 100
▁ⲕⲁⲧⲁⲡⲉⲕ 100
▁ⲙⲛⲟⲩⲛⲟϭ 100
▁ⲛⲉϩⲓⲟⲙⲉ 100
▁ⲛⲛⲉⲧⲟⲛϩ 100
ⲉⲡⲓⲕⲁⲗⲉⲓ 100
▁ϩⲛⲟⲩϭⲱⲛⲧ 100
▁ⲉϥⲧⲁϫⲣⲏⲩ 100
▁ⲉⲛⲁⲛⲟⲩⲟⲩ 100
▁ⲉⲧⲉⲧⲏⲩⲧⲛ 100
▁ⲛⲉϥⲙⲟⲟϣⲉ 100
▁ⲛⲟⲩⲡⲟⲗⲓⲥ 100
▁ⲛⲥⲁⲟⲩⲛⲁⲙ 100
▁ⲛⲧⲉⲕⲯⲩⲭⲏ 100
▁ⲟⲩⲁⲅⲁⲑⲟⲛ 100
▁ⲡⲉϥϩⲙϩⲁⲗ 100
▁ⲡⲉⲧⲟⲩⲁⲁⲃ 100
ⲗⲗⲟⲫⲩⲗⲗⲟⲥ 100
ⲡⲁⲣⲁⲇⲓⲥⲟⲥ 100
▁ⲛⲧⲉⲣⲉϥⲃⲱⲕ 100
▁ⲡⲉⲧⲛⲁⲛⲟⲩϥ 100
ⲕⲁⲧⲁⲫⲣⲟⲛⲉⲓ 100
ⲙⲛⲧϣⲁⲛϩⲧⲏϥ 100
ⲭⲉⲓⲣⲟⲩⲃⲉⲓⲛ 100
▁ϩⲙⲡⲙⲉϩⲥⲁϣϥ 100
▁ⲛⲧⲉⲣⲉϥϣⲱⲡⲉ 100
▁ⲧⲇⲓⲕⲁⲓⲟⲥⲩⲛⲏ 100
▁ϩⲛⲧⲡⲁⲣⲉⲙⲃⲟⲗⲏ 100
▁ⲙⲛⲛⲉⲫⲁⲣⲓⲥⲥⲁⲓⲟⲥ 100
ϣⲃ 100
ϭⲗ 100
ⲡⲛ 100
ⲱⲗ 100
ϥⲧⲟ 100
ϩⲱϫ 100
ϫⲟϥ 100
ϫⲟⲕ 100
ϭⲛⲁ 100
▁ⲇⲁ 100
ⲃⲁⲛ 100
ⲏϥⲉ 100
ⲓⲛⲏ 100
ⲕⲁⲣ 100
ⲝⲉⲥ 100
ⲟⲙⲧ 100
ⲧⲏϣ 100
ϣⲱⲙⲉ 100
ϣⲱⲟⲩ 100
ϩⲙⲙⲉ 100
▁ϭⲟⲗ 100
▁ⲉϥⲁ 100
▁ⲉⲛⲟ 100
▁ⲉⲛⲧ 100
▁ⲟⲩⲃ 100
▁ⲟⲩⲥ 100
▁ⲧⲁⲣ 100
ⲁⲣⲭⲏ 100
ⲉⲓⲉⲛ 100
ⲙⲁⲏⲗ 100
ⲙⲟⲛⲧ 100
ⲛⲉϩⲙ 100
ⲛⲟϫⲥ 100
ⲟⲛⲟⲥ 100
ⲣⲏϫϥ 100
ⲣⲟⲩⲱ 100
ⲣⲭⲏⲥ 100
ⲥⲁϣⲉ 100
ⲥⲏⲫⲁ 100
ⲥⲟϣϥ 100
ⲥⲟⲟϥ 100
ⲧⲁⲙⲟ 100
ⲧⲏⲡⲉ 100
ⲱⲣⲧⲣ 100
ϣⲟⲩϣⲧ 100
ϩⲓⲱⲛⲉ 100
ϩⲟⲧϩⲧ 100
ϩⲩⲡⲟⲕ 100
ϫⲟⲟⲩⲕ 100
▁ϫⲁⲓⲉ 100
▁ⲁⲓⲕⲱ 100
▁ⲁⲡⲉϥ 100
▁ⲁⲩⲱϣ 100
▁ⲉⲧⲙⲡ 100
▁ⲕⲁⲁϥ 100
▁ⲙⲡⲣⲱ 100
▁ⲛϥⲉⲓ 100
▁ⲛϭⲟⲗ 100
▁ⲛⲅⲕⲱ 100
▁ⲛⲛⲏⲣ 100
▁ⲛⲟⲩⲕ 100
▁ⲟⲩⲉⲓ 100
ⲍⲁⲓⲟⲥ 100
ⲕⲉⲟⲟⲩ 100
ⲙⲛⲧⲙⲉ 100
ⲙⲟⲩϣⲧ 100
ⲛⲁⲅⲕⲁ 100
ⲛⲉϩⲡⲉ 100
ⲛⲓⲧⲏⲥ 100
ⲟⲩⲣⲟⲧ 100
ⲡⲱⲣⲓⲁ 100
ⲣⲩⲥⲥⲉ 100
ⲥⲕⲏⲩⲉ 100
ⲧⲁⲩⲟϥ 100
ⲧⲉⲩⲙⲁ 100
ⲧⲟⲉⲓⲧ 100
ⲧⲥⲁⲃⲟ 100
ⲫⲉⲥⲟⲥ 100
ϫⲓϣⲕⲁⲕ 100
▁ϣⲁⲣⲟⲛ 100
▁ϩⲁⲡϩⲟ 100
▁ϩⲓⲧⲛⲛ 100
▁ϩⲛⲟⲩⲥ 100
▁ϫⲉⲛⲉⲕ 100
▁ⲁⲩⲛⲉϫ 100
▁ⲉⲡⲉⲧⲛ 100
▁ⲉⲡⲟⲩⲁ 100
▁ⲉⲡⲱⲛϩ 100
▁ⲉⲧϭⲓϫ 100
▁ⲙⲛⲛⲉⲛ 100
▁ⲙⲛⲟⲩⲁ 100
▁ⲙⲛⲡⲉⲩ 100
▁ⲙⲛⲧⲉⲩ 100
▁ⲙⲡϩⲁⲧ 100
▁ⲛⲁⲃⲁⲗ 100
▁ⲛⲛⲁⲩⲏ 100
▁ⲛⲟⲩⲏⲓ 100
▁ⲛⲥⲁⲣⲝ 100
▁ⲛⲥⲏϥⲉ 100
▁ⲛⲧⲁⲡⲉ 100
ⲙⲡⲉⲙⲧⲟ 100
ⲛⲁⲙⲛⲧⲉ 100
ⲡⲉⲧϩⲏⲡ 100
ⲧⲏⲟⲩⲧⲛ 100
ϩⲏⲣⲱⲇⲏⲥ 100
ϫⲓⲥⲟⲟⲩⲉ 100
▁ϫⲉⲙⲡⲟⲩ 100
▁ⲁϥϭⲱϣⲧ 100
▁ⲁϥⲧⲁⲕⲟ 100
▁ⲁϥⲧⲁⲩⲟ 100
▁ⲁⲩⲉⲓⲙⲉ 100
▁ⲉⲧⲉⲛⲥⲉ 100
▁ⲉⲧⲥⲱⲧⲙ 100
▁ⲙⲙⲟⲟⲛⲉ 100
▁ⲙⲛⲡⲣⲣⲟ 100
▁ⲙⲡϭⲱⲛⲧ 100
▁ⲙⲡⲉⲧⲟⲩ 100
▁ⲛϭⲓⲡⲉϥ 100
▁ⲛⲁⲥⲱⲧⲙ 100
▁ⲛⲉⲧⲉⲧⲛ 100
▁ⲛⲙⲡⲁⲣⲁ 100
▁ⲛⲛⲁϭⲓϫ 100
▁ⲛⲛⲉⲧⲉⲛ 100
▁ⲛⲣⲁⲥⲧⲉ 100
▁ⲛⲧⲁϭⲓϫ 100
▁ⲛⲧⲉⲣⲉⲥ 100
▁ⲡⲉϩⲟⲩⲟ 100
▁ⲥⲉⲛⲁϥⲓ 100
ⲇⲓⲕⲁⲓⲟⲛ 100
ⲡⲁⲧⲁⲥⲥⲉ 100
ⲣⲉϥϣⲙϣⲉ 100
ⲧⲁⲙⲉⲓⲟⲛ 100
ⲧⲟⲩϫⲟⲟⲩ 100
▁ϩⲓⲧⲛϩⲉⲛ 100
▁ϩⲓⲧⲟⲟⲧⲥ 100
▁ϩⲙⲡⲉⲕⲣⲟ 100
▁ϩⲙⲡⲣⲱⲙⲉ 100
▁ϫⲉⲛⲧⲟⲟⲩ 100
▁ϯⲛⲁⲥⲙⲟⲩ 100
▁ⲁϥⲛⲟⲩϫⲉ 100
▁ⲉⲇⲁⲩⲉⲓⲇ 100
▁ⲉⲡⲛⲟⲙⲟⲥ 100
▁ⲉⲧⲃⲏⲏⲧⲕ 100
▁ⲉⲩⲥϩⲓⲙⲉ 100
▁ⲛϣⲁⲉⲛⲉϩ 100
▁ⲛⲅⲥⲟⲟⲩⲛ 100
▁ⲛⲛⲉϣⲏⲣⲉ 100
▁ⲛⲧⲉⲕⲙⲛⲧ 100
▁ⲡⲉⲧⲙⲙⲁⲩ 100
▁ⲧⲙⲛⲧⲣⲣⲟ 100
ⲃⲟⲩⲥⲁⲓⲟⲥ 100
ⲕⲁⲣⲙⲏⲗⲟⲥ 100
ⲩⲥⲧⲁⲑⲓⲟⲥ 100
▁ϣⲁⲛⲓⲉⲛⲉϩ 100
▁ϫⲉⲉⲧⲉⲧⲛⲉ 100
▁ϫⲉⲡⲁϣⲏⲣⲉ 100
▁ⲁⲩⲁⲙⲁϩⲧⲉ 100
▁ⲉⲛⲉⲩⲉⲣⲏⲩ 100
▁ⲉⲡⲓⲥⲣⲁⲏⲗ 100
▁ⲉⲧⲛⲁⲛⲟⲩⲥ 100
▁ⲉⲧⲣⲉϥⲃⲱⲕ 100
▁ⲛⲛⲉⲥϣⲱⲡⲉ 100
▁ⲛⲧⲉⲣⲟⲙⲡⲉ 100
▁ⲥⲉⲛⲁϫⲟⲟⲥ 100
ⲙⲁⲕⲉⲇⲟⲛⲓⲁ 100
▁ϩⲛⲟⲩⲟⲩⲛⲟϥ 100
▁ϩⲛⲧⲙⲛⲧⲣⲣⲟ 100
▁ϫⲓⲛⲡⲉϩⲟⲟⲩ 100
▁ⲛⲛⲁⲅⲅⲉⲗⲟⲥ 100
ⲥⲩⲛϩⲉⲇⲣⲓⲟⲛ 100
▁ⲙⲛⲧⲉϥⲥϩⲓⲙⲉ 100
▁ⲛⲧⲉⲑⲁⲗⲁⲥⲥⲁ 100
▁ⲛϩⲉⲛⲕⲉⲛⲟⲩⲧⲉ 100
▁ⲛϭⲓⲓⲱϩⲁⲛⲛⲏⲥ 100
▁ⲡⲉⲛⲧⲁϥⲧⲁⲙⲓⲉ 100
▁ⲛϭⲓⲛⲉϥⲙⲁⲑⲏⲧⲏⲥ 100
▁ⲑ 100
▁ⲫ 100
ⲟϫ 100
ⲣϣ 100
ϩⲙⲛ 100
ϫⲓⲧ 100
▁ⲛⲱ 100
▁ⲫⲓ 100
ⲇⲉⲓ 100
ⲇⲱⲙ 100
ⲕⲱⲥ 100
ⲗⲩⲭ 100
ⲙϣⲉ 100
ⲙⲫⲓ 100
ⲡⲟⲕ 100
ⲣⲅⲁ 100
ⲧⲏⲡ 100
ⲫⲉⲗ 100
ⲱⲙⲥ 100
ϣⲟⲩⲉ 100
ϩⲁⲡⲥ 100
ϩⲏⲧϥ 100
ϩⲱⲱⲣ 100
▁ⲁⲥⲁ 100
▁ⲉⲗⲓ 100
▁ⲡϩⲟ 100
▁ⲫⲓϥ 100
ⲇⲟⲙⲁ 100
ⲉⲓⲃⲉ 100
ⲍⲁⲣⲉ 100
ⲑⲉⲙⲁ 100
ⲓⲁⲁϥ 100
ⲓⲙⲟⲛ 100
ⲙⲁⲓⲁ 100
ⲙⲛⲧⲏ 100
ⲥⲉⲩϩ 100
ⲧⲁⲁⲕ 100
ⲧⲏⲙⲁ 100
ⲧⲱⲙⲥ 100
ⲭⲓⲙⲁ 100
ϩⲏⲗⲉⲓ 100
ϫⲓⲕⲃⲁ 100
ϭⲃⲟⲉⲓ 100
▁ϣⲟⲣⲡ 100
▁ϩⲏⲃⲉ 100
▁ϩⲓⲧⲉ 100
▁ϩⲱⲱⲥ 100
▁ⲁⲛⲉⲩ 100
▁ⲃⲟⲉⲥ 100
▁ⲉⲙⲉϥ 100
▁ⲛϣⲁⲩ 100
▁ⲛⲇⲁⲛ 100
▁ⲛⲕⲱⲃ 100
▁ⲛⲥⲁⲓ 100
▁ⲣⲓⲕⲉ 100
▁ⲧⲁϩⲉ 100
ⲃⲟⲥⲑⲉ 100
ⲓⲥⲁⲣⲁ 100
ⲕⲁϩⲏⲩ 100
ⲥⲁⲭⲁⲣ 100
ⲧⲁⲝⲓⲥ 100
ⲧⲉⲓⲛⲉ 100
ⲧⲉⲛⲟⲩ 100
ϣⲛϩⲧⲏϥ 100
ϫⲟⲟⲣⲟⲩ 100
ϭⲟⲉⲓⲗⲉ 100
▁ϣⲁⲣⲉⲧ 100
▁ϣⲟϫⲛⲉ 100
▁ϥⲛⲁϩⲉ 100
▁ϩⲓⲣⲙⲡ 100
▁ϫⲓⲛⲧⲁ 100
▁ⲁϥⲡⲱϩ 100
▁ⲁⲩⲛⲧϥ 100
▁ⲉϩⲟⲩⲟ 100
▁ⲉⲉⲓⲛⲉ 100
▁ⲉⲧϩⲏⲛ 100
▁ⲉⲧⲣⲉⲧ 100
▁ⲕⲁⲧⲁⲛ 100
▁ⲙⲡⲁⲧϥ 100
▁ⲛϩⲓⲥⲉ 100
▁ⲛⲉⲧϩⲓ 100
▁ⲛⲗⲁⲟⲥ 100
▁ⲛⲣⲙϩⲉ 100
▁ⲟⲩϫⲁⲓ 100
▁ⲡϣⲟⲣⲡ 100
▁ⲧϩⲟⲧⲉ 100
ⲁⲅⲁⲑⲟⲛ 100
ⲉⲓⲉⲛⲓⲛ 100
ⲙⲉⲣⲓⲧϥ 100
ⲛⲁⲣⲭⲱⲛ 100
ⲟⲗⲉⲙⲟⲥ 100
ⲡⲓⲧⲓⲙⲁ 100
ⲣⲁⲥⲙⲟⲥ 100
ϣⲣϣⲱⲣⲟⲩ 100
▁ϩⲙⲡϩⲏⲧ 100
▁ϩⲛⲗⲁⲁⲩ 100
▁ϩⲧⲟⲟⲩⲉ 100
▁ϫⲉⲟⲩⲟⲛ 100
▁ⲁϥⲕⲁⲁⲩ 100
▁ⲁϥⲥϩⲁⲓ 100
▁ⲁⲛⲥⲱⲧⲙ 100
▁ⲁⲩⲛⲟϫϥ 100
▁ⲉϥⲥⲟⲧⲡ 100
▁ⲉϫⲛⲛⲁⲓ 100
▁ⲉⲧⲉⲥⲙⲏ 100
▁ⲕⲁⲓⲅⲁⲣ 100
▁ⲕⲁⲧⲁⲛⲉ 100
▁ⲙⲡϩⲏⲕⲉ 100
▁ⲙⲡⲁⲧⲟⲩ 100
▁ⲙⲡⲕⲱⲧⲉ 100
▁ⲛϫⲓⲟⲩⲉ 100
▁ⲛϭⲓⲛⲉⲕ 100
▁ⲛⲁϣⲁϫⲉ 100
▁ⲛⲁⲙⲛⲧⲉ 100
▁ⲛⲁⲙⲟⲩϩ 100
▁ⲛⲅⲟⲩⲱⲙ 100
▁ⲛⲕⲉⲟⲩⲁ 100
▁ⲛⲛⲕⲟⲧⲕ 100
▁ⲛⲣⲣⲱⲟⲩ 100
▁ⲛⲥⲁⲧⲉϥ 100
▁ⲛⲧⲁⲩⲉⲓ 100
▁ⲛⲧⲉⲧⲛⲣ 100
▁ⲟⲩϩⲟⲟⲩ 100
▁ⲟⲩⲉⲓⲛⲉ 100
▁ⲡⲉⲕⲥⲟⲛ 100
▁ⲡⲉⲛⲧⲁⲓ 100
▁ⲧⲉⲯⲩⲭⲏ 100
ⲁⲃⲟⲩⲗⲱⲛ 100
ⲙⲉϩⲥⲛⲁⲩ 100
ⲛⲁⲅⲕⲁⲍⲉ 100
ⲛⲧⲓⲟⲭⲓⲁ 100
ⲡⲉⲧⲛϩⲏⲧ 100
ⲡⲟⲗⲉⲙⲉⲓ 100
ⲥⲟⲟⲩϩⲟⲩ 100
▁ϩⲓⲧⲟⲟⲧⲕ 100
▁ϩⲛⲟⲩϭⲓϫ 100
▁ϩⲛⲧⲥⲁⲣⲝ 100
▁ϫⲉⲡϣⲏⲣⲉ 100
▁ϫⲉⲧⲉⲛⲟⲩ 100
▁ⲁⲃⲉⲛⲛⲏⲣ 100
▁ⲁⲩⲧⲟⲙⲥϥ 100
▁ⲉⲕⲉⲉⲓⲣⲉ 100
▁ⲕⲛⲁϣⲱⲡⲉ 100
▁ⲙⲡⲉⲧⲣⲟⲥ 100
▁ⲛⲁⲟⲩⲱⲛϩ 100
▁ⲛⲁⲧⲥⲱⲧⲙ 100
▁ⲛⲉⲓⲣⲏⲛⲏ 100
▁ⲛⲛⲁⲣⲭⲱⲛ 100
▁ⲛⲛⲉϥⲃⲁⲗ 100
▁ⲛⲛⲉⲕϭⲓϫ 100
▁ⲛⲛⲉⲣⲱⲙⲉ 100
▁ⲡⲁϩⲙϩⲁⲗ 100
▁ⲡⲉⲓϣⲁϫⲉ 100
▁ⲡⲉⲧϩⲟⲟⲩ 100
▁ⲧⲉϥⲯⲩⲭⲏ 100
▁ⲧⲡⲓⲥⲧⲓⲥ 100
ⲕⲁⲑⲁⲣⲓⲍⲉ 100
ⲙⲁⲥⲧⲓⲅⲟⲩ 100
ⲛⲉⲓⲇⲏⲥⲓⲥ 100
ⲭⲙⲁⲗⲱⲧⲟⲥ 100
▁ϩⲛⲧⲉϥϭⲟⲙ 100
▁ⲁϥⲕⲉⲗⲉⲩⲉ 100
▁ⲉⲛⲧⲁϥϩⲱⲛ 100
▁ⲉⲧⲁⲛⲟⲙⲓⲁ 100
▁ⲉⲧⲣⲉⲩⲃⲱⲕ 100
▁ⲙⲡⲉⲕϣⲏⲣⲉ 100
▁ⲙⲡⲉⲧⲛⲙⲧⲟ 100
▁ⲙⲡⲟⲩⲉⲓⲙⲉ 100
▁ⲛϩⲉⲛⲕⲟⲩⲓ 100
▁ⲛϭⲓⲡⲉⲧⲛⲁ 100
▁ϩⲙⲡⲟⲩⲟⲉⲓⲛ 100
▁ϩⲛⲃⲏⲑⲗⲉⲉⲙ 100
▁ⲙⲛⲧⲉⲓⲣⲏⲛⲏ 100
▁ⲙⲡⲉϥϩⲙϩⲁⲗ 100
▁ⲙⲡⲉϥϫⲟⲉⲓⲥ 100
▁ⲛϩⲉⲛⲛⲟⲩⲧⲉ 100
▁ⲛⲁⲉⲩⲫⲣⲁⲛⲉ 100
▁ⲛⲛⲉⲕⲉⲓⲟⲧⲉ 100
▁ⲛⲧⲉϥⲥϩⲓⲙⲉ 100
▁ⲡⲁⲣⲭⲓⲉⲣⲉⲩⲥ 100
▁ϫⲉⲉⲣⲉⲡϫⲟⲉⲓⲥ 100
▁ⲛϭⲓⲙⲙⲁⲑⲏⲧⲏⲥ 100
▁ⲛⲕⲗⲏⲣⲟⲛⲟⲙⲓⲁ 100
▁ⲛⲛⲁϩⲣⲙⲙⲱⲩⲥⲏⲥ 100
ⲣϥ 100
ⲱⲓ 100
ϣⲛⲉ 100
ϣⲱϣ 100
ϣⲱⲛ 100
ϭⲱⲣ 100
▁ⲓⲁ 100
▁ⲗⲁ 100
ⲃⲉⲧ 100
ⲅⲁⲓ 100
ⲑⲟⲩ 100
ⲕⲁϣ 100
ⲗⲏⲑ 100
ⲙⲉⲗ 100
ⲙⲓⲥ 100
ⲛⲥⲉ 100
ⲟϩⲥ 100
ⲡⲣⲏ 100
ⲥⲉϩ 100
ⲥⲏⲓ 100
ⲥⲱⲥ 100
ⲧϥⲉ 100
ⲧⲏⲙ 100
ⲧⲣⲩ 100
ϩⲟⲃⲥ 100
ϭⲟⲥⲙ 100
ϯϩⲏⲩ 100
ϯⲟⲩⲱ 100
▁ⲃⲁⲣ 100
▁ⲉⲥⲓ 100
▁ⲉⲩⲣ 100
▁ⲛϫⲡ 100
ⲓⲙⲟⲥ 100
ⲓⲥⲙⲏ 100
ⲕⲉⲣⲁ 100
ⲕⲟⲧⲉ 100
ⲗⲱϫϩ 100
ⲙⲁⲛⲉ 100
ⲙⲙⲁⲓ 100
ⲛⲁⲅⲉ 100
ⲛⲓⲏⲗ 100
ⲟⲩⲛϥ 100
ⲟⲩⲛⲅ 100
ⲡⲏⲣⲡ 100
ⲣⲓⲙⲁ 100
ⲣⲟⲩⲑ 100
ⲥⲏⲃⲉ 100
ⲥⲙⲟⲥ 100
ⲧϭⲁⲓ 100
ⲧⲃⲉϥ 100
ϩⲁⲗⲏⲧ 100
▁ϩⲏⲧⲕ 100
▁ϩⲛϩⲉ 100
▁ⲁⲓϥⲓ 100
▁ⲁⲕⲕⲁ 100
▁ⲁⲕⲕⲱ 100
▁ⲉⲛⲉⲛ 100
▁ⲙⲙⲉⲗ 100
▁ⲙⲙⲏⲧ 100
▁ⲙⲙⲙⲟ 100
▁ⲙⲛⲕⲉ 100
▁ⲙⲛⲥⲓ 100
▁ⲛϣⲣⲡ 100
▁ⲛϥϩⲉ 100
▁ⲛϯⲟⲩ 100
▁ⲛⲁϥⲓ 100
▁ⲛⲉⲟⲩ 100
▁ⲛⲉⲧⲟ 100
▁ⲛⲟⲩϩ 100
▁ⲛⲥⲁⲗ 100
▁ⲧⲙⲉϩ 100
▁ⲧⲱⲇⲏ 100
ⲁϣⲕⲁⲕ 100
ⲁⲓⲃⲉⲥ 100
ⲁⲣⲏϫϥ 100
ⲃⲁⲣⲟⲥ 100
ⲃⲣⲏϭⲉ 100
ⲇⲓⲕⲓⲁ 100
ⲙⲉϣϣⲉ 100
ⲛⲟⲉⲓⲛ 100
ⲡⲁϩⲏⲧ 100
ⲧⲟⲟⲧⲕ 100
ϩⲁⲅⲓⲟⲥ 100
▁ϩⲛⲧⲙⲉ 100
▁ϩⲧⲏⲧⲛ 100
▁ϫⲉⲙⲡⲓ 100
▁ⲉϥⲉϫⲓ 100
▁ⲉⲕⲉϫⲓ 100
▁ⲉⲙⲛⲧϥ 100
▁ⲉⲛⲧⲟϣ 100
▁ⲉⲣⲱⲟⲩ 100
▁ⲉⲧⲁⲕⲟ 100
▁ⲉⲩⲥⲙⲏ 100
▁ⲙⲁⲣⲓⲁ 100
▁ⲙⲛϭⲟⲙ 100
▁ⲙⲡϩⲱⲃ 100
▁ⲙⲡⲣⲏⲥ 100
▁ⲙⲡⲣⲕⲱ 100
▁ⲛϩⲗⲗⲟ 100
▁ⲛϩⲧⲏⲩ 100
▁ⲛϭⲓⲧⲉ 100
▁ⲛⲃⲟⲧⲉ 100
▁ⲛⲉⲧϫⲱ 100
▁ⲛⲟⲩⲱϩ 100
▁ⲛⲥⲙⲟⲧ 100
▁ⲟⲩϩⲱⲃ 100
▁ⲟⲩⲱϣϥ 100
▁ⲣϩⲟⲧⲉ 100
▁ⲥⲓⲙⲱⲛ 100
ⲅⲉⲇⲉⲱⲛ 100
ⲕⲓⲑⲁⲣⲁ 100
ⲗⲩⲭⲛⲓⲁ 100
ⲛⲧⲁϥⲧⲉ 100
ⲟⲩⲁϣⲟⲩ 100
ⲡⲁⲥⲙⲟⲥ 100
ⲡⲁⲧϩⲏⲧ 100
ϩⲉⲛⲉⲃⲟⲗ 100
▁ϩⲉⲛⲛⲟϭ 100
▁ϩⲙⲡⲙⲟⲩ 100
▁ϫⲉⲛⲛⲉϥ 100
▁ⲁϥϫⲓⲧϥ 100
▁ⲁϥⲛⲟϫϥ 100
▁ⲁⲓⲁⲕⲱⲃ 100
▁ⲉϥⲥϩⲁⲓ 100
▁ⲉϫⲙⲡⲉⲩ 100
▁ⲉϫⲛⲛⲉⲧ 100
▁ⲉϫⲛⲧⲉⲕ 100
▁ⲉⲡⲉⲕⲏⲓ 100
▁ⲉⲧϩⲛⲧⲉ 100
▁ⲉⲧⲉⲙⲡⲉ 100
▁ⲉⲧⲉⲛⲁⲓ 100
▁ⲙⲁⲩⲁⲁⲕ 100
▁ⲙⲛϣϭⲟⲙ 100
▁ⲛϥϫⲟⲟⲥ 100
▁ⲛϭⲓⲡⲉⲕ 100
▁ⲛⲁϩⲣⲁϥ 100
▁ⲛⲁⲟⲩⲱⲙ 100
▁ⲛⲛⲧⲟⲟⲩ 100
▁ⲛⲟⲩϭⲟⲙ 100
▁ⲛⲥϣⲱⲡⲉ 100
▁ⲛⲥⲁⲃⲏⲗ 100
▁ⲛⲥⲁⲡⲉϥ 100
▁ⲟⲩⲕⲱϩⲧ 100
▁ⲥⲉⲛⲁϫⲱ 100
ⲃⲁⲥⲁⲛⲟⲥ 100
ⲇⲟⲩⲙⲁⲓⲁ 100
ⲛⲁⲭⲱⲣⲉⲓ 100
ⲛⲟⲙⲓⲙⲟⲛ 100
ⲩⲛⲁⲅⲱⲅⲏ 100
ⲫⲣⲁⲅⲓⲍⲉ 100
ϩⲩⲡⲟⲙⲓⲛⲉ 100
▁ϩⲁⲧⲉⲩϩⲏ 100
▁ϩⲙⲡⲁⲣⲁⲛ 100
▁ϫⲉⲟⲩⲟⲉⲓ 100
▁ϯⲛⲁϣⲱⲡⲉ 100
▁ⲁⲩϫⲛⲟⲩϥ 100
▁ⲉⲙⲱⲩⲥⲏⲥ 100
▁ⲉⲛⲉϥϭⲓϫ 100
▁ⲉⲡⲉⲕⲣⲁⲛ 100
▁ⲉⲡⲉⲥⲣⲁⲛ 100
▁ⲉⲧⲃⲉⲡⲉϥ 100
▁ⲉⲧⲉⲙⲡⲟⲩ 100
▁ⲉⲩⲟⲩϫⲁⲓ 100
▁ⲙⲛⲓⲁⲕⲱⲃ 100
▁ⲙⲡⲁⲧϩⲏⲧ 100
▁ⲛⲁⲧⲱⲟⲩⲛ 100
▁ⲛⲅⲙⲟⲟϣⲉ 100
▁ⲛⲛⲁⲧϩⲏⲧ 100
▁ⲛⲛⲉⲕⲃⲁⲗ 100
▁ⲛⲛⲥⲟⲫⲟⲥ 100
▁ⲛⲟⲩⲙⲁⲥⲉ 100
▁ⲛⲧⲉⲡⲕⲁϩ 100
▁ⲛⲧⲉⲧⲛⲛⲁ 100
▁ⲡⲉⲧⲉⲓⲣⲉ 100
▁ⲡⲉⲧⲉⲟⲩⲛ 100
▁ⲡⲉⲧⲉⲧⲛⲁ 100
ⲙⲡⲉⲩϣⲓⲛⲉ 100
ⲛⲉϩⲓⲟⲟⲩⲉ 100
ⲡⲉⲡⲛⲉⲩⲙⲁ 100
ϩⲩⲡⲟⲧⲁⲥⲥⲉ 100
▁ϣⲁϩⲧⲟⲟⲩⲉ 100
▁ϩⲙⲡϫⲱⲱⲙⲉ 100
▁ϩⲛⲙⲡⲟⲗⲓⲥ 100
▁ⲁϩⲉⲣⲁⲧⲟⲩ 100
▁ⲁⲩϫⲓϣⲕⲁⲕ 100
▁ⲉϫⲛⲛϣⲏⲣⲉ 100
▁ⲉⲡⲟⲩⲟⲉⲓⲛ 100
▁ⲉⲩⲛⲟϭⲛⲉϭ 100
▁ⲕⲁⲧⲁⲥⲁⲣⲝ 100
▁ⲙⲙⲟⲛⲁⲭⲟⲥ 100
▁ⲙⲡⲉϩⲓⲉⲓⲃ 100
▁ⲙⲡⲟⲩⲥⲱⲧⲙ 100
▁ⲛⲉϩⲓⲟⲟⲩⲉ 100
▁ⲛⲉⲩⲙⲟⲟϣⲉ 100
▁ⲛⲥⲁⲧⲉⲉⲣⲉ 100
▁ⲛⲧⲁⲩϣⲱⲡⲉ 100
ⲡⲉⲓⲣⲁⲥⲙⲟⲥ 100
▁ⲁⲗⲗⲏⲗⲟⲩⲓⲁ 100
▁ⲉϫⲛⲧⲉϥⲁⲡⲉ 100
▁ⲉⲛⲧⲁϥϣⲱⲡⲉ 100
▁ⲉⲧⲉⲧⲛⲉⲓⲣⲉ 100
▁ⲙⲡⲣⲟⲫⲏⲧⲏⲥ 100
▁ⲛϭⲓⲡⲉⲛⲧⲁϥ 100
▁ⲛⲛⲉϥϩⲃⲏⲩⲉ 100
ⲡⲉⲧⲛⲁⲛⲟⲩⲟⲩ 100
▁ϩⲓⲧⲛⲓⲏⲥⲟⲩⲥ 100
▁ϩⲛⲟⲩⲡⲛⲉⲩⲙⲁ 100
▁ϩⲛⲧⲓⲟⲩⲇⲁⲓⲁ 100
▁ϫⲉⲓⲱϩⲁⲛⲛⲏⲥ 100
▁ϫⲉⲙⲡⲣⲣϩⲟⲧⲉ 100
▁ϯⲡⲁⲣⲁⲕⲁⲗⲉⲓ 100
▁ⲛⲉϥⲙⲁⲑⲏⲧⲏⲥ 100
▁ⲛⲥⲁⲡⲉϩⲣⲟⲟⲩ 100
▁ⲡⲉⲧⲉⲟⲩⲛⲧⲁϥ 100
▁ⲛⲛⲉϥⲟⲩⲉⲣⲏⲧⲉ 100
▁ⲙⲛⲛⲉⲅⲣⲁⲙⲙⲁⲧⲉⲩⲥ 100
ϥⲧ 100
ⲑⲟ 100
ⲗⲕ 100
ϩⲙⲥ 100
ϫϩϫ 100
ϭⲱⲙ 100
▁ⲁϫ 100
▁ⲛⲡ 100
▁ⲛⲣ 100
▁ⲭⲱ 100
ⲇⲁⲣ 100
ⲑⲓⲁ 100
ⲕⲟⲧ 100
ⲗⲟⲕ 100
ⲛⲁⲡ 100
ⲛⲥⲁ 100
ⲟⲣϣ 100
ⲟⲩⲙ 100
ⲣⲁⲃ 100
ⲥⲱⲛ 100
ⲭⲁⲃ 100
ⲭⲱⲗ 100
ⲱϭⲉ 100
ⲱⲕⲉ 100
ⲱⲧϩ 100
ϩⲙⲉⲧ 100
ϩⲟⲡϥ 100
ϩⲟⲣϣ 100
ϫⲃⲓⲛ 100
ϫⲏϭⲉ 100
ϭⲟⲣϭ 100
▁ϩⲏⲛ 100
▁ⲁⲟⲩ 100
▁ⲁⲧⲁ 100
▁ⲛϥⲣ 100
▁ⲥⲟⲩ 100
ⲁⲕⲓⲙ 100
ⲃⲁⲓⲑ 100
ⲓⲛⲟⲛ 100
ⲕⲁⲡⲉ 100
ⲙⲉⲓⲛ 100
ⲙⲓⲭⲁ 100
ⲙⲙⲁⲕ 100
ⲛⲓϥⲉ 100
ⲟⲗⲟⲩ 100
ⲧⲁⲁⲧ 100
ⲧⲃⲛⲏ 100
ⲧⲟⲩⲣ 100
ⲱⲥⲏⲫ 100
ϣⲟⲉⲓϣ 100
ϩⲏⲧⲟⲩ 100
ϩⲟⲡⲟⲩ 100
▁ϣⲱϫⲡ 100
▁ϩⲁⲧⲁ 100
▁ϫⲉⲁϩ 100
▁ϫⲉⲁⲧ 100
▁ϫⲉⲉⲥ 100
▁ϫⲓⲧⲥ 100
▁ϭⲱⲛⲧ 100
▁ⲁⲓϩⲉ 100
▁ⲉⲩϥⲓ 100
▁ⲛϩⲣⲉ 100
▁ⲛⲁⲣⲭ 100
▁ⲛⲉϥⲟ 100
▁ⲛⲉϩⲉ 100
▁ⲛⲉⲩⲉ 100
▁ⲛⲏⲣⲡ 100
▁ⲛⲓⲁⲃ 100
▁ⲛⲙⲙⲉ 100
▁ⲡⲁⲙⲁ 100
▁ⲧⲁⲣⲉ 100
ⲅⲉⲓⲗⲉ 100
ⲉⲓⲁⲧϥ 100
ⲕⲏⲧⲁⲥ 100
ⲗⲁⲃⲁⲛ 100
ⲗⲁⲇⲟⲥ 100
ⲛϩⲏⲧϥ 100
ⲛⲁⲃⲱⲕ 100
ⲛⲟⲩⲟⲓ 100
ⲟⲩⲱⲛϥ 100
ⲡⲉⲕϩⲟ 100
ⲡⲉⲧⲁⲥ 100
ⲡⲟⲣⲛⲏ 100
ⲣⲙⲉⲓⲏ 100
ⲣⲩⲑⲣⲁ 100
ⲥⲟⲟⲛⲉ 100
ⲥⲟⲟⲩⲉ 100
ⲧⲁⲙⲟⲛ 100
ⲧⲁⲥⲓⲁ 100
ⲧⲟⲡⲟⲥ 100
ⲫⲓⲁⲗⲏ 100
ⲱⲧⲓⲍⲉ 100
ϩⲕⲁⲉⲓⲧ 100
▁ϥⲛⲁⲉⲓ 100
▁ϩⲁⲡⲉϥ 100
▁ϩⲓⲃⲟⲗ 100
▁ϩⲓⲡⲉϥ 100
▁ϩⲙⲡⲟⲩ 100
▁ϩⲛⲛⲉⲓ 100
▁ϫⲉⲁⲣⲓ 100
▁ϫⲉⲉⲧⲓ 100
▁ϫⲉⲛⲁϣ 100
▁ϫⲉⲛⲉⲓ 100
▁ϫⲓⲛⲟⲩ 100
▁ϯⲟⲩⲱϣ 100
▁ϯⲥⲟⲡⲥ 100
▁ⲁⲥϫⲡⲟ 100
▁ⲉⲩⲙⲛⲧ 100
▁ⲙⲁⲣⲉⲛ 100
▁ⲙⲙⲓⲛⲉ 100
▁ⲙⲡⲉⲩⲥ 100
▁ⲙⲡⲱϩⲥ 100
▁ⲛϥⲃⲱⲕ 100
▁ⲛϭⲓⲥⲁ 100
▁ⲛⲁⲇⲁⲙ 100
▁ⲛⲁⲛⲁⲓ 100
▁ⲛⲥⲁⲡⲁ 100
▁ⲛⲥⲟⲩⲟ 100
▁ⲛⲥⲱⲣⲙ 100
▁ⲛⲧⲁⲓⲱ 100
▁ⲡϩⲟⲟⲩ 100
▁ⲡⲉⲧⲙⲉ 100
▁ⲡⲟⲉⲓⲕ 100
▁ⲡⲟⲩⲱϣ 100
▁ⲧⲉⲥⲃⲱ 100
ⲕⲟⲩϫⲁⲓ 100
ⲛⲁϩⲙⲉϥ 100
ⲛⲧⲏⲩⲧⲛ 100
ⲟⲩⲕⲟⲩⲓ 100
ⲧⲉⲧⲛⲉⲓ 100
ⲧⲟⲟⲧⲟⲩ 100
ⲧⲣϩⲟⲧⲉ 100
▁ϫⲉϩⲁⲡⲥ 100
▁ϫⲉⲁϫⲓⲥ 100
▁ϫⲉⲛⲅⲛⲁ 100
▁ⲁϥϫⲓⲥⲉ 100
▁ⲁⲩⲟⲩⲱⲛ 100
▁ⲉϥⲕⲱⲧⲉ 100
▁ⲉϥⲟⲩⲏϩ 100
▁ⲉϥⲟⲩⲱϣ 100
▁ⲉⲕⲣⲓⲛⲉ 100
▁ⲉⲙⲡⲁⲧϥ 100
▁ⲉⲥϩⲟⲟⲩ 100
▁ⲉⲧⲟⲟⲧⲉ 100
▁ⲉⲧⲥⲱϣⲉ 100
▁ⲕⲁⲧⲁⲡⲁ 100
▁ⲙⲁⲗⲗⲟⲛ 100
▁ⲙⲛⲛⲥⲱϥ 100
▁ⲙⲡϫⲁϫⲉ 100
▁ⲙⲡⲛⲟⲩⲃ 100
▁ⲙⲡⲛⲟⲩⲛ 100
▁ⲛϩⲟⲓⲛⲉ 100
▁ⲛϭⲓⲁⲡⲁ 100
▁ⲛⲣⲉϥϫⲓ 100
▁ⲛⲧⲉⲟⲩⲁ 100
▁ⲛⲧⲟⲟⲩⲛ 100
▁ⲡⲉϥϩⲏⲧ 100
▁ⲧⲁⲙⲁⲁⲩ 100
ⲕⲁⲧⲏⲅⲟⲣ 100
ⲡⲉⲕⲉⲓⲱⲧ 100
ⲡⲉⲧⲁⲥⲙⲁ 100
ⲣⲁⲧⲥⲱⲧⲙ 100
▁ϩⲙⲡϩⲟⲟⲩ 100
▁ϩⲙⲡⲁϣⲁⲓ 100
▁ϫⲉⲧⲉⲧⲛⲁ 100
▁ϯⲛⲁϫⲟⲟⲩ 100
▁ϯⲛⲁⲉⲓⲣⲉ 100
▁ⲁϥⲛⲕⲟⲧⲕ 100
▁ⲉⲙⲛⲗⲁⲁⲩ 100
▁ⲉⲙⲛⲙⲟⲟⲩ 100
▁ⲉⲩⲙⲉⲉⲩⲉ 100
▁ⲉⲩⲙⲟⲩⲧⲉ 100
▁ⲕⲁⲧⲁⲛⲉϥ 100
▁ⲙⲛⲓⲥⲁⲁⲕ 100
▁ⲙⲛⲡⲉϥⲏⲓ 100
▁ⲙⲛⲡⲉⲟⲟⲩ 100
▁ⲛϭⲓⲛⲧⲟϣ 100
▁ⲛⲃⲁⲁⲙⲡⲉ 100
▁ⲛⲙⲙⲏⲏϣⲉ 100
▁ⲛⲥⲩⲙⲉⲱⲛ 100
ⲙⲁⲓⲛⲟⲩⲧⲉ 100
ⲙⲫⲓⲃⲟⲥⲑⲉ 100
▁ϩⲛⲛⲉϥϭⲓϫ 100
▁ϩⲛⲟⲩⲉⲟⲟⲩ 100
▁ϩⲛⲟⲩⲥⲏϥⲉ 100
▁ϫⲉⲟⲩⲉⲃⲟⲗ 100
▁ϫⲉⲟⲩⲣⲱⲙⲉ 100
▁ⲛⲉϥϩⲙⲟⲟⲥ 100
▁ⲛⲉϥⲥⲟⲟⲩⲛ 100
▁ⲛⲉⲧⲣϩⲟⲧⲉ 100
▁ⲛⲥⲉⲟⲩⲱϣⲧ 100
▁ⲛⲧⲉⲣⲉϥϫⲉ 100
▁ⲛⲧⲉⲧⲏⲩⲧⲛ 100
▁ⲛⲧⲉⲧⲛϩⲉⲛ 100
ⲭⲙⲁⲗⲱⲧⲓⲍⲉ 100
▁ⲉϣⲁⲩⲙⲟⲩⲧⲉ 100
▁ⲉⲧⲣⲉⲩϣⲱⲡⲉ 100
▁ⲙⲡⲉⲧⲛⲥⲱⲧⲙ 100
▁ⲙⲡⲓⲟⲩⲟⲉⲓϣ 100
▁ⲙⲡⲡⲟⲛⲏⲣⲟⲛ 100
▁ⲛⲥⲁⲡⲛⲟⲩⲧⲉ 100
▁ϣⲁⲣⲉⲟⲩⲣⲱⲙⲉ 100
▁ϩⲛⲛⲉϩⲓⲟⲟⲩⲉ 100
▁ϩⲛⲟⲩⲕⲗⲏⲣⲟⲥ 100
▁ⲉⲧⲉⲧⲛⲥⲟⲟⲩⲛ 100
▁ⲙⲡⲁⲣⲁⲛⲟⲙⲟⲥ 100
ϫⲕ 100
ⲁϣ 100
ϣⲙⲧ 100
ϣⲛⲏ 100
ϩⲉϫ 100
ϩⲏⲙ 100
ϫⲱⲥ 100
ϯϩⲉ 100
▁ⲁⲅ 100
▁ⲡⲟ 100
ⲃⲁϣ 100
ⲅⲉⲛ 100
ⲇⲉⲕ 100
ⲗⲉϫ 100
ⲗⲉⲗ 100
ⲗⲟϫ 100
ⲗⲩⲡ 100
ⲟϭⲉ 100
ⲣⲓⲡ 100
ⲧⲙⲡ 100
ⲭⲉⲇ 100
ⲭⲏⲗ 100
ϩⲛⲁϥ 100
ϩⲟⲥⲉ 100
ϫⲡⲟⲕ 100
ϭⲃⲃⲉ 100
▁ϣⲁⲕ 100
▁ⲁⲕⲣ 100
▁ⲁⲥⲣ 100
▁ⲙⲡⲥ 100
▁ⲙⲫⲁ 100
▁ⲛⲁⲗ 100
▁ⲛⲕⲏ 100
▁ⲛⲧⲓ 100
▁ⲡⲱϣ 100
▁ⲧⲁϫ 100
ⲁⲓⲟⲛ 100
ⲅⲓⲗⲉ 100
ⲉⲓⲧⲛ 100
ⲉⲣⲏⲧ 100
ⲓⲙⲓⲁ 100
ⲙⲙⲁⲛ 100
ⲙⲟⲧⲛ 100
ⲛⲁϣⲧ 100
ⲛⲓⲍⲉ 100
ⲟⲙⲟⲩ 100
ⲟⲩⲟϫ 100
ⲟⲩⲟⲡ 100
ⲡⲉⲩⲥ 100
ⲡⲟⲩⲱ 100
ⲣⲁⲙⲉ 100
ⲣⲙⲁⲛ 100
ⲣⲙⲱⲛ 100
ⲥⲟⲩⲣ 100
ⲧϥⲛⲁ 100
ⲫⲉⲣⲉ 100
ⲭⲓⲱⲛ 100
ⲯⲓⲧⲉ 100
ϩⲉⲛⲛⲁ 100
ϩⲟⲉⲓⲙ 100
ϩⲣⲏⲣⲉ 100
ϩⲱⲱⲕⲉ 100
ϭⲟⲗⲧⲉ 100
▁ϣⲗⲏⲗ 100
▁ϩⲁⲛⲉ 100
▁ϩⲱⲃⲥ 100
▁ϫⲓⲛⲡ 100
▁ⲁϥϫⲉ 100
▁ⲁⲕϫⲓ 100
▁ⲁⲡⲉⲩ 100
▁ⲉⲙⲟⲩ 100
▁ⲉⲟⲩⲛ 100
▁ⲉⲧⲟϣ 100
▁ⲕⲛⲁⲣ 100
▁ⲙⲛⲥⲉ 100
▁ⲙⲡϣⲓ 100
▁ⲛϫⲱⲙ 100
▁ⲛⲛⲕⲉ 100
▁ⲛⲣⲙⲛ 100
▁ⲛⲧⲁⲣ 100
▁ⲛⲧⲕⲉ 100
▁ⲡϣⲣⲡ 100
▁ⲡⲱϩⲧ 100
▁ⲣⲓⲙⲉ 100
▁ⲥⲁϩⲱ 100
ⲍⲁⲣⲟⲥ 100
ⲓⲛⲑⲟⲥ 100
ⲓⲧⲉⲓⲁ 100
ⲕⲣⲙⲉⲥ 100
ⲗⲏⲑⲱⲥ 100
ⲙⲙⲓⲥⲉ 100
ⲛⲁⲁⲕⲉ 100
ⲡⲓⲉⲣⲟ 100
ⲣϭⲣⲱϩ 100
ⲣⲁϩⲧϥ 100
ⲣⲏⲏⲧⲉ 100
ⲣⲟⲕϩϥ 100
ⲣⲟⲕϩⲥ 100
ⲥⲁϩⲱⲕ 100
ⲥⲁⲃⲉⲉ 100
ⲥⲁⲣⲓⲁ 100
ⲧⲁϭⲥⲉ 100
ⲧⲁⲗⲏⲩ 100
ⲧⲓⲕⲟⲛ 100
ⲧⲙⲟⲕϩ 100
ⲩⲥⲙⲟⲥ 100
ⲭⲁⲓⲣⲉ 100
ϩⲉⲣⲁⲧⲕ 100
ϩⲟⲣⲟⲙⲁ 100
▁ϩⲓⲱⲱⲕ 100
▁ϩⲛⲟⲩϯ 100
▁ⲁϥϫⲱϩ 100
▁ⲁϥⲕⲱⲧ 100
▁ⲉϥⲥⲱⲕ 100
▁ⲉⲟⲩⲱϩ 100
▁ⲉⲩⲕⲁϩ 100
▁ⲙⲙⲁϩⲉ 100
▁ⲙⲙⲁⲁⲃ 100
▁ⲙⲙⲟⲩⲓ 100
▁ⲙⲛⲟⲩⲉ 100
▁ⲙⲛⲡⲉⲓ 100
▁ⲙⲡⲛⲟϭ 100
▁ⲙⲡⲛⲟⲩ 100
▁ⲛϥⲙⲟⲩ 100
▁ⲛϭⲓⲁⲃ 100
▁ⲛⲛⲃⲁⲗ 100
▁ⲛⲟⲩⲧⲉ 100
▁ⲛⲥⲙⲟⲩ 100
▁ⲛⲧⲁⲛⲁ 100
▁ⲡⲉⲧϩⲓ 100
▁ⲡⲕⲁⲕⲉ 100
▁ⲥⲁϩⲛⲉ 100
▁ⲧⲁϫⲣⲟ 100
▁ⲧⲟⲣⲅⲏ 100
▁ⲧⲱⲙⲛⲧ 100
▁ⲭⲱⲣⲓⲥ 100
ⲛⲁϩⲙⲟⲩ 100
ⲛⲁⲓⲧⲉⲓ 100
ⲛⲉⲣⲅⲉⲓ 100
ⲧⲁⲩⲟⲟⲩ 100
ⲧⲙⲁⲉⲓⲟ 100
ⲧⲥⲁⲃⲟⲕ 100
▁ϥⲛⲁⲙⲟⲩ 100
▁ϩⲛⲧϭⲟⲙ 100
▁ⲁⲓϫⲟⲟⲩ 100
▁ⲁⲛϣⲏⲣⲉ 100
▁ⲁⲩϫⲓⲧϥ 100
▁ⲁⲩⲕⲁⲁϥ 100
▁ⲉⲕⲉⲓⲣⲉ 100
▁ⲉⲧϩⲙⲡⲉ 100
▁ⲉⲧⲣϩⲱⲃ 100
▁ⲉⲩⲛⲁϣⲧ 100
▁ⲉⲩⲧⲁⲕⲟ 100
▁ⲕⲁⲧⲁⲟⲩ 100
▁ⲙⲛⲛⲥⲁⲡ 100
▁ⲙⲛⲡⲉⲧⲛ 100
▁ⲙⲡⲉϥⲙⲁ 100
▁ⲙⲡⲥⲁϣϥ 100
▁ⲛⲉⲩⲧⲟϣ 100
▁ⲛⲛⲉⲕϫⲓ 100
▁ⲛⲛⲛⲟⲃⲉ 100
▁ⲛⲟⲩⲱⲛϩ 100
▁ⲛⲣⲟⲉⲓⲥ 100
▁ⲛⲧϩⲓⲏⲙ 100
▁ⲛⲧⲉⲕϩⲉ 100
▁ⲟⲩϩⲏⲕⲉ 100
▁ⲟⲩϩⲟⲧⲉ 100
▁ⲟⲩⲛϭⲟⲙ 100
▁ⲟⲩⲛⲧⲁⲓ 100
▁ⲟⲩⲟⲉⲓⲛ 100
▁ⲡⲉⲕⲣⲁⲛ 100
▁ⲡⲉⲥⲙⲟⲩ 100
▁ⲥⲉⲛⲁⲉⲓ 100
▁ⲧⲉϥϭⲟⲙ 100
▁ⲯⲁⲗⲗⲉⲓ 100
ⲉⲍⲉⲕⲓⲁⲥ 100
ⲛⲟⲩⲣⲱⲙⲉ 100
ⲡⲁⲓⲇⲉⲩⲉ 100
ⲡⲟⲩⲟⲉⲓⲛ 100
ⲥϩⲟⲩⲟⲣⲧ 100
▁ϣⲁϥϫⲟⲟⲥ 100
▁ϩⲏⲅⲉⲙⲱⲛ 100
▁ϩⲙⲡϫⲓⲥⲉ 100
▁ϩⲛⲁⲙⲛⲧⲉ 100
▁ϩⲛⲙⲡⲩⲗⲏ 100
▁ϩⲛⲛⲁϭⲓϫ 100
▁ϩⲛⲛⲉⲩⲙⲁ 100
▁ϫⲉⲉⲣϣⲁⲛ 100
▁ϫⲉⲛⲁⲛⲟⲩ 100
▁ϫⲉⲡⲣⲱⲙⲉ 100
▁ⲁϥϫⲓⲟⲟⲣ 100
▁ⲁⲥⲧⲱⲟⲩⲛ 100
▁ⲁⲩϩⲓⲟⲩⲉ 100
▁ⲉϫⲛⲟⲩⲟⲛ 100
▁ⲉⲙⲙⲁⲁϫⲉ 100
▁ⲉⲙⲟⲩⲟⲩⲧ 100
▁ⲉⲧⲃⲉⲧⲉϥ 100
▁ⲉⲧⲃⲏⲏⲧⲥ 100
▁ⲉⲩϫⲱⲱⲙⲉ 100
▁ⲙⲁⲧⲁⲙⲟⲓ 100
▁ⲙⲛⲟⲩⲙⲛⲧ 100
▁ⲙⲡⲉⲛⲧⲁⲩ 100
▁ⲙⲡⲟⲩⲏⲏⲃ 100
▁ⲛⲁⲛⲟⲩⲟⲩ 100
▁ⲛⲁⲧⲛⲟⲃⲉ 100
▁ⲛⲉϥϣⲏⲣⲉ 100
▁ⲛⲉⲧⲉⲧⲛⲁ 100
▁ⲛⲧⲃⲁⲥⲁⲛ 100
▁ⲧⲉϥⲙⲁⲁⲩ 100
ⲃⲁⲥⲁⲛⲓⲍⲉ 100
ⲕⲁⲑⲁⲣⲧⲟⲥ 100
ⲛⲁⲅⲅⲉⲗⲟⲥ 100
ⲛⲉⲩⲉⲓⲟⲧⲉ 100
ⲛⲟⲩⲧⲉⲗⲏⲗ 100
ϭⲙⲡⲉⲩϣⲓⲛⲉ 100
▁ϩⲛⲭⲉⲃⲣⲱⲛ 100
▁ϫⲉⲡⲉⲛⲧⲁϥ 100
▁ⲁⲧⲉⲧⲛⲛⲁⲩ 100
▁ⲁⲩⲡⲁϩⲧⲟⲩ 100
▁ⲉⲛϩⲉⲑⲛⲟⲥ 100
▁ⲉⲧⲕⲛⲁⲃⲱⲕ 100
▁ⲉⲩϣⲟⲩⲉⲓⲧ 100
▁ⲙⲛⲡⲛⲟⲩⲧⲉ 100
▁ⲙⲡⲉϣⲧⲉⲕⲟ 100
▁ⲛⲗⲉⲩⲓⲧⲏⲥ 100
▁ⲛⲛⲉⲕϣⲏⲣⲉ 100
▁ⲛⲛⲉⲛⲉⲣⲏⲩ 100
▁ⲛⲟⲩⲉⲣⲏⲧⲉ 100
▁ⲛⲧⲉⲭⲁⲣⲓⲥ 100
▁ⲡⲉⲛⲥⲱⲧⲏⲣ 100
▁ⲥⲉⲛⲁⲧⲁⲕⲟ 100
▁ϩⲙⲡⲉⲧⲛϩⲏⲧ 100
▁ϩⲛϩⲉⲛϣⲁϫⲉ 100
▁ϩⲛⲛⲉⲧⲛϩⲏⲧ 100
▁ϩⲛⲟⲩⲡⲉⲧⲣⲁ 100
▁ϫⲉⲛϯⲥⲟⲟⲩⲛ 100
▁ⲁⲧⲉⲧⲛⲥⲱⲧⲙ 100
▁ⲉⲓⲛⲁⲧⲛⲧⲱⲛ 100
▁ⲉⲧⲃⲁⲃⲩⲗⲱⲛ 100
▁ⲙⲛⲛⲉⲕϣⲏⲣⲉ 100
▁ⲛϭⲓⲛⲁⲣⲭⲱⲛ 100
▁ⲛⲓⲉⲣⲉⲙⲓⲁⲥ 100
▁ⲛⲛⲉϩⲓⲟⲟⲩⲉ 100
▁ⲛⲛⲉⲕϩⲃⲏⲩⲉ 100
▁ⲛⲧⲉⲧⲛⲉⲓⲙⲉ 100
▁ⲥⲉⲛⲁⲕⲧⲟⲟⲩ 100
ⲉⲩⲁⲅⲅⲉⲗⲓⲍⲉ 100
ⲧⲁⲗⲁⲓⲡⲱⲣⲓⲁ 100
▁ϩⲛⲧⲉϥⲧⲁⲡⲣⲟ 100
▁ⲙⲛⲡⲉⲡⲛⲉⲩⲙⲁ 100
▁ⲛϭⲓⲛⲉⲧⲟⲩⲏϩ 100
▁ⲛⲁⲕⲁⲑⲁⲣⲧⲟⲛ 100
▁ⲛⲉⲡⲣⲟⲫⲏⲧⲏⲥ 100
▁ⲡⲉϫⲉⲧⲉⲥϩⲓⲙⲉ 100
▁ⲙⲛⲛⲉⲡⲣⲟⲫⲏⲧⲏⲥ 100
▁ⲛϭⲓⲛⲁⲣⲭⲓⲉⲣⲉⲩⲥ 100
ⲉϥ 100
ⲙϣ 100
ⲛϥ 100
ⲡⲩ 100
ⲧⲃ 100
ϣⲏⲧ 100
ϫⲁϫ 100
▁ⲥⲩ 100
ⲃⲏⲇ 100
ⲅⲁⲇ 100
ⲍⲉⲣ 100
ⲕⲟⲡ 100
ⲗⲉⲕ 100
ⲗⲱⲧ 100
ⲙⲓⲧ 100
ⲟⲛⲓ 100
ⲣⲉⲁ 100
ⲣⲱⲙ 100
ⲥⲏⲣ 100
ⲫⲟⲓ 100
ⲭⲉⲙ 100
ⲭⲉⲧ 100
ϣⲟⲗⲥ 100
ϥⲱϭⲉ 100
ϩⲣⲁⲩ 100
ϭⲁⲗⲉ 100
ϭⲱⲡⲉ 100
▁ϣⲣⲡ 100
▁ϩⲙⲉ 100
▁ⲁⲁϥ 100
▁ⲁⲥⲱ 100
▁ⲃⲟⲗ 100
▁ⲉⲁⲕ 100
▁ⲗⲟⲓ 100
▁ⲙⲟⲥ 100
▁ⲛⲁⲅ 100
▁ⲛⲓⲥ 100
▁ⲡⲟⲣ 100
▁ⲡⲟⲥ 100
▁ⲡⲱϩ 100
▁ⲧⲕⲉ 100
▁ⲱⲛϩ 100
ⲁⲛⲟⲕ 100
ⲁⲥⲓⲥ 100
ⲇⲟⲛⲏ 100
ⲇⲣⲟⲥ 100
ⲉⲓⲁⲧ 100
ⲉⲓⲗⲁ 100
ⲑⲁⲛⲉ 100
ⲕⲟⲟϩ 100
ⲗⲉⲓⲙ 100
ⲗⲟⲩⲥ 100
ⲙⲟⲣⲧ 100
ⲛⲟⲩⲧ 100
ⲛⲧⲏⲩ 100
ⲟⲃⲧⲉ 100
ⲡⲛⲟⲛ 100
ⲡⲟⲗⲟ 100
ⲭⲗⲟⲥ 100
ϣⲟⲣⲡϥ 100
ϩⲟⲥⲟⲛ 100
ϫⲁⲧϥⲉ 100
ϫⲓϩⲁⲡ 100
ϫⲟⲩⲱⲧ 100
▁ϣⲁⲡⲉ 100
▁ϫⲉⲉⲛ 100
▁ϭⲉⲡⲏ 100
▁ϯⲟⲩⲱ 100
▁ⲁϥⲥⲱ 100
▁ⲁⲣⲓⲥ 100
▁ⲉⲙⲉⲩ 100
▁ⲉⲟⲩⲉ 100
▁ⲉⲧⲉⲓ 100
▁ⲉⲧⲉⲙ 100
▁ⲙⲁⲁⲃ 100
▁ⲛϩⲁⲡ 100
▁ⲛⲅϥⲓ 100
▁ⲛⲙⲛⲉ 100
▁ⲛⲥⲁⲛ 100
▁ⲛⲥⲟϭ 100
▁ⲟⲩⲉϣ 100
▁ⲡⲁⲣⲭ 100
▁ⲡⲟⲩⲱ 100
▁ⲧⲁⲕⲉ 100
ⲃⲁⲣⲛⲁ 100
ⲃⲁⲥⲁⲛ 100
ⲃⲟⲟⲛⲉ 100
ⲑⲩⲙⲉⲓ 100
ⲓⲁⲑⲁⲣ 100
ⲕⲁⲓⲟⲥ 100
ⲕⲁⲩⲙⲁ 100
ⲕⲓⲛⲇⲩ 100
ⲙⲟⲛⲁⲥ 100
ⲛⲉϩⲥⲉ 100
ⲟⲓⲛⲱⲛ 100
ⲟⲩϩⲟⲣ 100
ⲟⲩⲁϣⲥ 100
ⲟⲩⲁϩⲕ 100
ⲡϣⲁϫⲉ 100
ⲡⲟⲩⲇⲏ 100
ⲣⲓⲛⲟⲛ 100
ⲧⲁⲓⲟⲥ 100
...... 100
ϩⲩⲡⲁⲣⲭ 100
▁ϣⲟⲟⲩⲉ 100
▁ϩⲓⲛⲉϩ 100
▁ϩⲛⲥⲟⲩ 100
▁ϩⲛⲧϩⲏ 100
▁ϩⲟⲥⲟⲛ 100
▁ϩⲣⲟⲩⲑ 100
▁ϫⲉⲡⲙⲁ 100
▁ϫⲟⲉⲓⲥ 100
▁ϯⲉⲟⲟⲩ 100
▁ϯⲛⲁϥⲓ 100
▁ⲁϥϫⲡⲉ 100
▁ⲁϥⲁⲗⲉ 100
▁ⲁϥⲧⲁϫ 100
▁ⲉϥⲙⲏⲣ 100
▁ⲉϥⲛⲁⲩ 100
▁ⲉϥⲛⲏϫ 100
▁ⲉⲡϩⲁⲡ 100
▁ⲉⲡⲁⲙⲁ 100
▁ⲉⲩⲛⲁⲩ 100
▁ⲉⲩⲱⲛϩ 100
▁ⲙⲉϣⲁⲕ 100
▁ⲙⲛⲛⲉⲓ 100
▁ⲙⲛⲧⲉⲥ 100
▁ⲙⲡⲁϩⲟ 100
▁ⲙⲡⲃⲟⲗ 100
▁ⲛϩⲟⲉⲓ 100
▁ⲛϩⲧⲏϥ 100
▁ⲛⲉϥϩⲛ 100
▁ⲛⲉϥⲛⲁ 100
▁ⲛⲉⲃⲟⲗ 100
▁ⲛⲉⲧⲉϥ 100
▁ⲛⲛϩⲏⲧ 100
▁ⲛⲛⲉⲩⲥ 100
▁ⲛⲟⲩⲉⲓ 100
▁ⲛⲧⲉⲛⲉ 100
▁ⲟⲩⲃⲏⲕ 100
▁ⲡϣⲓⲛⲉ 100
▁ⲡⲉⲧϩⲛ 100
▁ⲥⲁϣϥⲉ 100
▁ⲧⲱⲱⲃⲉ 100
ⲃⲟⲩⲥⲑⲉ 100
ⲅⲱⲛⲓⲍⲉ 100
ⲇⲁⲓⲙⲟⲛ 100
ⲑⲉⲱⲣⲉⲓ 100
ⲓⲙⲟⲩⲧⲉ 100
ⲓⲥⲧⲉⲩⲉ 100
ⲕⲟⲥⲙⲉⲓ 100
ⲙⲁⲙⲁⲁⲧ 100
ⲙⲡⲉⲓⲙⲁ 100
ⲛⲁϩⲃⲉϥ 100
ⲛⲧⲱⲟⲩⲛ 100
ⲟⲛⲏⲣⲟⲥ 100
ⲟⲛⲟⲥⲟⲣ 100
ⲟⲩⲛⲟⲥϥ 100
ⲟⲩⲟⲛϩϥ 100
ⲡⲗⲁⲧⲓⲁ 100
ⲡⲣⲟⲟⲩϣ 100
ⲣⲟⲩⲛⲟϭ 100
ⲣⲥⲟⲟⲩⲉ 100
ⲥⲩⲛⲁⲅⲉ 100
ⲧⲁⲉⲓⲏⲩ 100
ⲧⲁⲛϩⲟⲓ 100
ⲧⲁⲟⲩⲟⲓ 100
ⲧⲉϥϭⲓϫ 100
ⲧⲙⲯⲩⲭⲏ 100
ⲧⲟⲩⲉⲓⲟ 100
ⲧⲡⲟⲗⲓⲥ 100
ϩⲉⲛϩⲟⲟⲩ 100
▁ϩⲓⲉⲃⲓⲱ 100
▁ϫⲉⲉⲛⲛⲁ 100
▁ϫⲉⲕⲁⲧⲁ 100
▁ⲁϥⲛⲧⲟⲩ 100
▁ⲁϥⲧⲁⲗⲉ 100
▁ⲁⲓϣⲁϫⲉ 100
▁ⲁⲧⲉⲧⲛⲁ 100
▁ⲁⲩⲕⲁⲁⲩ 100
▁ⲁⲩⲙⲟⲩϩ 100
▁ⲁⲩⲣⲓⲙⲉ 100
▁ⲁⲩⲧⲁⲗⲉ 100
▁ⲃⲟⲏⲑⲉⲓ 100
▁ⲉϥⲉϫⲱⲕ 100
▁ⲉϫⲙⲡⲉⲓ 100
▁ⲉϫⲙⲡⲙⲁ 100
▁ⲉⲃⲟⲗϩⲓ 100
▁ⲉⲓϣⲟⲟⲡ 100
▁ⲉⲛⲉⲛⲧⲁ 100
▁ⲉⲡϫⲁⲓⲉ 100
▁ⲉⲡⲉⲣⲡⲉ 100
▁ⲉⲡⲕⲁⲕⲉ 100
▁ⲉⲧⲃⲉⲧⲉ 100
▁ⲉⲧⲉⲥⲃⲱ 100
▁ⲉⲧⲟⲟⲧⲥ 100
▁ⲉⲧⲣⲉⲩⲥ 100
▁ⲉⲩⲟⲩⲏϩ 100
▁ⲉⲩⲟⲩⲱⲙ 100
▁ⲕⲁⲣⲡⲟⲥ 100
▁ⲕⲉⲕⲟⲩⲓ 100
▁ⲗⲟⲓⲡⲟⲛ 100
▁ⲙⲡⲟⲩⲉϣ 100
▁ⲛϥⲉⲓⲣⲉ 100
▁ⲛϯⲙⲓⲛⲉ 100
▁ⲛⲁϫⲓⲥⲉ 100
▁ⲛⲁⲉⲓⲙⲉ 100
▁ⲛⲁⲉⲓⲣⲉ 100
▁ⲛⲅϣⲱⲡⲉ 100
▁ⲛⲉϥⲃⲁⲗ 100
▁ⲛⲕⲟⲟⲩⲉ 100
▁ⲛⲛⲉⲧⲙⲉ 100
▁ⲛⲟⲩⲙⲟⲩ 100
▁ⲛⲥⲁⲣⲟⲩ 100
▁ⲛⲥⲓⲙⲱⲛ 100
▁ⲟⲩⲃⲟⲧⲉ 100
▁ⲡⲟⲩϫⲁⲓ 100
ⲁϩⲉⲣⲁⲧⲕ 100
ⲙⲟⲛⲁⲭⲟⲥ 100
ⲙⲡⲉϩⲟⲟⲩ 100
ⲙⲡⲛⲟⲩⲧⲉ 100
ⲛⲟⲩⲟⲉⲓϣ 100
ⲡⲏⲣⲉⲧⲏⲥ 100
ⲱⲁⲃⲓⲧⲏⲥ 100
▁ϥⲛⲁⲥⲱⲧⲙ 100
▁ϩⲉⲛⲣⲱⲙⲉ 100
▁ϩⲓⲡⲧⲟⲟⲩ 100
▁ϩⲓⲣⲙⲡⲣⲟ 100
▁ϩⲓⲧⲙⲡⲉϥ 100
▁ϩⲓⲧⲟⲟⲧⲛ 100
▁ϩⲛⲟⲩϩⲱⲡ 100
▁ϫⲉⲉϥⲧⲱⲛ 100
▁ⲁⲓⲟⲩⲱϣⲃ 100
▁ⲁⲩⲛⲟϫⲟⲩ 100
▁ⲉϥϣⲁⲛⲟⲩ 100
▁ⲉⲓⲛⲁⲃⲱⲕ 100
▁ⲉⲕϣⲁⲛⲟⲩ 100
▁ⲉⲛϥϣⲟⲟⲡ 100
▁ⲉⲛⲉⲛⲧⲁⲩ 100
▁ⲉⲧⲃⲉⲛⲁⲓ 100
▁ⲉⲧⲉⲧⲛϣⲁ 100
▁ⲉⲩϩⲙⲟⲟⲥ 100
▁ⲙⲙⲛⲗⲁⲁⲩ 100
▁ⲙⲛϥⲧⲟⲟⲩ 100
▁ⲙⲛⲛⲉⲧϩⲛ 100
▁ⲙⲛⲡϣⲏⲣⲉ 100
▁ⲙⲡϩⲙϩⲁⲗ 100
▁ⲙⲡⲁϣⲏⲣⲉ 100
▁ⲛϣⲉⲗⲉⲉⲧ 100
▁ⲛⲛⲁϩⲣⲁⲕ 100
▁ⲛⲛⲁϫⲁϫⲉ 100
▁ⲛⲛⲉⲗⲁⲁⲩ 100
▁ⲛⲛⲉⲯⲩⲭⲏ 100
▁ⲛⲛⲟⲩⲏⲏⲃ 100
▁ⲛⲛⲧⲱⲣⲧⲣ 100
▁ⲛⲥⲓⲕⲓⲙⲁ 100
▁ⲛⲧⲉⲧⲛϩⲉ 100
▁ⲡⲉⲧϣⲁϫⲉ 100
▁ⲧⲁϣⲉⲉⲣⲉ 100
▁ⲧⲉⲓⲣⲏⲛⲏ 100
ⲃⲁⲣⲛⲁⲃⲁⲥ 100
▁ϩⲙⲡⲉⲕⲣⲁⲛ 100
▁ϩⲛⲟⲩϩⲟⲧⲉ 100
▁ϩⲛⲧⲉⲭⲱⲣⲁ 100
▁ϫⲉⲟⲩⲛϭⲟⲙ 100
▁ⲁϥⲙⲟⲩⲟⲩⲧ 100
▁ⲁⲃⲓⲙⲉⲗⲉⲭ 100
▁ⲉϥϣⲟⲩⲉⲓⲧ 100
▁ⲉⲛⲉⲛⲧⲟⲗⲏ 100
▁ⲉⲩⲛⲁϣⲱⲡⲉ 100
▁ⲙⲁⲧⲥⲁⲃⲟⲓ 100
▁ⲙⲡⲉϥϭⲱⲛⲧ 100
▁ⲛⲉϥϩⲃⲏⲩⲉ 100
▁ⲛⲛⲉⲩⲯⲩⲭⲏ 100
▁ⲛⲟⲩⲟⲩⲛⲟϥ 100
▁ⲛⲧⲛⲥⲟⲟⲩⲛ 100
▁ⲟⲩⲡⲓⲥⲧⲟⲥ 100
ⲇⲁⲓⲙⲟⲛⲓⲟⲛ 100
ⲟⲓⲕⲟⲛⲟⲙⲟⲥ 100
ⲡⲁⲣⲁⲅⲅⲓⲗⲉ 100
ⲡⲓⲟⲣⲇⲁⲛⲏⲥ 100
ⲡⲣⲟⲥⲧⲁⲅⲙⲁ 100
ⲧⲁϩⲉⲣⲁⲧⲟⲩ 100
ⲯⲁⲗⲧⲏⲣⲓⲟⲛ 100
▁ϩⲛⲟⲩⲧⲁⲡⲣⲟ 100
▁ϫⲉⲧⲉⲓⲣⲏⲛⲏ 100
▁ⲉⲧⲡⲓⲥⲧⲉⲩⲉ 100
▁ⲉⲧⲣⲉⲥϣⲱⲡⲉ 100
▁ⲙⲛⲛⲥⲁⲧⲣⲉϥ 100
▁ⲙⲛⲟⲩⲥϩⲓⲙⲉ 100
▁ⲙⲡⲡⲟⲗⲉⲙⲟⲥ 100
▁ⲛϩⲉⲛⲕⲟⲟⲩⲉ 100
▁ⲛϭⲓⲛⲉϩⲟⲟⲩ 100
▁ⲛϭⲓⲡⲁⲉⲓⲱⲧ 100
▁ⲛⲟⲩⲭⲟⲣⲧⲟⲥ 100
▁ⲛⲥⲁⲧⲁⲯⲩⲭⲏ 100
▁ⲛⲧⲉⲧⲛⲥⲱⲧⲙ 100
▁ⲟⲩⲉϩⲥⲁϩⲛⲉ 100
ⲕⲗⲏⲣⲟⲛⲟⲙⲟⲥ 100
▁ⲉⲧⲉⲧⲛⲛⲁⲃⲱⲕ 100
▁ⲉⲩⲙⲛⲧⲙⲛⲧⲣⲉ 100
▁ⲕⲁⲧⲁⲡⲛⲟⲙⲟⲥ 100
▁ⲙⲙⲛⲧⲥⲛⲟⲟⲩⲥ 100
▁ⲙⲛϩⲉⲛϣⲡⲏⲣⲉ 100
▁ⲙⲛⲓⲱϩⲁⲛⲛⲏⲥ 100
▁ⲛⲁⲣⲭⲓⲉⲣⲉⲩⲥ 100
▁ⲛⲛⲉⲧⲑⲃⲃⲓⲏⲩ 100
▁ϩⲓⲧⲛⲧⲡⲓⲥⲧⲓⲥ 100
▁ϩⲛⲧⲉⲕⲕⲗⲏⲥⲓⲁ 100
▁ⲙⲡⲉⲧϩⲓⲧⲟⲩⲱⲕ 100
▁ⲛⲇⲓⲕⲁⲓⲟⲥⲩⲛⲏ 100
▁ⲛⲛⲁⲙⲟⲣⲣⲁⲓⲟⲥ 100
▁ⲙⲛⲛⲉϥⲙⲁⲑⲏⲧⲏⲥ 100
▁ϩⲙⲡⲉⲩⲁⲅⲅⲉⲗⲓⲟⲛ 100
▁ⲙⲛⲧϩⲓⲉⲣⲟⲩⲥⲁⲗⲏⲙ 100
ϩⲗ 100
ϭⲡ 100
▁ⲍ 100
ⲁϩ 100
ⲁⲅ 100
ⲉⲕ 100
ⲏϫ 100
ⲗϥ 100
ϣⲣⲱ 100
ϥⲉⲧ 100
ϩⲓⲡ 100
ϭⲟⲩ 100
▁·· 100
▁ⲃⲉ 100
ⲇⲣⲉ 100
ⲗϭⲟ 100
ⲟⲏⲑ 100
ⲟⲕⲙ 100
ⲟⲙⲥ 100
ⲟⲟⲧ 100
ⲡⲉϩ 100
ⲡⲛⲁ 100
ⲣⲉⲛ 100
ⲥⲏϣ 100
ⲫⲁⲛ 100
ⲭⲟⲇ 100
ⲱⲛϣ 100
ⲱⲱϥ 100
ϣⲏⲩⲉ 100
ϣⲟⲙⲧ 100
ϩⲙⲟⲙ 100
ϩⲣⲱⲧ 100
ϭⲟⲟϣ 100
ϭⲱⲃⲉ 100
▁··· 100
▁ϩⲛⲥ 100
▁ϫⲱϩ 100
▁ⲁϥⲕ 100
▁ⲉⲣⲙ 100
▁ⲕⲧⲉ 100
▁ⲙⲉⲥ 100
▁ⲛⲁⲡ 100
▁ⲛⲇⲁ 100
▁ⲛⲉⲙ 100
▁ⲡϣⲁ 100
▁ⲡⲁⲃ 100
▁ⲡⲱⲓ 100
▁ⲣⲉⲕ 100
▁ⲱⲛⲉ 100
ⲁⲛⲁⲛ 100
ⲃⲃⲁⲓ 100
ⲇⲇⲟⲩ 100
ⲉⲧⲟⲥ 100
ⲙⲁⲕⲁ 100
ⲛⲟϫⲕ 100
ⲟⲃϣϥ 100
ⲟⲓⲱⲥ 100
ⲟⲛⲧⲁ 100
ⲡⲉϩⲧ 100
ⲣⲉⲩⲉ 100
ⲥⲉⲡⲥ 100
ⲥⲱⲃϩ 100
ⲥⲱⲱϥ 100
ⲧⲁϩⲙ 100
ⲩⲣⲓⲁ 100
ϣⲟⲩⲣⲏ 100
ϫⲓⲟⲩⲁ 100
ϭⲣⲁϩⲧ 100
ϯⲁⲛⲟⲥ 100
▁ϩⲱⲱⲧ 100
▁ϫⲉⲕⲱ 100
▁ϫⲓⲛⲧ 100
▁ϫⲟⲥⲉ 100
▁ⲁⲛⲧⲁ 100
▁ⲁⲡⲟⲗ 100
▁ⲃⲁⲓⲑ 100
▁ⲉⲕⲉⲣ 100
▁ⲉⲡϩⲟ 100
▁ⲉⲧϩⲏ 100
▁ⲉⲧⲕⲱ 100
▁ⲉⲩⲙⲉ 100
▁ⲉⲩⲟⲩ 100
▁ⲙⲛⲙⲡ 100
▁ⲙⲡⲓⲁ 100
▁ⲙⲡⲓⲉ 100
▁ⲛϩⲣⲱ 100
▁ⲛⲃⲟⲗ 100
▁ⲛⲃⲱⲕ 100
▁ⲛⲉⲩⲟ 100
▁ⲛⲛⲓⲁ 100
▁ⲟⲩⲁⲧ 100
▁ⲟⲩⲏϩ 100
▁ⲡϩⲁⲡ 100
▁ⲡⲁϩⲟ 100
▁ⲡⲱⲛⲉ 100
▁ⲣϩⲱⲃ 100
▁ⲧⲁⲭⲏ 100
ⲁⲩⲥⲓⲥ 100
ⲇⲓⲱⲕⲉ 100
ⲓⲛⲉⲉⲥ 100
ⲙϩⲁⲟⲩ 100
ⲙⲁⲉⲓⲟ 100
ⲙⲁⲧⲟⲓ 100
ⲙⲟⲕϩⲥ 100
ⲙⲡⲉⲧⲛ 100
ⲛⲟⲩⲉϣ 100
ⲟⲕⲕⲟⲥ 100
ⲟⲩⲟϣϥ 100
ⲟⲩⲱϩⲙ 100
ⲡⲧⲱⲙⲁ 100
ⲣⲁⲕⲧϥ 100
ⲥⲉⲓⲁⲧ 100
ⲧⲁϩⲟⲕ 100
ⲧⲁⲙⲟϥ 100
ⲧⲉⲕⲛⲁ 100
ⲧⲟϭⲟⲩ 100
ⲧⲟⲗⲙⲁ 100
ⲭⲟⲣⲟⲥ 100
ⲭⲱⲣⲏⲃ 100
ϫⲓⲥⲙⲟⲩ 100
▁ϣⲁⲣⲉⲛ 100
▁ϩⲁⲣⲱϥ 100
▁ϩⲉⲛⲟⲩ 100
▁ϩⲓϫⲛⲛ 100
▁ϩⲓⲱⲱⲥ 100
▁ϩⲙⲡⲉⲛ 100
▁ϩⲟⲟⲩⲧ 100
▁ϫⲉϩⲣⲁ 100
▁ϫⲉϩⲱⲃ 100
▁ϫⲉⲧⲱⲕ 100
▁ⲁϥⲛⲉϫ 100
▁ⲁϥⲱⲣⲕ 100
▁ⲁⲛⲛⲁⲩ 100
▁ⲁⲥⲛⲁⲩ 100
▁ⲉϥⲛⲁⲣ 100
▁ⲉϥⲡⲏⲧ 100
▁ⲉϫⲟⲟⲥ 100
▁ⲉⲙⲏⲥⲉ 100
▁ⲉⲙⲡⲁⲧ 100
▁ⲉⲛⲁϣⲉ 100
▁ⲉⲥⲛⲏⲩ 100
▁ⲉⲧϩⲏⲡ 100
▁ⲉⲩⲙⲉϩ 100
▁ⲓⲥⲁⲁⲕ 100
▁ⲕⲁⲕⲱⲥ 100
▁ⲕⲟⲩⲱϣ 100
▁ⲙⲙⲟⲉⲓ 100
▁ⲙⲡⲁⲧⲉ 100
▁ⲛϣⲃⲏⲣ 100
▁ⲛϫⲁϫⲉ 100
▁ⲛⲁⲑⲁⲃ 100
▁ⲛⲁⲣⲭⲏ 100
▁ⲛⲉϣⲁⲩ 100
▁ⲛⲕⲟⲧⲕ 100
▁ⲛⲛⲱϩⲉ 100
▁ⲛⲟⲣⲅⲏ 100
▁ⲛⲟⲩⲱϣ 100
▁ⲛⲧⲁϩⲉ 100
▁ⲛⲧⲉⲡⲁ 100
▁ⲛⲧⲉⲥⲁ 100
▁ⲟⲩⲣⲉϥ 100
▁ⲟⲩⲣⲣⲟ 100
▁ⲡⲉⲓⲕⲉ 100
▁ⲥⲁϩⲱⲕ 100
▁ⲧⲁⲣⲉϥ 100
▁ⲧⲉⲗⲏⲗ 100
ⲃⲁⲣⲟⲩⲭ 100
ⲃⲟⲩⲭⲟⲇ 100
ⲓⲙⲏⲏϣⲉ 100
ⲕⲉϣⲏⲣⲉ 100
ⲕⲉⲇⲣⲟⲥ 100
ⲗⲩⲡⲧⲟⲛ 100
ⲛⲁⲥⲛⲏⲩ 100
ⲛⲟⲩⲱϣⲧ 100
ⲛⲧⲉⲛⲟⲩ 100
ⲣⲛⲟϥⲣⲉ 100
ⲣⲛⲟⲉⲓⲕ 100
ⲥⲁⲙⲯⲱⲛ 100
ⲧⲟⲩϫⲟⲛ 100
ⲧⲣⲁⲡⲏⲥ 100
ⲭⲟⲩⲥⲉⲓ 100
ϥⲁⲓⲛⲁϩⲃ 100
ϭⲓⲛϣⲁϫⲉ 100
▁ϩⲓϫⲛⲧⲁ 100
▁ϩⲓⲧⲛⲧⲉ 100
▁ϩⲓⲧⲟⲟⲧ 100
▁ϩⲛⲟⲩⲏⲓ 100
▁ϩⲛⲧϩⲁⲏ 100
▁ϫⲉϣⲁⲣⲉ 100
▁ϫⲉⲙⲁⲣⲛ 100
▁ϫⲉⲙⲡⲉⲣ 100
▁ⲁϥⲧⲁⲁⲥ 100
▁ⲁⲓⲥϩⲁⲓ 100
▁ⲁⲕⲉⲓⲣⲉ 100
▁ⲁⲡⲣⲱⲙⲉ 100
▁ⲁⲩϣⲱⲱⲧ 100
▁ⲁⲩⲁϣⲁⲓ 100
▁ⲁⲩⲙⲓϣⲉ 100
▁ⲁⲩⲣⲁϣⲉ 100
▁ⲁⲩⲣⲱⲙⲉ 100
▁ⲉϥⲙⲟⲩϩ 100
▁ⲉϥⲟⲩⲱⲙ 100
▁ⲉⲣⲉⲡⲉⲧ 100
▁ⲉⲧϣⲁϫⲉ 100
▁ⲉⲧϫⲟⲟⲣ 100
▁ⲉⲧⲉⲕⲛⲁ 100
▁ⲉⲧⲉⲛⲟⲩ 100
▁ⲉⲧⲉⲣⲉⲛ 100
▁ⲉⲧⲣⲉϥϯ 100
▁ⲉⲩϣⲏⲣⲉ 100
▁ⲉⲩϭⲱϣⲧ 100
▁ⲉⲩⲛⲁⲉⲣ 100
▁ⲓⲉⲫⲑⲁⲉ 100
▁ⲕⲛⲁⲙⲟⲩ 100
▁ⲙⲡⲉⲕⲏⲓ 100
▁ⲛϫⲓⲛϫⲏ 100
▁ⲛⲅⲉⲛⲉⲁ 100
▁ⲛⲉⲧⲛⲏⲩ 100
▁ⲛⲙⲙⲟⲟⲩ 100
▁ⲛⲛⲉⲧⲛⲣ 100
▁ⲛⲛⲗⲁⲟⲥ 100
▁ⲛⲟⲩⲕⲁϩ 100
▁ⲛⲧϩⲟⲧⲉ 100
▁ⲛⲧⲥⲁⲧⲉ 100
▁ⲟⲩⲗⲁⲟⲥ 100
▁ⲟⲩⲛⲧⲁϥ 100
▁ⲟⲩⲛⲧⲁⲛ 100
▁ⲡⲉⲥϩⲁⲓ 100
▁ⲡⲉⲧⲉⲟⲩ 100
▁ⲡⲙⲉⲣⲓⲧ 100
▁ⲥⲟⲩⲧⲱⲛ 100
▁ⲧⲁϩⲟⲟⲩ 100
▁ⲧⲏⲟⲩⲧⲛ 100
ⲁⲣⲑⲉⲛⲟⲥ 100
ⲇⲉⲓⲡⲛⲟⲛ 100
ⲍⲱⲣⲁⲓⲟⲥ 100
ⲙⲉϩⲥⲁϣϥ 100
ⲙⲛⲧϩⲏⲕⲉ 100
ⲛⲉⲛⲛⲟⲃⲉ 100
ⲛⲧⲁⲧϩⲏⲧ 100
ⲣⲉϥϯϩⲁⲡ 100
ⲧⲁⲙⲁϩⲧⲉ 100
ⲧⲁⲟⲩⲟⲉⲓ 100
▁ϣⲟⲩϩⲏⲛⲉ 100
▁ϩⲉⲛϩⲟⲟⲩ 100
▁ϩⲓϫⲙⲡⲉϥ 100
▁ϩⲓⲡⲉⲕⲣⲟ 100
▁ϩⲙⲡⲟⲩⲱϣ 100
▁ϩⲛⲟⲩϩⲓⲏ 100
▁ϩⲛⲧϩⲟⲧⲉ 100
▁ϩⲟⲙⲟⲓⲱⲥ 100
▁ϯⲛⲁϣⲁϫⲉ 100
▁ⲁϥⲧⲁϩⲟϥ 100
▁ⲁⲓⲙⲟⲟϣⲉ 100
▁ⲁⲩϯⲉⲟⲟⲩ 100
▁ⲁⲩⲧⲁⲙⲓⲟ 100
▁ⲉϥⲟⲩⲟⲃϣ 100
▁ⲉⲕⲥⲟⲟⲩⲛ 100
▁ⲉⲙⲟⲟⲩⲧϥ 100
▁ⲉⲛⲧⲁⲩⲉⲓ 100
▁ⲉⲟⲩⲉⲃⲟⲗ 100
▁ⲉⲧϩⲓⲃⲟⲗ 100
▁ⲉⲧⲥⲟⲫⲓⲁ 100
▁ⲕⲛⲁϫⲟⲟⲥ 100
▁ⲙⲡϥⲥⲱⲧⲙ 100
▁ⲙⲡϭⲉⲣⲱⲃ 100
▁ⲙⲡⲉⲕⲗⲟⲙ 100
▁ⲙⲡⲉⲙϩⲓⲧ 100
▁ⲙⲡⲉⲩⲕⲁϩ 100
▁ⲙⲡⲓⲥⲧⲓⲥ 100
▁ⲙⲡⲟⲩϫⲁⲓ 100
▁ⲙⲡⲣϣⲱⲡⲉ 100
▁ⲛϥⲧⲱⲟⲩⲛ 100
▁ⲛϭⲓⲛⲉⲧⲛ 100
▁ⲛⲉⲣⲣⲱⲟⲩ 100
▁ⲛⲓⲟⲩⲇⲁⲥ 100
▁ⲛⲣⲙⲛϩⲏⲧ 100
▁ⲛⲥⲁⲥⲡⲓⲣ 100
▁ⲛⲥⲟⲇⲟⲙⲁ 100
▁ⲛⲧⲁϥⲁⲁⲩ 100
▁ⲛⲧⲥⲩⲣⲓⲁ 100
▁ⲡⲉⲛⲧⲁϥϯ 100
ⲛⲉⲕⲗⲟⲟⲗⲉ 100
ⲟⲩⲛϣⲟⲙⲛⲧ 100
ⲣⲉϥⲙⲟⲟⲩⲧ 100
ⲥⲩⲛϩⲓⲥⲧⲁ 100
ⲭⲉⲧⲧⲁⲓⲟⲥ 100
▁ϩⲛⲧⲙⲏⲏⲧⲉ 100
▁ϫⲓⲛⲁⲣⲏϫϥ 100
▁ⲁⲁⲃⲣⲁϩⲁⲙ 100
▁ⲉϫⲙⲡⲗⲁⲟⲥ 100
▁ⲉⲡⲉⲓϣⲁϫⲉ 100
▁ⲉⲧϣⲟⲩⲉⲓⲧ 100
▁ⲉⲧⲉⲙⲛⲧⲟⲩ 100
▁ⲕⲁⲧⲁⲡⲧⲱϣ 100
▁ⲙⲙⲱⲟⲩⲥⲏⲥ 100
▁ⲙⲡⲁⲟⲩϫⲁⲓ 100
▁ⲙⲡⲉϥϣⲁϫⲉ 100
▁ⲙⲡⲉϥⲟⲩⲟⲓ 100
▁ⲙⲡⲉϥⲧⲟⲟⲩ 100
▁ⲙⲡⲉⲓⲣⲱⲙⲉ 100
▁ⲛϥⲧⲙϣⲱⲡⲉ 100
▁ⲛϩⲉⲛϣⲏⲣⲉ 100
▁ⲛⲉⲧⲙⲟⲟϣⲉ 100
▁ⲛⲉⲩϩⲓⲟⲙⲉ 100
▁ⲛⲛⲉϩⲓⲟⲙⲉ 100
▁ⲛⲛⲉⲕϣⲁϫⲉ 100
▁ⲛⲛⲉⲛⲧⲟⲗⲏ 100
▁ⲛⲟⲩϣⲟϫⲛⲉ 100
▁ⲛⲟⲩϩⲙϩⲁⲗ 100
▁ⲛⲣⲙⲛⲕⲏⲙⲉ 100
▁ⲛⲥⲁⲗⲡⲓⲅⲝ 100
▁ⲛⲥⲟⲗⲟⲙⲱⲛ 100
▁ⲛⲧϩⲉⲗⲡⲓⲥ 100
▁ⲛⲧⲁⲛⲟⲙⲓⲁ 100
▁ⲡⲉⲟⲩⲟⲉⲓϣ 100
▁ⲡⲉⲧϩⲁⲣⲉϩ 100
▁ⲧⲇⲓⲁⲑⲏⲕⲏ 100
▁ⲧⲉⲝⲟⲩⲥⲓⲁ 100
ⲥⲧⲣⲁⲧⲉⲩⲙⲁ 100
ⲧⲕⲟⲓⲃⲱⲧⲟⲥ 100
ϩⲩⲡⲁⲣⲭⲟⲛⲧⲁ 100
▁ϩⲛⲛⲉⲧϫⲟⲥⲉ 100
▁ⲁⲩⲡⲓⲥⲧⲉⲩⲉ 100
▁ⲉⲛⲉϩⲓⲟⲟⲩⲉ 100
▁ⲙⲁⲣⲉϥⲥⲱⲧⲙ 100
▁ⲙⲛⲓⲱⲛⲁⲑⲁⲛ 100
▁ⲙⲛⲛϩⲉⲑⲛⲟⲥ 100
▁ⲙⲛⲛⲉⲛⲉⲣⲏⲩ 100
▁ⲙⲡⲉⲧⲟⲩⲁⲁⲃ 100
▁ⲙⲡⲥⲁⲧⲁⲛⲁⲥ 100
▁ⲛⲉⲧⲛⲁϣⲱⲡⲉ 100
▁ⲛⲙⲙⲁⲑⲏⲧⲏⲥ 100
▁ⲛⲛⲉⲧⲛϣⲏⲣⲉ 100
▁ⲛⲟⲩϩⲉⲑⲛⲟⲥ 100
▁ⲛⲧⲉⲝⲟⲩⲥⲓⲁ 100
▁ⲛⲧⲉⲧⲛϣⲙϣⲉ 100
▁ⲛⲧⲉⲧⲛⲟⲩⲱⲙ 100
▁ⲥⲉⲛⲁⲙⲟⲟϣⲉ 100
ⲁⲓⲭⲙⲁⲗⲱⲥⲓⲁ 100
ⲡⲁⲣⲁⲅⲅⲉⲓⲗⲉ 100
▁ϣⲁⲓⲉⲣⲉⲙⲓⲁⲥ 100
▁ϩⲛⲛⲉϥϩⲃⲏⲩⲉ 100
▁ⲉϫⲛⲛϩⲉⲑⲛⲟⲥ 100
▁ⲉⲓⲛⲁⲧⲛⲧⲱⲛⲅ 100
▁ⲙⲛⲛⲧⲃⲛⲟⲟⲩⲉ 100
▁ⲙⲡⲉⲓⲕⲟⲥⲙⲟⲥ 100
▁ⲛϭⲓⲡⲓⲥⲣⲁⲏⲗ 100
▁ⲛⲛⲉⲕⲉⲛⲧⲟⲗⲏ 100
▁ⲛⲛⲉⲕⲕⲗⲏⲥⲓⲁ 100
▁ⲛⲥⲁⲣⲟⲩⲉⲓⲁⲥ 100
▁ⲛⲧⲅⲁⲗⲓⲗⲁⲓⲁ 100
▁ⲛⲧⲙⲛⲧⲣⲙⲙⲁⲟ 100
▁ⲡⲁⲡⲟⲥⲧⲟⲗⲟⲥ 100
▁ϩⲙⲡⲥⲁⲃⲃⲁⲧⲟⲛ 100
▁ϩⲛⲧⲅⲁⲗⲓⲗⲁⲓⲁ 100
▁ⲉⲧⲉⲧⲛⲉϩⲁⲣⲉϩ 100
▁ⲙⲛⲡⲉⲭⲣⲓⲥⲧⲟⲥ 100
▁ⲛϩⲉⲛⲃⲁⲓϣⲓⲛⲉ 100
▁ⲛⲧⲉⲣⲉϩⲧⲟⲟⲩⲉ 100
▁ⲧⲁⲥⲭⲏⲙⲟⲥⲩⲛⲏ 100
ⲃⲟⲩⲭⲟⲇⲟⲛⲟⲥⲟⲣ 100
▁ⲉⲧⲉⲧⲛϣⲁⲛⲥⲱⲧⲙ 100
▁ⲙⲡⲛⲉⲩⲙⲁⲧⲓⲕⲟⲛ 100
▁ⲡⲉϫⲉⲡⲁⲅⲅⲉⲗⲟⲥ 100
▁ⲛⲟⲩⲑⲩⲥⲓⲁⲥⲧⲏⲣⲓⲟⲛ 100
ϫⲥ 100
ⲏⲙ 100
ⲓⲣ 100
ϣⲃⲣ 100
ϣⲛⲥ 100
ϩⲙϫ 100
ϩⲟⲟ 100
ϫⲟⲗ 100
ϭⲏⲡ 100
ϯⲃⲥ 100
▁ⲉϭ 100
▁ⲏⲡ 100
▁ⲡⲏ 100
ⲃϩⲉ 100
ⲃⲃⲟ 100
ⲃⲏϥ 100
ⲑⲁⲙ 100
ⲗⲁⲝ 100
ⲗⲁⲩ 100
ⲗⲏⲥ 100
ⲟⲣⲟ 100
ⲡⲉⲣ 100
ⲥⲉⲕ 100
ⲥⲏⲥ 100
ϩⲟⲩⲉ 100
ϩⲩⲡⲟ 100
ϭⲉⲉⲧ 100
▁ϣⲉⲡ 100
▁ϩⲛⲕ 100
▁ⲁⲗⲉ 100
▁ⲙⲏⲧ 100
▁ⲛⲕⲱ 100
▁ⲛⲙⲓ 100
▁ⲛⲙⲧ 100
▁ⲡⲁⲩ 100
▁ⲣⲣⲟ 100
▁ⲧⲁϯ 100
ⲁⲥⲡⲉ 100
ⲃⲛⲛⲉ 100
ⲅⲉⲗⲏ 100
ⲏⲥⲟⲥ 100
ⲑⲙⲕⲉ 100
ⲓⲕⲣⲟ 100
ⲕⲱⲗⲩ 100
ⲙⲛⲟⲥ 100
ⲛⲏⲫⲉ 100
ⲛⲟⲩϭ 100
ⲛⲧⲱⲥ 100
ⲟⲟⲩϣ 100
ⲟⲩⲉⲛ 100
ⲡⲁⲧⲁ 100
ⲡⲉⲧⲉ 100
ⲣⲟⲕϩ 100
ⲣⲟⲟⲃ 100
ⲣⲟⲩⲣ 100
ⲣⲡⲕⲉ 100
ⲥⲃⲟⲕ 100
ⲥⲉϣϥ 100
ⲧⲉϩⲙ 100
ⲧⲑⲁⲃ 100
ⲧⲟϭϥ 100
ⲧⲟⲛϩ 100
▁ϣⲓⲃⲉ 100
▁ϣⲟⲩⲟ 100
▁ϩⲛⲁϣ 100
▁ϩⲛⲙⲁ 100
▁ϩⲛⲛⲓ 100
▁ϩⲛⲡⲉ 100
▁ϩⲣⲟϣ 100
▁ϫⲉϥⲓ 100
▁ϯⲥⲃⲱ 100
▁ⲁϥⲉⲣ 100
▁ⲁϩⲟⲙ 100
▁ⲁⲕⲉⲓ 100
▁ⲁⲟⲩⲁ 100
▁ⲁⲩⲧⲱ 100
▁ⲉϥϣⲁ 100
▁ⲉϥϩⲁ 100
▁ⲉϫⲛⲁ 100
▁ⲉⲁϥⲣ 100
▁ⲉⲉⲓⲉ 100
▁ⲉⲝⲉⲥ 100
▁ⲉⲡⲁⲥ 100
▁ⲉⲡⲣⲏ 100
▁ⲉⲧⲁⲓ 100
▁ⲉⲩⲥⲁ 100
▁ⲙⲉⲣⲓ 100
▁ⲙⲡϣⲱ 100
▁ⲙⲡϥⲣ 100
▁ⲙⲡⲣⲉ 100
▁ⲛϥϥⲓ 100
▁ⲛϥϫⲱ 100
▁ⲛⲁⲡⲉ 100
▁ⲛⲟⲩϭ 100
▁ⲛⲧⲁⲁ 100
▁ⲛⲧⲃⲱ 100
▁ⲧⲁϩⲟ 100
▁ⲧⲁⲩⲉ 100
▁ⲧⲃⲃⲟ 100
▁ⲧⲛⲟϭ 100
▁ⲧⲱⲟⲩ 100
ⲅⲓⲅⲁⲥ 100
ⲇⲱⲣⲉⲁ 100
ⲑⲁⲉⲓⲙ 100
ⲕⲏⲡⲟⲥ 100
ⲕⲟⲙⲉⲥ 100
ⲙⲉⲣⲉϩ 100
ⲛⲟⲙⲧⲉ 100
ⲟⲏⲑⲟⲥ 100
ⲟⲟⲧⲟⲩ 100
ⲟⲣⲓⲛⲏ 100
ⲟⲩⲱⲥϥ 100
ⲡⲉⲣⲓⲥ 100
ⲡⲗⲁⲛⲏ 100
ⲣⲉⲥⲕⲉ 100
ⲣⲡⲃⲟⲗ 100
ⲥⲟⲗⲥⲗ 100
ⲥⲟⲩⲟⲓ 100
ⲥⲧⲣⲟⲛ 100
ⲧⲁϩⲟⲥ 100
ⲧⲁⲕⲟϥ 100
ⲧⲣⲟⲫⲏ 100
ⲫⲁⲣⲛⲁ 100
ϩⲁⲓⲥⲟⲩ 100
ϩⲉϫϩⲱϫ 100
ϩⲟⲙⲟⲗⲟ 100
ϫⲓⲉⲟⲟⲩ 100
▁ϥⲛⲁⲕⲱ 100
▁ϩⲓϫⲱⲛ 100
▁ϩⲛϩⲁϩ 100
▁ϫⲉⲙⲙⲛ 100
▁ⲁϥϫⲱⲕ 100
▁ⲁϥⲕⲧⲟ 100
▁ⲁϥⲛⲧϥ 100
▁ⲁⲥⲡⲱⲧ 100
▁ⲁⲩⲕⲓⲙ 100
▁ⲁⲩⲱϫⲛ 100
▁ⲉϣⲓⲛⲉ 100
▁ⲉϥϩⲏⲡ 100
▁ⲉϥⲙⲉϩ 100
▁ⲉϥⲛⲁϯ 100
▁ⲉϫⲟⲟⲩ 100
▁ⲉⲣⲉⲛⲉ 100
▁ⲉⲩⲡⲏⲧ 100
▁ⲑⲩⲥⲓⲁ 100
▁ⲕϣⲟⲟⲡ 100
▁ⲙⲁⲣⲉⲥ 100
▁ⲙⲙⲓⲭⲁ 100
▁ⲙⲟⲥⲧⲉ 100
▁ⲙⲡⲣⲕⲁ 100
▁ⲙⲡⲥⲟⲛ 100
▁ⲛϭⲓⲙⲡ 100
▁ⲛⲁϣⲱϥ 100
▁ⲛⲁⲡⲱⲧ 100
▁ⲛⲁⲱϫⲛ 100
▁ⲛⲉⲃⲓⲱ 100
▁ⲛⲉⲙⲁϥ 100
▁ⲛⲕⲟⲟϩ 100
▁ⲛⲟⲩϩⲉ 100
▁ⲛⲥⲁⲛⲁ 100
▁ⲛⲧⲁⲛⲉ 100
▁ⲛⲧⲁⲧⲙ 100
▁ⲟⲩⲙⲛⲧ 100
▁ⲡⲁⲣⲉϥ 100
▁ⲡⲉϥⲏⲓ 100
▁ⲡⲕⲟⲩⲓ 100
▁ⲡⲗⲁⲛⲁ 100
▁ⲡⲥⲁϣϥ 100
▁ⲧϣⲟⲣⲡ 100
▁ⲧⲁⲙⲓⲟ 100
▁ⲧⲁⲣⲉⲕ 100
▁ⲧⲉⲛⲧⲁ 100
ⲁϩⲉⲣⲁⲧ 100
ⲁⲩⲝⲁⲛⲉ 100
ⲅⲁⲗⲁⲁⲇ 100
ⲏⲥⲧⲉⲓⲁ 100
ⲙⲛⲧⲟⲩⲉ 100
ⲟⲩϣⲁϫⲉ 100
ⲡⲉϥϩⲏⲧ 100
ⲡⲟⲟⲛⲟⲩ 100
ⲣⲁⲓⲧⲉⲓ 100
ⲣⲅⲁⲧⲏⲥ 100
ⲧⲃⲃⲟⲟⲩ 100
ⲧⲉⲕϭⲟⲙ 100
▁ϣⲁⲡⲣⲣⲟ 100
▁ϩⲛⲟⲩϣⲓ 100
▁ϫⲉⲛϥⲛⲁ 100
▁ϫⲉⲡⲣⲣⲟ 100
▁ⲁϥⲡⲱⲣϣ 100
▁ⲁϥⲧⲁⲙⲉ 100
▁ⲁϩⲣⲱⲧⲛ 100
▁ⲁⲡⲙⲟⲟⲩ 100
▁ⲁⲩⲕⲁⲁⲧ 100
▁ⲉϥϭⲱϣⲧ 100
▁ⲉϩⲃⲟⲩⲣ 100
▁ⲉϫⲛⲧⲉⲩ 100
▁ⲉⲓϣⲁϫⲉ 100
▁ⲉⲛⲧⲁⲩⲥ 100
▁ⲉⲟⲩⲛⲁⲛ 100
▁ⲉⲟⲩⲱϣⲧ 100
▁ⲉⲡϫⲓⲥⲉ 100
▁ⲉⲡⲉⲕⲙⲁ 100
▁ⲉⲧϩⲓϫⲛ 100
▁ⲉⲧⲃⲉⲛⲁ 100
▁ⲉⲩⲣⲓⲙⲉ 100
▁ⲓⲟⲩⲇⲁⲥ 100
▁ⲕⲗⲏⲣⲟⲥ 100
▁ⲙⲛⲡⲙⲟⲩ 100
▁ⲙⲡϣⲓⲡⲉ 100
▁ⲙⲡⲁⲱⲛϩ 100
▁ⲙⲡⲉⲥⲏⲧ 100
▁ⲙⲡⲉⲧⲣⲁ 100
▁ⲛϥⲧⲁⲕⲟ 100
▁ⲛⲁⲧⲥⲃⲱ 100
▁ⲛⲛϫⲁϫⲉ 100
▁ⲛⲛⲉⲧϩⲛ 100
▁ⲛⲧⲟⲟⲧⲉ 100
▁ⲟⲩⲙⲁⲥⲉ 100
▁ⲡⲁⲧϩⲏⲧ 100
▁ⲡⲉⲥⲛⲟϥ 100
▁ⲡⲙⲁⲉⲓⲛ 100
▁ⲣⲣⲙⲙⲁⲟ 100
▁ⲥⲁⲙⲯⲱⲛ 100
▁ⲧⲉⲧⲛϫⲱ 100
ⲁⲣⲛⲁⲃⲁⲥ 100
ⲅⲉϩⲉⲛⲛⲁ 100
ⲕⲏⲣⲩⲥⲥⲉ 100
ⲕⲗⲩⲥⲙⲟⲥ 100
ⲙⲁⲛϣⲱⲡⲉ 100
ⲙⲓⲛⲁⲇⲁⲃ 100
ⲡⲁⲗⲗⲁⲕⲏ 100
ⲡⲉⲕϣⲏⲣⲉ 100
ⲡⲓⲥⲣⲁⲏⲗ 100
ⲣⲙⲡⲟⲟⲩⲉ 100
ⲧϩⲉⲗⲡⲓⲥ 100
ⲧⲛⲁϣⲱⲡⲉ 100
ϩⲣⲱⲙⲁⲓⲟⲥ 100
▁ϣⲁⲟⲩϫⲱⲙ 100
▁ϩⲁⲡⲉⲥⲏⲧ 100
▁ϩⲉⲛⲉⲃⲟⲗ 100
▁ϩⲛⲓⲁⲕⲱⲃ 100
▁ϫⲉϩⲙⲟⲟⲥ 100
▁ϫⲉⲉⲕϣⲁⲛ 100
▁ϫⲉⲙⲉϣⲁⲕ 100
▁ϫⲉⲙⲟⲟϣⲉ 100
▁ⲁϥϫⲛⲟⲩϥ 100
▁ⲁϥϭⲙϭⲟⲙ 100
▁ⲁϥⲕⲣⲓⲛⲉ 100
▁ⲁϥⲥⲱⲟⲩϩ 100
▁ⲁⲓϩⲁⲣⲉϩ 100
▁ⲁⲓⲧⲱⲟⲩⲛ 100
▁ⲁⲩⲁⲣⲭⲉⲓ 100
▁ⲉⲡⲁϣⲁϫⲉ 100
▁ⲉⲧϩⲙⲟⲟⲥ 100
▁ⲉⲧⲥⲟⲟⲩⲛ 100
▁ⲉⲩϣⲁⲛⲉⲓ 100
▁ⲕⲁⲧⲁϩⲱⲃ 100
▁ⲙⲡⲥⲟⲟⲩⲛ 100
▁ⲛϥⲥⲟⲟⲩⲛ 100
▁ⲛⲑⲗⲓⲯⲓⲥ 100
▁ⲛⲛⲁϩⲣⲁϥ 100
▁ⲛⲛⲟϭⲛⲉϭ 100
▁ⲛⲟⲩϩⲏⲕⲉ 100
▁ⲛⲥⲉⲥⲱⲧⲙ 100
▁ⲛⲧⲁⲙⲁⲁⲩ 100
▁ⲛⲧⲉϥⲙⲛⲧ 100
▁ⲟⲩϣⲡⲏⲣⲉ 100
▁ⲡⲃⲁⲡⲧⲓⲥ 100
▁ⲡⲉϥⲗⲁⲟⲥ 100
▁ⲡⲉⲧⲟⲩⲛⲁ 100
▁ⲡⲉⲧⲥⲱⲧⲙ 100
▁ⲡⲓⲗⲁⲧⲟⲥ 100
▁ⲥⲙⲁⲙⲁⲁⲧ 100
ⲓⲉⲣⲉⲙⲓⲁⲥ 100
ⲣⲉϥϫⲛⲁⲁⲩ 100
ⲥⲁϩⲉⲣⲁⲧⲥ 100
ⲧⲉϥⲥϩⲓⲙⲉ 100
ⲫⲁⲣⲛⲁⲟⲩⲙ 100
ϩⲉⲛⲁⲅⲁⲑⲟⲛ 100
▁ϩⲛⲇⲁⲩⲉⲓⲇ 100
▁ϩⲛⲛⲉⲩϭⲓϫ 100
▁ϩⲛⲧⲉⲕϭⲟⲙ 100
▁ϫⲉϯⲛⲁⲃⲱⲕ 100
▁ϫⲉⲁⲓϫⲟⲟⲥ 100
▁ⲁϥⲥⲟⲟⲩⲧⲛ 100
▁ⲁϥⲧⲛⲛⲟⲟⲩ 100
▁ⲉⲛϥⲥⲟⲟⲩⲛ 100
▁ⲉⲧⲉϥⲯⲩⲭⲏ 100
▁ⲉⲧⲉⲥⲕⲏⲛⲏ 100
▁ⲉⲧⲛⲁϣⲱⲟⲩ 100
▁ⲙⲛⲛⲥⲁⲧⲣⲉ 100
▁ⲙⲛⲡϫⲟⲉⲓⲥ 100
▁ⲙⲡⲁⲛⲟⲩⲧⲉ 100
▁ⲙⲡⲉⲛⲉⲓⲱⲧ 100
▁ⲙⲡⲉⲧⲟⲩⲛⲁ 100
▁ⲛϭⲓⲁⲁⲣⲱⲛ 100
▁ⲛϭⲓⲓⲁⲕⲱⲃ 100
▁ⲛϭⲓⲓⲱⲥⲏⲫ 100
▁ⲛϭⲓⲥⲓⲙⲱⲛ 100
▁ⲛⲉⲝⲟⲩⲥⲓⲁ 100
▁ⲛⲛⲉϥϣⲁϫⲉ 100
▁ⲛⲥⲉⲥⲟⲟⲩⲛ 100
▁ⲡⲁⲃⲟⲏⲑⲟⲥ 100
ⲇⲇⲟⲩⲕⲁⲓⲟⲥ 100
ⲙⲛⲧⲁⲧⲥⲃⲃⲉ 100
ⲩⲁⲅⲅⲉⲗⲓⲍⲉ 100
▁ϩⲛⲟⲩⲡⲟⲗⲓⲥ 100
▁ϯⲛⲁⲯⲁⲗⲗⲉⲓ 100
▁ⲉⲧϩⲛⲧⲙⲏⲧⲉ 100
▁ⲙⲁⲣⲉϥϣⲱⲡⲉ 100
▁ⲙⲛⲛⲉϥⲥⲛⲏⲩ 100
▁ⲙⲡϫⲓⲛϭⲟⲛⲥ 100
▁ⲙⲡⲉⲓⲛⲟⲙⲟⲥ 100
▁ⲛϭⲓⲇⲁⲩⲉⲓⲇ 100
▁ⲛϭⲓⲛⲉⲛⲧⲁⲩ 100
▁ⲛⲛⲉⲑⲏⲣⲓⲟⲛ 100
▁ⲛⲛⲧⲃⲛⲟⲟⲩⲉ 100
▁ⲛⲟⲩϭⲟⲟⲩⲛⲉ 100
▁ⲛⲟⲩⲡⲛⲉⲩⲙⲁ 100
▁ⲛⲧⲉⲓⲡⲟⲗⲓⲥ 100
▁ⲛⲧⲉⲕⲣⲓⲥⲓⲥ 100
▁ⲛⲧⲉⲧⲛϫⲟⲟⲥ 100
▁ⲡⲉϫⲉⲡⲇⲟⲩⲝ 100
ⲓⲉⲃⲟⲩⲥⲁⲓⲟⲥ 100
ⲥⲕⲁⲛⲇⲁⲗⲓⲍⲉ 100
ⲥⲩⲛⲉⲓⲇⲏⲥⲓⲥ 100
▁ϩⲛⲛⲧⲃⲛⲟⲟⲩⲉ 100
▁ϫⲉϥⲥⲙⲁⲙⲁⲁⲧ 100
▁ⲉⲛⲉⲕⲉⲛⲧⲟⲗⲏ 100
▁ⲉⲧⲁϩⲉⲣⲁⲧⲟⲩ 100
▁ⲉⲧⲅⲁⲗⲓⲗⲁⲓⲁ 100
▁ⲉⲧⲉⲑⲁⲗⲁⲥⲥⲁ 100
▁ⲙⲛⲛⲉⲩⲕⲉⲧⲙⲉ 100
▁ⲛϭⲓⲧⲉⲥϩⲓⲙⲉ 100
▁ⲛϭⲓⲧⲙⲛⲧⲣⲣⲟ 100
▁ⲛⲛⲉⲧⲥⲟⲩⲧⲱⲛ 100
▁ⲛⲧⲁⲇⲓⲁⲑⲏⲕⲏ 100
▁ⲛⲧⲉⲡⲓⲥⲣⲁⲏⲗ 100
▁ⲛⲧⲉⲣⲉϥⲉⲓⲙⲉ 100
▁ⲡⲁⲗⲗⲟⲫⲩⲗⲟⲥ 100
▁ⲡⲃⲁⲡⲧⲓⲥⲧⲏⲥ 100
▁ⲡⲡⲉⲧⲛⲁⲛⲟⲩϥ 100
ⲙⲟⲛⲁⲥⲧⲏⲣⲓⲟⲛ 100
▁ϩⲙⲡⲙⲉϩϣⲟⲙⲛⲧ 100
▁ϩⲛⲧⲥⲩⲛⲁⲅⲱⲅⲏ 100
▁ϫⲉⲡⲉⲭⲣⲓⲥⲧⲟⲥ 100
▁ⲉϫⲛⲧϩⲁⲗⲁⲥⲥⲁ 100
▁ⲛϭⲓⲡⲁⲅⲅⲉⲗⲟⲥ 100
▁ⲛⲛⲁⲣⲭⲓⲉⲣⲉⲩⲥ 100
▁ⲧⲉⲕⲗⲏⲣⲟⲛⲟⲙⲓⲁ 100
▁ⲛⲉⲡⲣⲉⲥⲃⲩⲧⲉⲣⲟⲥ 100
▁ⲙⲛⲟⲩⲇⲓⲕⲁⲓⲟⲥⲩⲛⲏ 100
ⲅⲱ 100
ⲉⲡ 100
ⲑⲱ 100
ⲕⲙ 100
ⲙⲃ 100
ⲛⲥ 100
ϣⲁⲁ 100
ϩⲁⲕ 100
ϩⲓⲣ 100
ϩⲱⲣ 100
ϫⲏⲣ 100
ϭⲁⲗ 100
ϭⲉⲛ 100
ϭⲗⲱ 100
ϯⲙⲏ 100
▁ϯϯ 100
ⲁⲛϣ 100
ⲁⲛⲁ 100
ⲃⲃⲱ 100
ⲃⲱⲑ 100
ⲅⲉⲣ 100
ⲇⲱⲃ 100
ⲇⲱⲑ 100
ⲍⲉⲃ 100
ⲓⲙⲉ 100
ⲓⲛⲁ 100
ⲕⲉⲓ 100
ⲛⲱⲉ 100
ⲟϣⲥ 100
ⲟⲩⲇ 100
ⲧⲟⲡ 100
ⲧⲥⲓ 100
ⲭⲱⲣ 100
ⲱⲣⲙ 100
ⲱⲧⲃ 100
ϣⲁⲣⲉ 100
ϩⲛⲟⲩ 100
ϩⲧⲏⲥ 100
ϫⲟⲩϥ 100
ϭⲣⲏⲛ 100
▁ϣⲁⲁ 100
▁ϣⲱⲡ 100
▁ϩⲱⲡ 100
▁ϫⲣⲟ 100
▁ⲁⲛⲓ 100
▁ⲁⲥⲉ 100
▁ⲁⲧⲉ 100
▁ⲙⲛⲅ 100
▁ⲙⲛⲥ 100
▁ⲛϭⲁ 100
▁ⲛⲃⲟ 100
▁ⲛⲣⲟ 100
▁ⲛⲭⲁ 100
▁ⲡⲏϩ 100
▁ⲣⲟⲩ 100
ⲃⲃⲉⲓ 100
ⲃⲟⲗϥ 100
ⲅⲙⲟⲥ 100
ⲇⲁⲍⲉ 100
ⲇⲓⲁⲥ 100
ⲓⲁⲁⲩ 100
ⲓⲟⲩⲇ 100
ⲓⲱⲟⲩ 100
ⲕⲓⲟⲛ 100
ⲗⲉⲧⲁ 100
ⲙⲓⲟⲛ 100
ⲛⲓⲕⲏ 100
ⲛⲟⲩⲕ 100
ⲟⲗⲉⲥ 100
ⲟⲟϩⲉ 100
ⲟⲟⲧⲕ 100
ⲟⲟⲩⲧ 100
ⲟⲣⲣⲁ 100
ⲟⲧⲟⲩ 100
ⲡⲉⲣⲉ 100
ⲡⲓⲥⲁ 100
ⲣϩⲁⲗ 100
ⲣⲙⲛⲧ 100
ⲣⲡⲁⲓ 100
ⲥⲁⲛϣ 100
ⲥⲏϣⲉ 100
ⲥⲓⲁⲥ 100
ⲥⲟϭⲛ 100
ⲭⲓⲟⲛ 100
ϣⲧⲣⲧⲣ 100
ϩⲁⲓⲣⲉ 100
ϩⲟⲛⲟⲩ 100
ϯϣⲓⲡⲉ 100
▁ϣⲁⲧⲛ 100
▁ϩⲟⲣϣ 100
▁ϫⲓⲧϥ 100
▁ϭⲱⲗⲡ 100
▁ϯϩⲱⲛ 100
▁ⲁϥⲡⲟ 100
▁ⲁⲛⲉϥ 100
▁ⲁⲛⲟⲩ 100
▁ⲉⲓⲧⲁ 100
▁ⲉⲛⲕⲁ 100
▁ⲉⲡϣⲁ 100
▁ⲉⲧⲕⲏ 100
▁ⲉⲧⲥⲁ 100
▁ⲉⲩⲱϣ 100
▁ⲕⲟⲧϥ 100
▁ⲕⲟⲧⲕ 100
▁ⲙⲡⲕⲱ 100
▁ⲛϣⲁϥ 100
▁ⲛϩⲣⲏ 100
▁ⲛⲁϫⲉ 100
▁ⲛⲁϭⲱ 100
▁ⲛⲓⲱⲃ 100
▁ⲛⲙⲛⲁ 100
▁ⲛⲧⲁϯ 100
▁ⲟⲩⲏⲩ 100
▁ⲟⲩⲛⲁ 100
▁ⲡⲉⲓⲉ 100
▁ⲡⲗⲁⲥ 100
▁ⲡⲟⲟϩ 100
▁ⲥⲓⲱⲛ 100
▁ⲥⲟⲧⲉ 100
▁ⲧⲁⲣⲛ 100
ⲁⲅⲁⲡⲏ 100
ⲁⲡⲏⲩⲉ 100
ⲃⲁϩⲁⲗ 100
ⲃⲁⲃⲉⲗ 100
ⲃⲃⲱⲣⲁ 100
ⲇⲓⲕⲟⲥ 100
ⲇⲟⲫⲉⲗ 100
ⲍⲁⲣⲉⲑ 100
ⲏⲥⲧⲟⲥ 100
ⲓⲕⲟⲩⲓ 100
ⲓⲟⲩϣⲏ 100
ⲓⲥⲙⲟⲧ 100
ⲕⲁⲛⲱⲛ 100
ⲕⲁⲣⲱⲓ 100
ⲕⲉⲩⲟⲥ 100
ⲗⲗⲁⲥⲁ 100
ⲗⲟⲅⲓⲁ 100
ⲛⲏⲥⲟⲥ 100
ⲟⲩⲁϩⲥ 100
ⲟⲩⲟⲃϣ 100
ⲟⲩⲱⲧⲉ 100
ⲡⲣⲟⲥⲉ 100
ⲡⲱⲣⲟⲥ 100
ⲣⲙⲛⲏⲓ 100
ⲥⲁⲉⲓⲛ 100
ⲥⲟⲡⲥⲡ 100
ⲧⲁⲗϭⲉ 100
ⲧⲛⲛⲁⲩ 100
ⲧⲣⲁⲧⲏ 100
ⲧⲣⲩⲫⲏ 100
ⲩⲉⲟⲟⲩ 100
▁ϣⲁⲡⲉⲩ 100
▁ϣⲟⲙⲧⲉ 100
▁ϥⲛⲁϥⲓ 100
▁ϩⲁϫⲱϥ 100
▁ϩⲁⲣⲁⲧ 100
▁ϩⲁⲧⲉⲛ 100
▁ϩⲁⲧⲛⲧ 100
▁ϩⲛⲟⲩⲉ 100
▁ϩⲛⲧⲉⲛ 100
▁ϩⲛⲧⲟⲩ 100
▁ⲁϥⲥⲙⲛ 100
▁ⲁϥⲧⲟⲩ 100
▁ⲁⲓⲧⲉⲓ 100
▁ⲁⲙⲛⲱⲛ 100
▁ⲁⲡⲟⲩⲁ 100
▁ⲇⲱⲣⲟⲛ 100
▁ⲉϣⲙϣⲉ 100
▁ⲉϥϫⲏⲕ 100
▁ⲉϥⲧⲱⲛ 100
▁ⲉⲡⲟⲩⲉ 100
▁ⲉⲡⲣⲡⲉ 100
▁ⲉⲣⲉⲧⲁ 100
▁ⲉⲣⲱⲧⲉ 100
▁ⲉⲧⲙⲉϩ 100
▁ⲓⲱⲥⲏⲫ 100
▁ⲙⲙⲓϣⲉ 100
▁ⲙⲛⲛⲟⲩ 100
▁ⲙⲛⲧϩⲉ 100
▁ⲙⲟⲅⲓⲥ 100
▁ⲙⲡϫⲱⲕ 100
▁ⲙⲡⲁⲏⲓ 100
▁ⲙⲡⲁⲙⲁ 100
▁ⲙⲡⲉⲓⲉ 100
▁ⲙⲡⲣⲉϥ 100
▁ⲙⲡⲣⲡⲉ 100
▁ⲛϩⲉⲛⲉ 100
▁ⲛϭⲱⲛⲧ 100
▁ⲛⲁϩⲣⲛ 100
▁ⲛⲁⲱⲛϩ 100
▁ⲛⲉⲧⲙⲉ 100
▁ⲛⲛⲧⲉⲧ 100
▁ⲛⲟⲩⲃⲱ 100
▁ⲛⲟⲩⲉϣ 100
▁ⲛⲥⲉϥⲓ 100
▁ⲛⲥⲏⲱⲛ 100
▁ⲛⲥⲱⲃⲉ 100
▁ⲛⲧⲁⲩⲉ 100
▁ⲛⲧⲛⲛⲁ 100
▁ⲛⲭⲏⲣⲁ 100
▁ⲡⲉϫⲉⲓ 100
▁ⲡⲉⲓⲛⲉ 100
▁ⲡⲉⲧϫⲓ 100
▁ⲡⲧⲁⲕⲟ 100
▁ⲥϩⲓⲙⲉ 100
▁ⲧⲥⲏϥⲉ 100
▁ⲧⲥⲱϣⲉ 100
ⲉⲓⲁⲕⲱⲃ 100
ⲍⲉⲃⲟⲩⲗ 100
ⲑⲃⲃⲓⲟϥ 100
ⲙⲉⲕⲙⲟⲩ 100
ⲙⲉⲥⲧⲱϥ 100
ⲛⲁⲛⲓⲁⲥ 100
ⲛⲁⲥⲧⲏⲥ 100
ⲟⲩⲉⲓⲛⲉ 100
ⲡⲟⲗⲗⲱⲛ 100
ⲣⲓⲡⲡⲁⲥ 100
ⲣⲙⲛϯⲙⲉ 100
ⲥⲁϩⲱⲟⲩ 100
ⲧⲁⲙⲓⲏⲩ 100
ⲧⲁⲙⲟⲟⲩ 100
ⲧⲟⲩϫⲟϥ 100
ⲧⲟⲩϫⲟⲕ 100
▁ϥⲛⲁⲱⲛϩ 100
▁ϥⲥⲟⲟⲩⲛ 100
▁ϩⲁϩⲧⲏⲓ 100
▁ϩⲓϫⲙⲡⲉ 100
▁ϩⲙⲡⲣⲡⲉ 100
▁ϫⲉϥⲟⲛϩ 100
▁ϫⲉⲁⲛⲁⲩ 100
▁ϫⲉⲉⲕⲛⲁ 100
▁ϫⲉⲛⲁⲓⲁ 100
▁ϯⲛⲁⲧⲣⲉ 100
▁ⲁϥⲡⲱϩⲧ 100
▁ⲁⲓϭⲱϣⲧ 100
▁ⲁⲕϫⲟⲟⲥ 100
▁ⲁⲕⲥⲱⲧⲙ 100
▁ⲁⲗⲏⲑⲱⲥ 100
▁ⲁⲛϣⲱⲡⲉ 100
▁ⲁⲡⲟⲗⲗⲱ 100
▁ⲅⲉⲇⲉⲱⲛ 100
▁ⲉⲕϣⲁⲛϯ 100
▁ⲉⲙⲛϭⲟⲙ 100
▁ⲉⲙⲡⲏⲩⲉ 100
▁ⲉⲛⲁϣⲱⲥ 100
▁ⲉⲡⲉⲩⲙⲁ 100
▁ⲉⲣⲉⲛⲉⲕ 100
▁ⲉⲧϩⲓϫⲙ 100
▁ⲉⲩⲕⲱⲧⲉ 100
▁ⲉⲩⲥⲱⲧⲙ 100
▁ⲙⲛⲣⲱⲙⲉ 100
▁ⲙⲛⲧϭⲟⲙ 100
▁ⲙⲡϣⲟⲣⲡ 100
▁ⲙⲡⲁⲓⲱⲛ 100
▁ⲙⲡⲉϥϩⲉ 100
▁ⲙⲡⲙⲟⲩⲓ 100
▁ⲙⲡⲟⲣⲛⲏ 100
▁ⲙⲡⲧⲏⲣϥ 100
▁ⲛϣⲟⲙⲧⲉ 100
▁ⲛⲁϩⲣⲁⲓ 100
▁ⲛⲁϫⲟⲟⲩ 100
▁ⲛⲁⲉⲓⲛⲉ 100
▁ⲛⲃⲗⲗⲁⲓ 100
▁ⲛⲓⲥⲁⲁⲕ 100
▁ⲛⲟⲩⲃⲁⲗ 100
▁ⲛⲟⲩⲛⲟⲩ 100
▁ⲛⲥⲉⲛⲁⲩ 100
▁ⲛⲧⲁⲁⲡⲉ 100
▁ⲛⲧⲁⲃⲱⲕ 100
▁ⲛⲧⲉⲗⲏⲗ 100
▁ⲛⲧⲉⲣⲉⲛ 100
▁ⲛⲧⲟⲟⲧⲛ 100
▁ⲟⲩⲙⲟⲟⲩ 100
▁ⲟⲩⲣⲓⲁⲥ 100
▁ⲡⲉⲧⲓⲛⲁ 100
▁ⲣⲙⲛⲧⲣⲉ 100
▁ⲥⲉϣⲓⲛⲉ 100
▁ⲧⲁⲉⲓⲟⲩ 100
▁ⲧⲟⲟⲧⲟⲩ 100
ⲅⲗⲩⲡⲧⲟⲛ 100
ⲕⲁⲥⲧⲣⲟⲛ 100
ⲕⲟⲗⲁⲥⲓⲥ 100
ⲙⲁⲥⲧⲓⲅⲝ 100
ⲛⲉϥϣⲏⲣⲉ 100
ⲟⲩⲣⲏⲏⲧⲉ 100
ⲣⲓⲭⲱⲣⲟⲥ 100
ⲥⲁⲧⲉⲉⲣⲉ 100
ⲭⲁⲗⲕⲓⲟⲛ 100
ϩⲁⲓⲣⲉⲥⲓⲥ 100
▁ϩⲓϫⲙⲡϩⲟ 100
▁ϩⲓϫⲛⲧⲉϥ 100
▁ϩⲙⲡⲉⲕⲏⲓ 100
▁ϩⲙⲡⲙⲟⲟⲩ 100
▁ϩⲛⲣⲣⲱⲟⲩ 100
▁ϩⲛⲧⲁϭⲓϫ 100
▁ϫⲉⲁϩⲣⲟⲕ 100
▁ϫⲉⲛⲧⲕⲟⲩ 100
▁ϫⲉⲭⲁⲓⲣⲉ 100
▁ϯⲛⲁⲧⲁⲁϥ 100
▁ⲁϥⲥⲟⲩⲧⲛ 100
▁ⲁϥⲧⲁⲙⲓⲟ 100
▁ⲉϥⲙⲉⲉⲩⲉ 100
▁ⲉϥⲧⲁⲓⲏⲩ 100
▁ⲉⲕⲉⲉⲓⲙⲉ 100
▁ⲉⲛⲉⲕϭⲓϫ 100
▁ⲉⲝⲟⲩⲥⲓⲁ 100
▁ⲉⲟⲩⲛⲧⲁⲛ 100
▁ⲉⲧⲃⲉⲡⲉⲓ 100
▁ⲉⲧⲣϩⲟⲧⲉ 100
▁ⲉⲩϣⲁⲛⲧⲁ 100
▁ⲉⲩⲟⲩⲁⲁⲃ 100
▁ⲙⲛⲛⲥⲱⲟⲩ 100
▁ⲙⲡϣⲟϫⲛⲉ 100
▁ⲙⲡⲉⲓⲕⲁϩ 100
▁ⲙⲡⲉⲥⲟⲩⲟ 100
▁ⲙⲡⲙⲉⲉⲩⲉ 100
▁ⲙⲡⲟⲩⲛⲁⲩ 100
▁ⲛϩⲉⲣⲙⲁⲛ 100
▁ⲛⲁⲕⲣⲓⲛⲉ 100
▁ⲛⲉⲓϣⲁϫⲉ 100
▁ⲛⲉⲕϣⲏⲣⲉ 100
▁ⲛⲉⲥⲉⲃⲱⲛ 100
▁ⲛⲉⲧⲟⲩⲱⲙ 100
▁ⲛⲉⲩϣⲏⲣⲉ 100
▁ⲛⲏⲥⲁⲓⲁⲥ 100
▁ⲛⲕⲗⲟⲟⲗⲉ 100
▁ⲛⲛⲉⲩⲃⲁⲗ 100
▁ⲛⲟⲩⲙⲟⲩⲓ 100
▁ⲛⲟⲩⲥⲏϥⲉ 100
▁ⲟⲩϩⲟⲟⲩⲧ 100
▁ⲡⲉⲧϫⲟⲥⲉ 100
ⲕⲓⲛⲇⲩⲛⲟⲥ 100
ⲗⲁⲭⲓⲥⲧⲟⲥ 100
ⲛⲁⲡⲁⲩⲥⲓⲥ 100
ⲛⲁⲥⲡⲟⲧⲟⲩ 100
ⲛⲧⲁⲩϫⲟⲟϥ 100
ⲟⲣⲟⲃⲁⲃⲉⲗ 100
ⲥⲩⲅⲅⲉⲛⲏⲥ 100
ⲧⲛⲛⲟⲟⲩⲥⲉ 100
ϩⲟⲙⲟⲗⲟⲅⲓⲁ 100
▁ϥⲛⲁⲟⲩϫⲁⲓ 100
▁ϩⲛϩⲉⲛⲱⲛⲉ 100
▁ϫⲉϯⲥⲟⲟⲩⲛ 100
▁ϫⲉⲁϩⲣⲱⲧⲛ 100
▁ϫⲉⲁⲙⲏⲓⲧⲛ 100
▁ϫⲉⲙⲛⲗⲁⲁⲩ 100
▁ϫⲉⲙⲡϩⲟⲟⲩ 100
▁ϫⲉⲛⲧⲁⲓⲉⲓ 100
▁ⲁϥϣⲛϩⲧⲏϥ 100
▁ⲁϥⲁⲥⲡⲁⲍⲉ 100
▁ⲁϥⲣϣⲡⲏⲣⲉ 100
▁ⲉϩⲉⲛϣⲁϫⲉ 100
▁ⲉϫⲙⲡⲉϥⲏⲓ 100
▁ⲉϫⲛⲥⲁⲟⲩⲗ 100
▁ⲉⲡⲉⲧϩⲟⲟⲩ 100
▁ⲉⲧⲙⲡⲉⲙⲧⲟ 100
▁ⲙⲁⲣⲉϥⲙⲟⲩ 100
▁ⲙⲛⲛⲉϩⲟⲟⲩ 100
▁ⲙⲡⲁⲙⲁⲗⲏⲕ 100
▁ⲙⲡⲉⲧⲙⲙⲁⲩ 100
▁ⲙⲡⲙⲉϩⲥⲉⲡ 100
▁ⲛⲉϥϩⲙϩⲁⲗ 100
▁ⲛⲉⲓⲕⲟⲟⲩⲉ 100
▁ⲛⲉⲧⲟⲩⲁⲁⲃ 100
▁ⲛⲉⲧⲥⲟⲟⲩⲛ 100
▁ⲛⲛⲁⲅⲁⲑⲟⲛ 100
▁ⲛⲛⲉⲕⲛⲟⲃⲉ 100
▁ⲛⲛⲉⲧⲛϩⲏⲧ 100
▁ⲛⲛⲉⲩϫⲁϫⲉ 100
▁ⲛⲥⲁϩⲃⲟⲩⲣ 100
▁ⲛⲧⲁⲥϣⲱⲡⲉ 100
▁ⲛⲧⲃⲛⲟⲟⲩⲉ 100
▁ⲛⲧⲉⲓⲟⲩⲇⲁ 100
▁ⲛⲧⲉⲣⲓⲛⲁⲩ 100
▁ⲡⲉϥⲟⲩⲟⲉⲓ 100
▁ⲡⲉⲧⲛⲁⲃⲱⲕ 100
▁ⲡⲉⲧⲛⲉⲓⲱⲧ 100
▁ⲡⲉⲩⲛⲟⲩⲧⲉ 100
▁ⲥⲉⲛⲁⲉⲓⲙⲉ 100
ⲃⲉⲛⲓⲁⲙⲉⲓⲛ 100
ⲫⲉⲣⲉⲍⲁⲓⲟⲥ 100
▁ϩⲙⲡⲉϣⲧⲉⲕⲟ 100
▁ϩⲙⲡⲉϥⲉⲟⲟⲩ 100
▁ϩⲛⲅⲁⲗⲅⲁⲗⲁ 100
▁ⲁϥⲥⲁⲗⲡⲓⲍⲉ 100
▁ⲁⲡⲁⲅⲅⲉⲗⲟⲥ 100
▁ⲉⲕϣⲁⲛⲥⲱⲧⲙ 100
▁ⲉⲛⲉⲧⲟⲩⲁⲁⲃ 100
▁ⲉⲡⲡⲉⲧϩⲟⲟⲩ 100
▁ⲙⲛϥⲧⲟⲟⲩϣⲉ 100
▁ⲙⲛⲛⲉⲩϣⲏⲣⲉ 100
▁ⲙⲡⲁⲣⲑⲉⲛⲟⲥ 100
▁ⲙⲡⲉⲕϫⲟⲉⲓⲥ 100
▁ⲙⲡⲡⲉⲧϩⲟⲟⲩ 100
▁ⲛⲁⲃⲓⲙⲉⲗⲉⲭ 100
▁ⲛⲅⲁϩⲉⲣⲁⲧⲕ 100
▁ⲛⲇⲓⲁⲕⲟⲛⲟⲥ 100
▁ⲛⲉⲕⲕⲗⲏⲥⲓⲁ 100
▁ⲛⲍⲁⲃⲟⲩⲗⲱⲛ 100
▁ⲛⲛϫⲁⲥⲓϩⲏⲧ 100
▁ⲛⲛⲉⲧⲛⲛⲟⲃⲉ 100
▁ⲛⲟⲩⲛⲟϭⲛⲉϭ 100
▁ⲛⲥⲉⲇⲉⲕⲓⲁⲥ 100
▁ⲛⲧⲁⲓⲏⲥⲟⲩⲥ 100
▁ⲛⲧⲉⲕϩⲙϩⲁⲗ 100
▁ⲛⲧⲉⲧⲛⲉⲓⲣⲉ 100
▁ⲡⲙⲉϩϣⲟⲙⲛⲧ 100
▁ⲧⲉⲑⲁⲗⲁⲥⲥⲁ 100
ⲉⲝⲟⲙⲟⲗⲟⲅⲉⲓ 100
ⲙⲛⲧⲁⲧⲛⲁϩⲧⲉ 100
▁ϩⲓⲡⲉⲑⲣⲟⲛⲟⲥ 100
▁ϩⲛⲛⲉⲕⲡⲟⲗⲓⲥ 100
▁ϫⲉⲉⲧⲉⲧⲛϣⲁⲛ 100
▁ⲁⲩⲡⲁⲧⲁⲥⲥⲉⲓ 100
▁ⲙⲛⲛⲉⲛⲉⲓⲟⲧⲉ 100
▁ⲙⲛⲛⲉⲧⲛⲙⲙⲁϥ 100
▁ⲙⲡⲙⲁⲕⲁⲣⲓⲟⲥ 100
▁ⲛⲇⲁⲓⲙⲱⲛⲓⲟⲛ 100
▁ⲛⲛⲉϥϩⲓⲟⲟⲩⲉ 100
▁ⲛⲛⲉϥⲉⲛⲧⲟⲗⲏ 100
▁ⲛⲛⲥⲁⲃⲃⲁⲧⲟⲛ 100
▁ⲡⲉϫⲉⲡⲁⲉⲓⲱⲧ 100
▁ⲡⲉⲛⲧⲁϥϫⲟⲟⲥ 100
▁ⲡⲉⲛⲧⲁϥⲧⲁⲙⲓ 100
▁ⲡⲛⲁⲍⲱⲣⲁⲓⲟⲥ 100
ⲁⲓⲭⲙⲁⲗⲱⲧⲓⲍⲉ 100
▁ϩⲙⲡⲉⲓⲕⲟⲥⲙⲟⲥ 100
▁ϩⲙⲡⲓⲟⲣⲇⲁⲛⲏⲥ 100
▁ϫⲉⲟⲩⲭⲣⲏⲥⲧⲟⲥ 100
▁ⲕⲁⲧⲁⲡⲉⲕϣⲁϫⲉ 100
▁ⲙⲡⲁⲙⲟⲣⲣⲁⲓⲟⲥ 100
▁ⲙⲡⲁⲣⲭⲓⲉⲣⲉⲩⲥ 100
▁ⲛϭⲓⲛⲣⲙⲛⲕⲏⲙⲉ 100
▁ⲛⲙⲡⲁⲣⲁⲛⲟⲙⲟⲥ 100
▁ⲛⲛⲁϩⲣⲙⲡⲗⲁⲟⲥ 100
▁ⲛⲧⲉϥⲇⲓⲁⲑⲏⲕⲏ 100
▁ϩⲛⲟⲩⲡⲁⲣⲣⲏⲥⲓⲁ 100
▁ⲙⲡⲉⲭⲁⲛⲁⲛⲁⲓⲟⲥ 100
▁ⲛⲁⲕⲗⲏⲣⲟⲛⲟⲙⲉⲓ 100
▁ⲛⲛⲁϩⲣⲛⲡϫⲟⲉⲓⲥ 100
▁ⲡⲉⲧⲉϣⲁⲩⲙⲟⲩⲧⲉ 100
▁ⲛⲟⲩⲇⲓⲕⲁⲓⲟⲥⲩⲛⲏ 100
▁ⲛⲧⲉⲕⲗⲏⲣⲟⲛⲟⲙⲓⲁ 100
▁ⲛϩⲉⲛⲡⲉⲧⲛⲁⲛⲟⲩⲟⲩ 100
▁ⲛⲧⲉⲕⲇⲓⲕⲁⲓⲟⲥⲩⲛⲏ 100
................ 100
ϣⲕ 100
ϫⲧ 100
ⲩⲛ 100
ⲭⲟ 100
ϣⲛⲁ 100
ϥⲛⲧ 100
ϩⲃⲥ 100
ϩⲏⲕ 100
ϫϩⲉ 100
ϫⲙⲡ 100
ϭⲉⲡ 100
ϭⲓⲉ 100
ϭⲟϫ 100
▁ϯⲛ 100
▁ⲑⲁ 100
▁ⲓⲥ 100
ⲁⲁⲧ 100
ⲁⲃⲉ 100
ⲃⲏⲃ 100
ⲃⲟⲕ 100
ⲃⲟⲟ 100
ⲅⲁⲗ 100
ⲇⲉⲥ 100
ⲇⲱⲕ 100
ⲏⲅⲏ 100
ⲏⲗⲓ 100
ⲑⲏⲛ 100
ⲗⲁⲗ 100
ⲙⲃⲱ 100
ⲟϭϥ 100
ⲟⲕϥ 100
ⲟⲡⲧ 100
ⲡϩⲟ 100
ⲡⲟⲙ 100
ⲣⲓⲙ 100
ⲧⲟⲕ 100
ⲧⲟⲙ 100
ⲫⲁⲣ 100
ⲫⲏⲧ 100
ⲭⲣⲱ 100
ⲱⲇⲏ 100
ϣⲙⲟⲩ 100
ϣⲟϫⲡ 100
ϩⲱϥⲧ 100
ϫⲟⲩⲧ 100
▁ϣⲏⲡ 100
▁ϭⲓϫ 100
▁ϭⲱⲃ 100
▁ⲉϩⲓ 100
▁ⲉⲓⲙ 100
▁ⲉⲛⲅ 100
▁ⲉⲥⲱ 100
▁ⲉⲩⲕ 100
▁ⲕϫⲱ 100
▁ⲙⲉⲣ 100
▁ⲙⲏⲣ 100
▁ⲛⲇⲓ 100
▁ⲛⲍⲉ 100
▁ⲛⲭⲉ 100
▁ⲥⲁⲣ 100
▁ⲥⲉⲟ 100
▁ⲥⲏϩ 100
▁ⲥⲙⲏ 100
▁ⲧⲙⲁ 100
▁ⲧⲱϩ 100
ⲁⲩⲗⲏ 100
ⲃⲉⲉⲗ 100
ⲃⲓⲗⲉ 100
ⲓⲙⲛⲧ 100
ⲓⲱⲛⲉ 100
ⲕⲉⲩⲁ 100
ⲕⲉⲫⲁ 100
ⲕⲟⲣⲉ 100
ⲕⲱⲱⲥ 100
ⲙⲁⲁⲃ 100
ⲛⲧⲁⲧ 100
ⲟⲉⲓⲥ 100
ⲟⲕⲗⲏ 100
ⲟⲗⲙⲁ 100
ⲟⲛⲥϥ 100
ⲟⲡⲡⲏ 100
ⲡⲁϩⲧ 100
ⲣⲁϩⲉ 100
ⲣⲅⲉⲓ 100
ⲣⲓⲏⲗ 100
ⲥⲁⲣⲁ 100
ⲥⲓⲃⲧ 100
ⲧϥϫⲱ 100
ⲧⲁⲗϭ 100
ⲧⲁⲥⲉ 100
ⲧⲛⲁⲩ 100
ⲧⲟϣϥ 100
ⲧⲟⲟⲧ 100
ⲧⲣⲉⲕ 100
ⲧⲣⲉⲛ 100
ϩⲁⲙϣⲉ 100
ϫⲟⲟⲩⲧ 100
▁ϣⲟⲡϥ 100
▁ϥⲛⲁⲥ 100
▁ϫⲉϩⲛ 100
▁ⲁⲓⲥⲉ 100
▁ⲁⲩⲗⲟ 100
▁ⲉϥϩⲓ 100
▁ⲉⲕϣⲁ 100
▁ⲉⲗⲓⲁ 100
▁ⲉⲙⲁⲥ 100
▁ⲉⲧⲛⲉ 100
▁ⲉⲩⲥⲱ 100
▁ⲏⲛⲓⲙ 100
▁ⲙⲓϣⲉ 100
▁ⲙⲙⲁϩ 100
▁ⲙⲙⲁⲥ 100
▁ⲛϩⲁⲣ 100
▁ⲛϩⲟϥ 100
▁ⲛϯϩⲉ 100
▁ⲛⲁⲱϣ 100
▁ⲛⲉⲁϥ 100
▁ⲛⲉⲥⲉ 100
▁ⲛⲕⲁⲡ 100
▁ⲛⲙⲧⲉ 100
▁ⲛⲛⲏⲓ 100
▁ⲛⲛⲟⲣ 100
▁ⲛⲟⲩⲃ 100
▁ⲡⲉⲧⲥ 100
▁ⲡⲉⲩⲥ 100
▁ⲡⲟⲧⲥ 100
▁ⲣⲁⲧϥ 100
▁ⲣⲣⲣⲟ 100
▁ⲥⲉⲧⲡ 100
▁ⲥⲟⲡⲥ 100
ⲁⲁⲣⲱⲛ 100
ⲃⲁⲥⲓⲥ 100
ⲃⲉⲕⲕⲁ 100
ⲅⲉⲣⲅⲉ 100
ⲇⲟⲕⲉⲓ 100
ⲇⲣⲉⲁⲥ 100
ⲍⲱⲧⲟⲥ 100
ⲑⲁⲓⲟⲥ 100
ⲑⲓⲧⲟⲩ 100
ⲕⲟⲩⲉⲓ 100
ⲗⲉⲃⲓⲛ 100
ⲗⲓⲕⲓⲁ 100
ⲗⲓⲥⲧⲓ 100
ⲙⲃⲟⲗⲏ 100
ⲙⲉⲗⲉⲓ 100
ⲙⲏⲣⲟⲥ 100
ⲙⲙⲏⲧⲛ 100
ⲛⲁⲃⲁⲗ 100
ⲛⲟⲩϩⲉ 100
ⲟⲩⲁϩⲧ 100
ⲟⲩⲥⲟⲛ 100
ⲡϩⲓⲥⲉ 100
ⲡⲉϥⲏⲓ 100
ⲡⲗⲁϯⲁ 100
ⲡⲥⲛⲁⲩ 100
ⲡⲥⲱⲡϥ 100
ⲥⲏⲉⲓⲣ 100
ⲧⲁⲩⲗⲏ 100
ⲧⲥⲧⲟϥ 100
ⲧⲱⲣⲟⲩ 100
ⲫⲩⲥⲓⲥ 100
ϣⲃⲉⲉⲣⲉ 100
ϣⲡⲧⲱⲣⲉ 100
ϩⲏⲇⲟⲛⲏ 100
ϩⲟⲩⲙⲡⲉ 100
ϫⲛⲟⲩⲟⲩ 100
ϭⲉⲣⲟⲟⲃ 100
▁ϣⲁⲣⲟⲥ 100
▁ϣⲡⲏⲣⲉ 100
▁ϩⲉⲛⲕⲉ 100
▁ϩⲉⲛⲙⲉ 100
▁ϩⲓϫⲱⲓ 100
▁ϩⲓϫⲱⲥ 100
▁ϩⲛⲛⲏⲓ 100
▁ϩⲛⲛⲟⲩ 100
▁ϫⲉⲁⲡⲁ 100
▁ϫⲉⲁⲡⲉ 100
▁ϫⲉⲛⲉⲧ 100
▁ϫⲉⲛⲥⲉ 100
▁ϫⲉⲛⲧⲛ 100
▁ϫⲓⲥⲙⲏ 100
▁ϯϩⲧⲏϥ 100
▁ⲁϥⲧⲁⲗ 100
▁ⲁϩⲣⲟⲕ 100
▁ⲁⲓϩⲱⲛ 100
▁ⲁⲕⲛⲁⲩ 100
▁ⲁⲩϩⲱⲛ 100
▁ⲁⲩⲕⲱⲧ 100
▁ⲉϣⲗⲏⲗ 100
▁ⲉⲙⲡⲉϥ 100
▁ⲉⲛⲧⲁⲥ 100
▁ⲉⲡϫⲱⲕ 100
▁ⲉⲡⲁϩⲟ 100
▁ⲉⲣⲁⲧⲉ 100
▁ⲉⲧϫⲏⲕ 100
▁ⲉⲧⲣⲉⲥ 100
▁ⲉⲩϩⲁⲡ 100
▁ⲉⲩⲉϫⲓ 100
▁ⲉⲩⲛⲧϥ 100
▁ⲑⲃⲃⲓⲟ 100
▁ⲙⲛⲁⲡⲁ 100
▁ⲙⲛⲙⲙⲁ 100
▁ⲙⲛⲡⲁⲓ 100
▁ⲙⲡⲏⲣⲡ 100
▁ⲙⲡⲟⲟϩ 100
▁ⲛϩⲙⲟⲧ 100
▁ⲛϭⲓⲧⲁ 100
▁ⲛⲁⲑⲁⲛ 100
▁ⲛⲃⲗⲗⲁ 100
▁ⲛⲉⲙⲁⲕ 100
▁ⲛⲕⲁⲧⲁ 100
▁ⲛⲙⲕⲁϩ 100
▁ⲛⲛϣⲏⲛ 100
▁ⲛⲟⲩϫⲉ 100
▁ⲛⲟⲩϫⲱ 100
▁ⲛⲥϩⲁⲓ 100
▁ⲛⲥⲁⲙⲁ 100
▁ⲛⲧϭⲓϫ 100
▁ⲛⲧⲁϥϯ 100
▁ⲛⲧⲁϥⲉ 100
▁ⲛⲧⲁⲡⲁ 100
▁ⲛⲧⲙⲉϩ 100
▁ⲟⲩⲛⲧⲉ 100
▁ⲡϭⲱⲛⲧ 100
▁ⲡⲁⲙⲃⲱ 100
▁ⲡⲉⲕⲛⲁ 100
▁ⲡⲧⲏⲣϥ 100
▁ⲣϩⲟⲩⲟ 100
▁ⲣⲁⲥⲧⲉ 100
▁ⲣⲟⲉⲓⲥ 100
▁ⲧϩⲓⲏⲙ 100
▁ⲧⲁϩⲟϥ 100
▁ⲧⲁϩⲟⲓ 100
▁ⲧⲁϭⲓϫ 100
▁ⲧⲁⲃⲱⲕ 100
▁ⲧⲡⲩⲗⲏ 100
ⲁϣⲁϩⲟⲙ 100
ⲁⲑⲉⲧⲉⲓ 100
ⲅⲉⲛⲏⲙⲁ 100
ⲑⲁⲓⲙⲁⲛ 100
ⲕⲁⲧⲁⲗⲁ 100
ⲕⲉⲥⲟⲟⲩ 100
ⲗⲟⲓⲙⲟⲥ 100
ⲛⲟⲩⲁⲁⲃ 100
ⲛⲟⲩⲟⲙϥ 100
ⲟⲙⲟⲣⲣⲁ 100
ⲟⲛⲏⲣⲓⲁ 100
ⲟⲩⲱⲛⲟⲩ 100
ⲡⲟⲟⲛⲉϥ 100
ⲣⲙⲡϣⲁⲛ 100
ⲥⲟⲩⲱⲛⲧ 100
ⲩⲗⲏⲧⲟⲥ 100
ⲫⲣⲁⲧⲏⲥ 100
ϩⲁⲡⲗⲟⲩⲥ 100
ϩⲉⲛⲣⲱⲙⲉ 100
ϩⲓⲡⲡⲉⲩⲥ 100
ϭⲛⲁⲣⲓⲕⲉ 100
▁ϣⲟⲩⲉⲓⲧ 100
▁ϩⲁⲧⲉⲧⲛ 100
▁ϩⲓⲛⲟⲩⲃ 100
▁ϩⲙⲡⲏⲣⲡ 100
▁ϩⲛⲟⲩⲉⲓ 100
▁ϫⲉϥⲥⲏϩ 100
▁ϫⲉⲁⲓϩⲉ 100
▁ϫⲉⲉⲣⲉⲧ 100
▁ϫⲉⲙⲡⲉⲓ 100
▁ϫⲉⲙⲡⲉⲕ 100
▁ϫⲉⲛⲁϣⲉ 100
▁ϫⲉⲧⲛⲛⲁ 100
▁ⲁϥϣⲱⲱⲧ 100
▁ⲁϥⲙⲧⲟⲛ 100
▁ⲁϥⲥⲱⲧⲡ 100
▁ⲁϥⲧⲁⲗⲟ 100
▁ⲁϩⲟⲓⲛⲉ 100
▁ⲁϫⲛⲱϫⲛ 100
▁ⲁⲡⲗⲁⲟⲥ 100
▁ⲁⲧⲉⲧⲛϯ 100
▁ⲉϥϣⲁⲛⲧ 100
▁ⲉϥϣⲗⲏⲗ 100
▁ⲉϥϣⲟⲩⲉ 100
▁ⲉϥϩⲛⲟⲩ 100
▁ⲉϥⲉϣⲱⲙ 100
▁ⲉϥⲣⲓⲙⲉ 100
▁ⲉϫⲙⲡⲏⲓ 100
▁ⲉⲓⲟⲩⲱϣ 100
▁ⲉⲙⲛⲧⲟⲩ 100
▁ⲉⲙⲟⲩⲧⲉ 100
▁ⲉⲙⲡⲁⲧⲉ 100
▁ⲉⲛⲉⲓⲣⲉ 100
▁ⲉⲛⲥⲉⲛⲁ 100
▁ⲉⲛⲧⲁⲓⲥ 100
▁ⲉⲣⲉⲛⲁⲓ 100
▁ⲉⲣⲉⲧⲉⲕ 100
▁ⲉⲣⲉⲧⲉⲩ 100
▁ⲉⲧϣⲓⲛⲉ 100
▁ⲉⲧⲉϥⲛⲁ 100
▁ⲉⲧⲉⲣⲉⲧ 100
▁ⲉⲧⲟⲩⲟϫ 100
▁ⲉⲩϣⲟⲃⲉ 100
▁ⲉⲩϫⲁϩⲙ 100
▁ⲉⲩⲉⲓⲛⲉ 100
▁ⲉⲩⲣⲁϣⲉ 100
▁ⲙⲛⲛⲛⲟϭ 100
▁ⲙⲛⲡϩⲁⲧ 100
▁ⲙⲡϫⲟⲉⲓ 100
▁ⲙⲡⲉϥⲛⲁ 100
▁ⲙⲡⲉⲓⲛⲉ 100
▁ⲙⲡⲉⲕⲛⲁ 100
▁ⲙⲡⲕⲁⲕⲉ 100
▁ⲙⲡⲗⲩⲅⲏ 100
▁ⲙⲡⲣⲃⲱⲕ 100
▁ⲛϩⲁⲣⲙⲁ 100
▁ⲛϩⲩⲡⲟⲕ 100
▁ⲛⲁϫⲟⲟⲥ 100
▁ⲛⲁⲣⲛⲱⲛ 100
▁ⲛⲉϥⲛⲏⲩ 100
▁ⲛⲓⲁⲃⲓⲥ 100
▁ⲛⲛⲥⲓⲟⲩ 100
▁ⲛⲟⲩϣⲏⲛ 100
▁ⲛⲟⲩϩⲏⲧ 100
▁ⲛⲟⲩϩⲣⲉ 100
▁ⲛⲟⲩϩⲱⲃ 100
▁ⲛⲥⲁϣϥⲉ 100
▁ⲛⲥⲁⲛⲉⲕ 100
▁ⲛⲥⲉⲃⲱⲕ 100
▁ⲛⲧⲁⲕⲉⲓ 100
▁ⲛⲧⲛⲃⲱⲕ 100
▁ⲡϣⲟϫⲛⲉ 100
▁ⲡⲉⲓϩⲱⲃ 100
▁ⲡⲉⲧⲉⲙⲡ 100
▁ⲡⲕⲉⲟⲩⲁ 100
▁ⲥⲉϣⲟⲟⲡ 100
▁ⲭⲉⲃⲣⲱⲛ 100
ⲃⲟⲏⲑⲉⲓⲁ 100
ⲇⲓⲱⲅⲙⲟⲥ 100
ⲓⲉⲛⲧⲟⲗⲏ 100
ⲕⲏⲕⲁϩⲏⲩ 100
ⲙⲁⲓⲣⲱⲙⲉ 100
ⲙⲛⲧϩⲗⲗⲟ 100
ⲛⲁⲙⲁϩⲧⲉ 100
ⲛⲧⲁϥⲁⲁⲩ 100
ⲟⲩⲉϩⲛⲁⲩ 100
ⲡⲁⲙⲉⲉⲩⲉ 100
ⲡⲉⲧϫⲟⲥⲉ 100
ⲣⲙⲛⲧϩⲏⲧ 100
ⲥⲙⲛⲥⲛⲧⲉ 100
ⲧⲉⲧⲛⲛⲁⲩ 100
▁ϣⲁⲁⲣⲏϫϥ 100
▁ϩⲉⲗⲡⲓⲍⲉ 100
▁ϩⲙⲡⲕⲱϩⲧ 100
▁ϩⲙⲡⲥⲱⲙⲁ 100
▁ϩⲛϩⲉⲛⲙⲁ 100
▁ϩⲛⲧϩⲓⲏⲙ 100
▁ϩⲛⲧⲁⲣⲭⲏ 100
▁ϩⲛⲧⲁⲩⲗⲏ 100
▁ϩⲛⲧⲡⲁϣⲉ 100
▁ϫⲉⲉⲓⲥⲟⲩ 100
▁ϫⲉⲛⲛⲉⲧⲛ 100
▁ϫⲉⲥⲁⲟⲩⲗ 100
▁ⲁϥϣⲟⲣⲡϥ 100
▁ⲁϥⲛⲟϫⲟⲩ 100
▁ⲁϥⲡⲱⲱⲛⲉ 100
▁ⲁⲓⲙⲉⲥⲧⲉ 100
▁ⲁⲡⲁⲉⲓⲱⲧ 100
▁ⲁⲥϩⲙⲟⲟⲥ 100
▁ⲁⲥⲙⲟⲩⲧⲉ 100
▁ⲁⲩϫⲓⲟⲟⲣ 100
▁ⲉϥⲙⲟⲟⲩⲧ 100
▁ⲉϥⲧⲃⲃⲏⲩ 100
▁ⲉⲙⲡⲁⲧⲟⲩ 100
▁ⲉⲛⲉⲥⲱⲟⲩ 100
▁ⲉⲡⲁϣⲗⲏⲗ 100
▁ⲉⲡⲁⲩⲗⲟⲥ 100
▁ⲉⲡⲙⲏⲏϣⲉ 100
▁ⲉⲡⲧⲁⲫⲟⲥ 100
▁ⲉⲣϣⲁⲛⲡⲉ 100
▁ⲉⲣⲉⲡⲟⲩⲁ 100
▁ⲉⲧϩⲁⲣⲉϩ 100
▁ⲉⲧⲃⲉⲛⲉⲩ 100
▁ⲉⲧⲉⲁⲛⲟⲕ 100
▁ⲉⲧⲉⲛϥⲛⲁ 100
▁ⲉⲧⲉⲧⲛⲟⲩ 100
▁ⲉⲧⲛⲁϣⲱϥ 100
▁ⲉⲧⲣⲉϥⲉⲓ 100
▁ⲉⲩⲙⲏⲏϣⲉ 100
▁ⲉⲩⲥⲟⲟⲩϩ 100
▁ⲕⲁⲧⲁⲡⲉⲥ 100
▁ⲙⲁⲣⲉⲡⲉⲕ 100
▁ⲙⲡϥⲟⲩⲱϣ 100
▁ⲙⲡⲁϭⲱⲛⲧ 100
▁ⲙⲡⲁⲥⲟⲡⲥ 100
▁ⲙⲡⲉϥⲙⲟⲩ 100
▁ⲙⲡⲉϥⲱⲛϩ 100
▁ⲙⲡⲉⲕⲕⲁϩ 100
▁ⲙⲡⲣⲕⲁⲁⲧ 100
▁ⲛϩⲁⲓⲃⲉⲥ 100
▁ⲛⲉϥϣⲁϫⲉ 100
▁ⲛⲉϥⲟⲩⲏϩ 100
▁ⲛⲛϫⲱⲱⲣⲉ 100
▁ⲛⲛⲛⲟⲩⲧⲉ 100
▁ⲛⲛⲣⲣⲱⲟⲩ 100
▁ⲛⲟⲩϩⲙⲟⲧ 100
▁ⲛⲟⲩⲥⲙⲟⲩ 100
▁ⲛⲟⲩⲯⲩⲭⲏ 100
▁ⲛⲥⲉⲟⲩⲱⲙ 100
▁ⲛⲧⲁⲓⲛⲁⲩ 100
▁ⲛⲧⲉϥϩⲓⲏ 100
▁ⲛⲧⲉⲕϭⲟⲙ 100
▁ⲛⲧⲕⲁⲕⲓⲁ 100
▁ⲟⲩⲛⲟⲩⲧⲉ 100
▁ⲟⲩⲛⲧⲏⲧⲛ 100
▁ⲡⲉⲓⲣⲱⲙⲉ 100
▁ⲡⲉⲧⲉϣϣⲉ 100
▁ⲡⲉⲩϣⲓⲛⲉ 100
ⲁⲓⲥⲑⲏⲥⲓⲥ 100
ⲃⲁⲣⲃⲁⲣⲟⲥ 100
ⲇⲓⲁⲕⲣⲓⲛⲉ 100
ⲇⲩⲛⲁⲥⲧⲏⲥ 100
ⲕⲟⲓⲃⲱⲧⲟⲥ 100
ϩⲩⲡⲏⲣⲉⲧⲏⲥ 100
▁ϥⲛⲁⲧⲱⲱⲃⲉ 100
▁ϩⲙⲡⲙⲏⲏϣⲉ 100
▁ϩⲛⲛⲉϣⲏⲣⲉ 100
▁ϩⲛⲟⲩϣⲁϫⲉ 100
▁ⲁϥⲧⲁⲗⲟⲟⲩ 100
▁ⲁⲟⲩⲙⲏⲏϣⲉ 100
▁ⲉϫⲙⲡⲉϥϩⲟ 100
▁ⲉⲛⲉⲕϣⲁϫⲉ 100
▁ⲉⲛⲉⲛⲉⲣⲏⲩ 100
▁ⲉⲛⲧⲁϥⲁⲁⲥ 100
▁ⲉⲡⲁϩⲣⲟⲟⲩ 100
▁ⲉⲩⲉⲓⲣⲏⲛⲏ 100
▁ⲉⲩⲉⲙⲟⲩⲧⲉ 100
▁ⲉⲩⲧⲁϫⲣⲏⲩ 100
▁ⲙⲛⲇⲁⲩⲉⲓⲇ 100
▁ⲙⲛⲟⲩⲉⲟⲟⲩ 100
▁ⲙⲡⲉϥⲕⲱⲧⲉ 100
▁ⲙⲡⲉⲥⲉⲓⲱⲧ 100
▁ⲛϩⲏⲣⲱⲇⲏⲥ 100
▁ⲛϭⲓⲟⲩⲛⲟϭ 100
▁ⲛⲁⲃⲉⲛⲛⲏⲣ 100
▁ⲛⲁⲥⲟⲟⲩⲧⲛ 100
▁ⲛⲁⲧⲛⲁϩⲧⲉ 100
▁ⲛⲉⲧⲙⲟⲟⲩⲧ 100
▁ⲛⲉⲧⲙⲟⲥⲧⲉ 100
▁ⲛⲛⲁⲛⲟⲙⲟⲥ 100
▁ⲛⲟⲩϩⲓⲉⲓⲃ 100
▁ⲛⲟⲩⲉⲥⲟⲟⲩ 100
▁ⲛⲟⲩⲭⲁⲣⲓⲥ 100
▁ⲛⲥⲉⲕⲟⲧⲟⲩ 100
▁ⲛⲧⲁⲩϫⲡⲟϥ 100
▁ⲛⲧⲉⲑⲩⲥⲓⲁ 100
▁ⲛⲧⲉⲕⲟⲣⲅⲏ 100
▁ⲡⲉϫⲉⲓⲱⲁⲃ 100
▁ⲡⲉⲧϩⲙⲟⲟⲥ 100
▁ⲡⲉⲧⲛⲟⲩϩⲙ 100
▁ⲡⲙⲉϩⲥⲛⲁⲩ 100
▁ⲥⲉⲛⲁⲥⲱⲧⲙ 100
ⲟⲓⲕⲟⲛⲟⲙⲓⲁ 100
ⲡⲉⲧϣⲟⲩⲱⲟⲩ 100
ⲥⲩⲅⲅⲉⲛⲉⲓⲁ 100
▁ϩⲓⲱⲧⲧⲏⲩⲧⲛ 100
▁ϩⲛⲛⲉⲕϣⲁϫⲉ 100
▁ϩⲛⲟⲩⲧⲉⲗⲏⲗ 100
▁ϫⲉⲁⲓⲣⲛⲟⲃⲉ 100
▁ϯⲛⲁⲧⲛⲛⲟⲟⲩ 100
▁ⲁϥⲣⲡⲙⲉⲉⲩⲉ 100
▁ⲁⲩϫⲓϣⲟϫⲛⲉ 100
▁ⲁⲩⲥⲉⲡⲥⲱⲡϥ 100
▁ⲉⲛⲉⲧⲛⲉⲣⲏⲩ 100
▁ⲉⲛⲧⲁϥϣⲁϫⲉ 100
▁ⲉⲛⲧⲁⲩϣⲱⲡⲉ 100
▁ⲉⲥϣⲁⲛϣⲱⲡⲉ 100
▁ⲉⲧⲃⲉⲡϣⲁϫⲉ 100
▁ⲕⲁⲧⲁⲡϩⲩⲗⲏ 100
▁ⲕⲁⲧⲁⲡⲟⲗⲓⲥ 100
▁ⲙⲙⲓⲛⲙⲙⲟⲟⲩ 100
▁ⲙⲛⲡⲉⲕⲗⲁⲟⲥ 100
▁ⲙⲛⲧⲡⲓⲥⲧⲓⲥ 100
▁ⲙⲡⲉⲓϫⲱⲱⲙⲉ 100
▁ⲙⲡⲡⲟⲛⲏⲣⲟⲥ 100
▁ⲛϩⲉⲛⲉⲥⲟⲟⲩ 100
▁ⲛϭⲓⲛϩⲙϩⲁⲗ 100
▁ⲛϭⲓⲧϣⲉⲉⲣⲉ 100
▁ⲛⲛⲉⲧⲙⲟⲥⲧⲉ 100
▁ⲛⲥⲁⲇⲁⲩⲉⲓⲇ 100
▁ⲛⲧϭⲓⲃⲱⲧⲟⲥ 100
▁ⲛⲧⲁⲇⲁⲩⲉⲓⲇ 100
▁ⲛⲧⲉⲣⲉϥϩⲱⲛ 100
▁ⲡⲁⲣⲉϥϣⲟⲡⲧ 100
▁ⲡⲙⲁⲕⲁⲣⲓⲟⲥ 100
▁ⲧⲉⲧⲛⲁϣⲱⲡⲉ 100
▁ⲧⲙⲛⲧⲣⲙⲙⲁⲟ 100
▁ⲧⲥⲩⲛⲁⲅⲱⲅⲏ 100
ⲙⲛⲧϫⲁⲥⲓϩⲏⲧ 100
ⲛⲉϥⲟⲩⲉⲣⲏⲧⲉ 100
▁ϩⲛⲧⲉⲓⲡⲟⲗⲓⲥ 100
▁ϫⲉϩⲉⲛⲛⲟⲩⲧⲉ 100
▁ⲉⲩⲁϩⲉⲣⲁⲧⲟⲩ 100
▁ⲙⲛⲡⲉϥⲙⲏⲏϣⲉ 100
▁ⲙⲛⲧⲓⲙⲟⲑⲉⲟⲥ 100
▁ⲙⲡⲉⲕⲥⲡⲉⲣⲙⲁ 100
▁ⲛϭⲓⲡⲓⲗⲁⲧⲟⲥ 100
▁ⲛⲉϥⲁϩⲉⲣⲁⲧϥ 100
▁ⲛⲛⲉⲩⲡⲁⲧⲣⲓⲁ 100
▁ⲛⲧⲉϩⲟⲩⲉⲓⲧⲉ 100
▁ⲡⲉϫⲉⲡⲉⲧⲣⲟⲥ 100
▁ⲡⲉⲛⲧⲁϥⲉⲓⲛⲉ 100
ⲥⲧⲣⲁⲧⲏⲗⲁⲧⲏⲥ 100
▁ϩⲛⲛⲥⲩⲛⲁⲅⲱⲅⲏ 100
▁ⲛϩⲉⲛϥⲁⲓϣⲓⲛⲉ 100
▁ⲛⲛⲁⲡⲟⲥⲧⲟⲗⲟⲥ 100
▁ⲛⲛⲉϥⲁⲅⲅⲉⲗⲟⲥ 100
▁ⲛⲧⲉⲡϩⲓⲉⲣⲉⲩⲥ 100
▁ϩⲙⲡⲡⲁⲣⲁⲇⲓⲥⲟⲥ 100
▁ⲙⲛⲛⲁⲗⲗⲟⲫⲩⲗⲟⲥ 100
▁ⲛⲉⲅⲣⲁⲙⲙⲁⲧⲉⲩⲥ 100
▁ⲛⲛⲉⲭⲁⲛⲁⲛⲁⲓⲟⲥ 100
▁ⲙⲡⲕⲁⲧⲁⲡⲉⲧⲁⲥⲙⲁ 100
▁ⲉⲛⲧⲁⲩϭⲙⲡⲉⲩϣⲓⲛⲉ 100
▁ⲛⲧⲉϥⲕⲗⲏⲣⲟⲛⲟⲙⲓⲁ 100
ⲙⲱ 100
ⲝⲱ 100
ⲫⲱ 100
ϣⲏϥ 100
ϣⲓⲕ 100
ϥⲧⲉ 100
ϩⲉⲡ 100
ϩⲉⲣ 100
ϫⲱⲓ 100
ϭⲏⲛ 100
ϭⲣⲱ 100
▁ϣⲓ 100
▁ϣⲛ 100
▁ⲁⲉ 100
▁ⲟϣ 100
▁ⲣⲉ 100
▁ⲫⲁ 100
ⲁⲣⲝ 100
ⲃⲁⲑ 100
ⲃⲗⲏ 100
ⲃⲱⲣ 100
ⲅⲱⲣ 100
ⲏⲙⲁ 100
ⲑⲉⲥ 100
ⲙⲁϩ 100
ⲙⲙⲱ 100
ⲙⲟⲓ 100
ⲙⲡⲟ 100
ⲛⲕⲉ 100
ⲛⲟϣ 100
ⲟⲛϥ 100
ⲟⲟⲙ 100
ⲟⲣⲕ 100
ⲟⲥⲙ 100
ⲡⲣϣ 100
ⲣⲁⲙ 100
ⲣⲓⲱ 100
ⲧⲁϣ 100
ⲫⲉⲕ 100
ⲭⲁⲍ 100
ⲱⲙⲧ 100
ϣⲕⲟⲗ 100
ϣⲙⲧⲉ 100
ϣⲱⲥⲙ 100
ϩⲙⲉⲕ 100
ϩⲟⲗϭ 100
ϩⲱⲗϭ 100
ϫⲙⲡⲉ 100
ϫⲱⲕⲙ 100
▁ⲁⲁⲥ 100
▁ⲁⲓⲙ 100
▁ⲁⲕⲉ 100
▁ⲁⲛⲥ 100
▁ⲁⲥϯ 100
▁ⲁⲩϭ 100
▁ⲁⲭⲓ 100
▁ⲉϩⲙ 100
▁ⲉⲃⲁ 100
▁ⲉⲓⲱ 100
▁ⲉⲙⲙ 100
▁ⲉⲥϯ 100
▁ⲏⲛϥ 100
▁ⲏⲣⲡ 100
▁ⲙⲉⲗ 100
▁ⲛⲉϩ 100
▁ⲛⲍⲁ 100
▁ⲛⲑⲁ 100
▁ⲧⲁⲛ 100
▁ⲧⲃⲱ 100
ⲅⲗⲱⲙ 100
ⲉⲧⲡⲉ 100
ⲍⲁⲏⲗ 100
ⲑⲉⲣⲁ 100
ⲓⲱⲁⲃ 100
ⲓⲱⲣⲕ 100
ⲕⲁⲑⲉ 100
ⲕⲧⲟⲕ 100
ⲗⲁⲕⲙ 100
ⲗⲓⲥⲁ 100
ⲙⲁⲧⲉ 100
ⲙⲏⲛⲉ 100
ⲛⲉⲭⲉ 100
ⲛⲧⲉϥ 100
ⲟⲕϩⲥ 100
ⲟⲣⲛⲁ 100
ⲟⲩⲏⲛ 100
ⲡⲟⲗⲩ 100
ⲣⲉϩⲧ 100
ⲥⲁⲉⲓ 100
ⲥⲕⲁⲓ 100
ⲥⲟⲡⲟ 100
ⲥⲟⲧϥ 100
ⲥⲧⲙⲉ 100
ⲧⲁϩⲥ 100
ⲧⲁⲓⲉ 100
ⲧⲉⲕⲙ 100
ⲧⲉⲟⲩ 100
ⲧⲕⲁⲥ 100
ⲫⲟⲛⲏ 100
ⲫⲟⲣⲁ 100
ⲭⲓⲥⲉ 100
ϣⲁⲁⲧϥ 100
ϩⲁⲓⲟⲥ 100
ϩⲟϫϩϫ 100
ϫⲓⲟⲩⲉ 100
ϫⲟⲟⲩϥ 100
▁ϣⲁⲛⲉ 100
▁ϣⲙⲙⲟ 100
▁ϣⲱⲱⲧ 100
▁ϥⲱⲧⲉ 100
▁ϩⲛⲁⲥ 100
▁ϩⲛⲃⲁ 100
▁ϩⲛⲥⲉ 100
▁ϫⲉϩⲉ 100
▁ϫⲉϭⲱ 100
▁ⲁⲓϭⲱ 100
▁ⲉϥⲙⲉ 100
▁ⲉϥⲙⲡ 100
▁ⲉϥⲱϣ 100
▁ⲉϩⲟⲩ 100
▁ⲉⲡⲓⲁ 100
▁ⲉⲣⲁⲧ 100
▁ⲉⲧⲕⲉ 100
▁ⲉⲩⲟϣ 100
▁ⲕⲏⲙⲉ 100
▁ⲙⲛⲛⲓ 100
▁ⲙⲡⲣⲁ 100
▁ⲛϣϣⲉ 100
▁ⲛϩⲁⲏ 100
▁ⲛϩⲓⲏ 100
▁ⲛⲁϣⲉ 100
▁ⲛⲁϫⲱ 100
▁ⲛⲁⲃⲓ 100
▁ⲛⲃⲁⲣ 100
▁ⲛⲉⲓⲟ 100
▁ⲛⲉⲛⲟ 100
▁ⲛⲉⲧⲥ 100
▁ⲛⲗⲁⲥ 100
▁ⲛⲣⲱⲓ 100
▁ⲟⲩⲉⲛ 100
▁ⲟⲩⲏⲣ 100
▁ⲡϣⲱⲥ 100
▁ⲡϫⲱⲕ 100
▁ⲥⲉϫⲓ 100
▁ⲥⲟⲩⲛ 100
▁ⲧϩⲁⲏ 100
▁ⲧⲁϫⲓ 100
▁ⲧⲁⲁⲥ 100
▁ⲧⲟⲩⲱ 100
▁ⲧⲱⲃϩ 100
ⲁⲛⲉⲭⲉ 100
ⲃⲁⲧⲏⲥ 100
ⲃⲗⲏⲙⲁ 100
ⲅⲁⲓⲟⲥ 100
ⲉⲕⲓⲃⲉ 100
ⲕⲁⲗⲱⲛ 100
ⲕⲉⲣⲣⲟ 100
ⲕⲏⲥⲓⲥ 100
ⲗⲓⲙⲛⲏ 100
ⲗⲟⲙⲗⲙ 100
ⲗⲟⲟⲩⲉ 100
ⲙⲉⲛⲟⲥ 100
ⲙⲛⲧⲉⲩ 100
ⲙⲡⲁⲣⲁ 100
ⲛⲟⲙⲟⲛ 100
ⲟⲩⲃⲁϣ 100
ⲟⲩⲱϫⲛ 100
ⲡⲙⲟⲟⲩ 100
ⲡⲛⲟⲃⲉ 100
ⲣⲁⲓⲧⲉ 100
ⲥⲉⲏⲣⲡ 100
ⲥⲓⲟⲩⲣ 100
ⲧⲁϥⲧⲉ 100
ⲧⲁⲕⲟⲥ 100
ⲧⲉϥⲛⲁ 100
ⲧⲟⲛⲧⲛ 100
ⲧⲟⲣⲡϥ 100
ⲧⲣϩⲱⲃ 100
ⲫⲟⲣⲟⲥ 100
ϣⲁⲁⲧⲟⲩ 100
ϣⲛϩⲧⲏⲕ 100
ϩⲉⲗⲗⲏⲛ 100
ϩⲟⲧⲃⲉϥ 100
ϩⲣⲁⲭⲏⲗ 100
ϫⲟⲟⲗⲉⲥ 100
ϫⲟⲟⲩⲥⲉ 100
ϭⲟⲟⲗⲟⲩ 100
▁ϩⲁⲧⲏⲕ 100
▁ϩⲓⲣⲱⲥ 100
▁ϩⲓⲧⲉϥ 100
▁ϩⲓⲧⲛⲡ 100
▁ϩⲓⲱⲱⲧ 100
▁ϩⲙⲡⲓⲁ 100
▁ϩⲛϩⲣⲁ 100
▁ϩⲛⲛⲧⲁ 100
▁ϩⲱⲱⲧⲉ 100
▁ϫⲉⲁⲉⲓ 100
▁ϫⲉⲙⲡϥ 100
▁ϫⲉⲡⲉϥ 100
▁ϫⲉⲧⲉⲕ 100
▁ϯⲙⲧⲟⲛ 100
▁ⲁϥϫⲛⲉ 100
▁ⲁϥⲕⲧⲉ 100
▁ⲉϥϩⲏⲗ 100
▁ⲉϥⲃⲏⲕ 100
▁ⲉϥⲥⲏϩ 100
▁ⲉⲉⲓϫⲱ 100
▁ⲉⲕⲡⲏⲧ 100
▁ⲉⲛⲛⲉⲩ 100
▁ⲉⲛⲧⲟⲩ 100
▁ⲉⲡϩⲏⲧ 100
▁ⲉⲣⲁⲧⲛ 100
▁ⲉⲥⲟⲩⲛ 100
▁ⲉⲥⲧⲏⲙ 100
▁ⲉⲧⲛⲁϯ 100
▁ⲉⲧⲛⲁⲩ 100
▁ⲉⲩⲃⲏⲕ 100
▁ⲑⲃⲃⲓⲉ 100
▁ⲙⲛⲧⲙⲉ 100
▁ⲙⲡⲉϥⲉ 100
▁ⲙⲡⲣϥⲓ 100
▁ⲙⲯⲩⲭⲏ 100
▁ⲛϣⲟⲙⲧ 100
▁ⲛϣⲱⲛⲉ 100
▁ⲛϥⲛⲁⲩ 100
▁ⲛϩⲟⲙⲧ 100
▁ⲛϫⲛⲁϩ 100
▁ⲛⲃⲁⲓⲑ 100
▁ⲛⲙⲡⲉϥ 100
▁ⲛⲙⲡⲉⲧ 100
▁ⲛⲛⲁⲏⲧ 100
▁ⲛⲛⲉⲕⲁ 100
▁ⲛⲛⲉⲧⲥ 100
▁ⲛⲥⲛⲁⲩ 100
▁ⲛⲥⲟⲃⲧ 100
▁ⲛⲥⲟⲟⲩ 100
▁ⲛⲧⲁⲩⲣ 100
▁ⲛⲧⲟⲟⲧ 100
▁ⲟⲩϩⲏⲧ 100
▁ⲟⲩⲃⲏⲓ 100
▁ⲟⲩⲛⲧϥ 100
▁ⲡⲉϣⲁϥ 100
▁ⲡⲉⲓⲙⲁ 100
▁ⲡⲉⲕⲣⲟ 100
▁ⲡⲉⲭⲉⲇ 100
▁ⲡⲛⲟⲩⲃ 100
▁ⲡⲥⲱⲙⲁ 100
▁ⲣⲟⲙⲡⲉ 100
▁ⲣⲟⲩϩⲉ 100
▁ⲧⲁϭⲟⲙ 100
▁ⲧⲁⲣⲟⲩ 100
▁ⲧⲉⲃⲟⲗ 100
▁ⲧⲙⲏⲧⲉ 100
▁ⲭⲁⲣⲓⲥ 100
ⲁⲛⲁⲅⲕⲏ 100
ⲕⲁⲗⲁⲁⲩ 100
ⲗⲓⲧⲟⲩⲣ 100
ⲗⲟϫⲗⲉϫ 100
ⲙⲛⲧⲙⲁⲓ 100
ⲙⲟⲭⲗⲟⲥ 100
ⲛⲁⲑⲉⲙⲁ 100
ⲛⲉϥϭⲓϫ 100
ⲣⲁϩⲧⲟⲩ 100
ⲣⲁⲙⲉⲩⲥ 100
ⲣⲟϥⲣⲉϥ 100
ⲥⲗⲁⲁⲧⲉ 100
ⲧⲥⲁⲃⲟϥ 100
ⲭⲓⲙⲁⲁⲥ 100
ϩⲁⲗⲗⲁⲥⲁ 100
ϩⲏⲗⲉⲓⲁⲥ 100
ϭⲓⲛⲟⲩⲱⲙ 100
▁ϩⲓⲧⲙⲡⲁ 100
▁ϩⲙⲡⲁⲏⲓ 100
▁ϩⲛⲟⲩϫⲓ 100
▁ⲁϥⲙⲟⲣϥ 100
▁ⲁϥⲙⲟⲩϩ 100
▁ⲁϩⲉⲣⲁⲧ 100
▁ⲁⲓϫⲓⲥⲉ 100
▁ⲁⲓⲣⲧϩⲉ 100
▁ⲁⲓⲧⲁⲁⲩ 100
▁ⲁⲩϣⲓⲛⲉ 100
▁ⲁⲩϭⲱⲧⲡ 100
▁ⲉϥϣⲁⲁⲧ 100
▁ⲉϥⲛⲏⲟⲩ 100
▁ⲉϥⲟⲩⲏⲩ 100
▁ⲉϥⲥⲱⲧⲙ 100
▁ⲉϥⲧⲁⲩⲟ 100
▁ⲉⲙⲉⲉⲩⲉ 100
▁ⲉⲛⲟⲩϫⲉ 100
▁ⲉⲛⲧⲉⲧⲛ 100
▁ⲉⲡⲕⲱϩⲧ 100
▁ⲉⲥϣⲟⲟⲡ 100
▁ⲉⲧⲉⲟⲩⲛ 100
▁ⲉⲧⲛϩⲏⲧ 100
▁ⲉⲧⲟⲩϫⲉ 100
▁ⲉⲧⲱⲟⲩⲛ 100
▁ⲉⲩϣⲓⲛⲉ 100
▁ⲉⲩϩⲙⲟⲧ 100
▁ⲉⲩⲥⲛⲟϥ 100
▁ⲙⲁⲣⲉⲡⲁ 100
▁ⲙⲉⲗⲉⲧⲁ 100
▁ⲙⲙⲉⲗⲟⲥ 100
▁ⲙⲙⲛⲧⲛⲁ 100
▁ⲙⲡⲁϩⲁⲡ 100
▁ⲙⲡⲁⲥⲟⲛ 100
▁ⲙⲡⲇⲟⲩⲝ 100
▁ⲙⲡⲉⲧϩⲓ 100
▁ⲙⲡⲓⲛⲁⲩ 100
▁ⲙⲡⲧⲁⲕⲟ 100
▁ⲙⲡⲧⲃⲃⲟ 100
▁ⲛϥϣⲟⲟⲡ 100
▁ⲛϩⲃⲟⲩⲣ 100
▁ⲛϩⲉⲛⲕⲉ 100
▁ⲛϩⲉⲛⲟⲩ 100
▁ⲛⲁϩⲙⲉⲧ 100
▁ⲛⲅⲟⲩⲱϩ 100
▁ⲛⲉⲧⲟⲛϩ 100
▁ⲛⲉⲩⲛⲏⲩ 100
▁ⲛⲙⲙⲟⲩⲓ 100
▁ⲛⲛϩⲗⲗⲟ 100
▁ⲛⲛⲉϥⲛⲁ 100
▁ⲛⲛⲉⲧⲉⲩ 100
▁ⲛⲟⲩϩⲟⲣ 100
▁ⲛⲥⲁⲡⲉⲕ 100
▁ⲛⲥⲟⲉⲓⲧ 100
▁ⲛⲧⲉϩⲉⲛ 100
▁ⲛⲧⲉⲛⲉⲕ 100
▁ⲛⲧⲉⲥⲙⲏ 100
▁ⲟⲩⲗⲁⲁⲩ 100
▁ⲟⲩⲛϩⲁϩ 100
▁ⲟⲩⲛϩⲉⲛ 100
▁ⲡϫⲱⲱⲙⲉ 100
▁ⲡϭⲉⲣⲱⲃ 100
▁ⲡⲥⲟⲫⲟⲥ 100
▁ⲡⲧⲁⲉⲓⲟ 100
▁ⲧⲁⲙⲓⲟϥ 100
▁ⲧⲁⲥⲱⲛⲉ 100
▁ⲧⲱⲟⲩⲛⲉ 100
ⲁⲓⲥⲁⲣⲓⲁ 100
ⲉⲓⲟⲩⲇⲁⲥ 100
ⲓⲥⲑⲏⲥⲓⲥ 100
ⲕⲓⲃⲱⲧⲟⲥ 100
ⲗⲁⲕⲏⲧⲁⲥ 100
ⲙⲛⲧϣⲏⲣⲉ 100
ⲙⲛⲧⲁϥⲧⲉ 100
ⲛⲁⲛⲟⲙⲓⲁ 100
ⲟⲩⲁϩⲙⲉϥ 100
ⲣⲉϥⲙⲓϣⲉ 100
ⲣⲉⲕⲣⲓⲕⲉ 100
ⲣⲏⲛⲓⲕⲟⲛ 100
ⲥⲁⲧⲁⲛⲁⲥ 100
ⲥⲧⲁⲩⲣⲟⲥ 100
ⲧⲁⲗϭⲟⲟⲩ 100
ⲧⲉϥⲯⲩⲭⲏ 100
ⲧⲛⲁⲛⲟⲩϥ 100
ⲫⲓⲗⲓⲥⲧⲓ 100
ⲭⲓⲥⲉⲇⲉⲕ 100
ϣⲧⲣⲧⲱⲣⲟⲩ 100
▁ϥⲛⲁⲉⲓⲛⲉ 100
▁ϩⲓϫⲙⲡⲉⲓ 100
▁ϩⲓⲧⲛⲛⲉⲧ 100
▁ϩⲛⲕⲁⲇⲏⲥ 100
▁ϩⲛⲟⲩϩⲏⲧ 100
▁ϩⲛⲧⲁⲥⲓⲁ 100
▁ϩⲛⲭⲱⲣⲏⲃ 100
▁ϯⲛⲁⲡⲱϩⲧ 100
▁ϯⲛⲁⲧⲁⲁⲩ 100
▁ⲁϥⲟⲩⲁϩϥ 100
▁ⲁϥⲟⲩⲱϣϥ 100
▁ⲁⲓϩⲙⲟⲟⲥ 100
▁ⲁⲓⲙⲟⲩⲧⲉ 100
▁ⲁⲛⲙⲟⲟϣⲉ 100
▁ⲁⲡⲙⲏⲏϣⲉ 100
▁ⲉϥⲥⲃⲧⲱⲧ 100
▁ⲉϫⲛϩⲧⲏⲥ 100
▁ⲉϫⲛⲕⲏⲙⲉ 100
▁ⲉⲓⲙⲟⲟϣⲉ 100
▁ⲉⲕⲙⲟⲟϣⲉ 100
▁ⲉⲛⲙⲁⲁϫⲉ 100
▁ⲉⲛⲥⲟⲟⲩⲛ 100
▁ⲉⲡⲟⲩϫⲁⲓ 100
▁ⲉⲥⲧⲛⲧⲱⲛ 100
▁ⲉⲧϩⲛⲛⲉⲕ 100
▁ⲉⲧϭⲟⲟⲙⲉ 100
▁ⲉⲧⲙⲟⲥⲧⲉ 100
▁ⲉⲧⲛⲁϣⲱⲥ 100
▁ⲉⲧⲣⲉⲩⲉⲓ 100
▁ⲉⲩⲙⲁⲉⲓⲛ 100
▁ⲉⲩⲛⲁⲃⲱⲕ 100
▁ⲉⲩⲡⲟⲗⲓⲥ 100
▁ⲓⲁⲕⲱⲃⲟⲥ 100
▁ⲕⲛⲁⲉⲓⲙⲉ 100
▁ⲙⲁⲗⲓⲥⲧⲁ 100
▁ⲙⲡⲉⲣⲧⲣⲉ 100
▁ⲙⲡⲉⲩϩⲏⲧ 100
▁ⲙⲡⲟⲩⲛⲟϥ 100
▁ⲙⲡⲣⲧⲣⲉⲛ 100
▁ⲛϥϩⲙⲟⲟⲥ 100
▁ⲛϭⲓⲡϩⲏⲧ 100
▁ⲛⲁⲅⲣⲓⲟⲛ 100
▁ⲛⲁⲛⲟⲙⲟⲥ 100
▁ⲛⲁⲥⲟⲧⲡϥ 100
▁ⲛⲃⲟⲏⲑⲟⲥ 100
▁ⲛⲅϩⲁⲣⲉϩ 100
▁ⲛⲉⲕϣⲁϫⲉ 100
▁ⲛⲉⲩϣⲓⲛⲉ 100
▁ⲛⲓⲱⲁⲕⲓⲙ 100
▁ⲛⲛϩⲙϩⲁⲗ 100
▁ⲛⲛⲉⲓⲟⲧⲉ 100
▁ⲛⲟⲩⲥⲛⲟϥ 100
▁ⲛⲣⲉϥⲕⲱϩ 100
▁ⲛⲧⲁϥϩⲱⲛ 100
▁ⲛⲧⲉⲓϭⲟⲧ 100
▁ⲛⲧⲉⲗⲓⲟⲥ 100
▁ⲟⲩⲉⲥⲟⲟⲩ 100
▁ⲡⲉϥⲥⲱⲙⲁ 100
▁ⲡⲉⲕⲗⲁⲟⲥ 100
▁ⲡⲉⲩⲟⲩⲟⲓ 100
▁ⲧⲉⲕⲯⲩⲭⲏ 100
▁ⲧⲛⲛⲁⲃⲱⲕ 100
▁ⲧⲟⲩⲛⲟⲥϥ 100
ⲕⲁⲧⲁⲃⲟⲗⲏ 100
ⲕⲁⲧⲏⲅⲟⲣⲓ 100
ⲕⲟⲓⲛⲱⲛⲓⲁ 100
ⲙⲁⲕⲁⲣⲓⲍⲉ 100
ⲙⲛⲧϫⲱⲱⲣⲉ 100
ⲛⲉⲩⲫⲣⲁⲛⲉ 100
ⲡⲉⲛϫⲟⲉⲓⲥ 100
ⲡⲟⲗⲓⲧⲉⲓⲁ 100
ⲡⲣⲟⲃⲗⲏⲙⲁ 100
ⲣⲉϥⲙⲟⲩⲧⲉ 100
▁ϣⲁⲡⲉⲩⲛⲟϭ 100
▁ϥⲛⲁⲟⲩⲱⲛϩ 100
▁ϩⲙⲡⲉϥⲣⲁⲛ 100
▁ϩⲛⲛϣⲉⲉⲣⲉ 100
▁ϩⲛⲟⲩⲙⲛⲧⲁ 100
▁ϩⲛⲟⲩⲟⲣⲅⲏ 100
▁ϩⲛⲧⲉⲕϭⲓϫ 100
▁ϫⲉⲁⲓⲥⲱⲧⲙ 100
▁ϫⲉⲡⲉⲧⲣⲟⲥ 100
▁ⲁϥϣⲧⲟⲣⲧⲣ 100
▁ⲁϥϫⲓϣⲕⲁⲕ 100
▁ⲁϥⲉⲛⲕⲟⲧⲕ 100
▁ⲁϥⲧⲁⲕⲟⲟⲩ 100
▁ⲁⲩϯⲛⲟⲩϭⲥ 100
▁ⲁⲩⲁϣϣⲕⲁⲕ 100
▁ⲁⲩⲕⲁⲣⲱⲟⲩ 100
▁ⲉϫⲛⲛⲣⲱⲙⲉ 100
▁ⲉⲅⲁⲗⲅⲁⲗⲁ 100
▁ⲉⲕⲉⲧⲁⲙⲓⲟ 100
▁ⲉⲛⲧⲁⲓϩⲱⲛ 100
▁ⲉⲡⲁⲛⲟⲩⲧⲉ 100
▁ⲉⲧⲥⲟⲩⲧⲱⲛ 100
▁ⲉⲩⲁϣϣⲕⲁⲕ 100
▁ⲙⲁⲣⲉⲡⲕⲁϩ 100
▁ⲙⲁⲧⲁⲛϩⲟⲓ 100
▁ⲙⲉⲣⲉⲗⲁⲁⲩ 100
▁ⲙⲛⲛⲁⲣⲭⲱⲛ 100
▁ⲙⲛⲛⲉⲛⲧⲁⲩ 100
▁ⲙⲛⲡⲉϩⲟⲟⲩ 100
▁ⲙⲛⲧⲉⲩϭⲟⲙ 100
▁ⲙⲡⲁⲅⲁⲑⲟⲛ 100
▁ⲙⲡⲉⲓϩⲟⲟⲩ 100
▁ⲙⲡⲉⲕⲥⲱⲧⲙ 100
▁ⲙⲡⲓⲗⲁⲧⲟⲥ 100
▁ⲛϭⲓⲡϣⲁϫⲉ 100
▁ⲛⲉϥϣⲡⲏⲣⲉ 100
▁ⲛⲉⲑⲏⲣⲓⲟⲛ 100
▁ⲛⲉⲥⲡⲟⲧⲟⲩ 100
▁ⲛⲛⲉϥϫⲁϫⲉ 100
▁ⲛⲛⲉϥⲥⲛⲏⲩ 100
▁ⲛⲛⲉⲅⲣⲁⲫⲏ 100
▁ⲛⲛⲉⲕϫⲁϫⲉ 100
▁ⲛⲛⲉⲧϣⲟⲟⲡ 100
▁ⲛⲛⲉⲧⲉⲓⲣⲉ 100
▁ⲛⲛⲉⲧⲛϭⲓϫ 100
▁ⲛⲟⲩⲣⲟⲙⲡⲉ 100
▁ⲛⲥⲁⲧⲏⲩⲧⲛ 100
▁ⲛⲧⲁϥϣⲁϫⲉ 100
▁ⲛⲧⲁⲓϫⲟⲟⲥ 100
▁ⲛⲧⲉϥⲥⲏϥⲉ 100
▁ⲡⲉⲛⲧⲁϥⲉⲓ 100
▁ⲡⲉⲧⲕⲣⲓⲛⲉ 100
▁ⲥⲉⲛⲁϫⲱⲧⲉ 100
▁ⲥⲉⲛⲁⲥⲙⲟⲩ 100
▁ⲧⲉⲕⲟⲩⲛⲁⲙ 100
▁ⲧⲉⲧⲛⲛⲁϩⲉ 100
ⲟⲕⲗⲏϯⲁⲛⲟⲥ 100
ⲡⲁⲣⲁⲡⲧⲱⲙⲁ 100
ⲥⲧⲣⲁⲧⲏⲅⲟⲥ 100
▁ϩⲁⲧϩⲁⲓⲃⲉⲥ 100
▁ϩⲓϫⲙⲡⲧⲟⲟⲩ 100
▁ϩⲙⲡⲉϥϩⲓⲥⲉ 100
▁ϩⲙⲡⲉⲙϩⲁⲁⲩ 100
▁ϩⲙⲡⲕⲁⲣⲡⲟⲥ 100
▁ϩⲛϩⲉⲛϩⲓⲥⲉ 100
▁ϩⲛⲛⲉⲅⲣⲁⲫⲏ 100
▁ϩⲛⲟⲩϭⲉⲣⲱⲃ 100
▁ϩⲛⲟⲩⲙⲛⲧⲁⲧ 100
▁ϩⲛⲧⲉⲕⲟⲣⲅⲏ 100
▁ϩⲛⲧⲉⲕⲯⲩⲭⲏ 100
▁ϩⲛⲧⲉⲣⲟⲙⲡⲉ 100
▁ϩⲛⲧⲉⲥⲙⲏⲧⲉ 100
▁ϩⲩⲡⲟⲧⲁⲥⲥⲉ 100
▁ϫⲉϩⲣⲁⲃⲃⲉⲓ 100
▁ⲁϥϥⲓⲉⲓⲁⲧϥ 100
▁ⲁϥⲡⲓⲥⲧⲉⲩⲉ 100
▁ⲉϫⲙⲡϫⲟⲉⲓⲥ 100
▁ⲉⲡⲉⲟⲩⲟⲉⲓϣ 100
▁ⲉⲡⲉⲡⲛⲉⲩⲙⲁ 100
▁ⲙⲙⲁⲕⲁⲣⲓⲟⲥ 100
▁ⲙⲛⲛⲉϩⲓⲟⲙⲉ 100
▁ⲙⲛⲡⲉϥⲉⲓⲱⲧ 100
▁ⲙⲡⲉⲇⲣⲁⲕⲱⲛ 100
▁ⲙⲡⲉⲕⲛⲟⲙⲟⲥ 100
▁ⲙⲡⲉⲩϫⲟⲉⲓⲥ 100
▁ⲙⲫⲓⲗⲓⲡⲡⲟⲥ 100
▁ⲛϩⲉⲛⲁⲧⲑⲁⲃ 100
▁ⲛϭⲓⲙⲙⲏⲏϣⲉ 100
▁ⲛϭⲓⲛⲟⲩⲏⲏⲃ 100
▁ⲛϭⲓⲟⲩⲣⲱⲙⲉ 100
▁ⲛϭⲓⲡⲙⲏⲏϣⲉ 100
▁ⲛⲅⲟⲇⲟⲗⲓⲁⲥ 100
▁ⲛⲛⲗⲉⲩⲓⲧⲏⲥ 100
▁ⲛⲥⲁⲓⲏⲥⲟⲩⲥ 100
▁ⲛⲥⲉⲙⲟⲩⲟⲩⲧ 100
▁ⲡⲉⲛⲧⲁϥⲃⲱⲕ 100
▁ⲡⲓⲟⲣⲇⲁⲛⲏⲥ 100
▁ⲡⲣⲉϥⲣⲛⲟⲃⲉ 100
ⲉⲩⲁⲅⲅⲉⲗⲓⲟⲛ 100
ⲫⲓⲗⲓⲥⲧⲓⲉⲓⲙ 100
▁ϩⲓⲧⲙⲡⲛⲟⲙⲟⲥ 100
▁ϩⲓⲧⲛⲧⲧⲁⲡⲣⲟ 100
▁ϩⲙⲡⲁⲡⲛⲉⲩⲙⲁ 100
▁ϩⲛⲛⲉⲡⲗⲁⲧⲓⲁ 100
▁ϩⲛⲛⲉⲩϩⲃⲏⲩⲉ 100
▁ϩⲛⲧⲉⲕⲧⲁⲡⲣⲟ 100
▁ϫⲉϩⲙⲡⲉϩⲟⲟⲩ 100
▁ⲉϫⲛⲛⲉⲧⲟⲩⲏϩ 100
▁ⲉⲣϣⲁⲛⲡⲣⲱⲙⲉ 100
▁ⲉⲧⲥⲩⲛⲁⲅⲱⲅⲏ 100
▁ⲙⲛⲛⲉⲧⲙⲟⲟⲩⲧ 100
▁ⲙⲡⲡⲉⲧⲟⲩⲁⲁⲃ 100
▁ⲛϩⲉⲛϩⲉⲑⲛⲟⲥ 100
▁ⲛⲁⲙⲟⲣⲣⲁⲓⲟⲥ 100
▁ⲛⲛϩⲉⲃⲣⲁⲓⲟⲥ 100
▁ⲛⲧⲉⲣⲉⲟⲩⲛⲟϭ 100
▁ϩⲛⲛⲉϥϩⲓⲟⲟⲩⲉ 100
▁ⲉϫⲙⲡⲉⲑⲣⲟⲛⲟⲥ 100
▁ⲉⲣϣⲁⲛⲡϫⲟⲉⲓⲥ 100
▁ⲕⲁⲧⲁⲡⲉⲓϣⲁϫⲉ 100
▁ⲛϩⲩⲡⲟⲕⲣⲓⲧⲏⲥ 100
▁ⲛϭⲓⲓⲉⲣⲉⲙⲓⲁⲥ 100
▁ⲛⲁⲓⲭⲙⲁⲗⲱⲧⲟⲥ 100
▁ⲛⲧⲉϥⲟⲩⲉⲣⲏⲧⲉ 100
▁ⲛⲧⲉⲣⲉⲓⲏⲥⲟⲩⲥ 100
▁ϩⲁⲛⲉϥⲟⲩⲉⲣⲏⲧⲉ 100
▁ϩⲓⲧⲙⲡⲉⲡⲛⲉⲩⲙⲁ 100
▁ⲁⲩⲕⲗⲏⲣⲟⲛⲟⲙⲉⲓ 100
▁ⲉⲧⲇⲓⲕⲁⲓⲟⲥⲩⲛⲏ 100
▁ⲉⲩⲇⲓⲕⲁⲓⲟⲥⲩⲛⲏ 100
▁ⲕⲁⲧⲁⲛⲉϥϩⲃⲏⲩⲉ 100
▁ⲙⲙⲛⲧϩⲉⲃⲣⲁⲓⲟⲥ 100
▁ⲙⲛⲛⲉϥⲁⲅⲅⲉⲗⲟⲥ 100
▁ⲛϭⲓⲡⲙⲁⲕⲁⲣⲓⲟⲥ 100
▁ⲛⲉⲫⲁⲣⲓⲥⲥⲁⲓⲟⲥ 100
▁ⲛⲛⲁϩⲣⲙⲡϫⲟⲉⲓⲥ 100
▁ⲡⲉϫⲉⲁⲃⲏⲥⲁⲗⲱⲙ 100
▁ⲙⲡⲉⲭⲉⲓⲣⲟⲩⲃⲉⲓⲛ 100
▁ⲛⲛⲉⲫⲁⲣⲓⲥⲥⲁⲓⲟⲥ 100
▁ⲛⲟⲩⲙⲛⲧⲭⲣⲏⲥⲧⲟⲥ 100
▁ϩⲛⲧⲉⲕⲇⲓⲕⲁⲓⲟⲥⲩⲛⲏ 100
▁ⲛϭⲓⲛⲉⲫⲁⲣⲓⲥⲥⲁⲓⲟⲥ 100
▁ⲛⲧⲉⲧⲛⲕⲗⲏⲣⲟⲛⲟⲙⲉⲓ 100
ϭⲏ 100
▁ⲭ 100
ⲛⲛ 100
ⲱⲭ 100
ϣⲉⲧ 100
ϩⲣⲟ 100
ϩⲱϣ 100
ϩⲱⲥ 100
ϫⲁⲧ 100
ϭⲉϫ 100
ϭⲉⲙ 100
ϭⲣⲏ 100
▁ϭⲙ 100
▁ⲣⲁ 100
ⲁϣⲏ 100
ⲁⲁⲕ 100
ⲃⲏⲧ 100
ⲃⲱⲛ 100
ⲇⲇⲁ 100
ⲍⲉⲕ 100
ⲏⲧⲛ 100
ⲏⲱⲛ 100
ⲑⲉⲛ 100
ⲑⲏⲧ 100
ⲑⲟⲣ 100
ⲓⲃⲉ 100
ⲕⲁⲙ 100
ⲕⲟⲟ 100
ⲙⲉⲛ 100
ⲙⲉⲩ 100
ⲙⲏϩ 100
ⲙⲟϥ 100
ⲛⲁⲝ 100
ⲛⲏⲗ 100
ⲛⲟⲏ 100
ⲛⲟⲓ 100
ⲟϣϥ 100
ⲟⲓⲛ 100
ⲡⲁⲛ 100
ⲡⲓⲛ 100
ⲣⲁⲑ 100
ⲣⲛⲁ 100
ⲣⲱⲧ 100
ⲧⲁϩ 100
ⲧⲃⲧ 100
ⲧⲥⲟ 100
ⲩⲣⲁ 100
ⲱϩⲙ 100
ⲱⲃϩ 100
ⲱⲕⲙ 100
ⲱⲣϣ 100
ϣⲉⲉⲓ 100
ϣⲗⲁϩ 100
ϣⲟⲡⲥ 100
ϩⲃⲃⲉ 100
ϩⲟⲡⲧ 100
ϩⲟⲩⲱ 100
ϫⲉⲣⲉ 100
ϫⲓϩⲟ 100
ϫⲡⲟⲓ 100
▁ϣⲏⲛ 100
▁ϥϫⲓ 100
▁ϥⲧⲟ 100
▁ϩⲏⲩ 100
▁ϯⲥⲟ 100
▁ⲁϥⲛ 100
▁ⲁⲕⲁ 100
▁ⲁⲡⲟ 100
▁ⲃⲁⲓ 100
▁ⲉϥⲛ 100
▁ⲉϭⲱ 100
▁ⲉⲣⲡ 100
▁ⲏⲇⲏ 100
▁ⲕⲁϩ 100
▁ⲙⲛⲓ 100
▁ⲛϭⲱ 100
▁ⲛⲃⲉ 100
▁ⲡϣⲓ 100
▁ⲡⲏⲧ 100
▁ⲣⲁⲧ 100
▁ⲥⲉⲓ 100
▁ⲧⲁⲩ 100
ⲃⲁⲧⲉ 100
ⲅⲉⲓⲁ 100
ⲏⲗⲓⲝ 100
ⲑⲉⲟⲥ 100
ⲓⲁⲁⲥ 100
ⲗⲁⲓⲁ 100
ⲗⲁⲛⲁ 100
ⲗⲏⲛⲏ 100
ⲗⲓⲟⲛ 100
ⲙⲁⲓⲛ 100
ⲙⲉⲥⲓ 100
ⲙⲙⲙⲉ 100
ⲙⲟϫϩ 100
ⲙⲟⲩⲥ 100
ⲛⲉⲉϥ 100
ⲛⲏⲧⲛ 100
ⲛⲱⲟⲩ 100
ⲟⲩϩⲉ 100
ⲟⲫⲓⲁ 100
ⲡⲁϩⲥ 100
ⲡⲓⲣⲁ 100
ⲡⲓⲥⲉ 100
ⲡⲟⲇⲏ 100
ⲡⲟⲣϣ 100
ⲡⲟⲣⲕ 100
ⲣⲁⲍⲉ 100
ⲣⲁⲓⲁ 100
ⲣⲟⲃⲟ 100
ⲣⲟⲏⲣ 100
ⲣⲟⲫⲏ 100
ⲥⲉⲡⲏ 100
ⲥⲟⲣⲧ 100
ⲥⲩⲛⲏ 100
ⲧⲉⲭⲉ 100
ⲧⲥⲓⲟ 100
ⲩⲛⲟⲩ 100
ⲭⲁⲓⲁ 100
ϣⲁⲁⲣⲉ 100
ϣⲟⲟϭⲉ 100
ϩⲓⲗⲁⲥ 100
ϩⲗⲗⲟⲓ 100
ϭⲟⲗⲡⲥ 100
▁ϩⲛⲥⲓ 100
▁ϩⲟⲩⲟ 100
▁ϫⲉⲛϥ 100
▁ϯⲟⲛϩ 100
▁ⲁⲓϫⲱ 100
▁ⲁⲓⲁⲓ 100
▁ⲁⲛⲉⲕ 100
▁ⲁⲡⲉⲕ 100
▁ⲁⲣⲓϥ 100
▁ⲁⲥϩⲉ 100
▁ⲁⲧⲉⲩ 100
▁ⲉϥϥⲓ 100
▁ⲉϩⲁϩ 100
▁ⲉⲡⲣⲟ 100
▁ⲉⲡⲱⲧ 100
▁ⲉⲣⲱⲥ 100
▁ⲉⲧϫⲟ 100
▁ⲉⲩⲧⲙ 100
▁ⲕⲁⲁⲩ 100
▁ⲙⲙⲁⲛ 100
▁ⲙⲟⲕϩ 100
▁ⲙⲡϥϯ 100
▁ⲛϣⲃⲣ 100
▁ⲛϣⲙⲧ 100
▁ⲛϥⲕⲱ 100
▁ⲛϥⲥⲱ 100
▁ⲛϭⲟⲣ 100
▁ⲛⲁϣⲧ 100
▁ⲛⲁⲁⲥ 100
▁ⲛⲁⲧⲁ 100
▁ⲛⲃⲏⲑ 100
▁ⲛⲅϩⲉ 100
▁ⲛⲉϥϯ 100
▁ⲛⲉϩⲙ 100
▁ⲛⲕⲱϩ 100
▁ⲛⲛⲁⲣ 100
▁ⲛⲥⲓⲛ 100
▁ⲛⲧⲕⲓ 100
▁ⲡⲏⲣⲡ 100
▁ⲡⲟⲥⲟ 100
▁ⲡⲧⲟϣ 100
▁ⲡⲧⲱϣ 100
▁ⲣⲉⲕⲧ 100
▁ⲥⲃⲟⲕ 100
▁ⲥⲃⲧⲉ 100
▁ⲥⲟϣϥ 100
▁ⲧⲏⲡⲉ 100
ⲁⲡⲁⲧⲁ 100
ⲓⲥⲧⲏⲥ 100
ⲕⲁⲣⲧⲉ 100
ⲕⲉⲗⲁⲕ 100
ⲗⲁϩⲁⲙ 100
ⲗⲓⲛⲟⲥ 100
ⲗⲥⲱⲗϥ 100
ⲛⲁⲥⲉⲓ 100
ⲛⲟⲩⲟⲛ 100
ⲟⲕⲙⲉⲕ 100
ⲟⲛⲓⲁⲥ 100
ⲟⲣⲛⲏⲗ 100
ⲟⲩⲱⲧϩ 100
ⲡⲁⲣⲛⲁ 100
ⲣⲁϩⲧⲕ 100
ⲣⲁⲓⲧⲱ 100
ⲣⲁⲕⲧⲕ 100
ⲥⲁⲙⲏⲥ 100
ⲥⲙⲛⲧⲥ 100
ⲧⲟϣⲟⲩ 100
ⲧⲟⲟⲃⲉ 100
ⲧⲟⲩⲏⲧ 100
ⲫⲁⲉⲓⲛ 100
ϩⲟⲓⲙⲓⲁ 100
ϩⲟⲧⲃⲟⲩ 100
ϭⲗⲟⲟⲧⲉ 100
ϭⲟⲟⲗⲉϥ 100
▁ϩⲁⲧⲏϥ 100
▁ϩⲁⲧⲡⲉ 100
▁ϩⲓⲛⲉⲩ 100
▁ϩⲓⲣⲉⲛ 100
▁ϩⲙⲡϩⲟ 100
▁ϩⲙⲡⲉⲧ 100
▁ϩⲙⲡⲥⲁ 100
▁ϫⲉϩⲙⲡ 100
▁ϫⲉⲁⲛⲉ 100
▁ϫⲉⲁⲣⲁ 100
▁ϫⲉⲁⲧⲁ 100
▁ϫⲉⲁⲩⲣ 100
▁ϫⲉⲉⲥⲉ 100
▁ϫⲉⲙⲏⲡ 100
▁ϫⲉⲟⲩⲕ 100
▁ϫⲟⲩⲱⲧ 100
▁ⲁϥϯⲡⲓ 100
▁ⲁϥⲱⲛϩ 100
▁ⲁⲥϯⲡⲉ 100
▁ⲉϥⲉⲉⲓ 100
▁ⲉϩⲉⲛⲉ 100
▁ⲉϭⲱϣⲧ 100
▁ⲉⲃⲁⲓⲑ 100
▁ⲉⲕⲉⲕⲱ 100
▁ⲉⲛⲛⲉϥ 100
▁ⲉⲡϣⲏⲓ 100
▁ⲉⲡⲁⲏⲓ 100
▁ⲉⲡⲉⲓⲁ 100
▁ⲉⲥⲟⲣϫ 100
▁ⲉⲧⲁⲩⲉ 100
▁ⲉⲧⲓⲛⲁ 100
▁ⲉⲧⲙⲏⲣ 100
▁ⲉⲧⲛⲛⲁ 100
▁ⲉⲩϩⲏⲡ 100
▁ⲉⲩϩⲱⲃ 100
▁ⲉⲩⲕⲏⲃ 100
▁ⲉⲩⲟⲛϩ 100
▁ⲕⲛⲁϫⲓ 100
▁ⲕⲟⲧⲟⲩ 100
▁ⲗⲩⲡⲉⲓ 100
▁ⲙⲁⲁϫⲉ 100
▁ⲙⲁⲛⲱⲉ 100
▁ⲙⲁⲣⲟⲛ 100
▁ⲙⲛⲙⲏⲧ 100
▁ⲙⲛⲡⲕⲉ 100
▁ⲙⲡϣⲏⲛ 100
▁ⲙⲡϯⲟⲩ 100
▁ⲙⲡⲉⲓⲁ 100
▁ⲙⲡⲓϩⲉ 100
▁ⲙⲡⲣⲙⲛ 100
▁ⲛϣⲗⲟϥ 100
▁ⲛϥⲡⲱⲧ 100
▁ⲛϩⲉⲛⲧ 100
▁ⲛϭⲁⲗⲉ 100
▁ⲛϭⲓⲧⲡ 100
▁ⲛⲁϩⲱⲛ 100
▁ⲛⲁⲁⲁϥ 100
▁ⲛⲁⲁⲕⲉ 100
▁ⲛⲁⲕⲓⲙ 100
▁ⲛⲁⲥⲁⲫ 100
▁ⲛⲉⲇⲱⲙ 100
▁ⲛⲉⲧϩⲙ 100
▁ⲛⲉⲧⲕⲱ 100
▁ⲛⲉⲩⲕⲉ 100
▁ⲛⲉⲫⲑⲁ 100
▁ⲛⲕⲟⲩⲓ 100
▁ⲛⲛⲁϣⲧ 100
▁ⲛⲛⲟⲩⲉ 100
▁ⲛⲟϫⲟⲩ 100
▁ⲛⲟⲩⲕⲱ 100
▁ⲛⲟⲩⲛⲉ 100
▁ⲛⲟⲩⲱⲙ 100
▁ⲛⲣⲓⲙⲉ 100
▁ⲛⲧⲉⲧⲉ 100
▁ⲛⲧⲛⲟϭ 100
▁ⲟⲩϩⲁⲧ 100
▁ⲟⲩⲃⲏϥ 100
▁ⲟⲩⲛⲡⲉ 100
▁ⲟⲩⲣⲁⲛ 100
▁ⲟⲩⲱⲛⲉ 100
▁ⲡϩⲏⲕⲉ 100
▁ⲡⲉϥϩⲟ 100
▁ⲡⲉⲧⲉⲧ 100
▁ⲡⲉⲧⲣⲁ 100
▁ⲡⲕⲱϩⲧ 100
▁ⲡⲥⲟⲃⲧ 100
▁ⲣⲁⲧⲟⲩ 100
▁ⲣⲣⲱⲟⲩ 100
▁ⲧⲙⲁⲁⲩ 100
▁ⲧⲛⲧⲱⲛ 100
▁ⲧⲟⲟⲧⲉ 100
▁ⲧⲟⲟⲧⲥ 100
▁ⲧⲥⲁⲣⲝ 100
▁ⲭⲁⲗⲉⲃ 100
ⲁⲓϣⲓⲛⲉ 100
ⲃⲗⲃⲓⲗⲉ 100
ⲇⲟⲕⲓⲙⲏ 100
ⲇⲣⲓⲧⲏⲥ 100
ⲑⲁⲣⲓⲍⲉ 100
ⲕⲁϩⲧⲏⲓ 100
ⲙⲉⲗⲉⲧⲏ 100
ⲙⲓⲭⲁⲏⲗ 100
ⲛⲁϩⲙⲉⲕ 100
ⲛⲁϩⲙⲉⲛ 100
ⲟⲩⲥⲟⲟⲩ 100
ⲡⲉϥⲣⲁⲛ 100
ⲡⲟⲇⲓⲟⲛ 100
ⲣϫⲟⲉⲓⲥ 100
ⲣⲟⲩⲃⲓⲛ 100
ⲣⲟⲩⲟϭⲉ 100
ⲥⲁⲗⲟⲛⲓ 100
ⲥⲃⲧⲱⲧϥ 100
ⲧⲁⲗⲟⲟⲩ 100
ⲧⲁⲙⲓⲟⲥ 100
ⲧⲁⲛϩⲉⲧ 100
ⲧⲉϥⲁⲡⲉ 100
ⲧⲉⲧⲛⲛⲁ 100
ⲧⲉⲯⲩⲭⲏ 100
ϩⲁⲗⲁⲁⲧⲉ 100
ϩⲓⲧⲟⲩⲱⲓ 100
▁ϣⲁⲛⲧⲉⲧ 100
▁ϣⲟⲩϣⲟⲩ 100
▁ϥⲟⲩⲁⲁⲃ 100
▁ϩⲁϩⲧⲏⲕ 100
▁ϩⲁϩⲧⲏⲩ 100
▁ϩⲁⲣⲱⲟⲩ 100
▁ϩⲙⲡϣⲏⲛ 100
▁ϩⲛⲥⲏⲗⲱ 100
▁ϫⲉϭⲱϣⲧ 100
▁ϫⲉⲉⲉⲓⲉ 100
▁ϫⲉⲉⲩⲛⲁ 100
▁ⲁϥϩⲱⲃⲥ 100
▁ⲁϥϫⲓⲧⲥ 100
▁ⲁϥⲕⲁⲁⲧ 100
▁ⲁϥⲣⲁϣⲉ 100
▁ⲁϥⲧⲁϩⲥ 100
▁ⲁⲃⲓⲕⲓⲁ 100
▁ⲁⲓⲕⲧⲟⲓ 100
▁ⲁⲓⲱⲥⲏⲫ 100
▁ⲁⲛⲥϭⲏⲣ 100
▁ⲁⲥϫⲟⲟⲩ 100
▁ⲁⲩϣⲙϣⲉ 100
▁ⲁⲩϣⲧⲁⲙ 100
▁ⲁⲩⲣⲱϩⲧ 100
▁ⲁⲩⲧⲁϩⲟ 100
▁ⲁⲩⲧⲁⲗⲟ 100
▁ⲁⲫⲁⲣⲁⲱ 100
▁ⲇⲁⲛⲓⲏⲗ 100
▁ⲉϥϫⲟⲟⲣ 100
▁ⲉϥⲉⲃⲱⲕ 100
▁ⲉϥⲟⲩⲟϫ 100
▁ⲉϥⲣⲁϣⲉ 100
▁ⲉϥⲥⲙⲟⲩ 100
▁ⲉⲛⲉⲩⲙⲁ 100
▁ⲉⲟⲩⲱⲛϩ 100
▁ⲉⲡⲉⲛⲧⲁ 100
▁ⲉⲡⲛⲟⲩⲃ 100
▁ⲉⲧϩⲁⲧⲛ 100
▁ⲉⲧⲁⲥⲙⲏ 100
▁ⲉⲧⲉϣϣⲉ 100
▁ⲉⲧⲙⲛⲁⲩ 100
▁ⲉⲧⲛⲏⲟⲩ 100
▁ⲉⲧⲟⲣⲅⲏ 100
▁ⲉⲩϫⲟⲟⲣ 100
▁ⲉⲩϯⲥⲃⲱ 100
▁ⲉⲩⲉⲛⲁⲩ 100
▁ⲉⲩⲉⲟⲟⲩ 100
▁ⲉⲩⲛⲧⲁϥ 100
▁ⲉⲩⲥϩⲁⲓ 100
▁ⲉⲫⲣⲁⲓⲙ 100
▁ⲙⲁⲩⲁⲁⲥ 100
▁ⲙⲉⲗⲭⲱⲗ 100
▁ⲙⲉⲣⲕⲟⲩ 100
▁ⲙⲙⲁⲣⲓⲁ 100
▁ⲙⲙⲛϭⲟⲙ 100
▁ⲙⲛϩⲉⲛⲉ 100
▁ⲙⲛⲡⲟⲟϩ 100
▁ⲙⲡⲉⲕⲃⲁ 100
▁ⲙⲡⲉⲛⲧⲁ 100
▁ⲙⲡⲉⲧⲉⲛ 100
▁ⲙⲡⲟⲩϫⲓ 100
▁ⲙⲡⲣⲕⲱϩ 100
▁ⲙⲡⲥⲁⲃⲉ 100
▁ⲙⲡⲥⲃⲃⲉ 100
▁ⲙⲡⲥⲟⲃⲧ 100
▁ⲛϥϫⲓⲧⲥ 100
▁ⲛϥⲟⲩⲱⲙ 100
▁ⲛϩⲏⲗⲉⲓ 100
▁ⲛϫⲱⲱⲙⲉ 100
▁ⲛϭⲓⲡⲉⲓ 100
▁ⲛϭⲓⲧⲉⲕ 100
▁ⲛϯⲙⲡϣⲁ 100
▁ⲛⲁⲟⲩⲉⲙ 100
▁ⲛⲁⲧⲁⲁⲩ 100
▁ⲛⲉϥϭⲓϫ 100
▁ⲛⲛⲉⲣⲏⲧ 100
▁ⲛⲛⲉⲩϫⲓ 100
▁ⲛⲛⲥⲁⲃⲉ 100
▁ⲛⲟⲉⲙⲓⲛ 100
▁ⲛⲟⲩϩⲟϥ 100
▁ⲛⲟⲩⲛⲉϩ 100
▁ⲛⲟⲩⲛⲟϥ 100
▁ⲛⲟⲩⲣⲁⲛ 100
▁ⲛⲟⲩⲥⲟⲛ 100
▁ⲛⲥⲁⲛⲉⲩ 100
▁ⲛⲥⲏⲉⲓⲣ 100
▁ⲛⲧⲁⲩϩⲉ 100
▁ⲛⲧⲉϥϩⲉ 100
▁ⲛⲧⲉⲣⲓⲥ 100
▁ⲛⲧⲡⲁϣⲉ 100
▁ⲟⲩⲛⲟⲃⲉ 100
▁ⲟⲩⲛⲡⲉⲧ 100
▁ⲡⲉⲕϩⲏⲧ 100
▁ⲡⲉⲧⲛⲁⲩ 100
▁ⲥⲁⲩⲗⲟⲥ 100
▁ⲥⲉⲛⲁⲕⲁ 100
▁ⲧⲁϫⲟⲟⲥ 100
▁ⲧⲁϫⲣⲏⲩ 100
▁ⲧⲉϥϭⲓϫ 100
▁ⲧⲉⲛⲧⲁⲩ 100
▁ⲧⲙⲉⲣⲓⲥ 100
▁ⲧⲥⲁϣϥⲉ 100
ⲁⲓⲥⲑⲁⲛⲉ 100
ⲃⲉⲇⲁⲓⲟⲥ 100
ⲅⲉⲛⲛⲏⲙⲁ 100
ⲇⲣⲁⲁⲍⲁⲣ 100
ⲕⲁⲑⲉⲇⲣⲁ 100
ⲗⲁⲍⲁⲣⲟⲥ 100
ⲙⲉⲥⲥⲁⲉⲓ 100
ⲙⲛⲧⲥⲁⲃⲉ 100
ⲙⲡϫⲟⲉⲓⲥ 100
ⲛⲉϭⲛⲟⲩϭ 100
ⲛⲟⲩⲉⲃⲟⲗ 100
ⲡⲁⲥⲉⲃⲏⲥ 100
ⲡⲉⲕϣⲃⲏⲣ 100
ⲡⲟⲥⲕⲉⲩⲏ 100
ⲡⲟⲩⲇⲁⲍⲉ 100
ⲥⲟⲩⲱⲛⲟⲩ 100
ⲥⲧⲁⲩⲣⲟⲩ 100
ⲩⲧⲛⲛⲟⲟⲩ 100
ϣⲣⲡⲙⲙⲓⲥⲉ 100
▁ϣⲁⲛⲧϥⲉⲓ 100
▁ϣⲁⲧⲉⲛⲟⲩ 100
▁ϣⲁⲫⲁⲣⲁⲱ 100
▁ϥⲛⲁⲉⲓⲣⲉ 100
▁ϥⲛⲁⲧⲁⲕⲟ 100
▁ϩⲉⲛϣⲏⲣⲉ 100
▁ϩⲓⲡⲉⲥⲏⲧ 100
▁ϩⲓⲧⲟⲩⲱϥ 100
▁ϩⲓⲧⲟⲩⲱⲛ 100
▁ϩⲙⲡϣⲟⲣⲡ 100
▁ϩⲙⲡⲛⲟⲃⲉ 100
▁ϩⲛϩⲉⲛⲕⲉ 100
▁ϩⲛⲧⲉⲥⲃⲱ 100
▁ϫⲉϩⲁⲣⲉϩ 100
▁ϫⲉⲕⲁⲗⲱⲥ 100
▁ϫⲉⲛⲥⲉⲛⲁ 100
▁ϫⲓⲛⲙⲙⲟⲛ 100
▁ϯⲛⲁϫⲟⲟⲥ 100
▁ϯⲛⲁⲥⲱⲧⲙ 100
▁ϯⲣⲙⲛⲧⲣⲉ 100
▁ⲁⲡⲁⲩⲗⲟⲥ 100
▁ⲁⲡⲥⲱⲧⲏⲣ 100
▁ⲁⲩϫⲱⲱⲣⲉ 100
▁ⲁⲩⲧⲁⲟⲩⲟ 100
▁ⲉϥⲛⲁⲙⲟⲩ 100
▁ⲉϥⲛⲟⲩϫⲉ 100
▁ⲉϥⲟⲩⲟⲛϩ 100
▁ⲉϥⲣⲟⲟⲩⲧ 100
▁ⲉϩⲟⲩⲉⲟⲩ 100
▁ⲉⲃⲟⲏⲑⲉⲓ 100
▁ⲉⲛϩⲟⲥⲟⲛ 100
▁ⲉⲟⲩⲛⲧⲁⲩ 100
▁ⲉⲡⲉⲓϩⲱⲃ 100
▁ⲉⲡⲥⲟⲟⲩⲛ 100
▁ⲉⲣϩⲙϩⲁⲗ 100
▁ⲉⲧⲁⲅⲁⲡⲏ 100
▁ⲉⲧⲁⲯⲩⲭⲏ 100
▁ⲉⲧⲃⲉϩⲱⲃ 100
▁ⲉⲧⲃⲉⲧⲉⲩ 100
▁ⲉⲧⲃⲏⲏⲧⲉ 100
▁ⲉⲧⲃⲏⲏⲧⲛ 100
▁ⲉⲧⲙⲧⲣⲉϥ 100
▁ⲉⲩⲁⲥⲱⲟⲩ 100
▁ⲉⲩⲉⲟⲩⲱⲙ 100
▁ⲉⲩⲛⲟⲩϫⲉ 100
▁ⲉⲩⲟⲩⲛⲟϥ 100
▁ⲕⲁⲧⲁⲙⲙⲁ 100
▁ⲕⲁⲧⲁⲛⲏⲓ 100
▁ⲙⲁⲛⲁⲥⲥⲏ 100
▁ⲙⲙⲛϣϭⲟⲙ 100
▁ⲙⲛⲓⲟⲩⲇⲁ 100
▁ⲙⲛⲟⲩϫⲱⲙ 100
▁ⲙⲡϫⲱⲱⲣⲉ 100
▁ⲙⲡⲉⲥⲙⲟⲩ 100
▁ⲙⲡⲣϫⲓⲥⲉ 100
▁ⲙⲱⲟⲩⲥⲏⲥ 100
▁ⲛϭⲓⲛϭⲱⲣ 100
▁ⲛⲁⲧⲉⲗⲏⲗ 100
▁ⲛⲁⲧⲱⲙⲛⲧ 100
▁ⲛⲉϥⲟⲩⲱϣ 100
▁ⲛⲉϥⲥⲛⲏⲩ 100
▁ⲛⲉⲧϣⲙϣⲉ 100
▁ⲛⲉⲧⲉϥϫⲱ 100
▁ⲛⲓⲱⲥⲓⲁⲥ 100
▁ⲛⲕⲁⲣⲡⲟⲥ 100
▁ⲛⲛϫⲟⲉⲓⲧ 100
▁ⲛⲛⲉϣⲁϫⲉ 100
▁ⲛⲛⲉⲩϩⲏⲧ 100
▁ⲛⲛⲓⲛⲉⲩⲏ 100
▁ⲛⲟⲩⲉⲃⲟⲗ 100
▁ⲛⲟⲩⲉⲓⲱⲧ 100
▁ⲛⲟⲩⲕⲗⲟⲙ 100
▁ⲛⲟⲩⲣⲓⲁⲥ 100
▁ⲛⲟⲩⲭⲓⲱⲛ 100
▁ⲛⲥⲁⲛⲉⲧⲛ 100
▁ⲛⲥⲁⲟⲩⲥⲁ 100
▁ⲛⲥⲉⲛⲟϫϥ 100
▁ⲛⲥⲟⲩⲟⲩⲁ 100
▁ⲛⲧⲁϥⲛⲁⲩ 100
▁ⲛⲧⲁⲅⲁⲡⲏ 100
▁ⲛⲧⲁⲓⲁⲁϥ 100
▁ⲛⲧⲁⲕⲁⲁϥ 100
▁ⲛⲧⲁⲕⲁⲁⲩ 100
▁ⲛⲧⲁⲩⲁⲁⲩ 100
▁ⲛⲧⲉϥⲥⲙⲏ 100
▁ⲛⲧⲉⲧⲛⲕⲱ 100
▁ⲛⲧⲉⲭⲱⲣⲁ 100
▁ⲛⲧⲙⲉⲣⲓⲥ 100
▁ⲛⲧⲛⲥⲱⲧⲙ 100
▁ⲛⲧⲟⲩⲉⲓⲏ 100
▁ⲛⲭⲉⲃⲣⲱⲛ 100
▁ⲟⲩϣⲉⲉⲣⲉ 100
▁ⲟⲩϭⲉⲣⲱⲃ 100
▁ⲟⲩⲡⲟⲗⲓⲥ 100
▁ⲟⲩⲣⲙⲙⲁⲟ 100
▁ⲡⲁⲧⲁⲥⲥⲉ 100
▁ⲡⲉⲓⲗⲁⲟⲥ 100
▁ⲡⲉⲕϣⲏⲣⲉ 100
▁ⲡⲉⲛⲧⲁϥⲣ 100
▁ⲡⲉⲧⲛⲁϫⲓ 100
▁ⲥⲉⲛⲁⲛⲁⲩ 100
ⲉⲡⲓⲑⲩⲙⲉⲓ 100
ⲕⲁⲣⲧⲉⲣⲉⲓ 100
ⲙⲉϩϣⲟⲙⲛⲧ 100
ⲛⲉⲛⲉⲓⲟⲧⲉ 100
ⲡⲉⲩⲙⲉⲉⲩⲉ 100
ⲣⲙⲛⲛⲟⲩⲧⲉ 100
ⲧⲁⲛϩⲟⲩⲧⲕ 100
▁ϣⲁⲛⲧⲉϥⲉⲓ 100
▁ϣⲁⲡⲁⲉⲓⲱⲧ 100
▁ϩⲙⲡⲉⲙϩⲓⲧ 100
▁ϩⲛⲅⲁⲗⲁⲁⲇ 100
▁ϩⲛⲛⲉⲩⲃⲁⲗ 100
▁ϩⲛⲟⲩⲕⲣⲟϥ 100
▁ϩⲛⲟⲩⲥⲱⲧⲙ 100
▁ϫⲉⲁⲕⲥⲱⲧⲙ 100
▁ϫⲉⲙⲛϣϭⲟⲙ 100
▁ϫⲉⲛⲁⲛⲟⲩⲥ 100
▁ϫⲉⲥⲟⲟⲩⲧⲛ 100
▁ϯⲛⲁⲧⲱⲟⲩⲛ 100
▁ϯⲛⲁⲧⲱⲱⲃⲉ 100
▁ⲁⲛϩⲉⲑⲛⲟⲥ 100
▁ⲉϩⲉⲛϣⲏⲣⲉ 100
▁ⲉⲙⲁⲥⲥⲏⲫⲁ 100
▁ⲉⲛⲧⲁϥⲁⲁϥ 100
▁ⲉⲛⲧⲁϥⲁⲁⲩ 100
▁ⲉⲥⲧⲁϫⲣⲏⲩ 100
▁ⲉⲧⲉⲧⲛⲛⲁⲩ 100
▁ⲉⲧⲣⲉⲡⲟⲩⲁ 100
▁ⲉⲧⲣⲉⲧⲉⲧⲛ 100
▁ⲉⲧⲧⲁϫⲣⲏⲩ 100
▁ⲉⲩⲥⲟⲩⲧⲱⲛ 100
▁ⲕⲁⲧⲁⲧⲏⲡⲉ 100
▁ⲙⲛⲙⲡⲟⲗⲓⲥ 100
▁ⲙⲛⲡⲉⲥⲛⲟϥ 100
▁ⲙⲡⲉϥⲥⲱⲧⲙ 100
▁ⲙⲡⲉⲩⲉⲓⲱⲧ 100
▁ⲙⲡⲉⲩⲟⲩⲟⲓ 100
▁ⲙⲡⲟⲗⲉⲙⲟⲥ 100
▁ⲛϩⲉⲛϩⲟⲟⲩ 100
▁ⲛϭⲓⲡⲇⲟⲩⲝ 100
▁ⲛϭⲓⲡⲙⲟⲟⲩ 100
▁ⲛⲉⲍⲉⲕⲓⲁⲥ 100
▁ⲛⲉⲓⲇⲱⲗⲟⲛ 100
▁ⲛⲉⲕϩⲃⲏⲩⲉ 100
▁ⲛⲉⲗⲉⲁⲍⲁⲣ 100
▁ⲛⲉⲧⲛϣⲏⲣⲉ 100
▁ⲛⲛⲁϩⲣⲙⲡⲉ 100
▁ⲛⲛⲉϩⲙϩⲁⲗ 100
▁ⲛⲛⲕⲁⲣⲡⲟⲥ 100
▁ⲛⲟⲩϩⲁⲗⲏⲧ 100
▁ⲛⲟⲩⲁⲣⲭⲱⲛ 100
▁ⲛⲣⲉϥϯⲥⲃⲱ 100
▁ⲛⲥⲉⲙⲟⲟϣⲉ 100
▁ⲛⲥⲉⲟⲩⲱⲗⲥ 100
▁ⲛⲥⲉⲧⲱⲟⲩⲛ 100
▁ⲛⲥⲫⲣⲁⲅⲓⲥ 100
▁ⲛⲧⲁⲧⲁⲙⲟⲕ 100
▁ⲛⲧⲉⲕⲙⲁⲁⲩ 100
▁ⲟⲩⲁⲅⲁⲑⲟⲥ 100
▁ⲡϩⲓⲉⲣⲉⲩⲥ 100
▁ⲡⲁⲡⲛⲟⲩⲧⲉ 100
▁ⲡⲉⲛⲧⲁϥϩⲉ 100
▁ⲡⲉⲧⲉⲛϥⲛⲁ 100
▁ⲡⲕⲉⲥⲉⲉⲡⲉ 100
▁ⲥⲉⲛⲁϣⲓⲛⲉ 100
▁ⲧⲉϥϣⲉⲉⲣⲉ 100
▁ⲫⲓⲗⲓⲡⲡⲟⲥ 100
ⲅⲁⲗⲓⲗⲁⲓⲟⲥ 100
ⲉⲩⲥⲧⲁⲑⲓⲟⲥ 100
ϫⲓⲃⲁⲡⲧⲓⲥⲙⲁ 100
▁ϩⲓϫⲛⲛⲧⲟⲟⲩ 100
▁ϩⲓⲛⲉⲩⲉⲣⲏⲩ 100
▁ϩⲙⲡⲉϥⲥⲱⲙⲁ 100
▁ϩⲙⲡⲉⲓⲥⲙⲟⲧ 100
▁ϩⲛⲛⲉϥϩⲟⲟⲩ 100
▁ϩⲛⲟⲩϩⲣⲟⲟⲩ 100
▁ϩⲛⲟⲩⲁⲅⲁⲡⲏ 100
▁ϫⲉⲡⲁⲙⲉⲣⲓⲧ 100
▁ϫⲓⲛⲛⲧⲉⲛⲟⲩ 100
▁ⲁϥⲉⲡⲓⲧⲓⲙⲁ 100
▁ⲁⲓⲣⲡⲙⲉⲉⲩⲉ 100
▁ⲁⲧⲉⲧⲛⲉⲓⲙⲉ 100
▁ⲁⲩⲧⲱⲟⲩⲛⲟⲩ 100
▁ⲉϥⲥⲙⲁⲙⲁⲁⲧ 100
▁ⲉⲇⲁⲙⲁⲥⲕⲟⲥ 100
▁ⲉⲛⲁⲉⲛⲧⲟⲗⲏ 100
▁ⲉⲛⲥⲉⲥⲟⲟⲩⲛ 100
▁ⲉⲛⲧⲁⲓϫⲟⲟⲩ 100
▁ⲉⲛⲧⲁⲩⲧⲁⲁⲥ 100
▁ⲉⲣⲉⲛⲉϥⲃⲁⲗ 100
▁ⲉⲧϩⲛⲧⲥⲱϣⲉ 100
▁ⲉⲧⲁϣⲉⲟⲉⲓϣ 100
▁ⲉⲧⲃⲉⲡⲁϣⲁⲓ 100
▁ⲉⲧⲃⲉⲡⲁⲣⲁⲛ 100
▁ⲉⲧⲃⲉⲧϩⲟⲧⲉ 100
▁ⲉⲧⲣⲉⲕϣⲱⲡⲉ 100
▁ⲕⲁⲧⲁⲡⲁϣⲁⲓ 100
▁ⲙⲛⲛⲉⲧϣⲟⲟⲡ 100
▁ⲙⲛⲡⲁⲙⲁⲗⲏⲕ 100
▁ⲙⲡⲕⲉⲥⲉⲉⲡⲉ 100
▁ⲛϭⲓⲡⲉϩⲟⲟⲩ 100
▁ⲛⲉⲛϩⲉⲑⲛⲟⲥ 100
▁ⲛⲛⲉϥⲥⲕⲏⲩⲉ 100
▁ⲛⲛⲉⲡⲛⲉⲩⲙⲁ 100
▁ⲛⲛⲉⲧⲑⲗⲓⲃⲉ 100
▁ⲛⲛⲉⲧⲣϩⲟⲧⲉ 100
▁ⲛⲟⲩⲁⲛⲟⲙⲓⲁ 100
▁ⲛⲧⲉⲣⲟⲩⲃⲱⲕ 100
▁ⲛⲧⲉⲧⲛⲟⲩⲱϩ 100
▁ⲛⲧⲙⲛⲧⲥⲁⲃⲉ 100
▁ⲡⲁⲣⲁⲕⲁⲗⲉⲓ 100
▁ⲡⲉⲛⲧⲁϥⲛⲧⲕ 100
▁ⲡⲉⲧⲛⲛⲁⲁⲁϥ 100
▁ⲧⲉⲧⲛⲁⲉⲓⲙⲉ 100
ⲅⲉⲣⲅⲉⲥⲁⲓⲟⲥ 100
ⲛⲟⲩⲉⲉⲓⲉⲛⲓⲛ 100
ⲡⲣⲟⲥⲩⲗⲏⲧⲟⲥ 100
ϩⲓⲗⲁⲥⲧⲏⲣⲓⲟⲛ 100
▁ϣⲁⲣⲉⲡⲁⲧϩⲏⲧ 100
▁ϩⲁⲧϭⲓⲃⲱⲧⲟⲥ 100
▁ϩⲓⲛⲉϩⲓⲟⲟⲩⲉ 100
▁ϩⲛⲟⲩϩⲉⲗⲡⲓⲥ 100
▁ϩⲛⲧϩⲁⲗⲁⲥⲥⲁ 100
▁ϩⲛⲧⲉⲩⲧⲁⲡⲣⲟ 100
▁ⲁⲥϯⲡⲉⲥⲟⲩⲟⲓ 100
▁ⲉⲛⲉϥⲉⲛⲧⲟⲗⲏ 100
▁ⲉⲧϥⲛⲁⲥⲟⲧⲡϥ 100
▁ⲉⲧⲁⲛⲧⲓⲟⲭⲓⲁ 100
▁ⲉⲧⲃⲉⲡⲉⲕⲣⲁⲛ 100
▁ⲉⲧⲉⲕⲕⲗⲏⲥⲓⲁ 100
▁ⲉⲧⲉⲧⲛⲉⲟⲩⲱⲙ 100
▁ⲉⲧⲉⲧⲛⲟⲩⲁⲁⲃ 100
▁ⲉⲧⲣⲉⲧⲛⲉⲓⲣⲉ 100
▁ⲙⲉⲣⲕⲟⲩⲣⲓⲟⲥ 100
▁ⲙⲛⲃⲁⲣⲛⲁⲃⲁⲥ 100
▁ⲙⲛⲛⲉⲧⲟⲩⲁⲁⲃ 100
▁ⲙⲛⲛⲉⲧⲧⲛⲧⲱⲛ 100
▁ⲛⲉⲛⲧⲁⲩϣⲱⲡⲉ 100
▁ⲛⲛⲉⲓϩⲉⲑⲛⲟⲥ 100
▁ⲛⲟⲩⲡⲉⲧϩⲟⲟⲩ 100
▁ⲛⲥⲁⲡⲉϥⲉⲓⲱⲧ 100
▁ⲛⲧⲉⲣⲉϥϫⲟⲟⲩ 100
▁ⲛⲧⲉⲧⲛϩⲁⲣⲉϩ 100
▁ⲛⲧⲉⲧⲛⲙⲟⲟϣⲉ 100
▁ⲟⲩⲡⲣⲟⲫⲏⲧⲏⲥ 100
▁ⲡⲁⲙⲟⲣⲣⲁⲓⲟⲥ 100
▁ⲡⲉϫⲉⲡⲛⲟⲩⲧⲉ 100
▁ⲡⲉϫⲉⲥⲁⲙⲯⲱⲛ 100
▁ⲡⲉⲧⲉⲟⲩⲛϭⲟⲙ 100
▁ⲡⲉⲭⲉⲇⲇⲁⲓⲟⲥ 100
▁ⲉⲧⲉⲣⲉⲡⲛⲟⲩⲧⲉ 100
▁ⲉⲧⲙⲁⲕⲉⲇⲟⲛⲓⲁ 100
▁ⲙⲡⲙⲛⲧⲥⲛⲟⲟⲩⲥ 100
▁ⲙⲡⲟⲩⲉϣϭⲙϭⲟⲙ 100
▁ⲛⲉⲩⲁϩⲉⲣⲁⲧⲟⲩ 100
▁ⲛⲛⲉⲕⲟⲩⲉⲣⲏⲧⲉ 100
▁ⲛⲟⲩⲡⲁⲣⲁⲃⲟⲗⲏ 100
▁ⲛⲣⲉϥϫⲓⲛϭⲟⲛⲥ 100
▁ⲛⲧⲉⲧⲛⲡⲓⲥⲧⲓⲥ 100
▁ⲛⲧⲙⲛⲧⲣⲙⲛϩⲏⲧ 100
▁ⲡⲉⲭⲁⲛⲁⲛⲁⲓⲟⲥ 100
▁ϩⲓϫⲛⲧϩⲁⲗⲁⲥⲥⲁ 100
▁ϫⲓⲛⲧⲁⲙⲛⲧⲕⲟⲩⲓ 100
▁ⲉⲛⲉⲕⲇⲓⲕⲁⲓⲱⲙⲁ 100
▁ⲉⲡⲉⲩⲁⲅⲅⲉⲗⲓⲟⲛ 100
▁ⲛⲛⲉⲧⲁϩⲉⲣⲁⲧⲟⲩ 100
▁ⲛⲧⲉⲧⲛⲡⲓⲥⲧⲉⲩⲉ 100
▁ⲡⲉϫⲉⲓⲉⲣⲉⲙⲓⲁⲥ 100
▁ⲛϩⲉⲛⲡⲉⲧϣⲟⲩⲉⲓⲧ 100
▁ⲛⲥⲉⲕⲗⲏⲣⲟⲛⲟⲙⲉⲓ 100
▁ⲥⲉⲛⲁⲡⲁⲣⲁⲇⲓⲇⲟⲩ 100
▁ⲛⲧⲉⲕⲕⲗⲏⲣⲟⲛⲟⲙⲓⲁ 100
▁ⲉϫⲛⲧϩⲓⲉⲣⲟⲩⲥⲁⲗⲏⲙ 100
ϫⲗ 100
ⲅⲕ 100
ⲏⲃ 100
ⲏⲕ 100
ⲕⲥ 100
ⲗⲧ 100
ⲣϫ 100
ϣⲏⲕ 100
ϩⲃⲱ 100
ϩⲛⲁ 100
ϫⲓϥ 100
▁ϥⲉ 100
▁ϫⲁ 100
▁ⲏⲥ 100
ⲁⲍⲉ 100
ⲃⲏⲓ 100
ⲃⲏⲗ 100
ⲅⲇⲁ 100
ⲇⲟⲗ 100
ⲇⲱⲣ 100
ⲉⲭⲉ 100
ⲑⲉⲙ 100
ⲑⲉⲟ 100
ⲑⲉⲣ 100
ⲑⲑⲓ 100
ⲓⲱⲛ 100
ⲕⲉⲣ 100
ⲗⲩⲥ 100
ⲛϩⲉ 100
ⲛⲁⲑ 100
ⲛⲏϩ 100
ⲝⲁⲛ 100
ⲟⲗⲩ 100
ⲟⲩϣ 100
ⲡⲓⲧ 100
ⲡⲣⲁ 100
ⲥⲃⲟ 100
ⲥⲕⲥ 100
ⲥⲟⲓ 100
ⲧⲏϩ 100
ⲧⲥⲛ 100
ⲧⲱⲥ 100
ⲭⲓⲣ 100
ⲯⲁⲅ 100
ⲯⲓⲧ 100
ⲱⲗⲉ 100
ⲱⲛⲏ 100
ⲱⲛⲥ 100
ϣⲏϭⲉ 100
ϣⲟⲉⲓ 100
ϣⲟⲡⲛ 100
ϣⲟⲥⲙ 100
ϣⲣϣⲣ 100
ϣⲣⲱϣ 100
ϣⲱⲧⲙ 100
ϩⲏⲟⲩ 100
ϩⲓⲗⲁ 100
ϩⲓⲧⲉ 100
ϩⲛⲁⲩ 100
ϩⲣⲉⲛ 100
ϩⲧⲟⲡ 100
ϫⲡⲓⲉ 100
ϫⲱⲟⲩ 100
ϭⲟⲟⲃ 100
▁ϣϥⲉ 100
▁ϣⲱⲗ 100
▁ϩⲛⲙ 100
▁ϩⲣⲱ 100
▁ϫⲡⲉ 100
▁ⲁϫⲙ 100
▁ⲁⲱⲑ 100
▁ⲉⲕϯ 100
▁ⲉⲥⲁ 100
▁ⲏⲡⲉ 100
▁ⲙⲁⲥ 100
▁ⲙⲉⲕ 100
▁ⲛϥⲥ 100
▁ⲛϭⲉ 100
▁ⲛⲉⲣ 100
▁ⲛⲛⲏ 100
▁ⲛⲣⲁ 100
▁ⲛⲧⲏ 100
▁ⲟⲩϭ 100
▁ⲟⲩⲙ 100
▁ⲡⲧⲉ 100
▁ⲣⲱⲓ 100
▁ⲥⲱⲕ 100
▁ⲧⲱⲙ 100
ⲃⲉⲉⲣ 100
ⲃⲱϭⲉ 100
ⲃⲱⲧⲛ 100
ⲅⲓⲟⲛ 100
ⲇⲣⲓⲁ 100
ⲉⲓⲟϥ 100
ⲏⲥⲁⲩ 100
ⲑⲁⲓⲙ 100
ⲑⲁⲛⲁ 100
ⲑⲓⲏⲙ 100
ⲑⲙⲕⲟ 100
ⲓⲟⲩⲣ 100
ⲕⲁⲛⲁ 100
ⲕⲙⲧⲟ 100
ⲕⲛⲧⲉ 100
ⲕⲱⲧϥ 100
ⲗⲁⲙⲓ 100
ⲗⲓⲁⲥ 100
ⲗⲓⲗⲁ 100
ⲙⲉⲉⲓ 100
ⲛⲟϫⲛ 100
ⲛⲟⲩⲣ 100
ⲟϣⲧϥ 100
ⲟⲗⲱⲥ 100
ⲟⲙⲟⲥ 100
ⲟⲣⲕⲣ 100
ⲟⲣⲟⲥ 100
ⲟⲩⲇⲁ 100
ⲡϩⲏⲧ 100
ⲡⲉⲛⲉ 100
ⲡⲉⲣⲓ 100
ⲡⲟⲥⲉ 100
ⲣⲏⲟⲩ 100
ⲣⲥⲟⲥ 100
ⲥⲉⲧⲙ 100
ⲧⲉⲛϥ 100
ⲧⲙⲉϥ 100
ⲧⲛⲧⲱ 100
ⲧⲥⲧⲟ 100
ⲫⲟⲩⲇ 100
ⲭⲙⲁⲥ 100
ⲭⲟⲗⲏ 100
ⲱⲟⲩⲛ 100
ⲱⲣⲓⲁ 100
ϣⲟⲉⲓϫ 100
ϩⲁⲉⲉⲩ 100
ϩⲁⲙⲱⲥ 100
ϩⲣⲏⲧⲛ 100
ϫⲓϯⲡⲉ 100
ϫⲛⲟⲩⲕ 100
ϫⲟⲗϫⲗ 100
ϭⲟⲡⲟⲩ 100
▁ϣⲁⲩⲥ 100
▁ϣⲱⲛⲉ 100
▁ϩⲁⲡⲁ 100
▁ϩⲏⲗⲓ 100
▁ϩⲓϩⲟ 100
▁ϩⲛϩⲛ 100
▁ϩⲛⲁϥ 100
▁ϩⲛⲕⲉ 100
▁ϩⲛⲥⲁ 100
▁ϩⲟⲗϭ 100
▁ϩⲱⲧⲡ 100
▁ϫⲉϩⲱ 100
▁ϫⲉⲁϣ 100
▁ϭⲱⲣϭ 100
▁ⲁϥϭⲙ 100
▁ⲁϥⲧⲉ 100
▁ⲁⲓⲱϣ 100
▁ⲁⲛϩⲉ 100
▁ⲁⲥϭⲱ 100
▁ⲁⲥⲱϣ 100
▁ⲉϥⲥⲁ 100
▁ⲉϩⲟⲧ 100
▁ⲉⲕⲟⲩ 100
▁ⲉⲙⲙⲛ 100
▁ⲉⲙⲛⲧ 100
▁ⲉⲣⲟⲩ 100
▁ⲉⲣⲱⲓ 100
▁ⲉⲥⲕⲏ 100
▁ⲉⲧϣⲉ 100
▁ⲉⲧϥⲓ 100
▁ⲉⲧⲉⲣ 100
▁ⲉⲧⲥⲱ 100
▁ⲉⲧⲱϣ 100
▁ⲉⲩϣⲁ 100
▁ⲕⲁⲁⲥ 100
▁ⲙⲓⲭⲁ 100
▁ⲙⲛⲃⲁ 100
▁ⲙⲛⲓⲁ 100
▁ⲙⲛⲓⲥ 100
▁ⲙⲛⲧϥ 100
▁ⲙⲛⲧⲛ 100
▁ⲙⲟⲩⲛ 100
▁ⲙⲡϫⲓ 100
▁ⲙⲡⲱⲣ 100
▁ⲛϣⲟⲧ 100
▁ⲛϩⲟⲧ 100
▁ⲛϩⲱⲡ 100
▁ⲛϭⲓⲫ 100
▁ⲛⲁϣⲁ 100
▁ⲛⲁⲕⲉ 100
▁ⲛⲅϫⲱ 100
▁ⲛⲉⲁⲩ 100
▁ⲛⲉⲧϯ 100
▁ⲛⲉⲩϯ 100
▁ⲛⲛⲉϣ 100
▁ⲛⲛⲓⲉ 100
▁ⲛⲥⲃⲱ 100
▁ⲛⲧⲃⲧ 100
▁ⲛⲧⲛϩ 100
▁ⲟⲉⲓϣ 100
▁ⲟⲩⲉϩ 100
▁ⲟⲩⲛϯ 100
▁ⲡϣⲏⲛ 100
▁ⲡⲁⲕⲉ 100
▁ⲡⲃⲁⲗ 100
▁ⲡⲥⲁϩ 100
▁ⲡⲱϣⲥ 100
▁ⲣⲱϩⲧ 100
▁ⲥⲁϩⲉ 100
▁ⲧⲁϣⲉ 100
▁ⲧⲁⲉⲓ 100
▁ⲧⲃⲛⲏ 100
▁ⲯⲓⲧⲉ 100
▁ⲯⲩⲭⲏ 100
ⲁϩⲱⲱⲣ 100
ⲁⲃϩⲏⲧ 100
ⲁⲧⲣⲓⲁ 100
ⲃⲁϩⲥⲉ 100
ⲅⲉⲛⲏⲥ 100
ⲇⲁⲗⲓⲥ 100
ⲉⲓⲟⲟⲩ 100
ⲑⲁⲛⲓⲁ 100
ⲑⲩⲙⲓⲁ 100
ⲑⲱⲙⲁⲥ 100
ⲓⲥⲧⲟⲥ 100
ⲕⲁⲁⲧⲉ 100
ⲕⲁⲣⲓⲱ 100
ⲕⲁⲣⲱⲛ 100
ⲕⲁⲥⲕⲥ 100
ⲕⲟⲩⲕⲙ 100
ⲕⲟⲩⲟⲓ 100
ⲙⲁⲛⲟⲥ 100
ⲙⲉⲓⲟⲛ 100
ⲙⲟⲩⲕϩ 100
ⲛϣⲟⲣⲡ 100
ⲛⲉⲃⲟⲗ 100
ⲛⲉⲥⲟⲩ 100
ⲛⲟⲩⲉⲙ 100
ⲟⲣⲙⲉⲥ 100
ⲟⲧⲙⲟⲩ 100
ⲟⲩⲟⲙⲥ 100
ⲟⲩⲱⲧⲃ 100
ⲡⲁϭⲥⲉ 100
ⲡⲁⲛⲧⲁ 100
ⲡⲁⲣⲓⲥ 100
ⲡⲓⲛⲁⲝ 100
ⲡⲟⲣϫϥ 100
ⲣⲉⲱⲙⲁ 100
ⲣⲟⲟⲩⲉ 100
ⲣⲟⲭⲟⲥ 100
ⲣⲣⲱⲙⲉ 100
ⲥⲁⲗⲙⲁ 100
ⲥⲁⲣⲣⲁ 100
ⲥⲏⲇⲱⲑ 100
ⲥⲟⲧⲟⲩ 100
ⲥⲧⲙⲏⲧ 100
ⲧⲉⲓⲙⲉ 100
ⲧⲉⲛⲥⲉ 100
ⲧⲉⲥⲃⲱ 100
ⲧⲕⲟⲩⲓ 100
ⲧⲟⲟⲧⲥ 100
ⲧⲟⲩⲱⲧ 100
ⲧⲩⲡⲟⲥ 100
ⲩⲛⲁⲅⲱ 100
ⲩⲥⲟⲡⲥ 100
ⲯⲁⲅⲏⲥ 100
ϫⲁϩⲙⲟⲩ 100
ϭⲓⲛϭⲱⲣ 100
▁ϣⲁϥⲉⲓ 100
▁ϣⲁⲛⲧⲕ 100
▁ϥⲥⲟⲧⲡ 100
▁ϩⲁϩⲧⲛ 100
▁ϩⲓϫⲱⲕ 100
▁ϩⲓⲉⲓⲃ 100
▁ϩⲓⲏⲣⲡ 100
▁ϩⲓⲛⲉϥ 100
▁ϩⲓⲡⲉⲥ 100
▁ϩⲙⲡⲕⲉ 100
▁ϩⲛⲅⲉⲑ 100
▁ϫⲉⲁϥϯ 100
▁ϫⲉⲁϥⲣ 100
▁ϫⲉⲛⲟⲩ 100
▁ϫⲉⲟⲩⲥ 100
▁ϫⲉⲧⲉⲛ 100
▁ⲁϥϫⲓⲧ 100
▁ⲁϥⲁⲁϥ 100
▁ⲁϥⲁⲣⲭ 100
▁ⲁⲛⲃⲱⲕ 100
▁ⲁⲟⲩⲱⲛ 100
▁ⲁⲡⲣⲣⲟ 100
▁ⲁⲣⲓⲣⲉ 100
▁ⲃⲁⲣⲁⲕ 100
▁ⲃⲁⲣⲛⲏ 100
▁ⲉϥⲟⲃⲉ 100
▁ⲉϩⲣⲁⲩ 100
▁ⲉϫⲛⲓⲱ 100
▁ⲉⲁϥϫⲓ 100
▁ⲉⲁϥⲉⲓ 100
▁ⲉⲉⲓⲛⲁ 100
▁ⲉⲓⲥⲟⲩ 100
▁ⲉⲕⲁⲁⲩ 100
▁ⲉⲕⲛⲁϯ 100
▁ⲉⲕⲱⲧⲉ 100
▁ⲉⲙⲉⲣⲉ 100
▁ⲉⲙⲟⲟⲩ 100
▁ⲉⲡϩⲱⲃ 100
▁ⲉⲡⲛⲟϭ 100
▁ⲉⲣϩⲱⲃ 100
▁ⲉⲧϩⲉⲛ 100
▁ⲉⲧⲁϣⲉ 100
▁ⲉⲧⲁⲗⲉ 100
▁ⲉⲧⲉⲛϥ 100
▁ⲉⲧⲉⲛⲧ 100
▁ⲉⲧⲉⲡⲉ 100
▁ⲉⲧⲟⲟⲧ 100
▁ⲉⲧⲟⲣϫ 100
▁ⲉⲧⲟⲩⲉ 100
▁ⲉⲩϩⲏⲗ 100
▁ⲉⲩϩⲏⲩ 100
▁ⲉⲩⲙⲏⲣ 100
▁ⲉⲩⲛⲁⲙ 100
▁ⲉⲩⲟⲣϫ 100
▁ⲉⲩⲥⲉⲓ 100
▁ⲉⲩⲥⲱϣ 100
▁ⲉⲩⲧⲱⲛ 100
▁ⲓⲟⲩⲇⲁ 100
▁ⲙⲙⲁⲥⲉ 100
▁ⲙⲛⲛⲕⲁ 100
▁ⲙⲛⲡⲛⲁ 100
▁ⲙⲛⲧⲛⲁ 100
▁ⲙⲟⲉⲓⲧ 100
▁ⲙⲡⲉⲧϥ 100
▁ⲙⲡⲩⲗⲏ 100
▁ⲛϥⲱⲛϩ 100
▁ⲛϩⲟⲩⲉ 100
▁ⲛϫⲏϭⲉ 100
▁ⲛϭⲓⲕⲉ 100
▁ⲛϯⲛⲁϯ 100
▁ⲛⲁϩⲧⲉ 100
▁ⲛⲁⲁⲁⲩ 100
▁ⲛⲁⲥⲏⲣ 100
▁ⲛⲉϣⲁϥ 100
▁ⲛⲉⲕⲛⲁ 100
▁ⲛⲉⲧⲉⲛ 100
▁ⲛⲕⲙⲧⲟ 100
▁ⲛⲛⲉⲓⲁ 100
▁ⲛⲛⲉⲕⲣ 100
▁ⲛⲛⲉⲟⲩ 100
▁ⲛⲛⲉⲧⲟ 100
▁ⲛⲛⲧⲟϣ 100
▁ⲛⲟⲩϣⲉ 100
▁ⲛⲥⲓⲃⲧ 100
▁ⲛⲥⲓⲕⲉ 100
▁ⲛⲧⲁϥⲓ 100
▁ⲛⲧⲁⲓⲟ 100
▁ⲛⲧⲃⲛⲏ 100
▁ⲛⲧⲉⲓⲥ 100
▁ⲛⲧⲉⲕⲁ 100
▁ⲛⲧⲛⲧⲙ 100
▁ⲟⲩⲗⲁⲥ 100
▁ⲟⲩⲛⲟϥ 100
▁ⲡϣⲙⲙⲟ 100
▁ⲡϩⲏⲃⲥ 100
▁ⲡϫⲟⲉⲓ 100
▁ⲡⲉϥⲙⲁ 100
▁ⲡⲉⲧⲕⲱ 100
▁ⲡⲓⲉⲣⲟ 100
▁ⲣϣⲟⲣⲡ 100
▁ⲥⲙⲟⲛⲧ 100
▁ⲧⲁⲛⲁⲩ 100
▁ⲧⲉⲕⲙⲉ 100
▁ⲧⲉⲛⲛⲁ 100
▁ⲧⲉⲩϣⲏ 100
▁ⲧⲟⲟⲧⲕ 100
ⲁⲣⲉⲥⲕⲉ 100
ⲁⲣⲭⲓⲙⲁ 100
ⲉⲫⲣⲁⲓⲙ 100
ⲑⲃⲃⲓⲟⲥ 100
ⲕⲁⲓⲣⲟⲥ 100
ⲕⲉⲡⲁⲍⲉ 100
ⲙⲉⲥⲧⲱⲥ 100
ⲛϫⲟⲉⲓⲥ 100
ⲛⲉⲣⲱⲟⲩ 100
ⲛⲟⲉⲙⲓⲛ 100
ⲟⲗⲉⲙⲉⲓ 100
ⲟⲩⲉⲟⲟⲩ 100
ⲟⲩⲥⲟⲩⲛ 100
ⲟⲩⲥⲱⲧⲙ 100
ⲡⲁⲗⲁⲟⲥ 100
ⲡⲁⲩⲗⲟⲥ 100
ⲡⲣⲁⲓⲧⲱ 100
ⲣⲁⲃⲃⲁⲥ 100
ⲣⲁⲡⲉⲍⲁ 100
ⲥⲟⲟⲩϩⲉ 100
ⲧⲁϩⲙⲟⲩ 100
ⲧⲉⲗⲓⲟⲥ 100
ⲩⲣⲓⲁⲕⲏ 100
ⲭⲁⲣⲧⲏⲥ 100
ϩⲓⲧⲟⲟⲧϥ 100
ϫⲁⲓⲃⲉⲕⲉ 100
▁ϥⲛⲁⲃⲱⲕ 100
▁ϩⲓⲧⲛⲛⲁ 100
▁ϩⲓⲱⲱⲧⲉ 100
▁ϩⲙⲡϩⲱⲃ 100
▁ϩⲙⲡⲛⲉϩ 100
▁ϩⲙⲡⲱϩⲥ 100
▁ϩⲛϣⲏⲣⲉ 100
▁ϩⲛⲛⲉⲙⲁ 100
▁ϩⲛⲣⲱⲙⲉ 100
▁ϫⲉⲙⲡⲉϥ 100
▁ϫⲉⲙⲡⲣⲣ 100
▁ϫⲓⲛⲡⲉⲩ 100
▁ϫⲓⲛⲧⲉϥ 100
▁ⲁϥⲕⲱⲧⲉ 100
▁ⲁϥⲟⲩⲱϣ 100
▁ⲁϥⲣϩⲱⲃ 100
▁ⲁϥⲣⲱϩⲧ 100
▁ⲁⲓϣⲓⲛⲉ 100
▁ⲁⲓⲉⲓⲛⲉ 100
▁ⲁⲓⲉⲓⲣⲉ 100
▁ⲁⲓⲙⲉⲣⲉ 100
▁ⲁⲕϣⲁϫⲉ 100
▁ⲁⲛⲁⲃⲁⲗ 100
▁ⲁⲡⲁⲃⲁⲗ 100
▁ⲁⲣⲓⲥⲟⲩ 100
▁ⲁⲩϣⲗⲏⲗ 100
▁ⲁⲩϫⲓⲧⲥ 100
▁ⲁⲩⲡⲱⲣϣ 100
▁ⲉϥϩⲟⲗϭ 100
▁ⲉϩⲉⲛⲙⲁ 100
▁ⲉϫⲛⲛⲉⲛ 100
▁ⲉⲅⲁⲃⲁⲁ 100
▁ⲉⲓⲁⲕⲱⲃ 100
▁ⲉⲓⲉⲓⲣⲉ 100
▁ⲉⲛϣⲟⲟⲡ 100
▁ⲉⲛⲁϭⲓϫ 100
▁ⲉⲛⲧⲁϥϯ 100
▁ⲉⲛⲧⲁⲩⲣ 100
▁ⲉⲟⲩϫⲁⲓ 100
▁ⲉⲟⲩⲟⲙϥ 100
▁ⲉⲡⲉⲥⲙⲁ 100
▁ⲉⲡⲙⲟⲟⲩ 100
▁ⲉⲣϩⲟⲧⲉ 100
▁ⲉⲣⲉⲟⲩⲁ 100
▁ⲉⲣⲉⲡⲁⲓ 100
▁ⲉⲣⲉⲡⲉⲩ 100
▁ⲉⲥⲛⲁϣⲧ 100
▁ⲉⲥⲣⲓⲙⲉ 100
▁ⲉⲥⲱⲟⲩϩ 100
▁ⲉⲧϩⲟⲗϭ 100
▁ⲉⲧϭⲱϣⲧ 100
▁ⲉⲧⲣⲉⲟⲩ 100
▁ⲉⲧⲣⲉⲩⲉ 100
▁ⲉⲩϣⲙϣⲉ 100
▁ⲉⲩϩⲏⲕⲉ 100
▁ⲉⲩⲙⲟⲕϩ 100
▁ⲉⲩⲥⲙⲟⲩ 100
▁ⲙⲛϣⲙⲧⲉ 100
▁ⲙⲛⲛⲥⲱⲕ 100
▁ⲙⲡⲁⲛⲁϣ 100
▁ⲙⲡⲉⲕⲙⲁ 100
▁ⲙⲡⲉⲙⲛⲧ 100
▁ⲙⲡⲉⲣⲡⲉ 100
▁ⲙⲡⲉⲧϫⲓ 100
▁ⲙⲡⲣⲕⲧⲉ 100
▁ⲛϥⲥⲱⲧⲙ 100
▁ⲛϩⲉⲛⲙⲁ 100
▁ⲛϩⲓⲉⲓⲃ 100
▁ⲛϩⲟⲉⲓⲙ 100
▁ⲛϩⲣⲏϣⲉ 100
▁ⲛϩⲣⲟⲟⲩ 100
▁ⲛϭⲓⲛⲟⲩ 100
▁ⲛϭⲟⲣϭⲥ 100
▁ⲛⲁϣⲕⲁⲕ 100
▁ⲛⲁϥⲱⲧⲉ 100
▁ⲛⲁϩⲣⲟⲕ 100
▁ⲛⲁϫⲉⲛⲁ 100
▁ⲛⲁϯⲟⲩⲱ 100
▁ⲛⲁⲙⲧⲟⲛ 100
▁ⲛⲃⲟⲭⲟⲣ 100
▁ⲛⲅⲧⲁⲁⲩ 100
▁ⲛⲇⲱⲣⲟⲛ 100
▁ⲛⲉϣⲏⲣⲉ 100
▁ⲛⲉⲓⲟⲧⲉ 100
▁ⲛⲉⲛⲧⲁⲕ 100
▁ⲛⲗⲟⲓϭⲉ 100
▁ⲛⲛⲃⲗⲗⲉ 100
▁ⲛⲛⲉϥϩⲉ 100
▁ⲛⲛⲟⲃϩⲉ 100
▁ⲛⲛⲟⲩⲱⲧ 100
▁ⲛⲟⲩϣⲁϩ 100
▁ⲛⲟⲩϩⲁⲧ 100
▁ⲛⲟⲩϩⲓⲏ 100
▁ⲛⲟⲩⲁϣⲏ 100
▁ⲛⲟⲩⲕⲃⲁ 100
▁ⲛⲟⲩⲱⲧϩ 100
▁ⲛⲥⲁⲙⲓⲧ 100
▁ⲛⲥⲁⲣⲣⲁ 100
▁ⲛⲧϩⲓⲙⲉ 100
▁ⲛⲧⲉⲛⲉϥ 100
▁ⲛⲧⲉⲛⲉⲧ 100
▁ⲛⲧⲉⲡⲉⲕ 100
▁ⲛⲧⲩⲣⲟⲥ 100
▁ⲟⲩⲁϣⲟⲩ 100
▁ⲟⲩⲟⲉⲓⲕ 100
▁ⲟⲩⲟⲙⲟⲩ 100
▁ⲟⲩⲡⲏⲅⲏ 100
▁ⲡⲉⲕⲃⲁⲗ 100
▁ⲡⲉⲧϣⲱⲡ 100
▁ⲡⲉⲧⲕⲛⲁ 100
▁ⲡⲙⲛⲧⲣⲉ 100
▁ⲡⲥⲉⲉⲡⲉ 100
▁ⲥⲉⲛⲏⲟⲩ 100
▁ⲧⲅⲉⲛⲉⲁ 100
▁ⲧⲟⲩⲛⲉⲥ 100
▁ⲧⲡⲟⲣⲛⲏ 100
ⲁⲃⲉⲛⲛⲏⲣ 100
ⲅⲇⲁⲗⲏⲛⲏ 100
ⲑⲃⲃⲓⲟⲟⲩ 100
ⲕⲟⲓⲛⲱⲛⲓ 100
ⲙⲉⲣⲓⲧⲟⲩ 100
ⲛⲉϥϣⲟⲟⲡ 100
ⲛⲉⲣⲅⲉⲓⲁ 100
ⲟⲩⲟϣϥⲟⲩ 100
ⲡⲉⲧⲙⲙⲁⲩ 100
ⲥⲁⲛⲟⲩϣϥ 100
ⲧⲉⲅⲣⲁⲫⲏ 100
ⲧⲉⲫⲁⲛⲟⲥ 100
ϥⲓⲡⲣⲟⲟⲩϣ 100
ϩⲣⲟⲩⲃⲃⲁⲓ 100
▁ϣⲁⲛⲧⲉⲧⲛ 100
▁ϣⲁⲣⲉϩⲉⲛ 100
▁ϥⲛⲁϫⲓⲥⲉ 100
▁ϩⲉⲛϣⲁϫⲉ 100
▁ϩⲉⲛⲕⲟⲩⲓ 100
▁ϩⲓϩⲃⲟⲩⲣ 100
▁ϩⲙⲡⲉⲟⲟⲩ 100
▁ϩⲛⲛⲧⲟⲟⲩ 100
▁ϩⲛⲧⲟⲣⲅⲏ 100
▁ϫⲉⲁⲓⲛⲁⲩ 100
▁ϫⲉⲛⲟⲩϫⲉ 100
▁ϫⲉⲟⲩⲁϩⲕ 100
▁ϯϣⲡϩⲙⲟⲧ 100
▁ϯⲛⲁⲟⲩⲱⲛ 100
▁ϯⲛⲁⲧⲁⲕⲟ 100
▁ϯⲛⲁⲧⲣⲉⲩ 100
▁ⲁϥⲧⲁϫⲣⲉ 100
▁ⲁϥⲧⲁϫⲣⲟ 100
▁ⲁϩⲉⲣⲁⲧⲕ 100
▁ⲁⲙⲏⲉⲓⲧⲛ 100
▁ⲁⲩϥⲓⲧⲟⲩ 100
▁ⲁⲩⲛⲟⲩϫⲉ 100
▁ⲁⲩⲡⲗⲁⲛⲁ 100
▁ⲁⲩⲥⲟⲩⲱϩ 100
▁ⲉϥⲙⲟⲟⲛⲉ 100
▁ⲉϥⲛⲁⲃⲱⲕ 100
▁ⲉϥⲛⲕⲟⲧⲕ 100
▁ⲉϫⲛⲛⲉⲧⲛ 100
▁ⲉⲓⲇⲱⲗⲟⲛ 100
▁ⲉⲕⲛⲁϩⲧⲉ 100
▁ⲉⲛⲧⲁϥⲉⲓ 100
▁ⲉⲡⲉϥⲥⲟⲛ 100
▁ⲉⲡⲉⲓⲛⲁⲩ 100
▁ⲉⲡⲓⲧⲓⲙⲁ 100
▁ⲉⲣϣⲁⲛⲧⲉ 100
▁ⲉⲧⲃⲉⲧⲉⲕ 100
▁ⲉⲧⲉϥⲥⲙⲏ 100
▁ⲉⲧⲉⲣⲉⲡⲉ 100
▁ⲉⲧⲉⲧⲛⲧⲙ 100
▁ⲉⲧⲙⲥⲱⲧⲙ 100
▁ⲉⲧⲟⲩⲛⲉⲥ 100
▁ⲉⲧⲧⲁⲡⲣⲟ 100
▁ⲉⲩⲑⲩⲥⲓⲁ 100
▁ⲉⲭⲉⲃⲣⲱⲛ 100
▁ⲕⲁⲧⲁⲡⲉⲩ 100
▁ⲙⲁⲣⲉϥⲉⲓ 100
▁ⲙⲁⲣⲉⲛⲉⲕ 100
▁ⲙⲙⲁⲩⲁⲁⲧ 100
▁ⲙⲛⲛⲉⲥⲕⲉ 100
▁ⲙⲛⲛⲉⲧⲛⲁ 100
▁ⲙⲛⲟⲩϩⲁⲡ 100
▁ⲙⲛⲧⲁϥⲧⲉ 100
▁ⲙⲛⲧⲉⲥⲃⲱ 100
▁ⲙⲡϣⲟⲉⲓϣ 100
▁ⲙⲡⲁⲛⲟⲃⲉ 100
▁ⲙⲡⲉϣⲗⲏⲗ 100
▁ⲙⲡⲉⲕⲱⲛϩ 100
▁ⲙⲡⲣⲟⲩⲱϣ 100
▁ⲛⲁⲛⲟⲙⲓⲁ 100
▁ⲛⲁⲟⲩϫⲁⲓ 100
▁ⲛⲁⲧϣⲏⲣⲉ 100
▁ⲛⲁⲧϣⲓⲡⲉ 100
▁ⲛⲁⲧⲥⲃⲃⲉ 100
▁ⲛⲅϭⲙϭⲟⲙ 100
▁ⲛⲉϥϯⲥⲃⲱ 100
▁ⲛⲉϩⲙⲟⲟⲥ 100
▁ⲛⲉⲛⲟⲭⲟⲥ 100
▁ⲛⲉⲛⲧⲟⲗⲏ 100
▁ⲛⲉⲥϣⲟⲟⲡ 100
▁ⲛⲉⲧⲟⲩⲛⲁ 100
▁ⲛⲕⲉⲕⲟⲩⲓ 100
▁ⲛⲗⲟⲓⲙⲟⲥ 100
▁ⲛⲙⲙⲁⲛϣⲁ 100
▁ⲛⲛⲁϩⲣⲁⲓ 100
▁ⲛⲛⲁⲕⲉⲉⲥ 100
▁ⲛⲛⲁⲛⲟⲃⲉ 100
▁ⲛⲛⲉϭⲟⲟϣ 100
▁ⲛⲛⲏⲣⲓⲁⲥ 100
▁ⲛⲟⲩⲉⲣⲏⲧ 100
▁ⲛⲥⲁⲙⲯⲱⲛ 100
▁ⲛⲥⲉⲟⲩⲱϩ 100
▁ⲛⲥⲉⲧⲙϩⲉ 100
▁ⲛⲥⲓⲥⲁⲣⲁ 100
▁ⲛⲧⲁⲉⲓⲟⲩ 100
▁ⲛⲧⲁⲕⲛⲁⲩ 100
▁ⲛⲧⲉⲛⲉⲧⲛ 100
▁ⲛⲧⲉⲣⲓⲉⲓ 100
▁ⲛⲧⲉⲧⲛϥⲓ 100
▁ⲛⲧⲉⲧⲛⲟⲩ 100
▁ⲛⲧⲧⲁⲡⲣⲟ 100
▁ⲟⲩϩⲙϩⲁⲗ 100
▁ⲟⲩⲙⲁⲉⲓⲛ 100
▁ⲟⲩⲛϣϭⲟⲙ 100
▁ⲡⲁⲥⲉⲃⲏⲥ 100
▁ⲡⲁⲧⲁϫⲣⲟ 100
▁ⲥⲉⲛⲁⲃⲱⲕ 100
▁ⲥⲉⲛⲁⲡⲱⲧ 100
▁ⲧⲁⲛⲁϣⲧⲉ 100
▁ⲧⲉⲣⲟⲙⲡⲉ 100
ⲅⲟⲇⲟⲗⲓⲁⲥ 100
ⲕⲁⲣⲓⲱⲧⲏⲥ 100
ⲙⲉϩϥⲧⲟⲟⲩ 100
ⲛⲁϣϭⲙϭⲟⲙ 100
ⲛⲉⲧⲙⲟⲟⲩⲧ 100
ⲛⲧⲁⲧⲥⲃⲃⲉ 100
ⲛⲧⲓⲗⲟⲅⲓⲁ 100
ⲡⲟⲗⲟⲅⲓⲍⲉ 100
ⲣⲙⲛϭⲟⲓⲗⲉ 100
ⲥⲧⲉⲣⲉⲱⲙⲁ 100
ⲧⲉⲓⲅⲉⲛⲉⲁ 100
ⲧⲉⲧⲛⲉⲓⲣⲉ 100
ⲩⲛⲁⲅⲱⲅⲟⲥ 100
▁ϥⲛⲁⲕⲣⲓⲛⲉ 100
▁ϥⲛⲁⲧⲱⲟⲩⲛ 100
▁ϩⲁⲧⲉⲧⲛϩⲏ 100
▁ϩⲓϫⲛⲧⲁⲡⲉ 100
▁ϩⲙⲡϣⲟⲙⲛⲧ 100
▁ϩⲙⲡⲉϥⲗⲁⲥ 100
▁ϩⲙⲡⲉⲓⲕⲁϩ 100
▁ϩⲙⲡⲉⲕⲕⲁϩ 100
▁ϩⲙⲡⲟⲩϩⲏⲧ 100
▁ϩⲙⲡⲥⲟⲟⲩⲛ 100
▁ϩⲛⲛⲉⲕϭⲓϫ 100
▁ϩⲛⲛⲉⲩϩⲏⲧ 100
▁ϩⲛⲟⲩⲧⲃⲃⲟ 100
▁ϩⲛⲧⲁⲙⲏⲧⲉ 100
▁ϩⲛⲧⲥⲟⲫⲓⲁ 100
▁ϫⲉϣⲁⲧⲛⲁⲩ 100
▁ϫⲉϩⲛⲟⲩⲙⲉ 100
▁ϫⲉϯⲟⲩⲁⲁⲃ 100
▁ϫⲉⲁⲩϫⲟⲟⲥ 100
▁ϫⲉⲙⲡⲣⲧⲣⲉ 100
▁ϫⲉⲙⲱⲩⲥⲏⲥ 100
▁ϫⲉⲛⲧⲁⲕⲉⲓ 100
▁ϫⲉⲡⲉϣⲃⲏⲣ 100
▁ϯⲛⲁϩⲁⲣⲉϩ 100
▁ϯⲛⲁⲧⲁϫⲣⲉ 100
▁ϯⲛⲁⲧⲉⲗⲏⲗ 100
▁ⲁϥϫⲟⲟⲩⲥⲉ 100
▁ⲁϥⲛⲁϩⲙⲟⲩ 100
▁ⲁϥⲣⲡⲁϩⲣⲉ 100
▁ⲁⲡⲉϥⲉⲓⲱⲧ 100
▁ⲁⲩⲙⲟⲟⲩⲧϥ 100
▁ⲁⲩⲣϩⲙϩⲁⲗ 100
▁ⲃⲁⲣⲛⲁⲃⲁⲥ 100
▁ⲉϫⲙⲡⲉⲩϩⲟ 100
▁ⲉϯⲛⲁⲧⲁⲁϥ 100
▁ⲉⲕϣⲁⲛⲃⲱⲕ 100
▁ⲉⲛⲁⲅⲁⲑⲟⲛ 100
▁ⲉⲛⲧⲁϥⲙⲟⲩ 100
▁ⲉⲛⲧⲁϥⲱⲣⲕ 100
▁ⲉⲛⲧⲁⲓⲱⲣⲕ 100
▁ⲉⲡⲁⲅⲁⲑⲟⲛ 100
▁ⲉⲡⲉϥⲗⲁⲟⲥ 100
▁ⲉⲡⲓⲑⲩⲙⲉⲓ 100
▁ⲉⲣϣⲁⲛⲡⲉⲕ 100
▁ⲉⲥⲁⲙⲟⲩⲏⲗ 100
▁ⲉⲧⲉⲣⲉⲡⲉϥ 100
▁ⲉⲧⲉⲥϩⲓⲙⲉ 100
▁ⲉⲧⲛⲁⲥⲱⲧⲙ 100
▁ⲉⲧⲟⲟⲧⲁⲩⲱ 100
▁ⲉⲧⲣⲉⲩⲧⲁⲩ 100
▁ⲉⲩϩⲉⲑⲛⲟⲥ 100
▁ⲙⲙⲓⲛⲙⲙⲟⲛ 100
▁ⲙⲛⲛⲁⲁⲣⲱⲛ 100
▁ⲙⲛⲡⲁⲩⲗⲟⲥ 100
▁ⲙⲡⲃⲁⲁⲙⲡⲉ 100
▁ⲙⲡⲉϥⲃⲉⲕⲉ 100
▁ⲙⲡⲉϥⲥⲛⲟϥ 100
▁ⲙⲡⲉⲕϣⲃⲏⲣ 100
▁ⲙⲡⲉⲕϭⲱⲛⲧ 100
▁ⲙⲡⲉⲕⲥⲱⲙⲁ 100
▁ⲙⲡⲡⲩⲣⲅⲟⲥ 100
▁ⲛϭⲓϩⲟⲓⲛⲉ 100
▁ⲛⲁϣⲧⲟⲣⲧⲣ 100
▁ⲛⲉⲕϩⲙϩⲁⲗ 100
▁ⲛⲉⲛⲧⲁⲩⲉⲓ 100
▁ⲛⲉⲧⲛⲉⲣⲏⲩ 100
▁ⲛⲉⲩⲡⲟⲗⲓⲥ 100
▁ⲛⲛϩⲁⲗⲁⲧⲉ 100
▁ⲛⲛⲉⲓϩⲟⲟⲩ 100
▁ⲛⲛⲉⲓⲣⲱⲙⲉ 100
▁ⲛⲛⲉⲧϣⲓⲛⲉ 100
▁ⲛⲛⲉⲧϩⲟⲟⲩ 100
▁ⲛⲛⲉⲧⲛⲃⲁⲗ 100
▁ⲛⲛⲧⲟⲩⲉⲓⲏ 100
▁ⲛⲟⲩϫⲱⲱⲙⲉ 100
▁ⲛⲟⲩⲟⲩϫⲁⲓ 100
▁ⲛⲟⲩⲡⲉⲧⲣⲁ 100
▁ⲛⲣⲉϥϣⲙϣⲉ 100
▁ⲛⲣⲉϥϭⲱⲛⲧ 100
▁ⲛⲧⲁϥϫⲟⲟⲩ 100
▁ⲛⲧⲁⲧⲁⲡⲣⲟ 100
▁ⲛⲧⲉϥϣⲧⲏⲛ 100
▁ⲟⲩⲉⲓⲣⲏⲛⲏ 100
▁ⲡⲉϥⲛⲟⲩⲧⲉ 100
▁ⲡⲉⲧⲓⲉⲓⲣⲉ 100
▁ⲡⲗⲉⲩⲓⲧⲏⲥ 100
▁ⲡⲡⲟⲗⲉⲙⲟⲥ 100
▁ⲥⲉⲇⲉⲕⲓⲁⲥ 100
▁ⲥⲉⲛⲁⲟⲩⲱⲙ 100
▁ⲧⲉⲕϩⲙϩⲁⲗ 100
▁ⲧⲉⲧⲛⲁⲛⲁⲩ 100
ⲑⲉⲥⲥⲁⲗⲟⲛⲓ 100
ⲕⲁⲧⲁⲗⲁⲗⲉⲓ 100
ⲛⲁⲟⲩⲉⲣⲏⲧⲉ 100
ⲛⲉϩⲙⲧⲏⲩⲧⲛ 100
ⲡⲁⲣⲁⲛⲟⲙⲟⲥ 100
ⲡⲣⲟⲫⲏⲧⲉⲓⲁ 100
▁ϩⲓⲧⲙⲡⲉⲓⲱⲧ 100
▁ϩⲓⲧⲛⲫⲁⲣⲁⲱ 100
▁ϩⲙⲡⲉⲓϣⲁϫⲉ 100
▁ϩⲛⲛⲉϥϣⲁϫⲉ 100
▁ϩⲛⲟⲩⲟⲩⲣⲟⲧ 100
▁ϩⲛⲟⲩⲣⲁⲥⲟⲩ 100
▁ϩⲛⲟⲩⲥⲟⲫⲓⲁ 100
▁ϫⲉⲁⲙⲏⲉⲓⲧⲛ 100
▁ϫⲉⲉⲣϣⲁⲛⲟⲩ 100
▁ϫⲉⲉⲧⲃⲉⲡⲁⲓ 100
▁ϫⲉⲥⲁⲙⲟⲩⲏⲗ 100
▁ϫⲓⲛϩⲧⲟⲟⲩⲉ 100
▁ⲁⲓⲱϩⲁⲛⲛⲏⲥ 100
▁ⲁⲡⲉⲡⲛⲉⲩⲙⲁ 100
▁ⲁⲧⲉⲧⲛⲉⲓⲣⲉ 100
▁ⲁⲩⲙⲟⲟⲩⲧⲟⲩ 100
▁ⲉϥϣⲁⲛϫⲟⲟⲥ 100
▁ⲉϫⲛⲟⲩⲧⲟⲟⲩ 100
▁ⲉⲕⲁⲓⲥⲁⲣⲓⲁ 100
▁ⲉⲙⲉⲩⲙⲟⲟϣⲉ 100
▁ⲉⲛⲉⲧⲙⲟⲟⲩⲧ 100
▁ⲉⲛⲧⲁⲥϣⲱⲡⲉ 100
▁ⲉⲛⲧⲁⲧⲉⲧⲛⲁ 100
▁ⲉⲣⲉⲡⲟⲩⲏⲏⲃ 100
▁ⲉⲧⲁϩⲉⲣⲁⲧϥ 100
▁ⲉⲧⲃⲉⲡⲛⲟⲃⲉ 100
▁ⲉⲧⲉⲟⲩⲛⲧⲁϥ 100
▁ⲉⲧⲉⲧⲛϭⲱϣⲧ 100
▁ⲉⲧⲣⲉⲕⲉⲓⲣⲉ 100
▁ⲉⲩϣⲁⲛϫⲟⲟⲥ 100
▁ⲉⲩⲛⲁⲙⲟⲩⲧⲉ 100
▁ⲉⲩⲡⲉⲓⲣⲁⲍⲉ 100
▁ⲉⲩⲡⲟⲗⲉⲙⲟⲥ 100
▁ⲙⲁⲣⲉⲥϣⲱⲡⲉ 100
▁ⲙⲛⲅⲟⲙⲟⲣⲣⲁ 100
▁ⲙⲛⲛϩⲁⲗⲁⲧⲉ 100
▁ⲙⲛⲟⲩϩⲣⲟⲟⲩ 100
▁ⲙⲛⲡⲉϩⲓⲉⲓⲃ 100
▁ⲙⲛⲡⲉⲕϣⲏⲣⲉ 100
▁ⲙⲛⲧⲉⲕⲙⲁⲁⲩ 100
▁ⲙⲛⲧⲉⲥϩⲓⲙⲉ 100
▁ⲙⲡϩⲓⲉⲣⲉⲩⲥ 100
▁ⲙⲡⲉⲕⲙⲁⲁϫⲉ 100
▁ⲙⲡⲣⲡⲙⲉⲉⲩⲉ 100
▁ⲛϭⲓⲓⲟⲩⲇⲁⲥ 100
▁ⲛϯⲛⲁⲣϩⲟⲧⲉ 100
▁ⲛⲉⲡⲓⲑⲩⲙⲓⲁ 100
▁ⲛⲛⲉϥϩⲁⲣⲙⲁ 100
▁ⲛⲛⲉϥⲉⲓⲟⲧⲉ 100
▁ⲛⲛⲉⲕϭⲟⲗⲡⲥ 100
▁ⲛⲛⲉⲕⲉϩⲟⲟⲩ 100
▁ⲛⲛⲉⲧⲛⲥⲛⲏⲩ 100
▁ⲛⲛⲉⲧⲛⲯⲩⲭⲏ 100
▁ⲛⲛⲟⲣⲫⲁⲛⲟⲥ 100
▁ⲛⲟⲩⲉⲛⲧⲟⲗⲏ 100
▁ⲛⲟⲩⲕⲁⲣⲡⲟⲥ 100
▁ⲛⲟⲩⲕⲗⲟⲟⲗⲉ 100
▁ⲛⲟⲩⲥⲡⲉⲣⲙⲁ 100
▁ⲛⲥⲁⲧⲣⲁⲡⲏⲥ 100
▁ⲛⲧⲁⲩⲥⲃⲧⲱⲧ 100
▁ⲛⲧⲉϥⲧⲁⲡⲣⲟ 100
▁ⲛⲧⲉⲅⲁⲗⲁⲁⲇ 100
▁ⲛⲧⲉⲣⲟⲩϫⲱⲕ 100
▁ⲛⲧⲉⲧⲙⲗⲁⲁⲩ 100
▁ⲛⲧⲉⲧⲛⲥⲙⲟⲩ 100
▁ⲛⲧⲥⲁⲙⲁⲣⲓⲁ 100
▁ⲡⲉⲧⲉⲟⲩⲛⲧϥ 100
▁ⲡⲉⲧⲛⲁϫⲟⲟⲥ 100
▁ⲡⲉⲧⲛⲁⲟⲩⲱϣ 100
▁ⲡⲉⲩⲫⲣⲁⲧⲏⲥ 100
▁ⲡⲡⲉⲧⲟⲩⲁⲁⲃ 100
▁ⲥⲉⲛⲁⲧⲉⲗⲏⲗ 100
▁ⲧϩⲩⲡⲟⲙⲟⲛⲏ 100
▁ⲧⲙⲛⲧⲙⲛⲧⲣⲉ 100
ⲙⲛⲧⲉⲩⲥⲉⲃⲏⲥ 100
▁ϩⲓⲧⲛⲡϫⲟⲉⲓⲥ 100
▁ϩⲛⲇⲁⲙⲁⲥⲕⲟⲥ 100
▁ϩⲛⲛⲉⲕϩⲃⲏⲩⲉ 100
▁ϩⲛⲛⲉⲧⲟⲩⲁⲁⲃ 100
▁ϩⲛⲟⲩϣⲧⲟⲣⲧⲣ 100
▁ϩⲛⲧⲃⲁⲃⲩⲗⲱⲛ 100
▁ϩⲛⲧⲉⲑⲗⲓⲯⲓⲥ 100
▁ⲁϥⲁⲛⲁⲭⲱⲣⲉⲓ 100
▁ⲉⲛⲉϥϩⲓⲟⲟⲩⲉ 100
▁ⲉⲛⲉⲧⲛⲁϣⲱⲡⲉ 100
▁ⲉⲛⲧⲁⲡⲁⲉⲓⲱⲧ 100
▁ⲉⲣⲉϣⲁⲛⲧⲟⲩⲁ 100
▁ⲉⲧⲉⲧⲛⲉⲉⲓⲙⲉ 100
▁ⲉⲧⲣⲉⲩϩⲁⲣⲉϩ 100
▁ⲙⲁⲣⲟⲩⲟⲩⲱⲛϩ 100
▁ⲙⲉⲙⲫⲓⲃⲟⲥⲑⲉ 100
▁ⲙⲛϩⲉⲛⲑⲩⲥⲓⲁ 100
▁ⲙⲛⲛⲉⲑⲏⲣⲓⲟⲛ 100
▁ⲙⲛⲛⲉⲧⲛϣⲏⲣⲉ 100
▁ⲙⲛⲛⲥⲁϣⲟⲙⲛⲧ 100
▁ⲙⲛⲡⲕⲉⲥⲉⲉⲡⲉ 100
▁ⲙⲛⲧⲑⲁⲗⲁⲥⲥⲁ 100
▁ⲙⲛⲧⲥⲁⲙⲁⲣⲓⲁ 100
▁ⲙⲡⲉϥⲕⲁⲣⲡⲟⲥ 100
▁ⲙⲡⲉⲓⲟⲩⲟⲉⲓϣ 100
▁ⲙⲡⲉⲛⲧⲁϥⲙⲟⲩ 100
▁ⲙⲡⲉⲧⲛⲁⲛⲟⲩϥ 100
▁ⲛϭⲓϩⲏⲣⲱⲇⲏⲥ 100
▁ⲛϭⲓⲛⲉⲧϣⲓⲛⲉ 100
▁ⲛⲉⲓⲣⲏⲛⲓⲕⲟⲛ 100
▁ⲛⲍⲉⲃⲉⲇⲁⲓⲟⲥ 100
▁ⲛⲍⲟⲣⲟⲃⲁⲃⲉⲗ 100
▁ⲛⲙⲓⲱϩⲁⲛⲛⲏⲥ 100
▁ⲛⲛⲁⲟⲩⲉⲣⲏⲧⲉ 100
▁ⲛⲛⲉϥⲥⲡⲟⲧⲟⲩ 100
▁ⲛⲛⲉⲧⲉⲙⲉϣϣⲉ 100
▁ⲛⲧⲉⲡⲉⲧⲛϩⲏⲧ 100
▁ⲛⲧⲉⲧⲛⲧⲉⲗⲏⲗ 100
▁ⲛⲧⲙⲉⲧⲁⲛⲟⲓⲁ 100
▁ⲡⲉϫⲉⲙⲱⲩⲥⲏⲥ 100
▁ⲡⲉⲛⲧⲁϥⲉⲓⲣⲉ 100
▁ⲡⲉⲧⲡⲓⲥⲧⲉⲩⲉ 100
▁ⲧⲟⲓⲕⲟⲩⲙⲉⲛⲏ 100
ⲡⲉⲣⲓⲥⲡⲁⲥⲙⲟⲥ 100
▁ϩⲙⲡⲉⲓⲟⲩⲟⲉⲓϣ 100
▁ϩⲙⲡⲙⲉϩϣⲙⲟⲩⲛ 100
▁ϩⲛⲛⲕⲓⲛⲇⲩⲛⲟⲥ 100
▁ⲉⲕⲁⲫⲁⲣⲛⲁⲟⲩⲙ 100
▁ⲉⲛⲧⲁⲙⲱⲟⲩⲥⲏⲥ 100
▁ⲉⲡⲡⲉⲧⲛⲁⲛⲟⲩϥ 100
▁ⲕⲁⲧⲁⲛⲉϩⲃⲏⲩⲉ 100
▁ⲙⲙⲉⲗⲭⲓⲥⲉⲇⲉⲕ 100
▁ⲙⲛⲧⲥⲩⲛⲁⲅⲱⲅⲏ 100
▁ⲙⲡⲙⲩⲥⲧⲏⲣⲓⲟⲛ 100
▁ⲛⲁⲗⲗⲟⲫⲩⲗⲗⲟⲥ 100
▁ⲛⲛⲇⲁⲓⲙⲱⲛⲓⲟⲛ 100
▁ⲡⲉϫⲉⲓⲱⲛⲁⲑⲁⲛ 100
ⲣⲉϥϣⲙϣⲉⲛⲟⲩⲧⲉ 100
▁ⲛϭⲓⲟⲩⲁⲅⲅⲉⲗⲟⲥ 100
▁ⲛⲛⲉϥⲡⲉⲧⲟⲩⲁⲁⲃ 100
▁ⲛⲛⲉⲕⲇⲓⲕⲁⲓⲱⲙⲁ 100
▁ⲛⲛⲉⲧⲛⲟⲩⲉⲣⲏⲧⲉ 100
▁ⲛⲧⲁⲓⲭⲙⲁⲗⲱⲥⲓⲁ 100
▁ⲡⲉϫⲉⲓⲱϩⲁⲛⲛⲏⲥ 100
▁ⲉⲧϩⲙⲡⲉⲭⲣⲓⲥⲧⲟⲥ 100
▁ⲛϭⲓⲡⲉⲛⲧⲁⲩϫⲟⲟϥ 100
▁ⲡⲉⲡⲣⲉⲥⲃⲩⲧⲉⲣⲟⲥ 100
▁ϩⲓⲧⲙⲡⲉⲡⲣⲟⲫⲏⲧⲏⲥ 100
▁ⲡⲉⲑⲩⲥⲓⲁⲥⲧⲏⲣⲓⲟⲛ 100
▁ⲡⲉⲧⲛⲁⲡⲁⲣⲁⲇⲓⲇⲟⲩ 100
ⲅⲭ 100
ⲕⲧ 100
ⲗⲃ 100
ⲣⲥ 100
ⲧⲧ 100
ⲩⲯ 100
ⲭⲩ 100
ⲱϭ 100
ⲱⲅ 100
ⲱⲱ 100
ϣⲉϥ 100
ϣⲓⲏ 100
ϩⲟⲃ 100
ϩⲧⲙ 100
ϯⲗⲉ 100
▁ϣⲡ 100
▁ϫⲡ 100
▁ⲇⲓ 100
▁ⲧⲣ 100
▁ⲭⲁ 100
ⲁϩⲟ 100
ⲃϣⲕ 100
ⲃⲛⲧ 100
ⲅⲉⲇ 100
ⲅⲕⲁ 100
ⲅⲛⲱ 100
ⲏⲩⲧ 100
ⲓϩⲉ 100
ⲓⲁⲑ 100
ⲕⲓⲁ 100
ⲛⲉϣ 100
ⲛⲉⲍ 100
ⲡⲏⲗ 100
ⲡⲣϫ 100
ⲡⲱⲛ 100
ⲣⲁⲫ 100
ⲣⲏϭ 100
ⲣⲏⲃ 100
ⲥⲛⲁ 100
ⲥⲥⲉ 100
ⲧⲉⲙ 100
ⲧⲙⲙ 100
ⲧⲧⲁ 100
ⲧⲱⲃ 100
ⲩϣⲉ 100
ⲭⲱⲑ 100
ⲱⲣϩ 100
ϣⲙⲛⲧ 100
ϣⲟϣⲧ 100
ϥⲟⲧϥ 100
ϩⲁⲉⲓ 100
ϩⲏⲧⲕ 100
ϩⲓϫⲙ 100
ϩⲓⲕⲁ 100
ϩⲗⲟϭ 100
ϩⲧⲟⲣ 100
ϩⲧⲱⲣ 100
ϫⲉⲥⲧ 100
ϫⲟⲉⲥ 100
ϭⲗⲱϭ 100
▁ϣⲏⲧ 100
▁ϥϫⲱ 100
▁ϩⲁⲛ 100
▁ϩⲏⲡ 100
▁ϩⲟⲃ 100
▁ϯϩⲓ 100
▁ⲁⲥⲕ 100
▁ⲁⲩⲛ 100
▁ⲅⲁⲇ 100
▁ⲉϩⲏ 100
▁ⲉⲃⲏ 100
▁ⲉⲕⲣ 100
▁ⲉⲛϯ 100
▁ⲉⲛⲓ 100
▁ⲉⲩϫ 100
▁ⲕⲱϩ 100
▁ⲙⲏⲛ 100
▁ⲙⲛⲙ 100
▁ⲙⲫⲟ 100
▁ⲛϥⲓ 100
▁ⲛϫⲁ 100
▁ⲛⲉϫ 100
▁ⲛⲕⲩ 100
▁ⲛⲣⲉ 100
▁ⲛⲣⲙ 100
▁ⲛⲥϯ 100
▁ⲛⲱⲅ 100
▁ⲡⲓⲁ 100
▁ⲡⲣⲙ 100
▁ⲡⲱⲕ 100
▁ⲡⲱⲛ 100
▁ⲣⲉϥ 100
▁ⲥⲙⲛ 100
▁ⲥⲟⲛ 100
▁ⲥⲱⲣ 100
▁ⲧⲉⲡ 100
ⲃⲃⲓⲱ 100
ⲅⲁⲛⲁ 100
ⲇⲉⲓⲥ 100
ⲏⲏⲛⲉ 100
ⲑⲉⲧⲓ 100
ⲓⲱϩⲉ 100
ⲕⲁⲗⲓ 100
ⲕⲉⲟⲥ 100
ⲕⲗⲏⲥ 100
ⲕⲱⲙⲏ 100
ⲕⲱⲣⲕ 100
ⲛⲁⲓⲥ 100
ⲛⲉϩϥ 100
ⲛⲟϩⲉ 100
ⲝⲓⲟⲩ 100
ⲟϣⲟⲩ 100
ⲟϥⲧⲉ 100
ⲟⲕⲟⲧ 100
ⲟⲧⲡϥ 100
ⲟⲩⲟϭ 100
ⲡⲟϣⲥ 100
ⲡⲟϩⲉ 100
ⲡⲟⲗⲓ 100
ⲡⲩⲅⲏ 100
ⲡⲱⲣⲕ 100
ⲣϣⲱⲛ 100
ⲣⲁⲃⲁ 100
ⲣⲟⲓⲁ 100
ⲣⲟⲩⲥ 100
ⲣⲧϩⲉ 100
ⲥⲁϩϥ 100
ⲥⲁⲙⲁ 100
ⲥⲁⲡⲉ 100
ⲧⲉⲙⲡ 100
ⲧⲏⲗⲏ 100
ⲧⲏⲟⲩ 100
ⲧⲓⲙⲏ 100
ⲧⲕⲛⲁ 100
ⲧⲕⲱⲧ 100
ⲧⲟϭⲥ 100
ⲧⲥⲉⲓ 100
ⲧⲥⲟϥ 100
ⲭⲉⲣⲉ 100
..... 100
ϣⲁⲓⲣⲉ 100
ϣⲙⲏⲛⲉ 100
ϣⲧϩⲏⲧ 100
ϩⲟⲟⲗⲉ 100
ϩⲣⲏⲩⲉ 100
ϫⲁⲥⲧϥ 100
ϫⲁⲥⲧⲕ 100
ϭⲓⲛⲟⲩ 100
ϭⲟⲣⲧⲉ 100
▁ϣⲁϥϯ 100
▁ϩⲁⲣⲓ 100
▁ϩⲉⲛⲧ 100
▁ϩⲙⲡⲓ 100
▁ϩⲛⲛⲧ 100
▁ϫⲉⲁⲣ 100
▁ϫⲉⲕⲉ 100
▁ϫⲱϩⲙ 100
▁ϭⲃⲃⲉ 100
▁ⲁⲛⲉⲧ 100
▁ⲁⲛⲕⲱ 100
▁ⲁⲛⲛⲁ 100
▁ⲁⲡⲣⲏ 100
▁ⲉϣⲱⲡ 100
▁ⲉϥⲉⲣ 100
▁ⲉⲃⲱⲗ 100
▁ⲉⲓⲕⲏ 100
▁ⲉⲓⲕⲱ 100
▁ⲉⲕⲧⲉ 100
▁ⲉⲛϫⲱ 100
▁ⲉⲛⲏⲓ 100
▁ⲉⲛⲧⲉ 100
▁ⲉⲣⲏⲧ 100
▁ⲉⲧⲁⲛ 100
▁ⲉⲧⲧⲟ 100
▁ⲉⲩⲉϯ 100
▁ⲉⲩⲉⲓ 100
▁ⲉⲩⲕⲱ 100
▁ⲉⲩⲙⲟ 100
▁ⲏⲥⲁⲩ 100
▁ⲙⲕⲁϩ 100
▁ⲙⲙⲁⲣ 100
▁ⲙⲙⲗϩ 100
▁ⲙⲛⲓⲉ 100
▁ⲙⲡⲟⲗ 100
▁ⲙⲫⲏⲧ 100
▁ⲛϥϭⲱ 100
▁ⲛϥⲱϣ 100
▁ⲛϩⲉⲃ 100
▁ⲛϭⲣⲟ 100
▁ⲛⲁⲉⲣ 100
▁ⲛⲁⲕⲁ 100
▁ⲛⲁⲕⲱ 100
▁ⲛⲅⲉⲣ 100
▁ⲛⲉⲗⲓ 100
▁ⲛⲉⲧⲁ 100
▁ⲛⲉⲧⲓ 100
▁ⲛⲓⲁⲥ 100
▁ⲛⲕⲁϩ 100
▁ⲛⲗⲱⲧ 100
▁ⲛⲛⲁϩ 100
▁ⲛⲛⲣⲟ 100
▁ⲛⲣⲱⲕ 100
▁ⲛⲥⲁϩ 100
▁ⲛⲥⲉⲓ 100
▁ⲛⲥⲓⲫ 100
▁ⲛⲧϩⲏ 100
▁ⲛⲧⲏⲩ 100
▁ⲟⲩϣⲓ 100
▁ⲟⲩⲁϣ 100
▁ⲡϩⲏⲩ 100
▁ⲡϩⲟϥ 100
▁ⲡⲁⲏⲓ 100
▁ⲡⲁⲛⲁ 100
▁ⲡⲉⲓⲁ 100
▁ⲡⲉⲧϥ 100
▁ⲡⲛⲁⲩ 100
▁ⲥⲉϫⲱ 100
▁ⲥⲛⲏⲩ 100
▁ⲥⲛⲟϥ 100
▁ⲥⲱⲧⲡ 100
▁ⲧⲁⲓⲟ 100
▁ⲧⲁⲙⲉ 100
▁ⲧⲁⲩⲟ 100
▁ⲧⲙϩⲉ 100
▁ⲧⲱϭⲉ 100
ⲁⲧϩⲏⲧ 100
ⲃⲏⲑⲣⲁ 100
ⲅⲓⲣⲟⲥ 100
ⲅⲛⲱⲙⲏ 100
ⲇⲟⲕⲓⲁ 100
ⲇⲟⲥⲓⲥ 100
ⲉⲓⲟⲡⲉ 100
ⲑⲁⲙⲛⲁ 100
ⲑⲉⲥⲓⲥ 100
ⲑⲓⲛⲟⲛ 100
ⲑⲟⲛⲉⲓ 100
ⲑⲩⲣⲱⲛ 100
ⲕⲁⲓⲟⲛ 100
ⲗⲃⲟⲩⲉ 100
ⲗⲟⲅⲟⲥ 100
ⲙⲟⲣⲟⲩ 100
ⲛⲁⲥⲡⲉ 100
ⲛⲉⲟⲟⲩ 100
ⲛⲧⲁⲕϥ 100
ⲛⲧⲁⲩⲥ 100
ⲟϫⲛⲟⲩ 100
ⲟⲟⲣⲟⲩ 100
ⲟⲣⲛⲟⲥ 100
ⲟⲩⲱⲛⲉ 100
ⲟⲩⲱⲛⲥ 100
ⲡϫⲟⲉⲓ 100
ⲡⲁϩⲧⲥ 100
ⲡⲉϥϩⲟ 100
ⲡⲉⲓⲙⲁ 100
ⲡⲉⲣⲓⲍ 100
ⲡⲟⲛⲇⲏ 100
ⲡⲟⲣⲉⲓ 100
ⲡⲣⲏⲧⲉ 100
ⲣϩⲛⲁϥ 100
ⲣϩⲧⲏϥ 100
ⲣⲁⲓⲁⲥ 100
ⲣⲓϩⲁⲙ 100
ⲥⲁϣⲁⲓ 100
ⲥⲁⲓⲇⲁ 100
ⲥⲁⲛⲟⲥ 100
ⲥⲓⲙⲱⲛ 100
ⲥⲛⲁⲩϩ 100
ⲥⲩⲛⲧⲉ 100
ⲧⲁⲕⲟⲕ 100
ⲧⲁⲙⲓⲁ 100
ⲧⲁⲥⲙⲏ 100
ⲧⲓⲕⲟⲥ 100
ⲧⲱⲱⲙⲉ 100
ⲩⲯⲥⲏⲥ 100
ⲫⲟⲣⲙⲏ 100
ϣⲛϩⲧⲏⲓ 100
ϩⲟⲡⲗⲓⲁ 100
ϫⲁⲥⲧⲟⲩ 100
ϫⲓϫⲣⲟⲡ 100
ϫⲙⲡⲕⲁϩ 100
ϭⲟⲗⲡⲟⲩ 100
ϯⲗⲁⲧⲏⲥ 100
ϯⲛⲁⲁⲕⲉ 100
ϯⲟⲩⲃⲏⲕ 100
▁ϣⲁⲛⲉϥ 100
▁ϣⲁⲛⲧⲛ 100
▁ϥϣⲓⲛⲉ 100
▁ϥⲓⲧⲟⲩ 100
▁ϥⲛⲁϫⲱ 100
▁ϩⲁⲛⲉⲕ 100
▁ϩⲁⲡⲣⲏ 100
▁ϩⲁⲧⲏⲓ 100
▁ϩⲁⲧⲛⲛ 100
▁ϩⲓϩⲓⲏ 100
▁ϩⲓⲟⲩⲉ 100
▁ϩⲛⲛⲕⲉ 100
▁ϩⲛⲧⲃⲱ 100
▁ϩⲛⲧⲕⲉ 100
▁ϩⲟⲗⲱⲥ 100
▁ϩⲟⲙⲛⲧ 100
▁ϩⲣⲁⲁⲃ 100
▁ϫⲉϫⲓⲛ 100
▁ϫⲉϯⲙⲉ 100
▁ϫⲉⲁϩⲉ 100
▁ϫⲉⲁⲓϯ 100
▁ϫⲉⲁⲛⲁ 100
▁ϫⲉⲙⲁⲣ 100
▁ϫⲉⲡⲏⲓ 100
▁ϫⲉⲧⲟⲩ 100
▁ϫⲓⲛⲉⲓ 100
▁ϯⲛⲁⲉⲓ 100
▁ϯⲣⲁϣⲉ 100
▁ϯⲥⲱⲧⲙ 100
▁ⲁϥϩⲕⲟ 100
▁ⲁϥⲕⲓⲙ 100
▁ⲁϥⲥⲉϩ 100
▁ⲁⲗⲱⲧⲛ 100
▁ⲁⲙⲛⲧⲉ 100
▁ⲁⲣⲭⲉⲓ 100
▁ⲁⲥϩⲱⲛ 100
▁ⲁⲥⲙⲟⲩ 100
▁ⲁⲩϫⲡⲟ 100
▁ⲁⲩⲁⲗⲉ 100
▁ⲁⲩⲃⲱⲗ 100
▁ⲁⲩⲟⲩⲱ 100
▁ⲁⲩⲡⲱϩ 100
▁ⲉϣⲱⲱⲧ 100
▁ⲉϥⲛⲉϫ 100
▁ⲉϥⲧⲣⲉ 100
▁ⲉⲁϥϩⲉ 100
▁ⲉⲁⲛⲟⲛ 100
▁ⲉⲁⲣⲙⲁ 100
▁ⲉⲕⲁⲁϥ 100
▁ⲉⲗⲓⲥⲁ 100
▁ⲉⲙⲉϣⲧ 100
▁ⲉⲛⲁⲁϥ 100
▁ⲉⲛⲟⲃⲉ 100
▁ⲉⲥⲙⲟⲩ 100
▁ⲉⲥⲱⲃⲉ 100
▁ⲉⲧϩⲁⲏ 100
▁ⲉⲧϫⲏⲩ 100
▁ⲉⲧⲁⲁⲩ 100
▁ⲉⲧⲁⲕⲉ 100
▁ⲉⲧⲁⲗⲟ 100
▁ⲉⲧⲉⲣⲁ 100
▁ⲉⲧⲙⲟⲩ 100
▁ⲉⲧⲟⲃⲉ 100
▁ⲉⲧⲣⲁⲓ 100
▁ⲉⲧⲣⲏⲧ 100
▁ⲉⲧⲱⲙⲧ 100
▁ⲉⲩϣⲱⲗ 100
▁ⲉⲩϫⲡⲟ 100
▁ⲉⲩⲕⲱⲧ 100
▁ⲉⲩⲙⲟⲩ 100
▁ⲉⲩⲛⲏϫ 100
▁ⲕⲛⲁϩⲉ 100
▁ⲕⲛⲁⲕⲱ 100
▁ⲙⲁⲣⲑⲁ 100
▁ⲙⲛⲡⲱⲧ 100
▁ⲙⲛⲧⲡⲉ 100
▁ⲙⲡϩⲣⲃ 100
▁ⲙⲡϭⲟⲗ 100
▁ⲙⲡⲁⲧⲓ 100
▁ⲙⲡⲁⲧⲕ 100
▁ⲙⲡⲉⲧϯ 100
▁ⲙⲡⲗⲁⲥ 100
▁ⲙⲡⲣϫⲓ 100
▁ⲙⲡⲧⲏⲩ 100
▁ⲛϣⲁⲣⲉ 100
▁ⲛϩⲏⲃⲉ 100
▁ⲛϩⲏⲗⲓ 100
▁ⲛϩⲧⲏⲓ 100
▁ⲛϭⲓⲓⲟ 100
▁ⲛϭⲓⲧⲥ 100
▁ⲛϯϩⲁⲡ 100
▁ⲛⲁⲛⲟⲕ 100
▁ⲛⲅⲡⲱⲧ 100
▁ⲛⲉϣϣⲉ 100
▁ⲛⲉϣⲱⲧ 100
▁ⲛⲉϫⲡⲟ 100
▁ⲛⲉⲓϫⲱ 100
▁ⲛⲉⲓⲉⲣ 100
▁ⲛⲉⲙⲁⲥ 100
▁ⲛⲉⲛⲁⲕ 100
▁ⲛⲉⲣⲏⲧ 100
▁ⲛⲙⲛⲉϥ 100
▁ⲛⲙⲡⲉⲕ 100
▁ⲛⲛϭⲓϫ 100
▁ⲛⲛϭⲱⲃ 100
▁ⲛⲛⲉⲧⲣ 100
▁ⲛⲛⲉⲩϣ 100
▁ⲛⲟⲇⲟⲗ 100
▁ⲛⲟⲩⲙⲉ 100
▁ⲛⲣⲁⲧϥ 100
▁ⲛⲥⲉϫⲱ 100
▁ⲛⲥⲛⲧⲉ 100
▁ⲛⲥⲟⲧⲉ 100
▁ⲛⲧϩⲁⲏ 100
▁ⲛⲧⲁϫⲓ 100
▁ⲛⲧⲁϫⲱ 100
▁ⲛⲧⲉⲓⲉ 100
▁ⲛⲧⲉⲩⲥ 100
▁ⲛⲧⲕⲟⲩ 100
▁ⲛⲧⲱⲃⲉ 100
▁ⲛⲧⲱⲇⲏ 100
▁ⲟⲛⲧϩⲉ 100
▁ⲟⲩⲃⲏⲛ 100
▁ⲟⲩⲡⲁⲣ 100
▁ⲟⲩⲱϣⲥ 100
▁ⲟⲩⲱϣⲧ 100
▁ⲡϩⲟⲩⲛ 100
▁ⲡⲁⲣⲣⲟ 100
▁ⲡⲁⲩⲗⲉ 100
▁ⲡⲉⲕϩⲟ 100
▁ⲡⲉⲣⲏⲧ 100
▁ⲡⲉⲧϥⲓ 100
▁ⲡⲙⲁⲥⲉ 100
▁ⲡⲛⲟⲩⲛ 100
▁ⲡⲥⲃⲃⲉ 100
▁ⲡⲱⲱⲛⲉ 100
▁ⲥⲙⲓⲛⲉ 100
▁ⲥⲟⲩⲧⲛ 100
▁ⲧⲟⲗⲙⲁ 100
ⲁⲡⲁⲣⲛⲁ 100
ⲅⲓⲥⲙⲟⲥ 100
ⲇⲉⲓⲥⲟⲥ 100
ⲑⲁⲛⲁⲏⲗ 100
ⲓⲁⲥⲧⲏⲥ 100
ⲓⲕⲟⲟⲩⲉ 100
ⲓⲥϩⲓⲙⲉ 100
ⲓⲥⲙⲁⲏⲗ 100
ⲓⲥⲟⲟⲩⲛ 100
ⲕⲟⲛⲥⲟⲩ 100
ⲕⲣⲓⲥⲓⲥ 100
ⲗⲉⲕⲧⲱⲣ 100
ⲙⲉⲣⲓⲧⲕ 100
ⲙⲉⲣⲓⲧⲛ 100
ⲙⲙⲁⲧⲟⲓ 100
ⲙⲛⲧⲣⲉϥ 100
ⲛⲉⲥⲛⲏⲩ 100
ⲛⲟⲟⲩⲥⲉ 100
ⲝⲱⲣⲓⲍⲉ 100
ⲟⲗⲟⲕⲟⲧ 100
ⲡⲉⲓϩⲱⲃ 100
ⲡⲉⲛⲧⲁϥ 100
ⲡⲟⲣϫⲟⲩ 100
ⲡⲣⲟⲕⲟⲡ 100
ⲣⲁⲕⲧⲟⲩ 100
ⲣⲁⲣⲭⲱⲛ 100
ⲣⲓⲕⲉⲫⲁ 100
ⲣⲟⲩⲟⲓⲛ 100
ⲥⲁⲩⲗⲟⲥ 100
ⲥⲏⲙⲁⲛⲉ 100
ⲥⲕⲟⲣⲕⲣ 100
ⲥⲟⲧⲙⲉϥ 100
ⲥⲟⲩⲟⲩⲁ 100
ⲧⲁϫⲣⲟⲓ 100
ⲧⲉⲩⲛⲟⲩ 100
ⲧⲓⲁⲛⲟⲥ 100
ⲧⲟⲙⲥⲟⲩ 100
ⲧⲥⲁⲃⲟⲛ 100
ⲩϩⲁⲓⲟⲥ 100
....... 100
ϣⲧⲣⲧⲱⲣⲧ 100
ϩⲁⲣⲡⲁⲍⲉ 100
ϩⲉⲛⲕⲟⲩⲓ 100
ϩⲓⲕⲁⲛⲟⲥ 100
▁ϣⲁϩⲟⲩⲛ 100
▁ϣⲁⲣⲉⲛⲉ 100
▁ϩⲁⲓⲃⲉⲥ 100
▁ϩⲁⲧⲁϩⲏ 100
▁ϩⲙⲡϣⲏⲓ 100
▁ϩⲛϩⲉⲛⲁ 100
▁ϩⲛⲛϭⲓϫ 100
▁ϩⲛⲛⲉⲕⲁ 100
▁ϩⲛⲧⲉⲓⲉ 100
▁ϫⲉϣⲗⲏⲗ 100
▁ϫⲉⲁϥⲉⲓ 100
▁ϫⲉⲁⲩϥⲓ 100
▁ϫⲉⲙⲡⲱⲣ 100
▁ϫⲉⲛⲁⲙⲉ 100
▁ϫⲉⲛⲛⲉⲛ 100
▁ϫⲉⲛⲛⲉⲥ 100
▁ϫⲉⲛⲛⲉⲧ 100
▁ϫⲉⲡⲉⲧⲛ 100
▁ϯⲙⲉⲉⲩⲉ 100
▁ⲁϥϩⲟⲡϥ 100
▁ⲁⲓϣⲗⲏⲗ 100
▁ⲁⲓϫⲓⲧϥ 100
▁ⲁⲓⲣⲁϣⲉ 100
▁ⲁⲕⲕⲁⲁⲧ 100
▁ⲁⲛⲉⲓⲙⲉ 100
▁ⲁⲡϣⲁϫⲉ 100
▁ⲁⲡϣⲏⲣⲉ 100
▁ⲁⲥⲡⲁⲍⲉ 100
▁ⲁⲩϥⲓⲧϥ 100
▁ⲁⲩⲉⲛⲧϥ 100
▁ⲁⲩⲕⲱϩⲧ 100
▁ⲁⲩⲝⲁⲛⲉ 100
▁ⲁⲩⲡⲱϣⲥ 100
▁ⲁⲩⲥⲙⲟⲩ 100
▁ⲁⲩⲥⲱⲃⲉ 100
▁ⲁⲩⲧⲱⲣⲡ 100
▁ⲉϥⲙⲡϣⲁ 100
▁ⲉϩⲙⲟⲟⲥ 100
▁ⲉϫⲓⲧⲟⲩ 100
▁ⲉϫⲛⲛⲉⲥ 100
▁ⲉϫⲛⲟⲩϥ 100
▁ⲉϯⲥⲱⲧⲙ 100
▁ⲉⲁϥⲙⲟⲩ 100
▁ⲉⲕϣⲁⲛⲣ 100
▁ⲉⲕⲉⲃⲱⲕ 100
▁ⲉⲗⲓⲟⲩⲥ 100
▁ⲉⲙⲡⲁⲧⲕ 100
▁ⲉⲛⲉⲥⲱϥ 100
▁ⲉⲛⲕⲁⲧⲁ 100
▁ⲉⲛⲕⲟⲧⲕ 100
▁ⲉⲡϩⲓⲥⲉ 100
▁ⲉⲡⲃⲏⲙⲁ 100
▁ⲉⲡⲉⲙⲛⲧ 100
▁ⲉⲣϣⲁⲛⲧ 100
▁ⲉⲣⲉⲡⲉⲕ 100
▁ⲉⲣⲉⲡⲉⲛ 100
▁ⲉⲣⲟⲁⲩⲱ 100
▁ⲉⲥϫⲟⲥⲉ 100
▁ⲉⲧⲉⲡⲱϥ 100
▁ⲉⲧⲉⲧⲛⲣ 100
▁ⲉⲩϫⲟⲉⲓ 100
▁ⲉⲩϫⲟⲥⲉ 100
▁ⲉⲩⲕⲁⲕⲉ 100
▁ⲉⲩⲗⲁⲁⲩ 100
▁ⲉⲩⲗⲁⲟⲥ 100
▁ⲉⲩⲙⲓϣⲉ 100
▁ⲉⲩⲟⲩⲱϣ 100
▁ⲕⲁⲓⲡⲉⲣ 100
▁ⲙⲉⲣⲓⲧϥ 100
▁ⲙⲙⲟⲕϩⲥ 100
▁ⲙⲙⲟⲥⲧⲉ 100
▁ⲙⲙⲟⲩⲛⲅ 100
▁ⲙⲛϩⲉⲛⲁ 100
▁ⲙⲛⲡϩⲁⲡ 100
▁ⲙⲛⲧⲉⲧⲛ 100
▁ⲙⲡⲉϯⲛⲁ 100
▁ⲙⲡⲉⲁⲩⲱ 100
▁ⲙⲡⲓⲙⲟⲩ 100
▁ⲙⲡⲟⲩϭⲛ 100
▁ⲙⲡⲣⲡⲱⲧ 100
▁ⲛϣⲟϫⲛⲉ 100
▁ⲛϥϣⲓⲛⲉ 100
▁ⲛϥⲛⲁϫⲓ 100
▁ⲛϩⲁⲙⲱⲥ 100
▁ⲛϭⲓⲧⲉϥ 100
▁ⲛϭⲟⲓⲗⲉ 100
▁ⲛⲁϩⲣⲁⲕ 100
▁ⲛⲁⲕⲉⲉⲥ 100
▁ⲛⲁⲭⲟⲩⲥ 100
▁ⲛⲅϣⲙϣⲉ 100
▁ⲛⲅϭⲱϣⲧ 100
▁ⲛⲅⲁⲃⲁⲁ 100
▁ⲛⲅⲉⲓⲙⲉ 100
▁ⲛⲅⲕⲟⲧⲕ 100
▁ⲛⲅⲥϩⲁⲓ 100
▁ⲛⲅⲧⲁⲗⲟ 100
▁ⲛⲉⲕϩⲁⲡ 100
▁ⲛⲉⲕϭⲓϫ 100
▁ⲛⲉⲧϥϫⲱ 100
▁ⲛⲉⲧⲉⲟⲩ 100
▁ⲛⲉⲩⲛⲁⲣ 100
▁ⲛⲉⲯⲩⲭⲏ 100
▁ⲛⲓⲱⲛⲁⲥ 100
▁ⲛⲗⲁⲃⲁⲛ 100
▁ⲛⲙⲛⲉⲧⲛ 100
▁ⲛⲙⲡⲕⲁϩ 100
▁ⲛⲛⲁⲓⲱⲛ 100
▁ⲛⲛⲉⲧϩⲙ 100
▁ⲛⲛⲟⲉⲓⲧ 100
▁ⲛⲟⲉⲓⲗⲉ 100
▁ⲛⲟⲩⲉⲓⲱ 100
▁ⲛⲟⲩⲥⲟϭ 100
▁ⲛⲟⲩⲧⲏⲩ 100
▁ⲛⲟⲩⲱⲃϣ 100
▁ⲛⲥⲁⲛⲁⲓ 100
▁ⲛⲥⲁⲛⲓⲙ 100
▁ⲛⲥⲁⲡⲉⲧ 100
▁ⲛⲥⲁⲡⲉⲩ 100
▁ⲛⲥⲟⲫⲓⲁ 100
▁ⲛⲧⲁϥϫⲉ 100
▁ⲛⲧⲁⲣⲭⲏ 100
▁ⲛⲧⲉϩⲣⲁ 100
▁ⲛⲧⲉⲛⲁⲩ 100
▁ⲛⲧⲉⲡⲣⲱ 100
▁ⲛⲧⲙⲛⲧⲁ 100
▁ⲛⲧⲥⲛⲧⲉ 100
▁ⲛⲭⲁⲗⲉⲃ 100
▁ⲟⲩϣⲃⲏⲣ 100
▁ⲟⲩⲗⲩⲡⲏ 100
▁ⲟⲩⲙⲕⲁϩ 100
▁ⲟⲩⲛⲧⲁⲕ 100
▁ⲟⲩⲟⲛϩϥ 100
▁ⲟⲩⲥⲁⲃⲉ 100
▁ⲟⲩⲥⲏϥⲉ 100
▁ⲡϫⲱⲱⲣⲉ 100
▁ⲡⲉϩⲙⲟⲧ 100
▁ⲡⲉⲧϥⲛⲁ 100
▁ⲡⲉⲧⲛⲁⲣ 100
▁ⲡⲉⲩϩⲏⲧ 100
▁ⲡⲟⲩⲛⲟϥ 100
▁ⲡⲧⲁϫⲣⲟ 100
▁ⲣϣⲡⲏⲣⲉ 100
▁ⲧⲁϣⲁϫⲉ 100
▁ⲧⲁⲩⲟⲟⲩ 100
▁ⲧⲃⲃⲟⲟⲩ 100
▁ⲧⲉⲕϭⲓϫ 100
▁ⲧⲉⲛⲧⲁϥ 100
▁ⲧⲕⲁⲕⲓⲁ 100
▁ⲧⲙⲛⲧⲛⲁ 100
▁ⲧⲛⲟⲩⲛⲉ 100
▁ⲧⲥⲩⲣⲓⲁ 100
ⲁⲣⲭⲱⲛⲧⲁ 100
ⲃⲉⲥⲁⲗⲱⲙ 100
ⲗⲉⲓⲧⲟⲩⲣ 100
ⲙⲉⲥⲧⲱⲟⲩ 100
ⲙⲛⲧⲛⲟⲩϫ 100
ⲛⲇⲣⲓⲧⲏⲥ 100
ⲛⲉⲕϣⲁϫⲉ 100
ⲛⲟⲙⲓⲕⲟⲥ 100
ⲡⲓⲧⲓⲙⲓⲁ 100
ⲡⲟⲗⲟⲅⲓⲁ 100
ⲥϩⲁⲓⲥⲟⲩ 100
ⲥⲁⲛⲟⲩϣⲧ 100
ⲧϣⲉⲗⲉⲉⲧ 100
ⲧⲉⲕⲙⲁⲁⲩ 100
ⲧⲟⲓⲭⲓⲟⲛ 100
ⲧⲥⲁⲃⲟⲟⲩ 100
ⲩⲙⲃⲏⲑⲣⲁ 100
ⲫⲟⲓⲛⲓⲕⲏ 100
ⲫⲩⲗⲟⲟⲩⲉ 100
ⲭⲁⲣⲓⲥⲙⲁ 100
ϭⲓⲛⲟⲩⲟⲟⲙ 100
▁ϣⲁⲛⲧⲓⲉⲓ 100
▁ϣⲁⲡⲉⲓⲱⲧ 100
▁ϣⲁⲣⲟⲩϩⲉ 100
▁ϩⲏⲣⲱⲇⲏⲥ 100
▁ϩⲓϫⲛⲛⲉⲩ 100
▁ϩⲓⲡϫⲟⲉⲓ 100
▁ϩⲙⲡⲉϥϩⲟ 100
▁ϩⲙⲡⲉⲥⲙⲁ 100
▁ϩⲙⲡⲧⲁⲕⲟ 100
▁ϩⲛⲓⲟⲩⲇⲁ 100
▁ϩⲛⲛϣⲁϫⲉ 100
▁ϩⲛⲥⲁⲟⲩⲗ 100
▁ϩⲛⲥⲏⲉⲓⲣ 100
▁ϩⲛⲧⲉⲕⲙⲉ 100
▁ϫⲉϯⲥⲟⲡⲥ 100
▁ϫⲉⲡϣⲁϫⲉ 100
▁ϫⲉⲡⲗⲁⲟⲥ 100
▁ϫⲉⲣⲁⲥⲧⲉ 100
▁ϫⲉⲥⲁϩⲱⲕ 100
▁ϫⲉⲥⲓⲙⲱⲛ 100
▁ϫⲉⲥⲱⲟⲩϩ 100
▁ϫⲓⲛϣⲟⲣⲡ 100
▁ϭⲙⲡϣⲓⲛⲉ 100
▁ϯⲛⲁϫⲓⲥⲉ 100
▁ⲁϥⲁⲓⲧⲉⲓ 100
▁ⲁϥⲉⲓⲱⲣⲙ 100
▁ⲁϥⲛⲟⲩϩⲙ 100
▁ⲁϥⲥⲙⲓⲛⲉ 100
▁ⲁϥⲧⲁⲗⲟϥ 100
▁ⲁⲓⲙⲉⲉⲩⲉ 100
▁ⲁⲓⲣϩⲟⲧⲉ 100
▁ⲁⲓⲣⲛⲟⲃⲉ 100
▁ⲁⲛⲉⲥⲛⲏⲩ 100
▁ⲁⲡⲉⲧⲣⲟⲥ 100
▁ⲁⲩϣⲟⲟⲩⲉ 100
▁ⲁⲩϩⲓⲱⲛⲉ 100
▁ⲁⲩϫⲓⲧⲟⲩ 100
▁ⲁⲩⲑⲃⲃⲓⲟ 100
▁ⲁⲩⲙⲉⲉⲩⲉ 100
▁ⲁⲩⲟⲩⲱⲛϩ 100
▁ⲁⲩⲡⲉⲓⲑⲉ 100
▁ⲁⲩⲥⲟⲃⲧⲉ 100
▁ⲁⲭⲓⲙⲁⲁⲥ 100
▁ⲇⲉⲃⲃⲱⲣⲁ 100
▁ⲇⲓⲁⲑⲏⲕⲏ 100
▁ⲉϣⲡϩⲓⲥⲉ 100
▁ⲉϥϩⲁⲣⲉϩ 100
▁ⲉϥϭⲙϭⲟⲙ 100
▁ⲉϫⲛⲛⲧⲟϣ 100
▁ⲉϫⲛⲡⲕⲁϩ 100
▁ⲉϯⲛⲁⲃⲱⲕ 100
▁ⲉⲁϥϣⲱⲡⲉ 100
▁ⲉⲃⲁⲓⲑⲏⲗ 100
▁ⲉⲕϣⲁⲛⲉⲓ 100
▁ⲉⲕⲉϣⲱⲡⲉ 100
▁ⲉⲝⲉⲥⲧⲉⲓ 100
▁ⲉⲡⲁⲥⲟⲡⲥ 100
▁ⲉⲡⲅⲉⲛⲟⲥ 100
▁ⲉⲡⲉϣⲗⲏⲗ 100
▁ⲉⲡⲉⲥϩⲁⲓ 100
▁ⲉⲣⲉⲟⲩⲟⲛ 100
▁ⲉⲧϥⲉⲓⲣⲉ 100
▁ⲉⲧϩⲓϫⲱϥ 100
▁ⲉⲧϩⲙⲡⲉϥ 100
▁ⲉⲧϩⲛⲧⲡⲉ 100
▁ⲉⲧⲁⲕⲟⲟⲩ 100
▁ⲉⲧⲃⲉϫⲉⲁ 100
▁ⲉⲧⲉϥϩⲓⲏ 100
▁ⲉⲧⲕⲉⲓⲣⲉ 100
▁ⲉⲧⲙⲟⲟⲩⲧ 100
▁ⲉⲧⲛⲁϫⲱϩ 100
▁ⲉⲧⲧⲱⲟⲩⲛ 100
▁ⲉⲩϩⲁⲣⲉϩ 100
▁ⲉⲩⲑⲗⲓⲃⲉ 100
▁ⲉⲩⲥⲃⲧⲱⲧ 100
▁ⲗⲁⲍⲁⲣⲟⲥ 100
▁ⲙⲁⲣⲉⲧⲉⲕ 100
▁ⲙⲁⲣⲛⲡⲱⲧ 100
▁ⲙⲁⲣⲟⲩⲉⲓ 100
▁ⲙⲙⲙⲟⲁⲩⲱ 100
▁ⲙⲛⲕⲉⲟⲩⲁ 100
▁ⲙⲛⲛⲉⲩⲙⲁ 100
▁ⲙⲛⲡⲉⲧⲛⲁ 100
▁ⲙⲛⲥⲁⲗⲙⲁ 100
▁ⲙⲛⲥⲁⲟⲩⲗ 100
▁ⲙⲛⲥⲓⲇⲱⲛ 100
▁ⲙⲡⲉϥⲛⲁⲩ 100
▁ⲙⲡⲉⲓϩⲱⲃ 100
▁ⲙⲡⲉⲛⲙⲧⲟ 100
▁ⲙⲡⲣϣⲗⲁϩ 100
▁ⲙⲡⲣⲉⲙⲏⲧ 100
▁ⲙⲡⲥⲉⲉⲡⲉ 100
▁ⲙⲡⲥⲟⲫⲟⲥ 100
▁ⲛϥϩⲁⲣⲉϩ 100
▁ⲛϥⲙⲟⲟϣⲉ 100
▁ⲛϩⲟⲉⲓⲧⲉ 100
▁ⲛⲁϩⲁⲣⲉϩ 100
▁ⲛⲁⲟⲩⲱϣϥ 100
▁ⲛⲁⲭⲓⲕⲁⲙ 100
▁ⲛⲃⲁⲗϩⲏⲧ 100
▁ⲛⲉⲧϣⲓⲛⲉ 100
▁ⲛⲉⲧⲉⲛⲥⲉ 100
▁ⲛⲉⲧⲕⲱⲧⲉ 100
▁ⲛⲓⲉⲫⲑⲁⲉ 100
▁ⲛⲕⲟⲓⲛⲱⲛ 100
▁ⲛⲕⲟⲕⲕⲟⲥ 100
▁ⲛⲕⲣⲓⲧⲏⲥ 100
▁ⲛⲙⲓⲁⲕⲱⲃ 100
▁ⲛⲙⲡⲉⲧⲣⲁ 100
▁ⲛⲛⲉⲛⲧⲁⲓ 100
▁ⲛⲛⲟⲉⲙⲓⲛ 100
▁ⲛⲛⲣⲉϥϫⲓ 100
▁ⲛⲟⲩⲉⲃⲓⲱ 100
▁ⲛⲟⲩⲓⲉⲣⲟ 100
▁ⲛⲟⲩⲛⲟⲩⲃ 100
▁ⲛⲟⲩⲡⲏⲅⲏ 100
▁ⲛⲟⲩⲥⲟⲃⲧ 100
▁ⲛⲥⲉⲉⲓⲙⲉ 100
▁ⲛⲧⲁⲡⲣⲣⲟ 100
▁ⲛⲧⲉⲡⲗⲁⲝ 100
▁ⲛⲧⲉⲣⲉϥⲣ 100
▁ⲛⲧⲉⲩϭⲟⲙ 100
▁ⲛⲧⲛⲉⲓⲣⲉ 100
▁ⲟⲩⲁⲧϩⲏⲧ 100
▁ⲟⲩⲥⲟⲫⲟⲥ 100
▁ⲡϩⲉⲑⲛⲟⲥ 100
▁ⲡⲁⲥⲱⲧⲏⲣ 100
▁ⲡⲉϫⲉⲁⲡⲁ 100
▁ⲡⲉⲕϣⲁϫⲉ 100
▁ⲡⲉⲧϩⲓϫⲛ 100
▁ⲡⲉⲧϯⲥⲃⲱ 100
▁ⲡⲉⲧⲉⲙⲡϥ 100
▁ⲡⲉⲧⲟⲩⲱϣ 100
▁ⲥⲉⲛⲁⲥⲉⲓ 100
▁ⲥⲉⲛⲁⲱϫⲛ 100
▁ⲥⲉⲟⲩⲟⲛϩ 100
▁ⲥⲟⲗⲟⲙⲱⲛ 100
▁ⲧϩⲉⲗⲡⲓⲥ 100
▁ⲧⲁⲙⲓⲟⲟⲩ 100
▁ⲧⲁⲧⲁⲡⲣⲟ 100
▁ⲧⲉⲅⲣⲁⲫⲏ 100
▁ⲧⲉⲛⲉⲓⲙⲉ 100
▁ⲧⲉⲛⲧⲟⲗⲏ 100
▁ⲧⲉⲧⲛⲁϫⲓ 100
▁ⲧⲙⲛⲧⲙⲁⲓ 100
ⲁⲃⲓⲙⲉⲗⲉⲭ 100
ⲇⲟⲩⲙⲁⲓⲟⲥ 100
ⲓⲇⲟⲩⲙⲁⲓⲁ 100
ⲕⲉⲩⲛⲟⲩⲧⲉ 100
ⲙⲁⲛⲛⲕⲟⲧⲕ 100
ⲙⲛⲧϩⲙϩⲁⲗ 100
ⲙⲛⲧⲣⲉϥϫⲓ 100
ⲛⲁⲅⲕⲁⲓⲟⲛ 100
ⲛⲉϥⲉⲓⲟⲧⲉ 100
ⲛⲟⲩⲟⲩⲛⲟⲩ 100
ⲟⲣⲛⲏⲗⲓⲟⲥ 100
ⲡⲁⲣϩⲓⲥⲧⲁ 100
ⲡⲉϥⲣⲁⲥⲧⲉ 100
ⲡⲣⲟⲥⲫⲟⲣⲁ 100
ⲥⲡⲓⲣⲟⲟⲩⲉ 100
ⲥⲫⲣⲁⲅⲓⲍⲉ 100
▁ϩⲉⲛϣⲡⲏⲣⲉ 100
▁ϩⲙⲡⲉⲥϩⲏⲧ 100
▁ϩⲙⲡⲉⲩⲕⲁϩ 100
▁ϩⲛⲅⲁⲃⲁⲱⲛ 100
▁ϩⲛⲟⲩⲧⲁⲕⲟ 100
▁ϩⲛⲧⲟⲣⲓⲛⲏ 100
▁ϫⲉⲁϥϫⲟⲟⲥ 100
▁ϫⲉⲁⲓϣⲓⲛⲉ 100
▁ϫⲉⲧⲁⲯⲩⲭⲏ 100
▁ϫⲓⲛⲟⲩϫⲱⲙ 100
▁ϯϩⲉⲗⲡⲓⲍⲉ 100
▁ϯⲛⲁⲥⲙⲓⲛⲉ 100
▁ⲁϥⲁϣϣⲕⲁⲕ 100
▁ⲁϥⲧⲁⲙⲓⲟϥ 100
▁ⲁⲓⲁⲙⲁϩⲧⲉ 100
▁ⲁⲩϫⲓⲡⲟⲩⲱ 100
▁ⲇⲟⲕⲓⲙⲁⲍⲉ 100
▁ⲉϥⲉⲟⲩⲱⲛϩ 100
▁ⲉϥⲑⲃⲃⲓⲏⲩ 100
▁ⲉϫⲙⲡⲣⲱⲙⲉ 100
▁ⲉϫⲛⲧⲡⲏⲅⲏ 100
▁ⲉⲃⲏⲑⲗⲉⲉⲙ 100
▁ⲉⲃⲟⲗϩⲓⲧⲙ 100
▁ⲉⲛⲉⲧϣⲟⲟⲡ 100
▁ⲉⲛⲉⲩϣⲟⲟⲡ 100
▁ⲉⲡⲉϥⲉⲟⲟⲩ 100
▁ⲉⲡⲉⲓⲣⲁⲍⲉ 100
▁ⲉⲡⲉⲓⲣⲱⲙⲉ 100
▁ⲉⲡⲉⲩⲥⲟⲡⲥ 100
▁ⲉⲡⲓⲥⲧⲉⲩⲉ 100
▁ⲉⲥϣⲟⲩⲉⲓⲧ 100
▁ⲉⲥⲥⲟⲩⲧⲱⲛ 100
▁ⲉⲧⲕⲉⲉⲓⲗⲁ 100
▁ⲉⲧⲛϩⲏⲧⲟⲩ 100
▁ⲉⲧⲛⲁⲟⲩⲱⲙ 100
▁ⲉⲧⲣⲁϣⲱⲡⲉ 100
▁ⲉⲩⲣϣⲡⲏⲣⲉ 100
▁ⲕⲁⲑⲁⲣⲓⲍⲉ 100
▁ⲙⲁⲣⲉⲡⲟⲩⲁ 100
▁ⲙⲙⲉϩⲥⲛⲁⲩ 100
▁ⲙⲛⲟⲩϭⲱⲛⲧ 100
▁ⲙⲛⲟⲩⲙⲕⲁϩ 100
▁ⲙⲛⲟⲩⲥⲧⲱⲧ 100
▁ⲙⲛⲡⲉⲥϩⲁⲓ 100
▁ⲙⲡϩⲁⲅⲓⲟⲥ 100
▁ⲙⲡϩⲉⲃⲱⲱⲛ 100
▁ⲙⲡⲁⲛⲟⲙⲟⲥ 100
▁ⲙⲡⲉⲓⲁⲓⲱⲛ 100
▁ⲙⲡⲉⲕⲟⲩⲟⲓ 100
▁ⲙⲡⲉⲥϣⲏⲣⲉ 100
▁ⲙⲡⲉⲧⲛϩⲏⲧ 100
▁ⲙⲡⲣⲣⲡⲱⲃϣ 100
▁ⲙⲡⲣⲧⲣⲉⲟⲩ 100
▁ⲛϩⲉⲛϭⲗⲓⲗ 100
▁ⲛϫⲁⲥⲓϩⲏⲧ 100
▁ⲛϭⲣⲟⲟⲙⲡⲉ 100
▁ⲛⲁⲃⲟⲏⲑⲉⲓ 100
▁ⲛⲁⲣⲭⲏⲅⲟⲥ 100
▁ⲛⲁⲧⲥⲟⲟⲩⲛ 100
▁ⲛⲇⲓⲕⲁⲓⲟⲛ 100
▁ⲛⲉⲛⲉⲓⲟⲧⲉ 100
▁ⲛⲉⲟⲩⲛⲧⲁϥ 100
▁ⲛⲉⲩⲛⲟⲩⲧⲉ 100
▁ⲛⲉⲩⲥⲟⲟⲩⲛ 100
▁ⲛⲕⲁⲧⲏⲅⲟⲣ 100
▁ⲛⲙⲧⲉⲭⲏⲣⲁ 100
▁ⲛⲛⲁⲛⲟⲙⲓⲁ 100
▁ⲛⲛⲉⲓⲕⲟⲩⲓ 100
▁ⲛⲛⲉⲥϣⲏⲣⲉ 100
▁ⲛⲛⲉⲩϩⲓⲥⲉ 100
▁ⲛⲟⲩϩⲟⲙⲛⲧ 100
▁ⲛⲟⲩϫⲱⲱⲣⲉ 100
▁ⲛⲣⲉϥϯϩⲁⲡ 100
▁ⲛⲥϯⲛⲟⲩϥⲉ 100
▁ⲛⲥⲁⲧⲉⲥⲙⲏ 100
▁ⲛⲥⲉϩⲁⲣⲉϩ 100
▁ⲛⲥⲉⲥⲱⲟⲩϩ 100
▁ⲛⲧⲁⲓⲧⲁⲁϥ 100
▁ⲛⲧⲉϥⲥⲁⲣⲝ 100
▁ⲛⲧⲉⲗⲱⲛⲏⲥ 100
▁ⲛⲧⲉⲛϣⲏⲣⲉ 100
▁ⲛⲧⲉⲣⲉϥϫⲓ 100
▁ⲛⲧⲛⲟⲩϫⲁⲓ 100
▁ⲟⲩϩⲉⲑⲛⲟⲥ 100
▁ⲟⲩⲕⲣⲓⲧⲏⲥ 100
▁ⲡⲉⲕⲣⲓⲧⲏⲥ 100
▁ⲡⲉⲧⲛⲁϫⲣⲟ 100
▁ⲡⲉⲧⲛⲁⲱⲣⲕ 100
▁ⲡⲡⲉⲧϩⲟⲟⲩ 100
▁ⲥⲉⲛⲁϣⲁϫⲉ 100
▁ⲧϩⲟⲣⲁⲥⲓⲥ 100
▁ⲧⲁϩⲉⲗⲡⲓⲥ 100
▁ⲧⲉⲧⲛϣⲓⲛⲉ 100
▁ⲧⲉⲧⲛⲉⲓⲣⲉ 100
▁ⲧⲛⲛⲁϣⲱⲡⲉ 100
ⲙⲛⲧⲁⲧⲥⲱⲧⲙ 100
ⲙⲛⲧⲃⲁⲗϩⲏⲧ 100
ⲛⲁⲥⲥⲩⲣⲓⲟⲥ 100
ⲛⲧⲁⲧⲥⲟⲟⲩⲛ 100
ⲡⲁⲛϩⲟⲡⲗⲓⲁ 100
ϩⲉⲣⲁⲧⲧⲏⲩⲧⲛ 100
ϩⲩⲡⲁⲣⲭⲱⲛⲧⲁ 100
ϩⲩⲡⲟⲕⲣⲓⲧⲏⲥ 100
▁ϣⲁⲛⲧⲟⲩϫⲱⲕ 100
▁ϩⲉⲛϩⲓⲟⲟⲩⲉ 100
▁ϩⲓϫⲙⲡⲙⲟⲟⲩ 100
▁ϩⲓⲧⲙⲡϣⲁϫⲉ 100
▁ϩⲙⲡⲉⲕϭⲱⲛⲧ 100
▁ϩⲛⲛⲕⲁⲣⲡⲟⲥ 100
▁ϩⲛⲟⲩϣⲟϫⲛⲉ 100
▁ϩⲛⲧⲉϥⲟⲣⲅⲏ 100
▁ϩⲛⲧⲉⲛⲙⲏⲧⲉ 100
▁ϫⲉϥⲛⲁϣⲱⲡⲉ 100
▁ϫⲉⲙⲁⲧⲁⲙⲟⲓ 100
▁ϫⲉⲙⲡⲉⲣⲧⲣⲉ 100
▁ϫⲉⲛⲁⲓⲁⲧⲟⲩ 100
▁ⲁϥϫⲓⲙⲟⲉⲓⲧ 100
▁ⲁϥⲧⲁⲙⲓⲟⲟⲩ 100
▁ⲁϥⲧⲟⲩⲛⲟⲥϥ 100
▁ⲁⲥⲁϩⲉⲣⲁⲧⲥ 100
▁ⲁⲩⲛⲏⲥⲧⲉⲩⲉ 100
▁ⲁⲩⲡⲟⲗⲉⲙⲉⲓ 100
▁ⲉϥϣⲁⲛⲥⲱⲧⲙ 100
▁ⲉϥⲉⲟⲩⲁϩⲟⲩ 100
▁ⲉϩⲟⲩⲉⲣⲟⲟⲩ 100
▁ⲉϫⲙⲡⲁⲗⲁⲟⲥ 100
▁ⲉⲓⲱϩⲁⲛⲛⲏⲥ 100
▁ⲉⲛⲁϩⲓⲟⲟⲩⲉ 100
▁ⲉⲛⲧⲁϥϫⲟⲟⲩ 100
▁ⲉⲛⲧⲁⲩϣⲱϫⲡ 100
▁ⲉⲡⲉϥϫⲟⲉⲓⲥ 100
▁ⲉⲧⲉϥⲥϩⲓⲙⲉ 100
▁ⲉⲧⲉⲛⲉⲣⲅⲉⲓ 100
▁ⲉⲧⲉⲧⲛϣⲟⲟⲡ 100
▁ⲉⲧⲕⲓⲃⲱⲧⲟⲥ 100
▁ⲉⲧⲣⲉⲩⲉⲓⲣⲉ 100
▁ⲉⲩⲥⲧⲁⲑⲓⲟⲥ 100
▁ⲕⲁⲧⲁⲡϣⲁϫⲉ 100
▁ⲙⲙⲉⲧⲁⲛⲟⲓⲁ 100
▁ⲙⲛⲛⲓⲟⲩⲇⲁⲓ 100
▁ⲙⲛⲛⲥⲁⲧⲣⲉⲩ 100
▁ⲙⲛⲟⲩⲙⲏⲏϣⲉ 100
▁ⲙⲛⲡⲁϫⲟⲉⲓⲥ 100
▁ⲙⲛⲧϩⲁⲓⲃⲉⲥ 100
▁ⲙⲡⲁⲡⲛⲉⲩⲙⲁ 100
▁ⲙⲡⲁⲡⲟⲗⲗⲱⲛ 100
▁ⲙⲡⲉⲡϫⲟⲉⲓⲥ 100
▁ⲙⲡⲉⲡⲛⲟⲩⲧⲉ 100
▁ⲙⲡⲉⲧϩⲙⲟⲟⲥ 100
▁ⲙⲡⲉⲧⲛⲉⲓⲱⲧ 100
▁ⲙⲡⲣϣⲧⲟⲣⲧⲣ 100
▁ⲛϩⲉⲃⲣⲁⲓⲟⲥ 100
▁ⲛϭⲓⲃⲁⲣⲟⲩⲭ 100
▁ⲛϭⲓⲏⲥⲁⲓⲁⲥ 100
▁ⲛϭⲓⲛϣⲉⲉⲣⲉ 100
▁ⲛϭⲓⲡϩⲙϩⲁⲗ 100
▁ⲛⲁⲇⲣⲁⲁⲍⲁⲣ 100
▁ⲛⲃⲏⲑⲥⲁⲙⲏⲥ 100
▁ⲛⲉϥⲉⲛⲕⲟⲧⲕ 100
▁ⲛⲉⲧⲛⲉⲓⲟⲧⲉ 100
▁ⲛⲓⲉⲃⲟⲩⲥⲑⲉ 100
▁ⲛⲛⲁⲥⲡⲟⲧⲟⲩ 100
▁ⲛⲛⲉϥϣⲃⲉⲉⲣ 100
▁ⲛⲛⲉⲓⲇⲱⲗⲟⲛ 100
▁ⲛⲛⲉⲓⲡⲟⲗⲓⲥ 100
▁ⲛⲛⲉⲕϣⲡⲏⲣⲉ 100
▁ⲛⲛⲉⲟⲩⲟⲉⲓϣ 100
▁ⲛⲛⲉⲧⲛⲟⲩⲱⲙ 100
▁ⲛⲛⲉⲧⲧⲱⲟⲩⲛ 100
▁ⲛⲟⲩϩⲉⲗⲡⲓⲥ 100
▁ⲛⲟⲩϩⲟⲉⲓⲧⲉ 100
▁ⲛⲟⲩⲑⲗⲓⲯⲓⲥ 100
▁ⲛⲟⲩⲙⲛⲧⲣⲣⲟ 100
▁ⲛⲥⲁⲃⲃⲁⲧⲟⲛ 100
▁ⲛⲧϩⲟⲣⲁⲥⲓⲥ 100
▁ⲛⲧⲁϥⲟⲩⲱⲛϩ 100
▁ⲛⲧⲉϥⲥⲕⲏⲛⲏ 100
▁ⲛⲧⲉϥⲫⲓⲁⲗⲏ 100
▁ⲛⲧⲉⲕⲧⲁⲡⲣⲟ 100
▁ⲛⲧⲉⲣⲉϥⲟⲩⲱ 100
▁ⲛⲧⲉⲣⲓⲥⲱⲧⲙ 100
▁ⲛⲧⲉⲧⲛⲉⲓⲛⲉ 100
▁ⲛⲧⲕⲩⲣⲓⲁⲕⲏ 100
▁ⲟⲩⲁⲅⲅⲉⲗⲟⲥ 100
▁ⲟⲩⲛⲟⲙⲓⲙⲟⲛ 100
▁ⲡⲉϫⲉⲛⲣⲱⲙⲉ 100
▁ⲡⲉⲧⲁⲙⲁϩⲧⲉ 100
▁ⲡⲉⲧⲛⲁϣⲓⲛⲉ 100
▁ⲡⲕⲁⲣⲙⲏⲗⲟⲥ 100
▁ⲡⲥⲁⲃⲃⲁⲧⲟⲛ 100
▁ⲧⲉϥⲙⲛⲧⲣⲣⲟ 100
▁ⲧⲉⲕⲕⲗⲏⲥⲓⲁ 100
▁ⲧⲕⲟⲓⲃⲱⲧⲟⲥ 100
ⲓⲥⲣⲁⲏⲗⲓⲧⲏⲥ 100
ⲡⲣⲁⲓⲧⲱⲣⲓⲟⲛ 100
ⲧⲁⲗⲁⲓⲡⲱⲣⲟⲥ 100
▁ϩⲓⲧⲙⲡⲁⲉⲓⲱⲧ 100
▁ϩⲙⲡⲉϥⲧⲏⲏⲃⲉ 100
▁ϩⲙⲡⲉⲥⲡⲉⲣⲙⲁ 100
▁ϩⲛⲛⲉⲩⲡⲟⲗⲓⲥ 100
▁ϩⲛⲟⲩⲕⲓⲑⲁⲣⲁ 100
▁ⲉϥⲧⲁϣⲉⲟⲉⲓϣ 100
▁ⲉϩⲉⲛⲁⲅⲁⲑⲟⲛ 100
▁ⲉϩⲛⲡⲉⲧϩⲟⲟⲩ 100
▁ⲉⲧⲉⲧⲛϣⲁⲛⲧⲙ 100
▁ⲉⲧⲉⲧⲛⲉϣⲱⲡⲉ 100
▁ⲉⲧⲉⲧⲛⲙⲉⲉⲩⲉ 100
▁ⲉⲧⲣⲉⲧⲛⲉⲓⲙⲉ 100
▁ⲉⲩⲙⲉⲧⲁⲛⲟⲓⲁ 100
▁ⲕⲁⲧⲁⲡⲛⲟⲩⲧⲉ 100
▁ⲙⲙⲛⲧⲣⲙⲛϩⲏⲧ 100
▁ⲙⲛⲙⲡⲉⲧϩⲟⲟⲩ 100
▁ⲙⲛⲛϩⲏⲅⲉⲙⲱⲛ 100
▁ⲙⲛⲛⲉϥϣⲉⲉⲣⲉ 100
▁ⲙⲛⲛⲉⲩϣⲉⲉⲣⲉ 100
▁ⲙⲛⲟⲩⲛⲟϭⲛⲉϭ 100
▁ⲙⲡⲁⲧϣⲉⲗⲉⲉⲧ 100
▁ⲙⲡⲉⲓⲣⲁⲥⲙⲟⲥ 100
▁ⲙⲡⲟⲩϣϭⲙϭⲟⲙ 100
▁ⲛϩⲉⲛϭⲟⲟⲩⲛⲉ 100
▁ⲛϩⲉⲛⲁⲅⲁⲑⲟⲛ 100
▁ⲛϭⲓⲙⲱⲟⲩⲥⲏⲥ 100
▁ⲛϭⲓⲟⲩⲙⲏⲏϣⲉ 100
▁ⲛⲉϥⲁⲅⲅⲉⲗⲟⲥ 100
▁ⲛⲉⲧⲡⲓⲥⲧⲉⲩⲉ 100
▁ⲛⲉⲩⲥⲧⲁⲑⲓⲟⲥ 100
▁ⲛⲛⲉⲧⲛⲟⲩⲟⲙϥ 100
▁ⲛⲟⲩⲥⲁⲗⲡⲓⲅⲝ 100
▁ⲛⲧⲉⲕⲙⲛⲧⲣⲣⲟ 100
▁ⲛⲧⲉⲣⲉϥϭⲱϣⲧ 100
▁ⲛⲧⲉⲣⲉⲥⲥⲱⲧⲙ 100
▁ⲛⲧⲙⲛⲧⲟⲩⲏⲏⲃ 100
▁ⲡⲉϣⲁⲩⲙⲟⲩⲧⲉ 100
▁ⲡⲉϫⲉⲅⲉⲇⲉⲱⲛ 100
▁ⲡⲉϫⲉⲡⲁⲩⲗⲟⲥ 100
▁ⲡⲉⲧⲛⲁϩⲁⲣⲉϩ 100
▁ⲡⲉⲧⲛⲁⲙⲟⲟϣⲉ 100
▁ⲡⲉⲧⲟⲩⲙⲟⲩⲧⲉ 100
▁ⲡⲟⲓⲕⲟⲛⲟⲙⲟⲥ 100
▁ⲧⲙⲁⲅⲇⲁⲗⲏⲛⲏ 100
▁ⲧⲙⲛⲧⲣⲙⲛϩⲏⲧ 100
▁ϩⲛⲛⲉϥⲥⲡⲟⲧⲟⲩ 100
▁ϩⲛⲛⲉⲕϩⲓⲟⲟⲩⲉ 100
▁ϩⲛⲛⲉⲩϩⲓⲟⲟⲩⲉ 100
▁ϫⲉⲉⲣⲉⲡⲛⲟⲩⲧⲉ 100
▁ⲁϥⲡⲣⲟⲫⲏⲧⲉⲩⲉ 100
▁ⲉⲡⲉⲛⲧⲁϥϣⲱⲡⲉ 100
▁ⲉⲡⲉⲧϩⲓⲧⲟⲩⲱⲕ 100
▁ⲕⲁⲧⲁⲡⲉϥⲟⲩⲱϣ 100
▁ⲙⲛⲛⲉⲧⲛϣⲉⲉⲣⲉ 100
▁ⲙⲛⲛⲉⲧⲛⲉⲓⲟⲧⲉ 100
▁ⲙⲛⲛⲣⲉϥⲣⲛⲟⲃⲉ 100
▁ⲙⲡⲉϥⲥⲧⲁⲩⲣⲟⲥ 100
▁ⲙⲡⲉⲡⲣⲟⲫⲏⲧⲏⲥ 100
▁ⲛϭⲓϩⲉⲛⲙⲏⲏϣⲉ 100
▁ⲛϭⲓⲡⲗⲁⲕⲏⲧⲁⲥ 100
▁ⲛⲙⲡⲉⲧϣⲟⲩⲉⲓⲧ 100
▁ⲛⲛⲉⲛⲧⲁⲩϣⲱⲡⲉ 100
▁ⲛⲟⲩⲙⲛⲧⲙⲛⲧⲣⲉ 100
▁ⲛⲟⲩⲙⲛⲧⲣⲙⲙⲁⲟ 100
▁ⲛⲧⲁⲛⲁⲥⲧⲁⲥⲓⲥ 100
▁ⲛⲧⲉⲡⲉⲡⲛⲉⲩⲙⲁ 100
▁ⲛⲧⲉⲣⲉⲡϫⲟⲉⲓⲥ 100
▁ⲡⲓⲥⲕⲁⲣⲓⲱⲧⲏⲥ 100
ⲡⲣⲟⲥⲕⲁⲣⲧⲉⲣⲉⲓ 100
ⲧⲁⲇⲓⲕⲁⲓⲟⲥⲩⲛⲏ 100
▁............ 100
▁ϩⲁⲧⲛⲧⲑⲁⲗⲁⲥⲥⲁ 100
▁ϩⲛⲛⲉϥⲙⲁⲑⲏⲧⲏⲥ 100
▁ϩⲛⲛⲉⲡⲣⲟⲫⲏⲧⲏⲥ 100
▁ϩⲛⲧⲙⲁⲕⲉⲇⲟⲛⲓⲁ 100
▁ϫⲓⲛⲧⲉϩⲟⲩⲉⲓⲧⲉ 100
▁ⲉⲛⲉⲕⲙⲛⲧⲙⲛⲧⲣⲉ 100
▁ⲉⲡⲉⲭⲉⲓⲙⲁⲣⲣⲟⲥ 100
▁ⲉⲣⲉⲡⲉⲧⲛⲁⲛⲟⲩϥ 100
▁ⲉⲧϩⲛⲛⲉⲕⲡⲟⲗⲓⲥ 100
▁ⲙⲛⲛⲥⲁϩⲉⲛϩⲟⲟⲩ 100
▁ⲙⲡⲉⲭⲉⲓⲙⲁⲣⲣⲟⲥ 100
▁ⲛϩⲟⲗⲟⲕⲁⲩⲧⲱⲙⲁ 100
▁ⲛϭⲓⲉⲩⲥⲧⲁⲑⲓⲟⲥ 100
▁ⲛⲛⲁⲗⲗⲟⲫⲩⲗⲗⲟⲥ 100
▁ⲛⲧⲉⲓⲡⲁⲣⲁⲃⲟⲗⲏ 100
▁ⲡⲉⲅⲣⲁⲙⲙⲁⲧⲉⲩⲥ 100
▁ⲡⲉⲡⲣⲟⲥⲏⲗⲩⲧⲟⲥ 100
▁ϩⲙⲡⲥⲩⲛϩⲉⲇⲣⲓⲟⲛ 100
▁ⲉϫⲛⲧⲟⲓⲕⲟⲩⲙⲉⲛⲏ 100
▁ⲙⲛⲧⲇⲓⲕⲁⲓⲟⲥⲩⲛⲏ 100
▁ⲙⲡⲡⲁⲛⲧⲟⲕⲣⲁⲧⲱⲣ 100
▁ⲛⲧⲁⲕⲗⲏⲣⲟⲛⲟⲙⲓⲁ 100
▁ⲛⲧⲉⲛⲁⲗⲗⲟⲫⲩⲗⲟⲥ 100
▁ⲡⲉⲥⲧⲣⲁⲧⲏⲗⲁⲧⲏⲥ 100
▁ϩⲛⲛⲉⲫⲁⲣⲓⲥⲥⲁⲓⲟⲥ 100
▁ⲙⲛⲡⲉϥⲥⲧⲣⲁⲧⲉⲩⲙⲁ 100
▁ⲛⲧⲉϥⲇⲓⲕⲁⲓⲟⲥⲩⲛⲏ 100
▁ⲛⲧⲉⲥⲁⲥⲭⲏⲙⲟⲥⲩⲛⲏ 100
▁............... 100
▁ϩⲛⲛⲉⲡⲣⲉⲥⲃⲩⲧⲉⲣⲟⲥ 100
▁ⲉⲡⲉⲑⲩⲥⲓⲁⲥⲧⲏⲣⲓⲟⲛ 100
·· 100
ϣⲗ 100
ϫϭ 100
ϭϩ 100
▁ⲩ 100
ⲅⲟ 100
ⲓⲃ 100
ⲩⲗ 100
ⲩⲭ 100
ⲫⲑ 100
ⲭϩ 100
ⲱⲉ 100
··· 100
ϣⲁⲗ 100
ϣⲉⲓ 100
ϣⲏϣ 100
ϩⲓⲱ 100
ϫⲓⲕ 100
ϫⲟⲓ 100
ϫⲣⲉ 100
ϭⲏⲩ 100
ϭⲓⲥ 100
ϭⲗⲟ 100
▁ϣⲙ 100
▁ϥϯ 100
▁ϥⲣ 100
▁ϩⲃ 100
▁ϭⲛ 100
▁ϯⲣ 100
▁ⲃⲃ 100
▁ⲉⲃ 100
▁ⲉⲅ 100
▁ⲟⲙ 100
▁ⲡⲛ 100
▁ⲣⲟ 100
▁ⲱⲅ 100
▁ⲱⲡ 100
ⲁⲡⲟ 100
ⲁⲩⲉ 100
ⲃⲁϩ 100
ⲃⲁⲕ 100
ⲃⲏⲥ 100
ⲃⲗⲁ 100
ⲃⲧⲉ 100
ⲅⲁⲅ 100
ⲇⲁⲇ 100
ⲉⲛⲉ 100
ⲉⲧⲉ 100
ⲍⲉⲗ 100
ⲍⲏⲃ 100
ⲑⲙⲥ 100
ⲕⲉϥ 100
ⲕⲣⲙ 100
ⲗⲁⲃ 100
ⲗⲉϥ 100
ⲗⲉⲁ 100
ⲙⲉⲧ 100
ⲙⲱⲑ 100
ⲛⲁⲧ 100
ⲛⲓⲝ 100
ⲟⲗⲕ 100
ⲟⲧⲓ 100
ⲟⲧⲡ 100
ⲡⲏⲡ 100
ⲡⲟⲓ 100
ⲡⲥⲁ 100
ⲡⲱⲕ 100
ⲣϣⲱ 100
ⲥⲓⲟ 100
ⲥⲥⲁ 100
ⲥⲧⲟ 100
ⲥⲧⲩ 100
ⲥⲧⲱ 100
ⲧⲉϩ 100
ⲧⲉϭ 100
ⲧⲉⲡ 100
ⲧⲓⲙ 100
ⲧⲟⲉ 100
ⲧⲥⲃ 100
ⲧⲱϥ 100
ⲭⲟⲩ 100
ⲱϣⲧ 100
ⲱⲛⲁ 100
ⲱⲧϥ 100
ϣⲙⲏⲛ 100
ϣⲟⲡⲕ 100
ϥϭⲓϫ 100
ϥⲟϭϥ 100
ϥⲟⲧⲕ 100
ϩⲁⲣϣ 100
ϩⲁⲧⲛ 100
ϩⲉⲧⲃ 100
ϩⲏⲣⲱ 100
ϩⲓϩⲏ 100
ϩⲛⲁⲕ 100
ϩⲟⲟⲣ 100
ϩⲧⲏⲛ 100
ϫⲡⲟⲥ 100
ϭⲛⲁⲧ 100
ϭⲛⲧϥ 100
ϭⲟⲗϫ 100
ϭⲟⲛⲧ 100
▁ϩⲁⲏ 100
▁ϩⲓⲏ 100
▁ϩⲓⲣ 100
▁ϩⲣⲏ 100
▁ϫⲡⲓ 100
▁ϯⲡⲉ 100
▁ⲁⲣⲉ 100
▁ⲁⲩϫ 100
▁ⲃⲉⲣ 100
▁ⲇⲁⲛ 100
▁ⲏϩⲛ 100
▁ⲕⲟⲗ 100
▁ⲙⲙⲙ 100
▁ⲙⲛϩ 100
▁ⲙⲛϯ 100
▁ⲙⲛⲫ 100
▁ⲛϫⲱ 100
▁ⲛⲉϭ 100
▁ⲛⲉⲁ 100
▁ⲛⲡⲉ 100
▁ⲛⲱⲃ 100
▁ⲡⲁⲡ 100
▁ⲡⲉⲡ 100
▁ⲣⲱϥ 100
▁ⲣⲱⲧ 100
▁ⲥⲁⲃ 100
▁ⲧⲏⲙ 100
▁ⲧⲏⲩ 100
▁ⲧⲛⲁ 100
ⲁⲛⲟⲛ 100
ⲃⲁⲁⲗ 100
ⲃⲗϫⲉ 100
ⲅⲟⲣⲁ 100
ⲇⲟⲩⲣ 100
ⲉⲧⲡⲱ 100
ⲑⲓⲏⲗ 100
ⲓⲥⲃⲱ 100
ⲓⲥⲱⲛ 100
ⲕⲏⲣⲡ 100
ⲕⲓⲟⲥ 100
ⲕⲗϫⲉ 100
ⲕⲗⲗⲉ 100
ⲕⲟⲡⲏ 100
ⲗϩⲱⲃ 100
ⲗϯⲗⲉ 100
ⲗⲉⲓⲁ 100
ⲗⲏⲧⲁ 100
ⲗⲙⲱⲛ 100
ⲗⲟⲉⲓ 100
ⲗⲩⲡⲓ 100
ⲙⲉϩⲙ 100
ⲙⲉⲧⲁ 100
ⲙⲡⲣⲟ 100
ⲛⲟϭⲥ 100
ⲟϭⲟⲩ 100
ⲟⲟⲙⲉ 100
ⲟⲣϩϥ 100
ⲟⲩⲁⲥ 100
ⲟⲩⲟϩ 100
ⲡϩⲁⲧ 100
ⲡϩⲱⲃ 100
ⲡⲉⲩⲉ 100
ⲡⲓⲣⲉ 100
ⲡⲣⲏϣ 100
ⲡⲧⲉⲓ 100
ⲣⲁⲫⲏ 100
ⲣⲙϩⲏ 100
ⲣⲩⲫⲏ 100
ⲣⲱⲁⲥ 100
ⲥⲓⲛⲉ 100
ⲥⲙⲙⲉ 100
ⲥⲟⲃϩ 100
ⲥⲧⲟⲓ 100
ⲥⲱⲗⲡ 100
ⲥⲱⲱⲡ 100
ⲧⲁⲁⲛ 100
ⲧⲁⲍⲉ 100
ⲧⲃⲃⲉ 100
ⲧⲃⲉⲥ 100
ⲧⲓϫⲱ 100
ⲧⲙⲉϣ 100
ⲧⲟϭⲕ 100
ⲧⲟⲩⲛ 100
ⲩⲑⲣⲁ 100
ⲭⲏⲙⲁ 100
ϩⲁⲗⲓⲁ 100
ϩⲉⲗⲟⲥ 100
ϩⲏⲡⲁⲣ 100
ϩⲙⲡⲙⲁ 100
ϩⲟⲃⲥϥ 100
ϩⲟⲙⲟⲩ 100
ϩⲟⲣⲙⲏ 100
ϩⲟⲣⲟⲥ 100
ϩⲣⲁⲛⲧ 100
ϫⲓⲥⲙⲏ 100
ϫⲟⲟⲣⲉ 100
ϫⲟⲩⲧⲏ 100
ϫⲡⲓⲟⲕ 100
ϭⲁⲉⲓⲟ 100
ϭⲓⲛⲉⲓ 100
ϭⲗⲟⲧⲉ 100
ϭⲟⲙϭⲙ 100
ϯϩⲧⲏⲕ 100
▁ϣϭⲟⲙ 100
▁ϣⲁⲧⲉ 100
▁ϣⲟⲙⲧ 100
▁ϥϩⲏⲛ 100
▁ϥⲛⲁⲩ 100
▁ϩⲓⲙⲉ 100
▁ϩⲓⲱⲧ 100
▁ϩⲗⲟϭ 100
▁ϩⲛⲙⲙ 100
▁ϩⲟⲛϥ 100
▁ϩⲣⲁⲩ 100
▁ϩⲧⲏⲩ 100
▁ϫⲉⲁⲗ 100
▁ϫⲉⲙⲙ 100
▁ϫⲉⲣⲉ 100
▁ϫⲡⲓⲉ 100
▁ϫⲱⲟⲩ 100
▁ϭⲣⲱϩ 100
▁ϯϩⲁⲡ 100
▁ⲁϥϣⲓ 100
▁ⲁϥϭⲉ 100
▁ⲁϥⲃⲟ 100
▁ⲁϥⲑⲙ 100
▁ⲁϥⲙⲁ 100
▁ⲁϥⲟⲩ 100
▁ⲁϥⲥⲁ 100
▁ⲁϥⲥⲃ 100
▁ⲁϫⲓϥ 100
▁ⲁⲓⲕⲁ 100
▁ⲁⲓⲥⲁ 100
▁ⲁⲓⲥⲱ 100
▁ⲁⲛⲁϥ 100
▁ⲁⲛⲁⲓ 100
▁ⲁⲛⲉⲥ 100
▁ⲁⲩϭⲉ 100
▁ⲁⲩⲡⲉ 100
▁ⲉϣϣⲉ 100
▁ⲉϣⲁⲥ 100
▁ⲉϥϩⲙ 100
▁ⲉϥⲕⲱ 100
▁ⲉϥⲟⲩ 100
▁ⲉⲅⲉⲑ 100
▁ⲉⲑⲁⲣ 100
▁ⲉⲕⲧⲙ 100
▁ⲉⲙⲉⲥ 100
▁ⲉⲙⲡⲁ 100
▁ⲉⲙⲡⲓ 100
▁ⲉⲛⲉϫ 100
▁ⲉⲡϫⲓ 100
▁ⲉⲡⲁⲣ 100
▁ⲉⲣⲉⲙ 100
▁ⲉⲣⲏⲥ 100
▁ⲉⲣⲛⲉ 100
▁ⲉⲧⲕⲁ 100
▁ⲉⲱⲛϩ 100
▁ⲕⲣⲟϥ 100
▁ⲕⲧⲟⲕ 100
▁ⲙⲛⲅⲁ 100
▁ⲙⲛⲛⲛ 100
▁ⲙⲛⲥⲁ 100
▁ⲙⲡϥⲉ 100
▁ⲙⲡϩⲁ 100
▁ⲙⲡϩⲉ 100
▁ⲛϣϥⲉ 100
▁ⲛϣⲱⲥ 100
▁ⲛϩⲁⲗ 100
▁ⲛϩⲧⲟ 100
▁ⲛⲁⲓⲥ 100
▁ⲛⲅⲉⲑ 100
▁ⲛⲅⲗⲟ 100
▁ⲛⲉϥⲉ 100
▁ⲛⲉⲓⲁ 100
▁ⲛⲕⲁⲓ 100
▁ⲛⲕⲟⲧ 100
▁ⲛⲛⲉⲡ 100
▁ⲛⲛⲛⲁ 100
▁ⲛⲛⲣⲙ 100
▁ⲛⲟϫϥ 100
▁ⲛⲟⲩⲓ 100
▁ⲛⲟⲩⲛ 100
▁ⲛⲥⲏⲩ 100
▁ⲛⲥⲛⲁ 100
▁ⲛⲥⲧⲩ 100
▁ⲛⲧⲛⲁ 100
▁ⲟⲩⲏⲛ 100
▁ⲡⲕⲓⲛ 100
▁ⲡⲱⲣϫ 100
▁ⲣⲁⲧⲕ 100
▁ⲣⲱϣⲉ 100
▁ⲣⲱⲕϩ 100
▁ⲥⲁⲣⲝ 100
▁ⲥⲓⲃⲁ 100
▁ⲥⲱⲃⲉ 100
▁ⲧⲁⲁⲕ 100
▁ⲧⲉϥⲉ 100
▁ⲧⲛϫⲱ 100
▁ⲧⲥⲁⲃ 100
ⲁⲣⲉⲧⲏ 100
ⲃⲁϣⲟⲣ 100
ⲃⲁⲧⲟⲥ 100
ⲅⲁⲙⲟⲥ 100
ⲅⲓⲥⲧⲁ 100
ⲅⲣⲁⲙⲁ 100
ⲇⲟⲅⲙⲁ 100
ⲉⲓⲉⲓⲃ 100
ⲉⲛⲧⲟⲩ 100
ⲑⲙⲕⲟϥ 100
ⲓⲙⲟⲟⲩ 100
ⲓⲙⲟⲩⲑ 100
ⲕⲁⲧⲟⲣ 100
ⲕⲉⲣⲏⲧ 100
ⲕⲓⲱⲟⲩ 100
ⲕⲟⲛⲥϥ 100
ⲕⲩⲣⲓⲁ 100
ⲕⲱⲛⲓⲁ 100
ⲗⲁⲓⲟⲛ 100
ⲗⲉⲝⲁⲛ 100
ⲙⲁⲛⲛⲁ 100
ⲙⲙⲱⲁⲃ 100
ⲛϩⲏⲧⲥ 100
ⲛⲁϩⲃⲉ 100
ⲛⲁⲙⲟⲣ 100
ⲛⲉⲣⲏⲧ 100
ⲛⲟⲩⲏⲗ 100
ⲛⲱⲛⲛⲁ 100
ⲟⲗⲩⲙⲁ 100
ⲟⲟⲩⲧⲛ 100
ⲟⲩⲛⲧⲉ 100
ⲟⲩⲱⲛⲧ 100
ⲡⲉϥⲙⲁ 100
ⲡⲉϥⲛⲁ 100
ⲡⲉⲓⲗⲏ 100
ⲡⲏⲥⲥⲉ 100
ⲡⲓⲃⲟⲩ 100
ⲡⲓⲥⲧⲏ 100
ⲡⲟⲣϫⲛ 100
ⲡⲱⲱⲣⲉ 100
ⲣⲁⲃⲓⲁ 100
ⲣⲁⲃⲱⲑ 100
ⲣⲁⲛⲁⲕ 100
ⲣⲁⲛⲁⲩ 100
ⲣⲙⲗⲁϩ 100
ⲣⲟⲙⲟⲥ 100
ⲥⲁⲙⲩⲥ 100
ⲥⲁⲛⲛⲁ 100
ⲥⲁⲧⲃⲉ 100
ⲥⲁⲫⲁⲧ 100
ⲥⲟⲛϩϥ 100
ⲥⲧⲩⲗⲏ 100
ⲧⲁϩⲥϥ 100
ⲧⲁⲓⲟⲩ 100
ⲧⲁⲗⲟⲥ 100
ⲧⲁⲣⲱⲑ 100
ⲧⲁⲧⲏⲥ 100
ⲧⲉⲓϩⲉ 100
ⲧⲉⲧⲛⲟ 100
ⲧⲏⲣⲉⲓ 100
ⲧⲏⲣⲟⲩ 100
ⲧⲏⲥⲓⲥ 100
ⲧⲓⲛⲟⲥ 100
ⲧⲛⲟϣϥ 100
ⲧⲟⲩⲛⲁ 100
ⲧⲟⲩⲟⲕ 100
ⲧⲟⲩⲱⲙ 100
ⲧⲟⲫⲉⲗ 100
ⲧⲣⲓⲁⲥ 100
ⲧⲥⲛⲕⲟ 100
ⲫⲣⲁⲑⲁ 100
ⲭⲙⲁⲗⲱ 100
ⲭⲟⲩⲥⲓ 100
ϣⲟⲣⲡⲟⲩ 100
ϣⲥⲛϩⲏⲧ 100
ϩⲉⲣⲁⲧϥ 100
ϩⲕⲟⲉⲓⲧ 100
ϩⲣϣⲓⲣⲉ 100
ϫⲟⲩⲱⲧⲉ 100
ϭⲁⲃϩⲏⲧ 100
ϭⲓⲛⲱⲛϩ 100
ϯⲛⲁⲁⲁϥ 100
ϯⲟⲩⲃⲏⲓ 100
▁ϥϭⲱϣⲧ 100
▁ϥⲛⲁⲕⲁ 100
▁ϥⲟⲧⲟⲩ 100
▁ϩⲁϩⲁϩ 100
▁ϩⲁϩⲉⲛ 100
▁ϩⲁⲧⲏⲛ 100
▁ϩⲓϩⲉⲛ 100
▁ϩⲓϫⲛⲡ 100
▁ϩⲓⲡⲥⲁ 100
▁ϩⲓⲧⲉⲛ 100
▁ϩⲓⲱⲱⲛ 100
▁ϩⲛϯⲟⲩ 100
▁ϩⲛⲅⲁⲓ 100
▁ϩⲛⲙⲁⲥ 100
▁ϩⲛⲛⲁⲅ 100
▁ϩⲛⲡⲉϥ 100
▁ϩⲛⲡⲉⲕ 100
▁ϩⲛⲣⲱⲓ 100
▁ϩⲛⲣⲱⲕ 100
▁ϩⲩⲡⲟⲙ 100
▁ϫⲉⲁⲛⲣ 100
▁ϫⲉⲁⲩϯ 100
▁ϫⲉⲃⲱⲗ 100
▁ϫⲉⲕⲁⲛ 100
▁ϫⲉⲛⲁⲥ 100
▁ϫⲉⲡⲉⲛ 100
▁ϫⲓⲛⲉϥ 100
▁ϫⲓⲟⲟⲣ 100
▁ϫⲓⲧⲟⲩ 100
▁ϫⲛⲟⲩϥ 100
▁ϫⲱⲱⲣⲉ 100
▁ⲁϣⲕⲁⲕ 100
▁ⲁϥϫⲣⲟ 100
▁ⲁϥⲁⲁⲩ 100
▁ⲁϥⲟⲩⲱ 100
▁ⲁⲓⲟⲩⲱ 100
▁ⲁⲓⲣⲟⲩ 100
▁ⲁⲓⲱⲣⲕ 100
▁ⲁⲛⲅⲟⲩ 100
▁ⲁⲩⲙⲉϩ 100
▁ⲁⲩⲥⲱⲕ 100
▁ⲉϣⲁⲩⲥ 100
▁ⲉϥϩⲏⲛ 100
▁ⲉϥϩⲙⲡ 100
▁ⲉϥϩⲱⲡ 100
▁ⲉϥⲉϭⲱ 100
▁ⲉϥⲛⲁⲥ 100
▁ⲉϩⲣⲁⲥ 100
▁ⲉϫⲓⲧⲥ 100
▁ⲉϫⲛϩⲛ 100
▁ⲉϫⲟⲟϥ 100
▁ⲉⲁϥⲕⲁ 100
▁ⲉⲁϥⲕⲱ 100
▁ⲉⲓⲛⲁⲣ 100
▁ⲉⲓⲛⲏⲩ 100
▁ⲉⲕⲉϥⲓ 100
▁ⲉⲕⲛⲁⲣ 100
▁ⲉⲗⲓⲁⲃ 100
▁ⲉⲡⲓⲥⲁ 100
▁ⲉⲡⲱⲣϫ 100
▁ⲉⲥⲏⲗⲱ 100
▁ⲉⲥⲓⲱⲛ 100
▁ⲉⲥⲙⲉϩ 100
▁ⲉⲥⲛⲏϫ 100
▁ⲉⲥⲟⲟϥ 100
▁ⲉⲧⲃⲃⲟ 100
▁ⲉⲧⲃⲏⲧ 100
▁ⲉⲧⲉⲛⲉ 100
▁ⲉⲧⲥⲛⲁ 100
▁ⲉⲧⲱⲃϩ 100
▁ⲉⲩϫⲏⲕ 100
▁ⲉⲩⲛⲁϣ 100
▁ⲉⲩⲱⲛⲉ 100
▁ⲕⲉⲓⲣⲉ 100
▁ⲕⲩⲣⲟⲥ 100
▁ⲙⲉⲗⲟⲥ 100
▁ⲙⲉⲥⲧⲉ 100
▁ⲙⲙⲁⲁⲩ 100
▁ⲙⲙⲏⲧⲉ 100
▁ⲙⲙⲱⲟⲩ 100
▁ⲙⲛϩⲙⲉ 100
▁ⲙⲛⲛⲕⲉ 100
▁ⲙⲛⲡⲟⲩ 100
▁ⲙⲟϣⲧϥ 100
▁ⲙⲡϣⲏⲓ 100
▁ⲙⲡϣⲱⲙ 100
▁ⲙⲡⲉϥϯ 100
▁ⲙⲡⲉⲓⲥ 100
▁ⲙⲡⲉⲧⲟ 100
▁ⲙⲡⲉⲧⲣ 100
▁ⲙⲡⲓⲛⲉ 100
▁ⲙⲡⲥⲱϣ 100
▁ⲙⲡⲧⲁⲡ 100
▁ⲛϣⲙϣⲉ 100
▁ⲛϣⲱϫⲡ 100
▁ⲛϥⲧⲣⲉ 100
▁ⲛϩⲉⲛⲕ 100
▁ⲛϫⲓⲥⲉ 100
▁ⲛϫⲟⲟⲥ 100
▁ⲛϫⲣⲟⲡ 100
▁ⲛϭⲓⲙⲁ 100
▁ⲛⲁⲛⲁϣ 100
▁ⲛⲁⲛⲁⲛ 100
▁ⲛⲁⲥⲉⲓ 100
▁ⲛⲁⲥⲱⲣ 100
▁ⲛⲁⲱⲥⲕ 100
▁ⲛⲃⲗϫⲉ 100
▁ⲛⲉϥϩⲙ 100
▁ⲛⲉⲛⲕⲁ 100
▁ⲛⲉⲡⲏⲡ 100
▁ⲛⲉⲥⲟⲩ 100
▁ⲛⲉⲧϫⲓ 100
▁ⲛⲉⲧⲏⲡ 100
▁ⲛⲉⲩⲏⲓ 100
▁ⲛⲓⲉⲣⲟ 100
▁ⲛⲕⲉⲉⲥ 100
▁ⲛⲕⲟⲣⲉ 100
▁ⲛⲙⲙⲟⲛ 100
▁ⲛⲛϩⲟϥ 100
▁ⲛⲛⲁⲣⲭ 100
▁ⲛⲛⲉⲧϯ 100
▁ⲛⲟⲩϣⲓ 100
▁ⲛⲟⲩϩⲙ 100
▁ⲛⲟⲩϫⲟ 100
▁ⲛⲟⲩⲥⲁ 100
▁ⲛⲥⲁⲗⲁ 100
▁ⲛⲥⲁⲥⲁ 100
▁ⲛⲥⲟϭⲛ 100
▁ⲛⲥⲱⲙⲁ 100
▁ⲛⲥⲱⲧⲉ 100
▁ⲛⲧⲁⲕⲟ 100
▁ⲛⲧⲉⲕⲉ 100
▁ⲛⲧⲉⲧⲁ 100
▁ⲛⲧⲙⲡⲁ 100
▁ⲛⲱⲃⲏⲗ 100
▁ⲟⲛⲧⲱⲥ 100
▁ⲟⲩϩⲧⲟ 100
▁ⲟⲩⲁⲁⲕ 100
▁ⲟⲩⲃⲏⲩ 100
▁ⲟⲩⲏⲟⲩ 100
▁ⲟⲩⲙⲁⲥ 100
▁ⲟⲩⲙⲟⲩ 100
▁ⲟⲩⲛⲧⲕ 100
▁ⲟⲩⲧⲱⲕ 100
▁ⲡϣⲓⲡⲉ 100
▁ⲡϩⲓⲥⲉ 100
▁ⲡⲁϩⲣⲉ 100
▁ⲡⲁⲃⲁⲗ 100
▁ⲡⲁⲣⲁⲡ 100
▁ⲡⲉϣⲁⲩ 100
▁ⲡⲉϫⲉⲛ 100
▁ⲡⲉϫⲡⲟ 100
▁ⲡⲉⲧϫⲟ 100
▁ⲡⲟⲗⲓⲥ 100
▁ⲡⲥⲱⲧⲡ 100
▁ⲥⲁϩⲟⲩ 100
▁ⲥⲁϩⲱϥ 100
▁ⲥⲉⲉⲡⲉ 100
▁ⲥⲙⲛⲧϥ 100
▁ⲥⲟⲃⲧⲉ 100
▁ⲥⲟⲧⲡϥ 100
▁ⲧⲁϩⲟⲕ 100
▁ⲧⲉⲓϩⲉ 100
▁ⲧⲉⲧⲛϯ 100
▁ⲧⲟⲩⲱϥ 100
▁ⲧⲡⲏⲅⲏ 100
▁ⲧⲥⲱⲛⲉ 100
▁ⲫⲁⲣⲁⲱ 100
▁ⲭⲣⲉⲓⲁ 100
ⲁⲇⲓⲕⲓⲁ 100
ⲁⲓⲧⲏⲙⲁ 100
ⲅⲅⲉⲗⲓⲁ 100
ⲅⲉⲓⲣⲟⲥ 100
ⲇⲁⲛⲓⲏⲗ 100
ⲇⲁⲣⲓⲟⲛ 100
ⲇⲣⲁⲉⲓⲛ 100
ⲑⲁⲣⲥⲓⲥ 100
ⲑⲃⲃⲓⲟⲓ 100
ⲑⲉⲛⲉⲓⲁ 100
ⲑⲓⲁⲣⲓⲙ 100
ⲕⲉϩⲟⲟⲩ 100
ⲕⲗⲏⲧⲟⲥ 100
ⲕⲟⲕⲕⲟⲥ 100
ⲕⲟⲡⲣⲓⲁ 100
ⲗⲉϭⲗⲱϭ 100
ⲙⲁⲥⲧⲓⲝ 100
ⲙⲙⲉⲗⲟⲥ 100
ⲙⲛⲕⲏⲙⲉ 100
ⲙⲟⲕϩⲟⲩ 100
ⲙⲟⲟⲩⲧⲕ 100
ⲙⲟⲧⲛⲉⲥ 100
ⲛⲁⲣⲓⲟⲛ 100
ⲛⲟⲙⲟⲑⲉ 100
ⲛⲟⲩⲱϣϥ 100
ⲟⲩⲉϣⲟⲩ 100
ⲟⲩⲛϭⲟⲙ 100
ⲟⲩⲟϣⲃⲉ 100
ⲟⲩⲥⲙⲟⲩ 100
ⲟⲩⲥⲛⲟϥ 100
ⲡⲉⲥϩⲁⲓ 100
ⲡⲓⲕⲁⲗⲓ 100
ⲣⲁⲛⲓⲟⲛ 100
ⲣⲁⲛⲛⲟⲥ 100
ⲣⲏϫⲛⲟⲩ 100
ⲣⲟⲟⲩⲛⲉ 100
ⲣⲧⲩⲣⲟⲥ 100
ⲣⲭⲏⲅⲟⲥ 100
ⲥⲓⲕⲉⲣⲁ 100
ⲥⲟⲧⲃⲉϥ 100
ⲧⲁϫⲣⲟϥ 100
ⲧⲁⲇⲓⲟⲛ 100
ⲧⲁⲉⲓⲟⲩ 100
ⲧⲁⲗϭⲟⲓ 100
ⲧⲁⲗⲗⲟⲥ 100
ⲧⲁⲛϩⲟⲛ 100
ⲧⲛⲟⲉⲓⲕ 100
ⲧⲟⲟⲃⲟⲩ 100
ⲧⲣⲟⲭⲟⲥ 100
ⲧⲥⲟⲫⲓⲁ 100
ⲧⲩⲣⲓⲟⲛ 100
ⲩⲧⲉϩⲛⲉ 100
ⲭⲁⲗⲁⲍⲁ 100
ϣⲟⲩⲥⲟⲟⲩ 100
ϩⲉⲣϣⲓⲣⲉ 100
▁ϣⲁϥⲃⲱⲕ 100
▁ϥⲛⲁⲡⲱⲧ 100
▁ϩⲁⲡⲗⲱⲥ 100
▁ϩⲉⲗⲡⲓⲥ 100
▁ϩⲓϫⲛⲛⲉ 100
▁ϩⲙⲡϩⲁⲉ 100
▁ϩⲙⲡϩⲱⲡ 100
▁ϩⲙⲡⲛⲁⲩ 100
▁ϩⲙⲡⲣⲣⲟ 100
▁ϩⲛϩⲉⲛⲉ 100
▁ϩⲛϩⲏⲧⲥ 100
▁ϩⲛⲛⲧⲟϣ 100
▁ϫⲉⲁⲕⲕⲱ 100
▁ϫⲉⲉⲓⲥⲁ 100
▁ϫⲉⲕⲁⲁⲧ 100
▁ϫⲉⲙⲉⲣⲉ 100
▁ϫⲉⲛⲧⲁⲛ 100
▁ϫⲉⲟⲩⲇⲉ 100
▁ϫⲉⲟⲩⲙⲉ 100
▁ϫⲉⲡⲕⲁϩ 100
▁ϫⲉⲣⲱⲙⲉ 100
▁ϫⲉⲥϩⲁⲓ 100
▁ϫⲉⲥⲁϩⲉ 100
▁ϫⲓⲉⲟⲟⲩ 100
▁ϯⲛⲁⲕⲧⲟ 100
▁ϯⲛⲁⲕⲱⲧ 100
▁ϯⲟⲩⲁⲁⲃ 100
▁ⲁϥϥⲱϭⲉ 100
▁ⲁϥϩⲓⲥⲉ 100
▁ⲁϥϭⲉⲡⲏ 100
▁ⲁϥϯⲥⲃⲱ 100
▁ⲁϥⲁⲣⲛⲁ 100
▁ⲁϥⲙⲓϣⲉ 100
▁ⲁϥⲣⲱⲕϩ 100
▁ⲁϥⲧⲁϩⲉ 100
▁ⲁϥⲧⲃⲃⲟ 100
▁ⲁⲓϩⲓⲥⲉ 100
▁ⲁⲓϫⲡⲟⲕ 100
▁ⲁⲓⲟⲩⲱⲙ 100
▁ⲁⲓⲡⲁϩⲧ 100
▁ⲁⲓⲣⲓⲙⲉ 100
▁ⲁⲓⲥⲁⲁⲕ 100
▁ⲁⲕⲉⲓⲙⲉ 100
▁ⲁⲛϣⲁϫⲉ 100
▁ⲁⲛϣⲗⲏⲗ 100
▁ⲁⲣⲓϩⲱⲃ 100
▁ⲁⲣⲓⲡⲁⲓ 100
▁ⲁⲥⲕⲟⲧⲥ 100
▁ⲁⲥⲕⲧⲟⲥ 100
▁ⲁⲥⲧⲁⲙⲉ 100
▁ⲁⲧⲁϭⲟⲙ 100
▁ⲁⲧⲥⲱⲧⲙ 100
▁ⲁⲩϭⲱⲣϭ 100
▁ⲁⲩⲛⲧⲟⲩ 100
▁ⲁⲩⲧⲁⲁϥ 100
▁ⲁⲩⲭⲁⲗⲁ 100
▁ⲅⲁⲗⲁⲁⲇ 100
▁ⲉϥϣⲟⲩⲟ 100
▁ⲉϥⲉⲙⲟⲩ 100
▁ⲉϥⲛϩⲟⲧ 100
▁ⲉϩⲓⲟⲩⲉ 100
▁ⲉϫⲓϩⲁⲡ 100
▁ⲉϯⲉⲓⲣⲉ 100
▁ⲉⲕϣⲁⲛⲧ 100
▁ⲉⲙⲛⲡⲉⲧ 100
▁ⲉⲙⲟⲟⲛⲉ 100
▁ⲉⲛϭⲱϣⲧ 100
▁ⲉⲛⲉⲥⲱⲥ 100
▁ⲉⲛⲉⲩⲏⲓ 100
▁ⲉⲝⲉⲥⲧⲓ 100
▁ⲉⲡⲉⲓⲥⲁ 100
▁ⲉⲡⲉⲓⲱⲧ 100
▁ⲉⲡⲙⲁⲥⲉ 100
▁ⲉⲡⲟⲩⲏⲓ 100
▁ⲉⲡⲟⲩⲱϣ 100
▁ⲉⲣⲉⲟⲩⲥ 100
▁ⲉⲣⲗⲁⲁⲩ 100
▁ⲉⲣⲟⲩϩⲉ 100
▁ⲉⲥⲁⲟⲩⲗ 100
▁ⲉⲥⲟⲩⲏⲩ 100
▁ⲉⲧϣⲙϣⲉ 100
▁ⲉⲧϩⲛⲧⲁ 100
▁ⲉⲧⲁⲩⲗⲏ 100
▁ⲉⲧⲃⲏⲧϥ 100
▁ⲉⲧⲉⲙⲡϥ 100
▁ⲉⲧⲉⲧⲛϯ 100
▁ⲉⲧⲟⲩϫⲟ 100
▁ⲉⲧⲣⲉⲛⲉ 100
▁ⲉⲧⲣⲉⲩϯ 100
▁ⲉⲩⲙⲟⲟⲛ 100
▁ⲉⲩⲙⲧⲟⲛ 100
▁ⲉⲩⲛϭⲟⲙ 100
▁ⲉⲩⲛⲁϫⲓ 100
▁ⲉⲩⲟⲩⲟϫ 100
▁ⲉⲩⲥⲟⲃⲕ 100
▁ⲉⲩⲥⲟⲡⲥ 100
▁ⲉⲩⲥⲟⲣⲙ 100
▁ⲉⲩⲧⲱⲣⲡ 100
▁ⲏϣⲟⲙⲛⲧ 100
▁ⲓⲉⲥⲥⲁⲓ 100
▁ⲕⲛⲁⲛⲁⲩ 100
▁ⲙⲙⲁⲁϫⲉ 100
▁ⲙⲛⲛⲉⲧⲟ 100
▁ⲙⲛⲛⲥⲱⲓ 100
▁ⲙⲡϣⲱϫⲡ 100
▁ⲙⲡϫⲁⲓⲉ 100
▁ⲙⲡϫⲓⲥⲉ 100
▁ⲙⲡⲁⲡⲟⲧ 100
▁ⲙⲡⲃⲉⲕⲉ 100
▁ⲙⲡⲃⲏⲙⲁ 100
▁ⲙⲡⲉⲥⲏⲓ 100
▁ⲙⲡⲉⲥⲟⲩ 100
▁ⲙⲡⲕⲟⲩⲓ 100
▁ⲙⲡⲣⲧⲣⲁ 100
▁ⲙⲡⲣⲱⲣⲕ 100
▁ⲙⲡⲥⲱⲛⲧ 100
▁ⲙⲡⲥⲱⲧⲉ 100
▁ⲛϥϫⲟⲟⲩ 100
▁ⲛϥϭⲱϣⲧ 100
▁ⲛϥⲕⲁⲁϥ 100
▁ⲛϥⲕⲟⲧϥ 100
▁ⲛϩⲁⲣⲉϩ 100
▁ⲛϩⲉⲛϣⲉ 100
▁ⲛϩⲛⲛⲟϭ 100
▁ⲛϫⲓⲟⲟⲣ 100
▁ⲛϫⲟⲩⲱⲧ 100
▁ⲛϭⲓⲡⲉⲛ 100
▁ⲛϭⲓⲡⲙⲁ 100
▁ⲛⲁϩⲙⲟⲩ 100
▁ⲛⲁϭⲱⲗⲡ 100
▁ⲛⲁϯϩⲏⲩ 100
▁ⲛⲁⲕⲧⲟϥ 100
▁ⲛⲁⲙⲙⲁⲛ 100
▁ⲛⲁⲙⲛⲱⲛ 100
▁ⲛⲁⲣⲱⲕϩ 100
▁ⲛⲃⲗⲗⲁⲕ 100
▁ⲛⲅϣⲁϫⲉ 100
▁ⲛⲅϣⲓⲛⲉ 100
▁ⲛⲅⲕⲁⲁϥ 100
▁ⲛⲅⲟⲩⲱϣ 100
▁ⲛⲉⲕⲃⲁⲗ 100
▁ⲛⲉⲛⲧⲁⲓ 100
▁ⲛⲉⲛⲧⲁⲛ 100
▁ⲛⲉⲧⲛⲁⲩ 100
▁ⲛⲉⲩϭⲓϫ 100
▁ⲛⲉⲩⲛⲁⲩ 100
▁ⲛⲉⲩⲛⲟⲩ 100
▁ⲛⲛⲉϣⲁⲩ 100
▁ⲛⲛⲉⲩⲙⲁ 100
▁ⲛⲛⲉⲫⲑⲁ 100
▁ⲛⲛⲏⲥⲟⲥ 100
▁ⲛⲟⲩⲟϩⲉ 100
▁ⲛⲟⲩⲟⲃϣ 100
▁ⲛⲟⲩⲥⲙⲏ 100
▁ⲛⲣⲙⲙⲙⲉ 100
▁ⲛⲣⲙⲣⲁϣ 100
▁ⲛⲥⲁϩⲟⲩ 100
▁ⲛⲥⲁⲇⲱⲕ 100
▁ⲛⲥⲁⲛⲉⲧ 100
▁ⲛⲥⲁⲡⲡⲓ 100
▁ⲛⲥⲁⲧϩⲉ 100
▁ⲛⲥⲁⲫⲁⲛ 100
▁ⲛⲥⲉⲛⲁϯ 100
▁ⲛⲥⲉⲱϫⲛ 100
▁ⲛⲥⲓⲇⲱⲛ 100
▁ⲛⲧⲁϥϩⲉ 100
▁ⲛⲧⲁⲝⲓⲥ 100
▁ⲛⲧⲁⲡⲣⲟ 100
▁ⲛⲧⲁⲥⲉⲓ 100
▁ⲛⲧⲁⲩϫⲓ 100
▁ⲛⲧⲉⲕⲙⲉ 100
▁ⲛⲧⲉⲡⲣⲟ 100
▁ⲛⲧⲉⲣⲉⲕ 100
▁ⲛⲧⲉⲧⲉϥ 100
▁ⲟⲩⲉⲟⲟⲩ 100
▁ⲟⲩⲕⲁⲕⲉ 100
▁ⲟⲩⲛⲟⲩⲃ 100
▁ⲟⲩⲛⲧⲁⲩ 100
▁ⲟⲩⲟⲩⲱϣ 100
▁ⲟⲩⲥⲛⲟϥ 100
▁ⲟⲩⲧⲱⲟⲩ 100
▁ⲟⲩⲯⲩⲭⲏ 100
▁ⲡⲁⲉⲟⲟⲩ 100
▁ⲡⲁⲣⲭⲓⲥ 100
▁ⲡⲉϣⲗⲏⲗ 100
▁ⲡⲉϫⲉⲛⲁ 100
▁ⲡⲉϫⲉⲡⲉ 100
▁ⲡⲉⲓⲕⲉⲧ 100
▁ⲡⲉⲙⲗⲁϩ 100
▁ⲡⲉⲛϩⲏⲧ 100
▁ⲡⲉⲧⲉⲧⲛ 100
▁ⲡⲉⲧⲕⲧⲟ 100
▁ⲡⲥⲟⲟⲩⲛ 100
▁ⲣϫⲟⲉⲓⲥ 100
▁ⲥⲁϩⲱⲱϥ 100
▁ⲥⲉⲉⲓⲣⲉ 100
▁ⲧⲉϥⲁⲡⲉ 100
▁ⲫⲏⲥⲧⲟⲥ 100
ⲁⲣⲓⲥⲧⲟⲛ 100
ⲇⲓⲕⲁⲓⲱⲥ 100
ⲉⲝⲟⲩⲥⲓⲁ 100
ⲕⲉϩⲙϩⲁⲗ 100
ⲕⲉⲫⲁⲗⲓⲥ 100
ⲗⲓⲥⲁⲃⲉⲧ 100
ⲗⲟⲩⲗⲱⲟⲩ 100
ⲙⲉⲥⲓⲧⲏⲥ 100
ⲙⲛⲧⲉⲓⲱⲧ 100
ⲙⲛⲧⲣⲉϥⲣ 100
ⲛⲁⲥⲉⲃⲏⲥ 100
ⲛⲉⲕϣⲏⲣⲉ 100
ⲛⲉⲧϩⲟⲟⲩ 100
ⲟⲣⲓⲛⲑⲟⲥ 100
ⲟⲩⲟⲛϩⲟⲩ 100
ⲡⲁϫⲟⲉⲓⲥ 100
ⲡⲉϥⲥⲱⲙⲁ 100
ⲡⲏⲗⲁⲓⲟⲛ 100
ⲥⲁⲛϩⲟⲩⲛ 100
ⲥⲃⲧⲱⲧⲟⲩ 100
ⲧⲁⲛϩⲟⲟⲩ 100
ⲧⲁⲛϩⲟⲩⲧ 100
ⲧⲉⲛⲯⲩⲭⲏ 100
ⲭⲓⲇⲟⲫⲉⲗ 100
ⲭⲓⲙⲁⲣⲟⲥ 100
ϣⲁⲛⲧϩⲧⲏϥ 100
ϩⲣⲁⲛⲧⲓⲍⲉ 100
ϫⲉⲡϫⲟⲉⲓⲥ 100
ϫⲟⲩⲧⲁϥⲧⲉ 100
▁ϥⲛⲁⲟⲩⲱϩ 100
▁ϩⲁϩⲟⲙⲛⲧ 100
▁ϩⲁⲡⲉϩⲕⲟ 100
▁ϩⲓϫⲛϩⲉⲛ 100
▁ϩⲓⲧⲛϩⲁϩ 100
▁ϩⲙⲡϣⲏⲣⲉ 100
▁ϩⲙⲡⲁⲗⲁⲥ 100
▁ϩⲙⲡⲥⲁϣϥ 100
▁ϩⲙⲡⲥⲃⲃⲉ 100
▁ϩⲙⲡⲧⲣⲉⲕ 100
▁ϩⲛⲛⲟⲩⲱϣ 100
▁ϩⲛⲛⲧⲉⲧⲛ 100
▁ϩⲛⲟⲩϩⲕⲟ 100
▁ϩⲛⲟⲩⲏⲣⲡ 100
▁ϩⲛⲟⲩⲡⲁϣ 100
▁ϩⲛⲥⲟⲫⲓⲁ 100
▁ϩⲛⲧⲁⲥⲙⲏ 100
▁ϫⲉϩⲛⲟⲩϯ 100
▁ϫⲉⲁⲛⲓⲛⲉ 100
▁ϫⲉⲁⲩⲉⲓⲥ 100
▁ϫⲉⲉⲣⲉⲟⲩ 100
▁ϫⲉⲉⲩϣⲁⲛ 100
▁ϫⲉⲙⲁⲣⲉⲛ 100
▁ϫⲉⲙⲁⲣⲟⲛ 100
▁ϫⲉⲙⲛⲛⲥⲁ 100
▁ϫⲉⲛϣⲏⲣⲉ 100
▁ϫⲉⲛⲟⲩⲧⲉ 100
▁ϫⲉⲟⲩⲛⲧⲉ 100
▁ϯⲗⲟⲩⲗⲁⲓ 100
▁ϯⲛⲁⲉⲓⲙⲉ 100
▁ϯⲛⲁⲟⲩⲱϩ 100
▁ⲁϥϣⲟⲡⲟⲩ 100
▁ⲁϥϣⲟⲣϣⲣ 100
▁ⲁϥϩⲁⲣⲉϩ 100
▁ⲁϥϫⲟⲟⲩϥ 100
▁ⲁϥⲉⲛⲧⲟⲩ 100
▁ⲁϥⲑⲃⲃⲓⲟ 100
▁ⲁϥⲗⲩⲡⲉⲓ 100
▁ⲁϥⲛⲉϩⲥⲉ 100
▁ⲁϥⲧⲁⲙⲓⲉ 100
▁ⲁϥⲧⲃⲃⲟϥ 100
▁ⲁϥⲧⲟⲩϫⲟ 100
▁ⲁϥⲧⲱⲱⲃⲉ 100
▁ⲁⲓⲑⲃⲃⲓⲟ 100
▁ⲁⲓⲛⲟⲩϫⲉ 100
▁ⲁⲓⲟⲩⲱⲛϩ 100
▁ⲁⲓⲣϩⲗⲗⲟ 100
▁ⲁⲛϩⲙⲟⲟⲥ 100
▁ⲁⲛⲧⲱⲟⲩⲛ 100
▁ⲁⲡⲉⲩϩⲏⲧ 100
▁ⲁⲥⲡⲁϩⲧⲥ 100
▁ⲁⲧⲉⲧⲛⲕⲁ 100
▁ⲁⲩϭⲙϭⲟⲙ 100
▁ⲃⲏⲑⲗⲉⲉⲙ 100
▁ⲇⲓⲕⲁⲓⲟⲥ 100
▁ⲉϥϣⲁⲛϩⲉ 100
▁ⲉϥϭⲟⲟⲗⲉ 100
▁ⲉϥϯⲉⲟⲟⲩ 100
▁ⲉϥⲉⲧⲁⲁⲩ 100
▁ⲉϥⲕⲣⲓⲛⲉ 100
▁ⲉϥⲟⲩⲟϣϥ 100
▁ⲉϥⲟⲩⲱⲛϩ 100
▁ⲉϥⲧⲛⲧⲱⲛ 100
▁ⲉϫⲙⲡⲣⲁⲛ 100
▁ⲉϫⲙⲡⲣⲣⲟ 100
▁ⲉⲁⲙⲁϩⲧⲉ 100
▁ⲉⲓⲛⲟⲩϫⲉ 100
▁ⲉⲕⲉⲟⲩⲱⲙ 100
▁ⲉⲙⲛϫⲃⲓⲛ 100
▁ⲉⲙⲛⲛⲟⲃⲉ 100
▁ⲉⲛⲉϩⲟⲟⲩ 100
▁ⲉⲛⲉⲥⲛⲏⲩ 100
▁ⲉⲛⲉⲧⲉⲣⲉ 100
▁ⲉⲛⲙⲟⲟϣⲉ 100
▁ⲉⲛⲛⲁⲃⲱⲕ 100
▁ⲉⲡⲉϥⲕⲁϩ 100
▁ⲉⲡⲉⲓⲕⲣⲟ 100
▁ⲉⲡⲉⲥⲛⲟϥ 100
▁ⲉⲡⲉⲧⲣⲟⲥ 100
▁ⲉⲣⲉⲛⲃⲁⲗ 100
▁ⲉⲣⲉⲛⲉⲧⲛ 100
▁ⲉⲥⲟⲩⲟⲃϣ 100
▁ⲉⲧϩⲙⲡⲉⲕ 100
▁ⲉⲧϭⲟⲟⲗⲉ 100
▁ⲉⲧⲟⲩⲟⲛϩ 100
▁ⲉⲧⲣⲁⲃⲱⲕ 100
▁ⲉⲧⲣⲉϥϭⲱ 100
▁ⲉⲧⲣⲉⲧⲛⲁ 100
▁ⲉⲧⲣⲉⲩϫⲓ 100
▁ⲉⲧⲥⲃⲧⲱⲧ 100
▁ⲉⲩϭⲟⲟⲗⲉ 100
▁ⲉⲩⲉϣⲙϣⲉ 100
▁ⲉⲩⲛⲁⲣⲟⲩ 100
▁ⲉⲩⲟⲩⲟⲃϣ 100
▁ⲉⲩⲥⲁϩⲟⲩ 100
▁ⲉⲩⲥⲟⲟⲩⲛ 100
▁ⲕⲁⲑⲓⲥⲧⲁ 100
▁ⲕⲁⲧⲁϯⲙⲉ 100
▁ⲙⲁⲧⲟⲩϫⲉ 100
▁ⲙⲙⲉⲗⲭⲱⲗ 100
▁ⲙⲛⲛⲉϣⲁⲩ 100
▁ⲙⲛⲛⲧⲉⲧⲛ 100
▁ⲙⲛⲡϩⲏⲕⲉ 100
▁ⲙⲛⲡⲙⲟⲟⲩ 100
▁ⲙⲛⲡⲛⲟⲩⲃ 100
▁ⲙⲛⲥⲓⲗⲁⲥ 100
▁ⲙⲛⲫⲁⲣⲁⲱ 100
▁ⲙⲡⲁⲉⲟⲟⲩ 100
▁ⲙⲡⲁⲟⲉⲓⲕ 100
▁ⲙⲡⲁⲧϥⲉⲓ 100
▁ⲙⲡⲉϥϩⲁⲡ 100
▁ⲙⲡⲉϥⲟϩⲉ 100
▁ⲙⲡⲉⲛϩⲏⲧ 100
▁ⲙⲡⲉⲟⲩⲟⲛ 100
▁ⲙⲡⲉⲧⲥⲏϭ 100
▁ⲙⲡⲕⲉⲟⲩⲁ 100
▁ⲛϥⲛⲕⲟⲧⲕ 100
▁ⲛϩⲉⲗⲡⲓⲥ 100
▁ⲛϩⲉⲛⲱⲛⲉ 100
▁ⲛϭⲁⲙⲟⲩⲗ 100
▁ⲛϭⲓⲡⲉⲧⲛ 100
▁ⲛϭⲓⲡⲕⲁϩ 100
▁ⲛϭⲓⲡⲣⲁⲛ 100
▁ⲛϭⲓⲧⲉⲧⲛ 100
▁ⲛⲁϣⲟⲟⲩⲉ 100
▁ⲛⲁⲉⲓⲟⲧⲉ 100
▁ⲛⲁⲉⲣⲙⲱⲛ 100
▁ⲛⲁⲙⲟⲟⲛⲉ 100
▁ⲛⲁⲭⲓⲇⲱⲃ 100
▁ⲛⲃⲁⲓⲑⲏⲗ 100
▁ⲛⲃⲟⲭⲟⲣⲓ 100
▁ⲛⲅϩⲙⲟⲟⲥ 100
▁ⲛⲅⲉⲛⲏⲙⲁ 100
▁ⲛⲅⲙⲟⲩⲧⲉ 100
▁ⲛⲅⲟⲩⲁϩⲕ 100
▁ⲛⲅⲥⲙⲓⲛⲉ 100
▁ⲛⲅⲧⲱⲟⲩⲛ 100
▁ⲛⲉϥⲉⲓⲣⲉ 100
▁ⲛⲉⲧϩⲓϫⲙ 100
▁ⲛⲉⲧⲉⲧⲛⲟ 100
▁ⲛⲉⲧⲛϭⲓϫ 100
▁ⲛⲉⲧⲛⲃⲁⲗ 100
▁ⲛⲉⲩⲛⲟⲃⲉ 100
▁ⲛⲉⲩⲥⲱⲧⲙ 100
▁ 100
ⲉ 100
ⲛ 100
ⲁ 100
ⲟ 100
ⲧ 100
ⲩ 100
ⲙ 100
ⲓ 100
ⲡ 100
ⲥ 100
ϩ 100
ⲣ 100
ⲱ 100
ϥ 100
ⲏ 100
ϫ 100
ⲕ 100
ϣ 100
ⲗ 100
ⲃ 100
. 100
ⲇ 100
ϭ 100
ⲅ 100
ϯ 100
ⲑ 100
· 100
ⲭ 100
ⲫ 100
ⲍ 100
ⲯ 100
ⲝ 100
