<unk>	0
<s>	0
</s>	0
▁ⲛ	-0
ⲟⲩ	-1
▁ⲉ	-2
▁ⲁ	-3
▁ⲙ	-4
ⲡⲉ	-5
ⲧⲉ	-6
▁ϩ	-7
▁ⲁⲩ	-8
ⲛⲉ	-9
ⲉⲓ	-10
ⲛⲁ	-11
ϫⲉ	-12
▁ⲁⲩⲱ	-13
ⲧⲁ	-14
ⲟⲥ	-15
ⲣⲉ	-16
ⲁⲓ	-17
ⲟⲗ	-18
▁.	-19
▁ⲙⲡ	-20
▁ⲡⲉ	-21
ⲟⲟⲩ	-22
▁ϫⲉ	-23
ⲛⲟⲩ	-24
▁ⲡ	-25
ⲙⲁ	-26
ⲃⲟⲗ	-27
ⲧⲛ	-28
▁ⲉⲃⲟⲗ	-29
▁ⲛⲁ	-30
▁ⲉⲧ	-31
ⲙⲉ	-32
ϩⲉ	-33
ⲇⲉ	-34
ⲣⲟ	-35
ⲓⲥ	-36
ϣⲁ	-37
ⲟⲉⲓ	-38
ⲕⲁ	-39
▁ⲇⲉ	-40
▁ⲙⲙ	-41
ⲛⲧ	-42
ⲣⲁ	-43
▁ⲁϥ	-44
ⲧⲏ	-45
▁ⲛⲧ	-46
▁ⲙⲡⲉ	-47
▁ⲛⲉ	-48
ⲟⲛ	-49
▁ⲙⲛ	-50
ⲥⲁ	-51
ϫⲟⲉⲓ	-52
▁ⲛⲧⲉ	-53
▁ⲉϩ	-54
ϫⲟⲉⲓⲥ	-55
▁ⲟⲩ	-56
ⲙⲡ	-57
ⲛⲟ	-58
ϩⲏ	-59
▁·	-60
▁ϩⲛ	-61
ϫⲱ	-62
▁ⲛⲛⲉ	-63
ⲱⲧ	-64
ϣⲱ	-65
ⲣⲱ	-66
▁ⲛⲟⲩ	-67
ⲗⲁ	-68
ϭⲓ	-69
ⲃⲉ	-70
ⲥⲉ	-71
ⲓⲁ	-72
ⲣⲁⲓ	-73
▁ⲉϥ	-74
ⲁⲣ	-75
▁ⲉⲩ	-76
ⲟⲟ	-77
ϣⲏ	-78
ⲱⲛ	-79
ⲁⲩ	-80
ⲛⲟⲩⲧⲉ	-81
ϣⲉ	-82
ϫⲓ	-83
ⲛⲧⲁ	-84
▁ⲁⲛ	-85
▁ϩⲓ	-86
▁ⲧⲏ	-87
ϣⲱⲡⲉ	-88
▁ⲛϭⲓ	-89
ϩⲏⲧ	-90
ϩⲁ	-91
ⲟⲩⲛ	-92
▁ⲧⲉ	-93
ⲓⲙ	-94
ⲏⲥ	-95
ϣⲏⲣⲉ	-96
▁ⲉⲣⲟ	-97
▁ⲉⲡ	-98
ⲣⲟⲩ	-99
ⲙⲡⲉ	-100
ⲕⲉ	-101
▁ⲉϩⲣⲁⲓ	-102
ⲥⲱ	-103
ⲟϥ	-104
ϩⲓ	-105
ⲙⲟⲩ	-106
▁ϣⲁ	-107
ϩⲟⲟⲩ	-108
▁ⲧ	-109
ⲁϥ	-110
ⲧⲟⲩ	-111
▁ⲛⲧⲁ	-112
▁ϩⲙⲡ	-113
ⲣⲱⲙⲉ	-114
ⲃⲱ	-115
ⲙⲙⲁ	-116
ⲏⲩ	-117
ⲡⲁ	-118
▁ⲉⲧⲉ	-119
ⲙⲛⲧ	-120
ⲏⲗ	-121
▁ϯ	-122
ⲧϥ	-123
ⲛⲁⲩ	-124
▁ⲛⲛ	-125
▁ϩⲛⲟⲩ	-126
ⲕⲁϩ	-127
ⲟⲣ	-128
ϣⲁϫⲉ	-129
▁ⲛⲁⲓ	-130
▁ⲛⲓⲙ	-131
ⲟⲩⲱ	-132
▁ⲅ	-133
▁ⲉϫ	-134
▁ⲙⲙⲟⲥ	-135
ϩⲉⲛ	-136
ϩⲙ	-137
▁ⲅⲁⲣ	-138
ϩⲟ	-139
ⲣⲓ	-140
ⲙⲏ	-141
▁ⲡⲉϫ	-142
ⲧⲟ	-143
▁ⲛⲁϥ	-144
ⲕⲱ	-145
▁ⲉϩⲟⲩⲛ	-146
▁ⲧⲁ	-147
ⲣⲉϥ	-148
ⲟⲕ	-149
ⲃⲁ	-150
ⲟⲩⲥ	-151
▁ⲛϩⲏⲧ	-152
ⲃⲱⲕ	-153
▁ⲥ	-154
▁ⲉⲡⲉ	-155
▁ⲧⲏⲣⲟⲩ	-156
ⲟⲙ	-157
ϭⲉ	-158
ⲧⲱ	-159
ⲛⲉⲩ	-160
ⲡϫⲟⲉⲓⲥ	-161
ⲟⲩⲁ	-162
▁ϩⲁ	-163
▁ⲛⲧϩⲉ	-164
▁ⲉⲣ	-165
ⲩⲥ	-166
ⲁⲥ	-167
▁ⲛⲅ	-168
ⲗⲏ	-169
▁ϩⲙⲡⲉ	-170
▁ⲉⲣⲟϥ	-171
ⲱⲧⲙ	-172
▁ⲉⲓ	-173
▁ⲡⲉⲧ	-174
ⲟⲓ	-175
▁ⲙⲡϫⲟⲉⲓⲥ	-176
▁ⲕⲁ	-177
▁ϥ	-178
ⲩⲉ	-179
ⲟⲟⲥ	-180
ⲣⲣⲟ	-181
ⲁⲃ	-182
ⲛⲏ	-183
▁ⲙⲙⲟϥ	-184
▁ⲛⲥⲁ	-185
▁ⲁⲓ	-186
▁ⲥⲉ	-187
ⲙⲟⲥ	-188
ⲕⲟ	-189
ⲥⲟ	-190
ϭⲱ	-191
ⲣⲏ	-192
▁ⲉⲣⲉ	-193
▁ⲡϫⲟⲉⲓⲥ	-194
▁ⲛⲁⲩ	-195
▁ⲡⲉϫⲁϥ	-196
▁ⲛϥ	-197
▁ϩⲛⲧ	-198
▁ⲉⲛⲧⲁ	-199
▁ⲉⲧⲃⲉ	-200
ⲕⲏ	-201
▁ⲛⲥⲉ	-202
ⲣⲁⲏⲗ	-203
ⲓⲥⲣⲁⲏⲗ	-204
▁ⲛⲛⲁ	-205
ⲛⲟⲕ	-206
▁ⲉⲛⲉ	-207
▁ⲙⲡⲉϥ	-208
ϣⲓ	-209
ⲥⲟⲟⲩ	-210
ⲛⲟⲥ	-211
ⲙⲙⲁⲩ	-212
▁ⲧⲏⲣ	-213
▁ⲙⲙⲟⲟⲩ	-214
ⲓⲕ	-215
▁ϫⲉⲉ	-216
ⲟⲩⲉ	-217
▁ⲡⲁⲓ	-218
ⲗⲁⲟⲥ	-219
ϩⲱ	-220
ⲗⲉ	-221
ⲧⲟⲥ	-222
▁ⲕⲁⲧⲁ	-223
▁ⲡⲁ	-224
▁ϯⲛⲁ	-225
ⲏⲥⲟⲩⲥ	-226
ⲥⲱⲧⲙ	-227
ⲥⲏ	-228
▁ϫⲉⲁ	-229
▁ⲙⲡⲛⲟⲩⲧⲉ	-230
▁ⲙⲛⲛⲉ	-231
▁ϭⲉ	-232
▁ϩⲛⲛⲉ	-233
ϣⲧ	-234
ⲗⲗⲁ	-235
ⲧⲏⲥ	-236
ⲛⲧⲉ	-237
ϭⲟⲙ	-238
ⲗⲟ	-239
▁ϩⲱ	-240
▁ⲉϫⲱ	-241
ⲛⲟϭ	-242
ⲭⲏ	-243
ⲡⲉⲧ	-244
ⲙⲧⲟ	-245
ⲁⲓⲟⲥ	-246
ⲡⲏ	-247
▁ⲁⲛⲟⲕ	-248
ⲡⲟⲗ	-249
▁ⲛⲥ	-250
ϩⲁⲗ	-251
▁ⲙⲙⲁ	-252
▁ϩⲛⲧⲉ	-253
ϫⲟⲟⲥ	-254
▁ⲁⲥ	-255
▁ⲁⲗⲗⲁ	-256
ⲅⲉ	-257
▁ⲕ	-258
ⲗⲟⲥ	-259
ⲙⲓ	-260
▁ⲙⲡⲁ	-261
▁ⲥⲉⲛⲁ	-262
▁ⲙⲡⲣ	-263
ⲣⲟⲥ	-264
▁ⲛⲏ	-265
▁ϫⲓ	-266
ϣⲟⲟ	-267
ⲟⲟⲩⲉ	-268
ⲩⲧⲛ	-269
ⲓⲏⲥⲟⲩⲥ	-270
▁ⲙⲛⲛ	-271
ϣⲟ	-272
ϣⲟⲟⲡ	-273
ϩⲟⲩ	-274
▁ⲉⲧⲙⲙⲁⲩ	-275
ϩⲙϩⲁⲗ	-276
ⲛⲟⲃⲉ	-277
▁ϥⲛⲁ	-278
ϣⲁⲛ	-279
ⲛⲉⲓ	-280
ⲏⲏ	-281
▁ⲙⲡⲓⲥⲣⲁⲏⲗ	-282
▁ⲏ	-283
▁ⲟⲛ	-284
ⲣⲓⲥ	-285
ⲙⲛ	-286
▁ⲛⲁⲕ	-287
ϭⲓϫ	-288
▁ⲉⲛ	-289
ⲟⲟϣⲉ	-290
ⲏⲓ	-291
ⲱⲛϩ	-292
▁ⲛⲧⲉⲧⲛ	-293
ⲣⲁⲛ	-294
ⲛⲧⲁϥ	-295
ⲣⲡ	-296
ⲟⲧⲉ	-297
▁ⲙⲛⲟⲩ	-298
▁ⲧⲏⲣϥ	-299
▁ϩⲓⲧ	-300
ⲧⲕ	-301
▁ⲉⲧⲣⲉ	-302
ⲇⲓⲕ	-303
ⲟⲩⲱϣ	-304
ⲉⲣⲉ	-305
ⲉⲓⲇ	-306
▁ⲛⲥⲱ	-307
ⲉⲛ	-308
ⲗⲓ	-309
▁ⲉⲥ	-310
ⲓⲱ	-311
▁ⲛϩⲉⲛ	-312
ⲡⲓⲥ	-313
▁ⲉϥϫⲱ	-314
▁ⲛⲏⲧⲛ	-315
▁ⲡⲉϫⲉ	-316
ⲓⲟⲩ	-317
▁ⲛⲉϥ	-318
ⲙⲟⲟⲩ	-319
ⲍⲉ	-320
ⲇⲁⲩ	-321
▁ⲉϫⲛ	-322
ⲇⲁⲩⲉⲓⲇ	-323
ⲓⲥⲉ	-324
ⲡⲟⲗⲓⲥ	-325
▁ⲉⲕ	-326
ⲛⲁⲓ	-327
▁ϫⲉⲕⲁ	-328
ⲟⲉⲓϣ	-329
ⲇⲁ	-330
▁ⲉⲣⲟⲟⲩ	-331
▁ⲙⲁ	-332
ⲱⲧⲛ	-333
ⲅⲁ	-334
ⲡⲓ	-335
ⲉⲓⲱⲧ	-336
▁ⲛⲉⲩ	-337
ⲗⲁⲁⲩ	-338
ⲉⲩⲉ	-339
ⲙⲟⲟϣⲉ	-340
ⲥⲟⲟⲩⲛ	-341
ⲛⲉϩ	-342
ⲧⲥ	-343
ⲩⲭⲏ	-344
▁ⲙⲡⲉⲕ	-345
▁ⲉⲓⲥ	-346
ⲏⲩⲉ	-347
ⲑⲁ	-348
ⲯⲩⲭⲏ	-349
ⲧⲛⲁ	-350
▁ⲛϩ	-351
▁ⲉⲣⲟⲓ	-352
▁ⲡⲛⲟⲩⲧⲉ	-353
ⲡⲁⲓ	-354
ⲙⲙ	-355
▁ⲁⲕ	-356
ⲛⲏⲩ	-357
ϩⲓⲙⲉ	-358
▁ⲛⲛⲉϥ	-359
ϩⲱⲃ	-360
ⲉⲓⲣⲉ	-361
ϣⲟⲩ	-362
ⲡⲣⲟ	-363
▁ϩⲣⲁⲓ	-364
▁ⲛⲧⲟϥ	-365
ⲧⲉⲧⲛ	-366
ⲇⲓⲕⲁⲓⲟⲥ	-367
ϣⲓⲛⲉ	-368
▁ⲛⲙⲙⲁ	-369
ϥⲓ	-370
ϫⲁⲓ	-371
ϥⲉ	-372
ⲃⲏ	-373
ⲭⲣⲓⲥ	-374
ⲧⲟⲟⲩ	-375
▁ϣⲱⲡⲉ	-376
▁ⲧⲁⲓ	-377
▁ⲙⲛⲡ	-378
▁ⲟⲩⲇⲉ	-379
ⲭⲣⲓⲥⲧⲟⲥ	-380
▁ϩⲓϫ	-381
▁ϫⲉⲟⲩ	-382
▁ⲡϣⲏⲣⲉ	-383
ϩⲣ	-384
ⲛⲉⲩⲙⲁ	-385
ⲟⲧ	-386
ⲙⲉⲉⲩⲉ	-387
..	-388
ⲱϣ	-389
▁ⲡⲉⲕ	-390
ⲃⲃ	-391
ⲡⲉϥ	-392
ⲑⲛⲟⲥ	-393
▁ⲛϩⲏⲧϥ	-394
ϩⲧ	-395
ⲧⲣⲉ	-396
ϩⲟⲧⲉ	-397
ⲡⲛⲟⲩⲧⲉ	-398
ϩⲉⲑⲛⲟⲥ	-399
ⲛⲟⲙ	-400
▁ⲉⲣⲟⲕ	-401
▁ϫⲉⲛ	-402
ⲑⲏ	-403
ϩⲃ	-404
ⲱⲣ	-405
ϫⲟⲟⲩ	-406
▁ⲛⲛⲉⲩ	-407
ⲧⲙ	-408
ⲕⲟⲩ	-409
▁ⲛⲛⲉⲕ	-410
▁ⲡⲉϥ	-411
▁ⲛⲉⲧ	-412
ⲟⲟⲧϥ	-413
▁ⲛⲧⲉϥ	-414
ⲗⲁⲥ	-415
ⲧⲱⲟⲩⲛ	-416
ϩⲓⲏ	-417
ⲣⲁⲧϥ	-418
▁ⲛⲧⲟⲕ	-419
ⲅⲏ	-420
ϣⲟⲣ	-421
▁ⲥⲁ	-422
▁ⲡⲉⲧⲛⲁ	-423
▁ϩⲏ	-424
▁ⲧⲉⲛⲟⲩ	-425
ⲇⲓⲁ	-426
ⲧϩⲉ	-427
ⲣⲉϩ	-428
ⲩⲥⲏⲥ	-429
▁ⲛⲛⲉⲧ	-430
ⲱⲩⲥⲏⲥ	-431
ⲙⲟⲩⲧⲉ	-432
▁ⲙⲡⲉⲙⲧⲟ	-433
ⲃⲁⲗ	-434
▁ⲉⲛⲁ	-435
ⲡⲟ	-436
ⲁϫⲉ	-437
▁ϩⲉⲛ	-438
ⲓⲁⲥ	-439
ⲅⲅⲉ	-440
▁ⲉⲧⲉⲧⲛ	-441
ⲕⲏⲙⲉ	-442
ⲟⲩⲁⲁⲃ	-443
▁ⲙⲙⲟⲓ	-444
▁ⲛϭⲓⲡ	-445
ⲫⲏ	-446
▁ⲛϩⲟⲟⲩ	-447
ⲡⲛⲉⲩⲙⲁ	-448
ⲓⲉ	-449
▁ⲓⲏⲥⲟⲩⲥ	-450
ⲟⲩⲗ	-451
▁ⲙⲙⲁⲩ	-452
ϣⲟⲣⲡ	-453
▁ⲧϩⲉ	-454
ⲡⲉⲕ	-455
▁ⲉϫⲙⲡ	-456
▁ⲛⲙ	-457
ⲛⲏⲥ	-458
ⲥⲟⲩ	-459
ϣϥ	-460
ⲛⲟⲙⲟⲥ	-461
ⲁⲧ	-462
▁ϫⲉⲕⲁⲁⲥ	-463
▁ⲡⲉⲛⲧⲁϥ	-464
ⲧⲟⲛ	-465
ⲗⲏⲗ	-466
ⲛⲟϥ	-467
▁ⲙⲏ	-468
▁ⲁϥⲉⲓ	-469
▁ⲛⲧⲁϥ	-470
ⲧⲏⲩⲧⲛ	-471
ⲣⲭ	-472
ⲩⲛⲏ	-473
ϩⲁⲓ	-474
ⲛⲧⲁⲩ	-475
ⲥϩⲓⲙⲉ	-476
▁ⲙⲛⲧ	-477
ⲛⲉϥ	-478
▁ⲛⲧⲉⲩ	-479
▁ⲉϥⲉ	-480
ⲙⲏⲧⲉ	-481
ϩⲁⲡ	-482
ϩⲛ	-483
ⲣⲓⲟⲛ	-484
ⲟⲩⲱⲙ	-485
ⲣⲙ	-486
▁ⲉⲧⲛⲁ	-487
▁ⲉⲧⲁ	-488
▁ⲧⲏⲩⲧⲛ	-489
▁ⲛϩⲏⲧⲟⲩ	-490
ⲫⲩ	-491
▁ⲉϣ	-492
ⲙⲏⲏ	-493
▁ϣⲁⲉ	-494
ⲱϥ	-495
ϩⲧⲉ	-496
▁ⲡⲣⲣⲟ	-497
ⲧⲉϥ	-498
ⲡⲉⲓ	-499
▁ⲙⲙⲟⲕ	-500
▁ⲉⲙⲁ	-501
▁ⲉⲕⲉ	-502
▁ϫⲉⲉⲓ	-503
▁ⲕⲁⲧⲁⲧϩⲉ	-504
ⲙⲉϩ	-505
ⲫⲁ	-506
ϩⲙⲟⲟⲥ	-507
ⲛⲟⲩϥ	-508
▁ϩⲛⲛ	-509
▁ⲛⲣⲱⲙⲉ	-510
▁ⲙⲡⲉⲓ	-511
▁ⲁⲩⲉⲓ	-512
ⲥⲩ	-513
ⲧⲉⲓ	-514
ϩⲃⲏⲩⲉ	-515
ⲡⲁⲣⲁ	-516
ⲧⲉⲩⲉ	-517
▁ⲙⲡⲕⲁϩ	-518
▁ⲁϥⲧⲁ	-519
ϯⲛⲁ	-520
ⲣⲱⲧⲛ	-521
▁ⲉⲩϫⲱ	-522
▁ⲛⲁⲥ	-523
▁ⲉⲧⲃⲉⲡⲁⲓ	-524
ⲑⲉ	-525
▁ⲙⲡⲟⲩ	-526
ⲙⲏⲏϣⲉ	-527
▁..	-528
ϩⲓⲉ	-529
ⲟⲡ	-530
▁ⲉⲣⲟⲥ	-531
ⲏϩ	-532
ⲭⲁ	-533
ⲇⲁⲓ	-534
▁ⲛⲧⲉⲣⲉϥ	-535
▁ⲟⲩⲁ	-536
▁ϫⲉⲛⲧ	-537
▁ⲉⲡⲉϥ	-538
ϫⲛ	-539
▁ⲛⲧⲁⲩ	-540
ⲛⲁⲥ	-541
ⲱⲙ	-542
ⲧⲓⲥ	-543
▁ⲉϣⲱⲡⲉ	-544
ⲧⲣ	-545
ⲱⲥ	-546
▁ϫⲱ	-547
ⲕⲗⲏ	-548
ⲟⲗⲉ	-549
ⲉⲓⲙⲉ	-550
ϣⲉⲉⲣⲉ	-551
ⲟⲉⲓⲕ	-552
ⲧⲁⲕⲟ	-553
▁ϣⲁⲉⲛⲉϩ	-554
ⲟⲛⲥ	-555
▁ⲉϣϫⲉ	-556
▁ⲡⲟⲩⲁ	-557
ϩⲧⲏ	-558
▁ⲙⲉ	-559
▁ⲛϭⲓⲛ	-560
▁ⲉⲛⲧⲁϥ	-561
▁ⲛⲁⲛ	-562
▁ⲙⲡⲉⲧ	-563
▁ⲧⲉⲧⲛ	-564
▁ⲉⲙⲁⲧⲉ	-565
▁ⲛϣⲏⲣⲉ	-566
ⲣⲏⲩ	-567
ϭⲱϣⲧ	-568
▁ⲣ	-569
ⲟⲩϩ	-570
ϩⲣⲁⲓ	-571
▁ϫⲓⲛ	-572
▁ⲟⲩⲛ	-573
ϫⲱⲱ	-574
▁ϩⲓⲧⲛ	-575
▁ⲉⲧⲟⲟ	-576
ⲗⲏⲙ	-577
▁ⲛⲛϣⲏⲣⲉ	-578
ϭⲟⲛⲥ	-579
ⲑⲩⲥ	-580
▁ϩⲙⲡⲉϥ	-581
ⲛⲟⲙⲓⲁ	-582
ⲕⲱⲧⲉ	-583
▁ⲉⲧⲟⲩⲁⲁⲃ	-584
ⲕⲟⲥ	-585
ⲉⲓⲛⲉ	-586
ⲏⲏⲧⲉ	-587
▁ⲛⲧⲟⲟⲩ	-588
ⲅⲅⲉⲗⲟⲥ	-589
ϫⲓⲛ	-590
ⲗⲗⲟ	-591
ⲣⲟⲙⲡⲉ	-592
ϩⲁⲣⲉϩ	-593
ⲣⲟⲩⲥⲁ	-594
ⲉⲓⲛ	-595
ⲗⲉⲓ	-596
ⲛⲟⲟⲩ	-597
ⲣⲟⲩⲥⲁⲗⲏⲙ	-598
ⲟⲉⲓⲛ	-599
▁ϩⲏⲏⲧⲉ	-600
ϩⲓⲉⲣⲟⲩⲥⲁⲗⲏⲙ	-601
▁ⲧⲛ	-602
ⲱⲛⲉ	-603
ⲧⲟⲩⲁ	-604
▁ⲙⲛⲡⲉ	-605
ⲗⲁⲥⲥⲁ	-606
ⲇⲓⲕⲁⲓⲟⲥⲩⲛⲏ	-607
▁ⲉⲡⲁ	-608
ⲛⲉⲕ	-609
▁ⲛⲧⲉⲕ	-610
ⲣⲟϥ	-611
ⲧⲁⲥ	-612
ⲥⲃ	-613
ⲡⲱⲧ	-614
ⲥⲟⲡ	-615
▁ϣ	-616
▁ⲕⲛⲁ	-617
ⲧⲓ	-618
▁ϫ	-619
ⲥⲟⲛ	-620
ⲕⲟⲩⲓ	-621
ⲡⲣⲟⲫⲏ	-622
▁ⲉⲁ	-623
▁ⲙⲙⲱⲧⲛ	-624
▁ⲉⲧⲉⲣⲉ	-625
ϩⲱⲛ	-626
▁ϣⲁⲣⲉ	-627
ⲙⲛⲧⲣⲉ	-628
ϭⲙ	-629
ⲟⲛⲏ	-630
ⲥⲏⲧ	-631
ⲧⲉⲕ	-632
ⲥⲙⲟⲩ	-633
▁ⲁϥⲃⲱⲕ	-634
ⲧⲟⲩⲁⲁⲃ	-635
ϩⲥ	-636
▁ϩⲙⲡⲕⲁϩ	-637
▁ⲉⲩⲉ	-638
▁ⲁⲡ	-639
ϭⲱⲛⲧ	-640
ⲣⲱⲟⲩ	-641
▁ⲛⲧⲱⲧⲛ	-642
ⲧⲱⲛ	-643
ⲥⲧⲉ	-644
ϫⲁϫⲉ	-645
ⲣⲛⲟⲃⲉ	-646
▁ⲉⲣⲁⲧϥ	-647
▁ⲛϩⲉ	-648
ϣⲙ	-649
ⲥⲟⲫ	-650
▁ⲇⲁⲩⲉⲓⲇ	-651
ϫⲡ	-652
ⲁϩⲉ	-653
ⲟⲛϩ	-654
ⲕⲱⲃ	-655
ⲟⲩⲱϣⲃ	-656
▁ⲉⲧⲣⲉϥ	-657
▁ⲙⲡⲣⲱⲙⲉ	-658
ⲣⲱⲛ	-659
▁ⲉⲧⲣⲉⲩ	-660
ⲕⲁⲕ	-661
ⲟⲗⲏ	-662
▁...	-663
▁ⲉⲧⲟⲩ	-664
▁ϣⲟⲟⲡ	-665
▁ⲁϥϫⲓ	-666
ⲟⲥⲉ	-667
▁ⲛⲉⲓ	-668
ⲡⲏⲣⲉ	-669
▁ⲛϭⲓⲛⲉ	-670
ⲁⲣⲓⲥ	-671
▁ϩⲓϫⲙⲡ	-672
ϩⲟⲩⲟ	-673
▁ⲙⲙⲟⲛ	-674
ⲣϩⲟⲧⲉ	-675
▁ⲡⲉⲧⲉ	-676
ⲥⲃⲱ	-677
▁ⲥⲱⲧⲙ	-678
▁ⲛⲟⲩⲱⲧ	-679
ⲗⲩ	-680
▁ⲙⲁⲣ	-681
▁ⲁⲥϣⲱⲡⲉ	-682
ⲣⲟⲛ	-683
ⲣⲁⲧⲟⲩ	-684
▁ⲡⲉⲕⲛⲟⲩⲧⲉ	-685
ⲧⲁⲙⲓ	-686
▁ⲛⲁϣⲱⲡⲉ	-687
ⲃⲟ	-688
▁ϣⲏ	-689
▁ⲙⲡⲉⲥ	-690
ⲓⲟⲩⲇⲁⲓ	-691
ⲡⲱ	-692
▁ⲁϥϯ	-693
▁ⲛⲙⲙⲁϥ	-694
ⲟⲩⲱϩ	-695
ⲙⲱⲩⲥⲏⲥ	-696
ϩⲩ	-697
▁ⲙⲡⲓ	-698
▁ⲡⲉϫⲁⲩ	-699
ϣⲗⲏⲗ	-700
ⲥⲛⲏⲩ	-701
▁ⲥⲛⲁⲩ	-702
▁ⲧⲏⲣⲥ	-703
▁ⲙⲛⲛⲥⲁ	-704
ⲧⲱⲣ	-705
ⲑⲃⲃ	-706
▁ⲉϣⲁ	-707
▁ⲛⲣⲉϥ	-708
▁ⲛⲧⲉⲓ	-709
ⲕⲗⲏⲣⲟ	-710
ⲣⲏⲛⲏ	-711
ⲁⲣⲭ	-712
▁ⲛⲧⲛ	-713
▁ⲙⲡⲉⲩ	-714
▁ⲛⲧⲉⲣⲟⲩ	-715
▁ⲛⲛⲟⲩ	-716
▁ⲛⲥⲱϥ	-717
ⲁⲗ	-718
▁ⲉⲧⲉⲧ	-719
▁ⲙⲛϩⲉⲛ	-720
▁ⲧⲱ	-721
ⲡⲓⲥⲧⲓⲥ	-722
▁ⲛⲇⲁⲩⲉⲓⲇ	-723
ⲣⲁϣⲉ	-724
ϣⲡⲏⲣⲉ	-725
▁ⲉϫⲱϥ	-726
▁ϩⲙⲡⲙⲁ	-727
ⲣⲙⲛ	-728
▁ϫⲉⲡ	-729
ⲥⲱⲙⲁ	-730
ⲟⲩⲱⲛϩ	-731
ⲟⲩⲟⲉⲓϣ	-732
ⲕⲟⲧⲕ	-733
▁ⲉⲛⲧⲁⲩ	-734
ⲓⲙⲁ	-735
ⲟⲩⲟ	-736
ⲡⲟⲥ	-737
ⲧⲁⲡⲣⲟ	-738
ⲥⲁⲣ	-739
▁ⲡⲉⲛ	-740
ⲛⲧⲟⲩ	-741
▁ϩⲛϩⲉⲛ	-742
ⲥⲱϣⲉ	-743
▁ⲉϥⲛⲁ	-744
ⲓⲛⲉ	-745
ⲏⲏⲃ	-746
ⲧⲁⲓ	-747
ⲗⲟⲟⲗⲉ	-748
ϩⲓⲟⲟⲩⲉ	-749
▁ⲙⲡⲣⲣⲟ	-750
ⲙⲁϩⲧⲉ	-751
▁ⲉⲡⲉⲥⲏⲧ	-752
ⲥⲉⲃ	-753
ⲧⲁⲩ	-754
ϫⲱⲕ	-755
ⲫⲣⲁ	-756
ϣⲓⲡⲉ	-757
ⲕⲱϩⲧ	-758
ⲡⲣⲟⲫⲏⲧⲏⲥ	-759
ϩⲓⲥⲉ	-760
▁ϩⲏⲧϥ	-761
▁ⲡⲉⲭⲣⲓⲥⲧⲟⲥ	-762
▁ⲛⲃ	-763
ⲅⲁⲑ	-764
ⲉⲟⲟⲩ	-765
ⲟⲩϫⲁⲓ	-766
▁ϣⲏⲙ	-767
ⲣⲏⲧⲉ	-768
▁ϫⲉⲉⲓⲥ	-769
▁ⲉⲁϥ	-770
ⲣⲓⲛⲉ	-771
ⲓⲁⲕⲱⲃ	-772
▁ⲉⲡϫⲟⲉⲓⲥ	-773
▁ⲁⲡⲁ	-774
ⲑⲃⲃⲓ	-775
ϩⲣⲟⲟⲩ	-776
ϩⲁⲙ	-777
ϭⲙϭⲟⲙ	-778
▁ⲉⲣⲉⲡ	-779
ⲑⲏⲧⲏⲥ	-780
▁ⲉⲣⲱⲧⲛ	-781
ⲙⲁⲁⲩ	-782
ⲥⲱⲟⲩϩ	-783
▁ϩⲉ	-784
ⲏⲧⲉ	-785
ⲛⲁⲙ	-786
▁ⲉⲧⲛ	-787
▁ϫⲉⲁⲩ	-788
▁ⲙⲡⲙⲁ	-789
ⲓⲛ	-790
ϫⲛⲉ	-791
▁ⲉⲧⲃ	-792
ⲑⲁⲗⲁⲥⲥⲁ	-793
▁ⲛⲛⲣⲱⲙⲉ	-794
ⲱⲧⲡ	-795
ϫⲓⲥⲉ	-796
▁ϫⲉⲙⲡ	-797
▁ϫⲉⲡϫⲟⲉⲓⲥ	-798
▁ⲛⲓⲱ	-799
▁ⲉⲡⲙⲁ	-800
▁ⲛⲕⲏⲙⲉ	-801
ⲁⲕ	-802
▁ⲧⲉϥ	-803
ⲥⲧ	-804
ⲱⲃ	-805
ϣⲟⲙⲛⲧ	-806
▁ⲙⲁⲣⲉ	-807
ϩⲏⲕⲉ	-808
....	-809
▁ⲛϣⲁ	-810
ⲉⲓⲧ	-811
▁ⲡⲉⲓ	-812
ⲙⲛⲧⲣⲣⲟ	-813
▁ⲙⲡϩⲟⲟⲩ	-814
ⲛⲁⲅ	-815
▁ⲛⲉⲕ	-816
▁ⲛⲙⲡ	-817
▁ⲉϫⲙⲡⲉ	-818
ⲡⲉⲧϩⲟⲟⲩ	-819
▁ⲉϫⲱⲟⲩ	-820
ⲧⲁⲙ	-821
▁ⲧⲟⲧⲉ	-822
ⲭⲱ	-823
ⲣⲓⲁ	-824
ⲗⲗⲟⲫⲩ	-825
ⲡⲉⲧⲛⲁ	-826
▁ⲙⲡⲉϩⲟⲟⲩ	-827
ⲧⲁϫ	-828
ⲧⲃⲃ	-829
▁ⲁⲩϯ	-830
▁ⲛⲧⲉⲣⲉ	-831
▁ⲡⲉϫⲉⲡϫⲟⲉⲓⲥ	-832
▁ϩⲓⲧⲙⲡ	-833
▁ⲛⲛⲁϩⲣ	-834
ⲃⲧ	-835
ϩⲁϩ	-836
▁ⲛⲕ	-837
ⲑⲗⲓ	-838
ϭⲥ	-839
ⲛⲟϫ	-840
ⲛⲧϥ	-841
ⲥⲏϥⲉ	-842
▁ϩⲛⲧⲉϥ	-843
▁ⲙⲛⲛⲉϥ	-844
ⲇⲓ	-845
▁ⲛϣ	-846
▁ⲙⲛⲛⲉⲩ	-847
▁ⲛⲟⲩⲟⲉⲓϣ	-848
▁ⲙⲙⲉ	-849
ⲟⲣⲅⲏ	-850
▁ⲉϩⲉⲛ	-851
▁ⲡⲕⲁϩ	-852
ⲥⲉⲃⲏⲥ	-853
▁ϣⲁϩⲣⲁⲓ	-854
▁ⲙⲡⲗⲁⲟⲥ	-855
ⲡⲓⲥⲧⲉⲩⲉ	-856
▁ⲙⲡⲉⲛ	-857
▁ⲡⲉⲧⲛ	-858
ⲓⲟⲩⲇⲁ	-859
ⲥⲓ	-860
ⲧⲁⲛ	-861
ϫⲁⲓⲉ	-862
ⲛⲁϣ	-863
ⲥⲁⲃ	-864
ⲧⲉⲩ	-865
ϫⲟⲥⲉ	-866
▁ⲛϩⲏⲧⲥ	-867
ⲁⲁϥ	-868
ⲃⲟⲗⲏ	-869
ϩⲏⲏⲧⲉ	-870
▁ϩⲓϫⲙⲡⲕⲁϩ	-871
ⲕⲗ	-872
▁ⲉⲧⲙ	-873
ⲙⲙⲁⲟ	-874
ⲑⲩⲥⲓⲁ	-875
▁ⲓⲱ	-876
▁ϣⲁϥ	-877
ϣⲟϫⲛⲉ	-878
▁ϫⲉⲁⲓ	-879
▁ϩⲛⲛⲉⲩ	-880
ⲥⲉⲓ	-881
▁ⲃⲱⲕ	-882
▁ⲛⲙⲙⲁⲩ	-883
▁ⲛⲛⲉⲧⲛ	-884
▁ⲛⲣⲟⲙⲡⲉ	-885
▁ⲱ	-886
▁ⲉϯ	-887
ⲥⲁⲣⲝ	-888
▁ϫⲉⲕⲁⲥ	-889
ⲟϣ	-890
ⲥⲁϩ	-891
ⲧⲁⲁϥ	-892
▁ⲛϣⲟⲣⲡ	-893
ϫⲟⲟ	-894
ⲣⲓⲙⲉ	-895
▁ϫⲉⲁⲛⲟⲕ	-896
ϣⲙϣⲉ	-897
ⲣⲙⲙⲁⲟ	-898
▁ⲁⲧⲉⲧⲛ	-899
ⲧⲏⲣⲓⲟⲛ	-900
ϥⲛⲁ	-901
ⲯⲁⲗ	-902
ⲙⲓϣⲉ	-903
▁ⲉⲣⲟⲛ	-904
ⲛⲧⲟⲗⲏ	-905
▁ⲉⲧⲃⲏⲏ	-906
ⲕⲟⲥⲙⲟⲥ	-907
ⲛⲛⲏⲥ	-908
▁ⲉϫⲛⲧ	-909
ⲗⲗⲟⲫⲩⲗⲟⲥ	-910
▁ⲛϯ	-911
▁ⲁϥⲟⲩⲱϣⲃ	-912
▁ⲡⲙⲁ	-913
▁ⲛⲧⲉⲡ	-914
▁ⲉϩⲟⲩⲉ	-915
ⲣⲟⲕ	-916
▁ⲉⲧϩ	-917
ⲑⲏⲕⲏ	-918
▁ⲡⲣⲱⲙⲉ	-919
ⲑⲩ	-920
▁ⲉⲁⲩ	-921
ⲟⲗⲓⲥ	-922
ϩⲁⲛⲛⲏⲥ	-923
ⲉⲧ	-924
▁ⲛⲧⲁⲓ	-925
▁ⲟⲩⲟⲛ	-926
ⲱⲕ	-927
▁ϫⲉⲛⲉ	-928
▁ⲃ	-929
ⲡⲉⲩ	-930
▁ⲗⲁⲁⲩ	-931
▁ⲁⲣⲓ	-932
ϫⲱⲱⲣⲉ	-933
▁ⲉⲩⲛⲁ	-934
ⲧⲟⲩⲏϩ	-935
ⲧϩⲏⲧ	-936
ⲙⲟⲟⲩⲧ	-937
ⲇⲏ	-938
ⲣⲙⲁ	-939
▁ϩⲙⲡⲁ	-940
▁ϩⲙⲡⲉϩⲟⲟⲩ	-941
▁ⲛⲧⲟⲟ	-942
▁ϩⲛⲛⲉϥ	-943
ⲧⲡ	-944
ϣⲧⲟⲣ	-945
ⲉⲣⲉⲩⲥ	-946
ϫⲓⲛϭⲟⲛⲥ	-947
ⲇⲓⲁⲑⲏⲕⲏ	-948
▁ⲉⲛⲉϩ	-949
ⲉⲣ	-950
ⲣⲣⲉ	-951
▁ⲛⲕⲉ	-952
ⲁⲣⲱⲛ	-953
ⲧⲁⲁⲩ	-954
ⲫⲁⲣⲁ	-955
ϣⲧⲟⲣⲧⲣ	-956
▁ⲛϭⲓⲡϫⲟⲉⲓⲥ	-957
ⲓⲥⲁ	-958
ⲗⲱⲛ	-959
▁ⲁⲛⲟⲛ	-960
▁ⲛⲧⲡⲉ	-961
▁ⲛⲧⲉⲩⲛⲟⲩ	-962
ⲇⲟⲩ	-963
ⲉⲓⲁ	-964
▁ⲉⲙⲡ	-965
▁ⲛⲙⲙ	-966
ⲛⲟⲩϫⲉ	-967
▁ϫⲉⲉⲣⲉ	-968
▁ⲉⲧⲟⲟⲧϥ	-969
ⲥⲙⲏ	-970
ⲥⲛⲟϥ	-971
ⲅⲁⲑⲟⲛ	-972
ⲥⲁⲗ	-973
ⲧⲁⲗ	-974
▁ϫⲉⲁϥ	-975
ⲫⲁⲣⲁⲱ	-976
ϩⲁⲧ	-977
ϭⲟⲗ	-978
▁ⲛⲁϣ	-979
▁ⲛⲕⲁ	-980
▁ⲛⲧⲉⲧ	-981
ⲁⲛ	-982
ⲕⲁⲁϥ	-983
ⲣⲭⲱⲛ	-984
▁ⲉⲧⲉⲧⲛⲉ	-985
ⲓⲟⲥ	-986
ⲁⲩⲗⲟⲥ	-987
ⲛⲟⲙⲉⲓ	-988
ⲣⲟⲟⲩ	-989
ⲧⲏⲣ	-990
ⲟⲩⲱⲛ	-991
ⲥⲁⲃⲉ	-992
▁ⲁⲡϫⲟⲉⲓⲥ	-993
ⲣⲡⲟⲥ	-994
ⲕⲣⲓⲛⲉ	-995
ⲥⲟⲫⲓⲁ	-996
ⲫⲣⲁⲛⲉ	-997
▁ⲛϭⲓⲓⲏⲥⲟⲩⲥ	-998
ⲉⲥ	-999
ϫⲡⲟ	-1000
▁ⲛⲉⲧⲉ	-1001
ⲟⲩⲉⲣⲏⲧⲉ	-1002
▁ⲙⲁⲩ	-1003
▁ⲛⲁⲣ	-1004
▁ⲁⲩϫⲓ	-1005
▁ⲛⲟⲩⲁ	-1006
ϫⲟ	-1007
ϣⲏⲛ	-1008
▁ⲛⲟ	-1009
ⲡⲟⲩ	-1010
ⲭⲁⲣⲓⲥ	-1011
ⲁⲁⲩ	-1012
ⲡⲁⲣ	-1013
▁ϩⲓⲱ	-1014
ϫⲏ	-1015
ϣⲕⲁⲕ	-1016
▁ϩⲱⲱϥ	-1017
ϣⲟⲩⲉⲓⲧ	-1018
ⲥϩⲁⲓ	-1019
ⲧⲣⲁ	-1020
▁ⲙⲉⲛ	-1021
▁ⲛⲓⲟⲩⲇⲁ	-1022
▁ϩⲛⲧⲉⲕ	-1023
▁ⲙⲡⲉⲧⲛ	-1024
▁ⲛⲧⲉⲓϩⲉ	-1025
ⲥⲕ	-1026
ⲟⲩⲥⲟⲡ	-1027
▁ϩⲙⲡⲉⲕ	-1028
▁ⲉⲛⲁϣⲱ	-1029
ⲙⲏⲛ	-1030
▁ϩⲁⲧ	-1031
▁ⲉⲉⲓ	-1032
ⲛⲓ	-1033
ⲙⲙⲟ	-1034
ⲏⲥⲓⲁ	-1035
ⲟⲟⲛⲉ	-1036
▁ϩⲓϫⲛ	-1037
▁ⲉⲡⲕⲁϩ	-1038
▁ϩⲓⲟⲩⲥⲟⲡ	-1039
ⲏⲑ	-1040
▁ⲙⲙⲛⲧ	-1041
▁ⲉⲧⲃⲉⲟⲩ	-1042
ⲃⲏⲣ	-1043
ⲩⲗⲏ	-1044
ⲉⲩ	-1045
ⲧⲃⲉ	-1046
ⲧⲣⲉⲩ	-1047
▁ϩⲛⲧⲡⲉ	-1048
▁ϫⲉⲛⲧⲟⲕ	-1049
▁ⲉⲛⲧⲁⲡϫⲟⲉⲓⲥ	-1050
ϣⲁⲓ	-1051
ⲯⲓⲥ	-1052
ⲡⲟⲗⲉ	-1053
▁ⲉⲛⲉϥ	-1054
ⲣⲣⲱⲟⲩ	-1055
ⲭⲉ	-1056
ⲧⲟⲓ	-1057
ϩⲧⲏϥ	-1058
▁ϩⲁⲡ	-1059
▁ⲙⲡϥ	-1060
ⲇⲱ	-1061
ϩⲣⲁ	-1062
ⲟⲉⲓⲧ	-1063
▁ϯϫⲱ	-1064
▁ⲡⲟⲩ	-1065
ⲟⲣⲇⲁ	-1066
▁ⲡⲉⲛⲛⲟⲩⲧⲉ	-1067
ⲙⲁⲥ	-1068
▁ⲛⲉⲥ	-1069
▁ⲟⲩⲉ	-1070
▁ϩⲓϫⲱ	-1071
▁ⲛⲙⲙⲁⲓ	-1072
ⲟⲣⲇⲁⲛⲏⲥ	-1073
ϩⲙⲉ	-1074
ⲓⲟⲛ	-1075
▁ⲙⲛⲁ	-1076
▁ϫⲉⲁⲛ	-1077
ⲙⲟⲩⲏⲗ	-1078
▁ⲉⲕϣⲁⲛ	-1079
ⲡⲟⲣ	-1080
ⲣⲱϥ	-1081
ⲟⲩⲉϩ	-1082
ⲫⲩⲗⲏ	-1083
▁ⲛⲛⲉⲓ	-1084
▁ⲉⲣϣⲁⲛ	-1085
▁ϫⲉⲉⲓⲥϩⲏⲏⲧⲉ	-1086
ϩⲏⲩ	-1087
ⲕⲁⲗⲉⲓ	-1088
▁ⲟⲩⲣⲱⲙⲉ	-1089
ⲣⲏⲧ	-1090
ϣⲱⲱⲧ	-1091
▁ⲡⲉⲩ	-1092
ⲙⲉⲣⲓ	-1093
▁ϫⲉⲡⲁ	-1094
ⲡⲉⲣⲙⲁ	-1095
ⲧⲛⲛⲟⲟⲩ	-1096
ϫⲓⲥ	-1097
ⲣⲓⲟⲥ	-1098
ⲣⲁϩⲁⲙ	-1099
▁ⲙⲁⲣⲉϥ	-1100
ⲕⲁⲣⲡⲟⲥ	-1101
▁ⲡⲁϣⲏⲣⲉ	-1102
▁ϩⲛⲧⲙⲏⲧⲉ	-1103
ⲕⲗⲏⲣⲟⲛⲟⲙⲓⲁ	-1104
ⲟⲩⲧ	-1105
ⲥⲏϩ	-1106
▁ⲉⲟⲩ	-1107
ⲕⲁⲕⲉ	-1108
▁ⲉⲡⲛⲟⲩⲧⲉ	-1109
ⲍⲁ	-1110
ⲉⲓⲟ	-1111
ⲑⲁⲛ	-1112
ⲡⲁϩ	-1113
▁ϩⲓⲧⲟⲟ	-1114
▁ⲙⲛⲛⲉⲧ	-1115
ⲙⲟ	-1116
ⲃⲉⲥ	-1117
▁ⲉⲓⲉ	-1118
ⲃⲟⲏⲑ	-1119
▁ⲛϭⲓⲡⲉ	-1120
▁ⲛⲙⲙⲁⲕ	-1121
ⲉⲓⲣⲏⲛⲏ	-1122
ⲙⲁⲑⲏⲧⲏⲥ	-1123
▁ⲛⲓⲏⲥⲟⲩⲥ	-1124
ⲅⲣⲁ	-1125
▁ⲛⲏⲩ	-1126
ⲟⲩⲟⲓ	-1127
▁ϩⲛⲧⲁ	-1128
▁ϫⲟⲟⲥ	-1129
ⲛⲉⲧ	-1130
ⲧⲟϥ	-1131
▁ⲉϥⲟ	-1132
▁ⲛϩⲏ	-1133
ⲟⲩⲱϣⲧ	-1134
▁ⲡϣⲁϫⲉ	-1135
ⲓⲧⲉ	-1136
▁ⲉⲡⲉⲕ	-1137
▁ⲁϥϫⲟⲟⲩ	-1138
ϩⲩⲡ	-1139
ⲙⲟⲧ	-1140
ⲙⲱⲛ	-1141
▁ⲛⲥⲓ	-1142
ⲥⲟⲡⲥ	-1143
▁ϫⲉⲡⲉ	-1144
▁ⲛϭⲓⲟⲩ	-1145
▁ⲉϫⲙⲡⲕⲁϩ	-1146
ⲕϩ	-1147
ϩⲉⲗ	-1148
ⲛⲁⲅⲱ	-1149
ⲱⲧⲟⲥ	-1150
ⲣⲟⲛⲟⲥ	-1151
▁ⲉϥϣⲁⲛ	-1152
ⲃⲉⲛ	-1153
ⲡⲱⲣ	-1154
▁ϩⲱⲛ	-1155
ⲙⲛⲧⲁ	-1156
ϫⲁ	-1157
▁ϫⲉϯ	-1158
ⲅⲁⲡⲏ	-1159
▁ⲛⲉⲣⲉ	-1160
▁ⲙⲛⲛⲥⲱ	-1161
▁ⲛϣⲁϫⲉ	-1162
▁ⲛϭⲟⲛⲥ	-1163
ⲡⲟⲗⲉⲙⲟⲥ	-1164
▁ⲁϥⲧⲱⲟⲩⲛ	-1165
ⲣⲉϥⲣⲛⲟⲃⲉ	-1166
ⲙⲉⲥ	-1167
ⲛⲉϭ	-1168
ⲱⲃϣ	-1169
▁ϩⲱⲥ	-1170
▁ⲛⲧⲁⲕ	-1171
▁ⲟⲩⲱϣ	-1172
ⲑⲗⲓⲯⲓⲥ	-1173
▁ⲉⲧⲟⲟⲧⲟⲩ	-1174
ⲕⲛⲁ	-1175
ⲟⲙⲉ	-1176
ⲡⲗⲁ	-1177
ⲣⲡⲉ	-1178
▁ⲙⲟⲩ	-1179
▁ⲥⲛⲁ	-1180
ⲁⲇ	-1181
ⲑⲁⲣ	-1182
▁ⲁⲩⲃⲱⲕ	-1183
▁ϩⲓⲧⲟⲟⲧϥ	-1184
ϭⲟ	-1185
ⲡϥ	-1186
▁ⲛϥⲛⲁ	-1187
▁ϩⲛⲛⲉⲕ	-1188
▁ϫⲉⲛⲧⲁ	-1189
▁ⲛⲁⲛⲟⲩ	-1190
▁ⲡⲗⲁⲟⲥ	-1191
ⲑⲣⲟⲛⲟⲥ	-1192
▁ⲛⲧⲟⲟⲧϥ	-1193
ϩⲟⲙ	-1194
ⲓⲍⲉ	-1195
ϩⲙⲟⲧ	-1196
▁ⲛⲛϩⲉⲑⲛⲟⲥ	-1197
ϣⲡ	-1198
ⲧⲉⲧ	-1199
ⲧⲃⲃⲟ	-1200
▁ⲡⲓⲥⲣⲁⲏⲗ	-1201
ⲱⲃⲉ	-1202
ϣⲃⲏⲣ	-1203
ⲡⲕⲁϩ	-1204
▁ⲉⲡⲉⲓ	-1205
▁ⲉⲧⲣⲁ	-1206
ⲉⲓⲱ	-1207
ⲣⲁⲧ	-1208
ⲧⲉⲛ	-1209
ⲧⲏⲩ	-1210
▁ⲛⲧⲕ	-1211
ⲕⲁⲁⲩ	-1212
ϣⲁⲛⲟⲩ	-1213
▁ϩⲛⲛⲁ	-1214
ⲥⲁϩⲛⲉ	-1215
▁ϩⲙⲡⲉⲩ	-1216
▁ⲉϫⲛⲧⲉ	-1217
▁ⲛϩⲟⲩⲟ	-1218
ⲛⲁⲅⲱⲅⲏ	-1219
▁ϩⲛⲟⲩⲛⲟϭ	-1220
▁ⲛⲧⲡⲟⲗⲓⲥ	-1221
▁ⲛϭ	-1222
ⲣⲉⲙ	-1223
ⲙⲧⲟⲛ	-1224
▁ⲛⲛⲁⲓ	-1225
ⲉⲓⲟⲧⲉ	-1226
▁ⲛϭⲓⲙⲱⲩⲥⲏⲥ	-1227
▁ⲙⲡⲉⲭⲣⲓⲥⲧⲟⲥ	-1228
ⲅⲉⲓ	-1229
▁ϫⲉϩ	-1230
▁ⲧⲉⲕ	-1231
▁ⲛⲟⲩⲉ	-1232
ⲣⲁⲓⲟⲥ	-1233
▁ⲉϫⲛⲟⲩ	-1234
ⲱϩ	-1235
▁ϣⲁϫⲉ	-1236
▁ϫⲉⲙⲁ	-1237
ⲑⲃⲃⲓⲟ	-1238
ⲛⲕⲟⲧⲕ	-1239
▁ⲥⲁⲟⲩⲗ	-1240
ⲕⲗⲏⲥⲓⲁ	-1241
▁ⲙⲙⲱⲩⲥⲏⲥ	-1242
ⲏⲣ	-1243
ⲁⲡⲉ	-1244
ⲗⲟⲛ	-1245
ⲙⲉⲓ	-1246
▁ⲁⲩⲣ	-1247
▁ⲉⲛⲉⲩ	-1248
▁ⲧⲡⲟⲗⲓⲥ	-1249
ⲃⲛ	-1250
ⲅⲟⲥ	-1251
ⲕⲱⲧ	-1252
ϣⲱⲛⲉ	-1253
ⲁⲅⲅⲉ	-1254
▁ⲉⲓⲛⲁ	-1255
▁ⲉⲧⲉϥ	-1256
ⲡⲟⲧⲟⲩ	-1257
▁ⲙⲛⲡⲉϥ	-1258
▁ⲛⲉⲛⲧⲁⲩ	-1259
▁ⲁϥⲙⲟⲩⲧⲉ	-1260
ⲡⲉⲧⲛⲁⲛⲟⲩϥ	-1261
ⲗⲡ	-1262
ⲛⲉⲥ	-1263
ⲟⲗⲟ	-1264
ϭⲉⲡⲏ	-1265
ⲓⲧⲏⲥ	-1266
▁ⲉϫⲱⲓ	-1267
ⲁⲅⲅⲉⲗⲓ	-1268
▁ⲛⲥⲁⲟⲩⲗ	-1269
ⲉⲓⲏⲥⲟⲩⲥ	-1270
ⲱⲣⲕ	-1271
ⲙⲏⲧⲛ	-1272
ⲙⲁⲁϫⲉ	-1273
ⲧⲟⲗ	-1274
▁ⲉⲡⲏⲓ	-1275
▁ⲧⲛⲛⲁ	-1276
▁ⲙⲁⲣⲟⲩ	-1277
ⲃⲟⲧ	-1278
▁ⲛϣⲉ	-1279
ϫⲱⲱⲙⲉ	-1280
▁ϫⲉⲛⲓⲙ	-1281
▁ⲛⲥⲱⲟⲩ	-1282
ⲥⲟⲟⲩⲧⲛ	-1283
ⲟϭ	-1284
ⲉⲡⲉ	-1285
ⲱⲧⲉ	-1286
▁ϣⲁⲩ	-1287
ⲛⲟⲩⲃ	-1288
ⲇⲓⲕⲁⲓ	-1289
ⲛⲉⲓⲟⲧⲉ	-1290
▁ϫⲉⲉⲧⲃⲉ	-1291
▁ⲛⲧⲉⲩϣⲏ	-1292
ⲟⲃ	-1293
ⲫⲓ	-1294
ⲕⲟⲛ	-1295
ⲗⲓⲗ	-1296
ⲩⲗⲱⲛ	-1297
▁ⲁⲩⲧⲁ	-1298
▁ⲉⲧϩⲛ	-1299
ⲧⲟⲟⲩⲉ	-1300
▁ⲧⲉⲧⲛⲁ	-1301
▁ⲧⲱⲟⲩⲛ	-1302
▁ⲁϥϣⲱⲡⲉ	-1303
ⲣⲟⲓ	-1304
ⲩⲧⲉ	-1305
▁ϫⲉϥ	-1306
▁ⲁⲓⲥ	-1307
ⲕⲁⲧⲁ	-1308
ϩⲓⲧⲟⲩ	-1309
ⲕⲟⲟⲩⲉ	-1310
ⲟⲩⲥⲓⲁ	-1311
ⲑⲩⲥⲓⲁⲥ	-1312
ⲁϩⲉⲣⲁⲧϥ	-1313
▁ⲛⲁⲃ	-1314
ⲥⲁϣϥ	-1315
▁ⲛⲧⲃⲁ	-1316
ⲛⲁⲑⲁⲛ	-1317
ⲡⲁⲧⲁⲥ	-1318
ϣⲟⲩϣⲟⲩ	-1319
▁ⲁϥⲛⲁⲩ	-1320
ⲥⲡⲉⲣⲙⲁ	-1321
ⲉⲓⲥ	-1322
▁ⲙⲛⲛⲁ	-1323
▁ⲛϯⲛⲁ	-1324
▁ϩⲱⲥⲧⲉ	-1325
▁ϫⲉϯⲛⲁ	-1326
▁ⲕⲉ	-1327
ⲡⲣⲉ	-1328
ⲛⲟⲟⲩⲥ	-1329
ⲥⲁⲟⲩⲗ	-1330
▁ⲛⲛⲉϩⲟⲟⲩ	-1331
ⲑⲩⲥⲓⲁⲥⲧⲏⲣⲓⲟⲛ	-1332
ϩⲟϥ	-1333
ϩⲱⲧ	-1334
ϫⲣⲟ	-1335
ϯⲥⲃⲱ	-1336
▁ⲛⲉⲧⲛ	-1337
▁ⲛⲛⲉⲥ	-1338
▁ⲉⲧⲣⲉⲕ	-1339
ⲣⲉⲙⲃⲟⲗⲏ	-1340
▁ⲟ	-1341
ⲭⲓ	-1342
ⲙⲁⲓ	-1343
ⲙⲟⲣ	-1344
▁ⲉⲙⲛ	-1345
▁ⲉⲥⲉ	-1346
▁ⲛⲁⲧ	-1347
ⲥⲟⲫⲟⲥ	-1348
▁ϫⲓⲛⲧⲉ	-1349
ϣⲁⲩ	-1350
ⲃⲱⲗ	-1351
ⲱⲙⲁ	-1352
ϣⲱϫⲡ	-1353
ⲥⲟⲧⲡ	-1354
▁ⲛⲧⲉⲣ	-1355
ⲓⲕⲧⲱⲣ	-1356
▁ϣⲁⲛⲧⲉ	-1357
ⲓⲉⲣⲉⲩⲥ	-1358
▁ⲛⲉⲗⲟⲟⲗⲉ	-1359
▁ⲛⲟⲩⲣⲱⲙⲉ	-1360
ⲥⲩⲛⲁⲅⲱⲅⲏ	-1361
ⲕⲧⲟ	-1362
ⲗⲏⲛ	-1363
ⲙⲟⲕ	-1364
ⲟⲟⲣ	-1365
▁ⲙⲏⲡ	-1366
ϩⲓⲟⲙⲉ	-1367
▁ϫⲉⲥⲉ	-1368
▁ⲛⲧⲉⲥ	-1369
▁ⲥⲙⲟⲩ	-1370
▁ⲕⲁⲧⲁⲡ	-1371
ⲁⲙⲁϩⲧⲉ	-1372
ⲝⲟⲩⲥⲓⲁ	-1373
...	-1374
ⲙⲓⲛ	-1375
ⲟⲩⲓ	-1376
ⲧⲣⲉϥ	-1377
▁ⲛϩⲱⲃ	-1378
▁ⲛⲥⲱⲓ	-1379
ⲙⲁⲉⲓⲛ	-1380
ⲛⲉⲓⲣⲉ	-1381
ⲃⲛⲟⲟⲩⲉ	-1382
ⲏⲣⲡ	-1383
▁ⲉⲧⲓ	-1384
▁ϫⲉⲛⲁ	-1385
▁ⲉϫⲱⲕ	-1386
ⲥⲁⲓⲟⲥ	-1387
ⲥⲉⲉⲡⲉ	-1388
▁ϩⲛⲧⲉⲩ	-1389
▁ⲡⲉⲛⲧⲁ	-1390
ⲩⲧⲉⲣⲟⲥ	-1391
▁ⲛⲙⲙⲏⲧⲛ	-1392
ⲗⲱⲥ	-1393
ⲡⲏⲧ	-1394
ⲣⲁⲕ	-1395
ⲙⲟⲩϩ	-1396
ⲃⲱⲧⲟⲥ	-1397
ⲟⲩⲛⲟⲥ	-1398
ⲣⲁⲥⲧⲉ	-1399
▁ϩⲓⲧϩⲏ	-1400
▁ϩⲛⲛⲉⲧ	-1401
▁ϫⲉⲙⲡⲉ	-1402
ⲙⲟⲩⲟⲩⲧ	-1403
ⲥⲛⲟⲟⲩⲥ	-1404
▁ⲉⲣⲁⲧⲟⲩ	-1405
▁ⲙⲡⲟⲗⲓⲥ	-1406
▁ⲛϩⲙϩⲁⲗ	-1407
ⲥⲃⲩⲧⲉⲣⲟⲥ	-1408
ⲃⲥ	-1409
ϣⲱⲡ	-1410
ⲕⲏⲛⲏ	-1411
ⲛⲁⲁⲩ	-1412
▁ⲉⲧϩⲓ	-1413
▁ⲙⲛⲡⲁ	-1414
▁ⲛⲧⲉⲛ	-1415
▁ϩⲙⲡⲏⲓ	-1416
▁ϫⲉⲃⲱⲕ	-1417
▁ⲙⲡⲙⲧⲟ	-1418
▁ⲃⲓⲕⲧⲱⲣ	-1419
▁ⲉⲡⲉϥⲣⲁⲛ	-1420
ⲃⲁⲧⲟⲛ	-1421
ⲃⲩⲗⲱⲛ	-1422
▁ⲙⲡⲛⲁⲩ	-1423
▁ⲁϥϣⲁϫⲉ	-1424
ⲡⲁⲣⲉⲙⲃⲟⲗⲏ	-1425
ϭⲃ	-1426
ⲛⲁϥ	-1427
ⲥⲙⲁ	-1428
ⲡⲟⲛⲏ	-1429
▁ⲥⲟⲟⲩ	-1430
ⲛⲉⲣⲏⲩ	-1431
ⲣⲏⲙⲟⲥ	-1432
▁ϩⲁⲙⲏⲛ	-1433
▁ϩⲓⲛⲁⲓ	-1434
ⲛⲟϭⲛⲉϭ	-1435
▁ⲛⲓⲁⲕⲱⲃ	-1436
▁ⲛⲧⲉⲡⲛⲟⲩⲧⲉ	-1437
ⲡⲣⲉⲥⲃⲩⲧⲉⲣⲟⲥ	-1438
ⲥⲏⲫ	-1439
▁ⲉⲣⲁ	-1440
▁ϫⲉⲁⲕ	-1441
ⲛⲟⲩⲟⲩ	-1442
ⲥⲁⲗⲱⲙ	-1443
▁ⲛⲧⲙⲛⲧ	-1444
ⲡⲉⲧⲟⲩⲁⲁⲃ	-1445
ϣⲥ	-1446
ⲛⲉⲁ	-1447
ⲥⲱϣ	-1448
ⲙⲉⲗⲉ	-1449
▁ϫⲉⲙⲛ	-1450
▁ⲥⲛⲧⲉ	-1451
ⲟⲩⲉϩⲥⲁϩⲛⲉ	-1452
ϩⲁⲏ	-1453
▁ⲏⲛ	-1454
ⲉⲓⲃ	-1455
ⲭⲁⲣ	-1456
▁ⲉⲧⲡⲉ	-1457
ⲧⲁⲙⲓⲟ	-1458
▁ⲉⲧⲉⲣⲉⲡϫⲟⲉⲓⲥ	-1459
ϣⲣ	-1460
▁ϥⲓ	-1461
▁ⲁϥⲣ	-1462
ⲓⲥⲧⲁ	-1463
ⲛⲉⲧⲛ	-1464
▁ⲉⲣⲉⲟⲩ	-1465
▁ⲛⲃⲣⲣⲉ	-1466
▁ⲉⲡⲁϩⲟⲩ	-1467
ⲗⲱ	-1468
ϩⲁⲣ	-1469
ⲕⲓⲙ	-1470
▁ⲕⲁⲓ	-1471
▁ⲛⲓⲉ	-1472
ⲡⲓⲍⲉ	-1473
▁ⲉϣⲁⲩ	-1474
▁ⲙⲡⲏⲓ	-1475
▁ϫⲉⲙⲡⲣ	-1476
▁ⲛⲙⲙⲁⲛ	-1477
▁ⲙⲡⲣⲧⲣⲉ	-1478
▁ⲙⲡⲉϥⲙⲧⲟ	-1479
▁ⲙⲛⲛⲥⲁⲛⲁⲓ	-1480
ⲙⲏⲧ	-1481
ϣⲁⲛⲧ	-1482
ⲉⲣⲏⲩ	-1483
ϩⲩⲡⲟⲙ	-1484
▁ⲉϫⲛⲛ	-1485
ⲛⲉⲓⲱⲧ	-1486
ⲧⲟⲗⲟⲥ	-1487
▁ⲙⲛⲧⲉϥ	-1488
▁ⲙⲡⲉⲓⲙⲁ	-1489
▁ⲛϩⲉⲑⲛⲟⲥ	-1490
ⲥⲁⲃⲃⲁⲧⲟⲛ	-1491
ⲕⲗⲏⲣⲟⲛⲟⲙⲉⲓ	-1492
ϫⲁⲥ	-1493
ⲥⲓⲥ	-1494
ⲙⲛⲧⲉ	-1495
▁ϩⲱⲟⲩ	-1496
▁ϩⲁⲧϩⲏ	-1497
▁ϫⲉⲉⲛⲉ	-1498
▁ⲙⲡⲙⲟⲩ	-1499
▁ⲛⲟⲩⲟⲛ	-1500
▁ⲟⲩⲛⲟϭ	-1501
▁ⲉⲧϣⲟⲟⲡ	-1502
▁ⲛⲛⲁϩⲣⲛ	-1503
ⲣⲡⲙⲉⲉⲩⲉ	-1504
▁ⲉⲧⲃⲏⲏⲧϥ	-1505
▁ϩⲙ	-1506
ⲕⲱϩ	-1507
ⲗⲉⲩ	-1508
ⲙⲓⲛⲉ	-1509
ⲙⲕⲁϩ	-1510
ⲣⲓⲕⲉ	-1511
▁ⲉⲛⲉⲕ	-1512
ⲙⲟⲥⲧⲉ	-1513
ⲟⲩⲱϣϥ	-1514
ⲟⲩⲟⲉⲓⲛ	-1515
ⲡⲁⲧⲁⲥⲥⲉⲓ	-1516
ⲡⲟⲥⲧⲟⲗⲟⲥ	-1517
ⲱⲑ	-1518
ⲧⲟϣ	-1519
▁ϩⲁⲣ	-1520
▁ⲉⲩⲟ	-1521
▁ⲛϩⲛ	-1522
ⲥⲛⲁⲩ	-1523
▁ⲛⲥⲱⲕ	-1524
ⲟⲩⲛⲟϥ	-1525
▁ⲛⲛⲟⲩⲃ	-1526
ⲡⲙⲉⲉⲩⲉ	-1527
ⲣⲙⲛⲕⲏⲙⲉ	-1528
ⲃⲁⲡ	-1529
ⲗⲓⲁ	-1530
ⲥⲟⲃ	-1531
ⲧⲱⲧ	-1532
ⲱⲁⲃ	-1533
ⲡⲣⲟⲥ	-1534
ⲧⲁϣⲉ	-1535
ⲛⲟⲩϭⲥ	-1536
ⲣⲙⲛϩⲏⲧ	-1537
▁ⲛⲉⲧⲉⲣⲉ	-1538
▁ϩⲛⲧϩⲓⲉⲣⲟⲩⲥⲁⲗⲏⲙ	-1539
ϫⲡⲓ	-1540
ϭⲱⲗⲡ	-1541
▁ⲁϩⲉ	-1542
ⲕⲟⲧϥ	-1543
▁ⲙⲡⲁⲓ	-1544
▁ⲟⲩⲟⲓ	-1545
▁ⲉⲧⲣⲉⲛ	-1546
ϭⲛ	-1547
ⲇⲏⲥ	-1548
ⲕⲧⲟϥ	-1549
ϩⲟⲓⲧⲉ	-1550
▁ϩⲟⲧⲉ	-1551
▁ⲉⲓⲙⲉ	-1552
▁ⲙⲡⲣⲏ	-1553
ⲧⲱⲱⲃⲉ	-1554
ⲙⲓⲁⲥ	-1555
ⲛⲟⲩⲉ	-1556
ⲧⲟⲩϫ	-1557
▁ⲁⲛⲁⲩ	-1558
ⲃⲟⲗⲟⲥ	-1559
▁ⲉⲩϣⲁⲛ	-1560
▁ⲟⲩⲱϣⲃ	-1561
▁ϫⲉⲉⲧⲃⲉⲟⲩ	-1562
ϩϥ	-1563
ϩⲣⲉ	-1564
ϫⲱⲙ	-1565
ϫⲟⲟϥ	-1566
ⲙⲉⲣⲉ	-1567
ⲙⲡⲉϥ	-1568
▁ⲁϥⲕⲱ	-1569
▁ⲉⲕⲛⲁ	-1570
▁ⲡⲗⲏⲛ	-1571
ⲕⲁⲑⲁⲣ	-1572
ⲥⲁϩⲟⲩ	-1573
▁ⲉϫⲛⲛⲉ	-1574
▁ⲡⲉϫⲁⲥ	-1575
ⲧⲁⲯⲩⲭⲏ	-1576
▁ⲙⲛⲛⲥⲱⲥ	-1577
▁ⲙⲡⲓⲟⲣⲇⲁⲛⲏⲥ	-1578
ⲃⲓ	-1579
ϣⲟⲙ	-1580
ϭⲱⲃ	-1581
ⲃⲏⲕ	-1582
ⲣⲏⲥ	-1583
▁ⲡⲕⲉ	-1584
▁ⲧⲱⲛ	-1585
▁ϯⲛⲁϯ	-1586
▁ⲉϫⲱⲛ	-1587
▁ⲛⲥⲟⲡ	-1588
▁ⲡⲁⲣⲁ	-1589
ⲙⲉⲣⲓⲧ	-1590
▁ϩⲁⲣⲟϥ	-1591
▁ⲉⲛⲧⲁⲕ	-1592
▁ⲛϣⲱⲡⲉ	-1593
ⲇⲓⲕⲁⲓⲱⲙⲁ	-1594
▁ϩⲛⲛⲉϩⲟⲟⲩ	-1595
ⲛⲉϫ	-1596
▁ϩⲓⲡ	-1597
ⲛⲟϫϥ	-1598
ⲡⲓⲑⲩ	-1599
ⲣϩⲱⲃ	-1600
ⲣⲁⲓⲙ	-1601
ⲥⲁⲧⲉ	-1602
ⲫⲣⲁⲓⲙ	-1603
▁ⲉⲧⲃⲉⲡ	-1604
▁ⲙⲫⲁⲣⲁⲱ	-1605
▁ⲁⲡⲛⲟⲩⲧⲉ	-1606
▁ⲉⲛⲁϣⲱⲟⲩ	-1607
ⲧⲩ	-1608
▁ⲁⲛⲅ	-1609
ⲭⲁⲛⲁ	-1610
ⲕⲟⲧⲟⲩ	-1611
ⲣⲓⲧⲏⲥ	-1612
▁ϫⲉⲡⲁⲓ	-1613
▁ⲛϭⲓⲛⲁ	-1614
▁ⲡⲁⲛⲟⲩⲧⲉ	-1615
ⲁⲅⲅⲉⲗⲓⲟⲛ	-1616
ⲇⲩ	-1617
ⲫⲉ	-1618
ⲃⲟⲩ	-1619
ⲕⲉⲩ	-1620
ⲡⲁⲥ	-1621
▁ⲉϫⲓ	-1622
ⲡⲣⲣⲟ	-1623
ⲣⲟⲩϩⲉ	-1624
▁ⲛⲥϩⲓⲙⲉ	-1625
▁ⲁⲩⲧⲱⲟⲩⲛ	-1626
ⲙⲛⲧⲙⲛⲧⲣⲉ	-1627
▁ⲉⲧϩⲓⲉⲣⲟⲩⲥⲁⲗⲏⲙ	-1628
ⲁⲧⲉ	-1629
ⲛⲁⲛ	-1630
ⲥⲁϣ	-1631
ⲭⲱⲣⲁ	-1632
▁ϩⲱⲱⲕ	-1633
▁ϭⲱϣⲧ	-1634
ⲫⲁⲣⲓⲥ	-1635
▁ⲙⲡⲟⲛⲏ	-1636
▁ⲛⲗⲁⲁⲩ	-1637
ⲣⲙⲛⲧⲣⲉ	-1638
▁ⲉⲧⲉⲧⲛⲁ	-1639
▁ⲛⲧⲁⲡϫⲟⲉⲓⲥ	-1640
ⲫⲁⲣⲓⲥⲥⲁⲓⲟⲥ	-1641
ϩⲱⲡ	-1642
ⲃⲁⲓ	-1643
ⲥⲩⲛ	-1644
ⲱϫⲛ	-1645
ⲗⲉⲉⲧ	-1646
ⲥⲱⲃⲉ	-1647
ⲣⲟⲟⲩϣ	-1648
▁ⲛⲉⲧⲛⲁ	-1649
ⲱⲧⲧⲏⲩⲧⲛ	-1650
▁ⲛϭⲓⲛϣⲏⲣⲉ	-1651
ϣⲁϥ	-1652
ⲁⲧϥ	-1653
ⲣⲱⲃ	-1654
ⲧⲱϣ	-1655
▁ⲛϣⲟ	-1656
▁ⲛϩⲟ	-1657
ⲙⲡϣⲁ	-1658
▁ⲉⲛⲁⲓ	-1659
ⲅⲉⲛⲉⲁ	-1660
▁ϩⲓϫⲱϥ	-1661
▁ⲙⲛⲡⲉⲕ	-1662
▁ⲉⲧⲟⲟⲧⲕ	-1663
▁ⲙⲁⲩⲁⲁϥ	-1664
▁ϩⲟ	-1665
ⲛⲱⲛ	-1666
ⲟⲟϥ	-1667
ⲡⲱϩ	-1668
ⲧⲟⲟ	-1669
ϩⲧⲏⲕ	-1670
ⲙⲁⲁⲧ	-1671
ⲙⲁⲥⲉ	-1672
ⲣⲉⲓⲁ	-1673
ⲧⲉⲩⲥ	-1674
▁ⲉⲧⲉⲛ	-1675
ⲁⲣⲭⲱⲛ	-1676
ⲧⲁϫⲣⲟ	-1677
▁......	-1678
▁ⲙⲏⲡⲟⲧⲉ	-1679
▁ⲛϭⲓⲛⲉⲧ	-1680
▁ϩⲛⲟⲩⲙⲛⲧ	-1681
ⲏⲡ	-1682
ϯⲟⲩ	-1683
ⲃⲁⲁ	-1684
ⲥⲉⲡ	-1685
▁ⲇⲓⲁ	-1686
ⲧⲁⲁⲥ	-1687
ϭⲉⲣⲱⲃ	-1688
▁ⲉⲛⲁⲩ	-1689
ⲥⲡⲟⲧⲟⲩ	-1690
▁ⲁⲩϣⲱⲡⲉ	-1691
▁ⲛⲧⲙⲏⲧⲉ	-1692
▁ϩⲙⲡⲧⲟⲟⲩ	-1693
ϩⲏⲡ	-1694
ⲇⲟⲕ	-1695
ⲗⲗⲉ	-1696
ⲡⲩⲗⲏ	-1697
ⲧⲥⲁⲃ	-1698
▁ϣⲓⲛⲉ	-1699
ⲕⲁⲕⲓⲁ	-1700
ⲙⲡⲏⲩⲉ	-1701
▁ϫⲉⲛⲁⲓ	-1702
ϩⲁⲗⲁⲥⲥⲁ	-1703
ⲇⲓⲁⲃⲟⲗⲟⲥ	-1704
ⲏⲧ	-1705
▁ⲣⲱ	-1706
ⲙⲁⲣ	-1707
ⲣⲭⲏ	-1708
ⲏⲩⲧⲛ	-1709
ⲙⲙⲁϥ	-1710
ⲥⲱⲧⲡ	-1711
▁ⲛⲙⲡⲉ	-1712
ⲙⲟⲟⲛⲉ	-1713
ⲟⲩⲛⲁⲙ	-1714
ⲧⲉϩⲓⲏ	-1715
▁ϩⲏⲧⲟⲩ	-1716
▁ⲙⲙⲁⲧⲉ	-1717
▁ⲉⲧⲟⲩⲛⲁ	-1718
▁ⲛⲛⲉⲛⲧⲁⲩ	-1719
ⲁϩⲉⲣⲁⲧⲟⲩ	-1720
ϣⲱⲥ	-1721
ⲁⲓⲁ	-1722
ⲙⲓⲁ	-1723
ⲭⲙⲁ	-1724
ϩⲱⲧⲃ	-1725
▁ⲁϥⲓ	-1726
ⲥⲟⲃⲧ	-1727
ⲃⲉⲛⲓⲁ	-1728
ⲡⲣⲱⲙⲉ	-1729
ⲧⲉⲗⲏⲗ	-1730
▁ⲛⲥⲉⲧⲙ	-1731
▁ⲡⲉϫⲁⲓ	-1732
▁ϫⲉϩⲛⲟⲩ	-1733
▁ⲁϥⲥⲱⲧⲙ	-1734
▁ⲙⲡϣⲁϫⲉ	-1735
▁ⲛⲧⲟⲟⲧⲟⲩ	-1736
▁ⲁⲣⲓⲡⲙⲉⲉⲩⲉ	-1737
ϣⲱⲗ	-1738
ⲟⲟϩ	-1739
ⲥⲛⲧⲉ	-1740
▁ⲁⲩϩⲉ	-1741
▁ⲙⲛⲧⲉ	-1742
▁ⲧⲙⲛⲧ	-1743
ⲑⲗⲓⲃⲉ	-1744
ⲛⲟⲩϩⲙ	-1745
▁ϩⲓⲱⲱϥ	-1746
▁ⲉⲛⲧⲁⲓ	-1747
▁ⲛⲥⲉⲛⲁ	-1748
▁ⲡⲉⲓⲱⲧ	-1749
▁ⲉⲡⲉⲓⲙⲁ	-1750
▁ⲙⲡϣⲏⲣⲉ	-1751
▁ⲡⲉⲧⲛⲛⲟⲩⲧⲉ	-1752
ⲕⲓ	-1753
ⲁⲗⲉ	-1754
ⲧⲙⲉ	-1755
ϣⲙⲙⲟ	-1756
ϩⲗⲗⲟ	-1757
▁ϩⲱⲃ	-1758
ⲛⲉⲓⲁ	-1759
▁ϫⲉⲙⲏ	-1760
ⲛⲁⲓⲟⲥ	-1761
ⲛⲉⲓⲙⲉ	-1762
▁ⲙⲡⲱⲛϩ	-1763
ⲡⲁⲉⲓⲱⲧ	-1764
▁ⲙⲱⲩⲥⲏⲥ	-1765
▁ⲛϭⲓⲡⲉⲧ	-1766
▁ⲙⲡⲁⲉⲓⲱⲧ	-1767
ⲣⲛ	-1768
ϣⲧⲉ	-1769
ϫⲟⲩ	-1770
ⲡⲱϣ	-1771
▁ⲛⲉⲛ	-1772
ⲑⲓⲟⲥ	-1773
▁ϣⲁⲛⲧ	-1774
▁ⲛⲁⲙⲉ	-1775
▁ⲛⲧⲟⲥ	-1776
ⲃⲟⲏⲑⲉⲓ	-1777
▁ⲛⲟⲩⲛⲟϭ	-1778
▁ⲉϥⲟⲩⲁⲁⲃ	-1779
▁ⲙⲡⲉⲕⲙⲧⲟ	-1780
▁ⲙⲡⲉϥⲉⲓⲱⲧ	-1781
ⲡⲉⲧϣⲟⲩⲉⲓⲧ	-1782
▁ⲛⲛⲁⲗⲗⲟⲫⲩⲗⲟⲥ	-1783
ⲡⲏⲓ	-1784
▁ϩⲁϩ	-1785
▁ϫⲱⲕ	-1786
▁ⲉⲛϥ	-1787
ⲛⲧⲁⲕ	-1788
▁ⲟⲩⲃⲉ	-1789
ⲇⲱⲣⲟⲛ	-1790
ϩⲉⲗⲡⲓⲥ	-1791
▁ⲁϥⲙⲟⲩ	-1792
ⲕⲗⲏⲣⲟⲥ	-1793
▁ⲡⲁⲉⲓⲱⲧ	-1794
▁ⲉⲧⲡⲟⲗⲓⲥ	-1795
▁ϫⲓⲛⲧⲉⲛⲟⲩ	-1796
▁ⲛⲛⲁⲥⲉⲃⲏⲥ	-1797
ϩⲏⲛ	-1798
ⲥⲁⲛ	-1799
ⲥⲓⲁ	-1800
▁ⲉⲧⲟ	-1801
ⲗⲁⲁⲇ	-1802
ⲧⲁⲩⲟ	-1803
▁ϩⲓϩⲏ	-1804
▁ⲉϣⲁϥ	-1805
▁ⲉⲡⲉⲩ	-1806
▁ⲙⲛⲧⲁ	-1807
▁ⲉⲧⲛⲏⲩ	-1808
▁ϩⲙⲡⲧⲣⲉ	-1809
ⲉⲩⲫⲣⲁⲛⲉ	-1810
▁ⲉⲣϣⲁⲛⲟⲩ	-1811
▁ϩⲱⲧⲧⲏⲩⲧⲛ	-1812
▁ⲛⲉⲧⲉⲣⲉⲡϫⲟⲉⲓⲥ	-1813
ϣⲛ	-1814
ϣϣⲉ	-1815
▁ⲕⲱ	-1816
ⲭⲟⲥ	-1817
▁ⲛⲅⲁ	-1818
▁ⲛⲛⲧ	-1819
▁ⲡⲉⲥ	-1820
ⲟⲩⲏϩ	-1821
ⲡⲁⲛⲧ	-1822
ⲧⲏⲣϥ	-1823
▁ϫⲟⲟⲩ	-1824
▁ⲉϯⲛⲁ	-1825
▁ⲉⲃⲱⲕ	-1826
▁ⲛϭⲓⲧ	-1827
▁ϫⲉⲧⲁⲓ	-1828
▁ⲁⲓⲛⲁⲩ	-1829
▁ⲉⲧϫⲟⲥⲉ	-1830
▁ⲙⲛⲛⲉⲧⲛ	-1831
▁ϥⲛⲁϣⲱⲡⲉ	-1832
ⲉⲓⲏ	-1833
ⲓⲣⲉ	-1834
ⲟⲙϥ	-1835
▁ϣⲁⲡ	-1836
▁ⲛⲁϯ	-1837
▁ⲧⲉⲧ	-1838
ⲓⲙⲱⲛ	-1839
▁ⲛϩⲁϩ	-1840
ⲇⲓⲇⲟⲩ	-1841
ⲛⲁⲥⲥⲏ	-1842
ⲯⲁⲗⲙⲁ	-1843
ϩⲁⲓⲃⲉⲥ	-1844
▁ⲛⲥⲓⲱⲛ	-1845
ⲡⲉϩⲟⲟⲩ	-1846
▁ⲁⲓϫⲟⲟⲥ	-1847
▁ⲙⲡⲉⲟⲟⲩ	-1848
▁ϩⲛⲧⲉϩⲓⲏ	-1849
▁ⲙⲡⲉⲛⲧⲁϥ	-1850
▁ⲇⲓⲁⲯⲁⲗⲙⲁ	-1851
▁ⲛⲇⲓⲕⲁⲓⲟⲥ	-1852
▁ϩⲙⲡⲓⲥⲣⲁⲏⲗ	-1853
ϩⲕⲟ	-1854
ϭⲓⲛ	-1855
ⲗⲟϭ	-1856
ⲙⲁⲛ	-1857
ⲧⲏⲛ	-1858
ϩⲟⲉⲓ	-1859
ϫⲟⲟⲣ	-1860
ⲛⲧⲁⲓ	-1861
▁ϫⲉⲧⲉ	-1862
▁ϫⲓⲛⲛ	-1863
▁ⲁϥϥⲓ	-1864
▁ⲉⲧⲉⲕ	-1865
▁ⲙⲁⲣⲛ	-1866
▁ⲛⲛⲉⲛ	-1867
ⲛⲧⲉⲧⲛ	-1868
ⲡⲁϩⲟⲩ	-1869
ⲣⲁⲧⲱⲣ	-1870
ⲥⲃⲧⲱⲧ	-1871
ⲧϩⲟⲟⲩ	-1872
ⲧⲛⲧⲱⲛ	-1873
▁ⲁⲩⲛⲁⲩ	-1874
▁ⲟⲩⲱⲛϩ	-1875
ⲧⲁϫⲣⲏⲩ	-1876
▁ⲡⲁⲩⲗⲟⲥ	-1877
▁ϩⲛⲧⲥⲱϣⲉ	-1878
ⲡⲁⲣⲁⲕⲁⲗⲉⲓ	-1879
▁ⲛⲛⲉⲧⲟⲩⲁⲁⲃ	-1880
▁ⲛⲧⲑⲁⲗⲁⲥⲥⲁ	-1881
ⲏⲛ	-1882
ⲣϭ	-1883
ϩⲟⲣ	-1884
ⲁⲁⲥ	-1885
ⲛⲏⲓ	-1886
ⲛⲟⲛ	-1887
ϩⲟⲩⲛ	-1888
▁ⲉⲙⲉ	-1889
▁ⲛϩⲁ	-1890
▁ⲛⲛⲓ	-1891
ⲓⲕⲟⲥ	-1892
ⲧⲁϩⲉ	-1893
ⲭⲏⲣⲁ	-1894
▁ⲁⲩϥⲓ	-1895
▁ⲉⲛⲉⲧ	-1896
▁ⲛⲟⲃⲉ	-1897
ⲟⲩⲏⲏⲃ	-1898
ⲡⲉⲧⲣⲁ	-1899
ⲣⲟⲉⲓⲥ	-1900
ϣⲉⲗⲉⲉⲧ	-1901
ⲃⲏⲥⲁⲗⲱⲙ	-1902
▁ⲉⲛⲁⲛⲟⲩϥ	-1903
▁ϩⲛⲟⲩϭⲉⲡⲏ	-1904
▁ⲛⲧⲇⲓⲕⲁⲓⲟⲥⲩⲛⲏ	-1905
ϥⲟ	-1906
ⲃϩ	-1907
ϫⲱϩ	-1908
ⲃⲁⲣ	-1909
ⲭⲟⲣ	-1910
ϩⲙⲟⲩ	-1911
ϫⲁⲥⲓ	-1912
▁ⲉⲩⲁ	-1913
▁ⲙⲙⲛ	-1914
▁ⲡⲏⲓ	-1915
ⲟⲩⲉϣ	-1916
ⲡⲉⲧⲛ	-1917
ϩⲓⲉⲓⲃ	-1918
ϯⲉⲟⲟⲩ	-1919
▁ⲛϥⲧⲙ	-1920
ⲛⲟϫⲟⲩ	-1921
ⲥⲱⲧⲏⲣ	-1922
▁ϩⲙⲡⲉⲓ	-1923
ϩⲓⲉⲣⲉⲩⲥ	-1924
▁ϣⲁⲣⲉⲟⲩ	-1925
▁ⲡⲙⲉⲉⲩⲉ	-1926
ⲓⲟⲩⲇⲁⲓⲁ	-1927
ϫϥ	-1928
ϣⲣⲡ	-1929
ϫⲓⲧϥ	-1930
ⲕⲓⲁⲥ	-1931
ϫⲓⲧⲟⲩ	-1932
▁ⲉⲥϫⲱ	-1933
ⲟⲉⲓⲗⲉ	-1934
ⲡⲱⲱⲛⲉ	-1935
ⲧⲁⲓⲏⲩ	-1936
▁ϩⲁⲣⲉϩ	-1937
▁ϩⲓⲧⲛⲟⲩ	-1938
▁ϩⲛⲛⲉⲧⲛ	-1939
ⲙⲙⲁⲧⲉⲩⲥ	-1940
ⲟⲕⲣⲁⲧⲱⲣ	-1941
ⲥⲙⲁⲙⲁⲁⲧ	-1942
▁ⲡⲉⲡⲛⲉⲩⲙⲁ	-1943
▁ⲙⲡⲉⲡⲛⲉⲩⲙⲁ	-1944
ϩⲓⲧ	-1945
ⲛⲧⲏ	-1946
ⲧⲏⲕ	-1947
ⲫⲟⲥ	-1948
▁ⲁϥⲥ	-1949
▁ⲡⲁⲥ	-1950
ⲃⲉⲕⲉ	-1951
ⲕⲁⲁⲧ	-1952
ⲙⲙⲱⲛ	-1953
▁ⲛⲧⲙⲉ	-1954
ⲇⲁⲓⲟⲥ	-1955
ⲧⲁⲉⲓⲟ	-1956
▁ϣⲁⲣⲟϥ	-1957
▁ⲁⲩⲡⲱⲧ	-1958
▁ⲛϣⲙⲙⲟ	-1959
▁ⲧⲏⲣⲧⲛ	-1960
▁ϩⲛⲕⲏⲙⲉ	-1961
▁ϯⲥⲟⲟⲩⲛ	-1962
▁ⲉⲃⲟⲗϫⲉ	-1963
▁ⲉⲧⲛⲁⲛⲟⲩϥ	-1964
▁ⲙⲡⲉⲛϫⲟⲉⲓⲥ	-1965
▁ⲛϩⲏⲧⲧⲏⲩⲧⲛ	-1966
▁ϩⲛⲟⲩⲉⲓⲣⲏⲛⲏ	-1967
ⲡⲁⲛⲧⲟⲕⲣⲁⲧⲱⲣ	-1968
ⲙⲥ	-1969
ⲕⲧⲉ	-1970
ϫⲁϩⲙ	-1971
▁ⲟⲩⲧⲉ	-1972
ⲁⲣⲭⲉⲓ	-1973
ⲡⲉⲓⲣⲁ	-1974
▁ϣⲁⲣⲟⲓ	-1975
▁ⲉⲧⲕⲛⲁ	-1976
ⲟⲗⲟⲅⲉⲓ	-1977
▁ⲉⲡⲧⲟⲟⲩ	-1978
▁ⲙⲡⲁⲗⲁⲟⲥ	-1979
▁ⲙⲡⲛⲟⲙⲟⲥ	-1980
▁ⲛⲛⲁϩⲣⲙⲡ	-1981
▁ⲥⲁⲙⲟⲩⲏⲗ	-1982
ⲃⲉⲛⲓⲁⲙⲓⲛ	-1983
ϭⲟⲟ	-1984
ⲕⲱⲛ	-1985
ⲭⲉⲓ	-1986
ⲱϩⲥ	-1987
ϫⲓϫⲉ	-1988
▁ⲟⲩⲱ	-1989
ⲗⲏⲣⲟ	-1990
ⲡⲁϣⲉ	-1991
ⲥⲱⲧⲉ	-1992
ϣⲁⲛⲉⲓ	-1993
ⲕⲧⲟⲟⲩ	-1994
ⲣⲉϥϫⲓ	-1995
ⲟⲩⲁϩⲟⲩ	-1996
▁ⲉⲡϣⲁϫⲉ	-1997
▁ⲙⲛⲗⲁⲁⲩ	-1998
▁ⲛⲉⲥⲛⲏⲩ	-1999
▁ⲛⲛϣⲁϫⲉ	-2000
▁ⲁϥϩⲙⲟⲟⲥ	-2001
ⲣⲭⲓⲉⲣⲉⲩⲥ	-2002
ⲧⲁϣⲉⲟⲉⲓϣ	-2003
▁ϩⲓⲧⲙⲡⲛⲟⲩⲧⲉ	-2004
▁ⲡⲉϫⲉⲓⲏⲥⲟⲩⲥ	-2005
ⲕⲏⲓ	-2006
ϩⲱⲟⲩ	-2007
ϫⲡⲓⲟ	-2008
▁ϫⲉⲧ	-2009
▁ⲛϫⲓ	-2010
▁ⲧⲉⲩ	-2011
ⲓⲉⲣⲟ	-2012
ϫⲓⲛϫⲏ	-2013
▁ⲛⲁϩⲉ	-2014
▁ⲛⲥⲁⲡ	-2015
ⲅⲁⲗⲓⲗ	-2016
ⲅⲉⲙⲱⲛ	-2017
ⲡⲁϩⲧϥ	-2018
▁ⲛⲉⲛⲉϩ	-2019
▁ⲛⲟⲉⲓⲕ	-2020
ⲕⲁⲣⲓⲟⲥ	-2021
▁ϩⲙⲡⲙⲉϩ	-2022
▁ⲉⲡϩⲟⲟⲩ	-2023
▁ⲛⲁⲣⲭⲱⲛ	-2024
▁ⲉϥⲉϣⲱⲡⲉ	-2025
▁ⲛⲓⲟⲩⲇⲁⲓ	-2026
▁ⲙⲡⲕⲟⲥⲙⲟⲥ	-2027
ⲅⲣⲁⲙⲙⲁⲧⲉⲩⲥ	-2028
ⲍⲱ	-2029
ϭⲟⲣ	-2030
▁ⲁⲃ	-2031
ⲃⲃⲉ	-2032
ⲃⲏⲑ	-2033
ⲇⲁⲥ	-2034
ⲓⲙⲏ	-2035
ⲙⲏⲣ	-2036
ⲟⲡⲥ	-2037
ⲡⲉⲥ	-2038
ⲃⲟⲧⲉ	-2039
ⲛϩⲏⲧ	-2040
ⲟⲩⲉⲙ	-2041
ⲧⲁϩⲟ	-2042
ⲁⲓⲧⲉⲓ	-2043
ⲛⲁϩⲙⲉ	-2044
▁ϫⲉⲉϥⲉ	-2045
▁ϫⲉⲛⲛⲉ	-2046
▁ⲙⲟⲟϣⲉ	-2047
ⲑⲏⲣⲓⲟⲛ	-2048
ϫⲁⲥⲓϩⲏⲧ	-2049
ⲉⲣⲉⲙⲓⲁⲥ	-2050
ⲥⲁⲙⲟⲩⲏⲗ	-2051
ⲡⲁⲣⲁⲇⲓⲇⲟⲩ	-2052
ⲗⲙ	-2053
ϯⲡⲉ	-2054
▁ⲛⲓ	-2055
ⲥⲱⲕ	-2056
ⲭⲁⲗ	-2057
ⲱⲣϫ	-2058
▁ⲡⲱⲧ	-2059
▁ⲧⲟⲩ	-2060
ⲁⲧⲟⲩ	-2061
ⲣⲁⲧⲉ	-2062
ϣⲧⲉⲕⲟ	-2063
▁ⲉϫⲱⲥ	-2064
ⲅⲣⲁⲫⲏ	-2065
ⲗⲩⲡⲉⲓ	-2066
▁ⲉⲥⲱⲧⲙ	-2067
ⲑⲃⲃⲓⲏⲩ	-2068
▁ϣⲁⲣⲱⲧⲛ	-2069
▁ϩⲓⲧⲙⲡⲉ	-2070
▁ⲉⲡⲉϥⲏⲓ	-2071
▁ⲙⲛⲛϣⲏⲣⲉ	-2072
▁ϩⲓⲧⲟⲟⲧⲟⲩ	-2073
▁ⲛⲁⲃⲣⲁϩⲁⲙ	-2074
▁ⲙⲡⲉⲟⲩⲟⲉⲓϣ	-2075
▁ⲛⲧⲃⲁⲃⲩⲗⲱⲛ	-2076
ⲡⲥ	-2077
ϣⲃⲉ	-2078
ϣⲧⲣ	-2079
▁ϣⲉ	-2080
▁ⲁϫⲛ	-2081
▁ⲁⲓϯ	-2082
▁ⲁⲩⲥ	-2083
ⲇⲟⲩⲝ	-2084
ⲕⲣⲟϥ	-2085
ⲗⲩⲡⲏ	-2086
▁ϩⲱⲱⲛ	-2087
ⲓⲥⲁⲁⲕ	-2088
ⲙⲉⲗⲉⲭ	-2089
ⲛϣⲏⲣⲉ	-2090
ⲥⲕⲩⲛⲏ	-2091
ⲥⲟⲃⲧⲉ	-2092
ⲧⲁⲙⲓⲉ	-2093
ⲧⲉⲓⲣⲉ	-2094
▁ϣⲁⲣⲉⲡ	-2095
▁ⲙⲛⲧⲉⲕ	-2096
ⲇⲁⲓⲙⲱⲛ	-2097
▁ⲉⲛⲁϣⲱϥ	-2098
▁ⲧⲉⲧⲛⲛⲁ	-2099
▁ϫⲉⲁⲡϫⲟⲉⲓⲥ	-2100
ⲇⲟ	-2101
ϫⲡⲉ	-2102
ϯⲙⲉ	-2103
▁ϭⲱ	-2104
ⲕⲁⲛ	-2105
ⲣⲭⲟⲥ	-2106
ⲥⲱⲛⲉ	-2107
▁ⲙⲉⲣⲉ	-2108
ⲑⲉⲛⲟⲥ	-2109
ⲧⲁⲥⲥⲉ	-2110
▁ⲙⲛⲡⲉⲧ	-2111
ⲃⲁⲡⲧⲓⲥ	-2112
ⲟⲩⲟⲙⲟⲩ	-2113
ⲥⲟⲩⲧⲱⲛ	-2114
▁ⲉϫⲙⲡⲉϥ	-2115
▁ⲥⲛⲁϣⲱⲡⲉ	-2116
▁ⲉϫⲛⲧⲏⲩⲧⲛ	-2117
ϭⲁ	-2118
ⲅⲝ	-2119
ϣϫⲉ	-2120
ϭⲣⲟ	-2121
ⲥⲁⲓ	-2122
ⲧⲁⲕ	-2123
▁ϩⲛⲁ	-2124
ⲣⲁⲧⲕ	-2125
ⲥⲟⲧⲉ	-2126
ⲥⲱⲛⲧ	-2127
ⲭⲣⲏⲥ	-2128
▁ⲙⲙⲓⲛ	-2129
▁ⲙⲡⲣⲟ	-2130
▁ⲛϩⲁⲧ	-2131
▁ⲛϭⲓⲁ	-2132
ⲅⲁⲑⲟⲥ	-2133
ⲓⲙⲓⲛⲉ	-2134
ⲥϣⲱⲡⲉ	-2135
▁ϩⲛϩⲱⲃ	-2136
▁ϫⲉⲁⲛⲅ	-2137
▁ⲉⲓϣⲁⲛ	-2138
▁ⲛⲛⲉⲩⲉ	-2139
▁ⲛⲥⲁϣϥ	-2140
▁ⲥⲟⲟⲩⲛ	-2141
ⲧⲟⲩⲛⲟⲥ	-2142
ϩⲓⲧⲟⲩⲱϥ	-2143
▁ⲛⲙⲡⲏⲩⲉ	-2144
▁ⲛⲟⲩⲙⲛⲧ	-2145
▁ϩⲛⲛϩⲉⲑⲛⲟⲥ	-2146
▁ⲛⲧⲇⲓⲁⲑⲏⲕⲏ	-2147
▁ϩⲙⲡⲉⲭⲣⲓⲥⲧⲟⲥ	-2148
ⲃϣ	-2149
ⲃⲓⲱ	-2150
ⲍⲁⲣ	-2151
ⲙⲉⲕ	-2152
ⲟⲩⲣ	-2153
ⲥⲁⲩ	-2154
ϩⲉⲛⲉ	-2155
ϭⲟⲟⲩ	-2156
▁ϣⲁⲧ	-2157
▁ϩⲛⲡ	-2158
ⲃⲁⲱⲑ	-2159
ⲛⲟⲩⲥ	-2160
ⲛⲧⲁⲛ	-2161
ⲟⲩⲟⲛ	-2162
ϩⲟⲓⲛⲉ	-2163
▁ϫⲉϫⲓ	-2164
▁ⲛⲉⲩⲛ	-2165
▁ⲛⲣⲣⲟ	-2166
ⲙⲟⲉⲓⲧ	-2167
▁ϫⲉⲟⲩⲛ	-2168
▁ⲁϥⲡⲱⲧ	-2169
ⲇⲓⲁⲕⲟⲛ	-2170
ⲙⲟⲟⲩⲧϥ	-2171
ⲣⲭⲣⲉⲓⲁ	-2172
ⲁⲅⲅⲉⲗⲟⲥ	-2173
▁ϩⲓⲡⲁϩⲟⲩ	-2174
▁ⲙⲡⲉⲥⲛⲁⲩ	-2175
▁ⲉⲧⲉⲧⲛϣⲁⲛ	-2176
ⲇⲁⲓⲙⲱⲛⲓⲟⲛ	-2177
ⲡⲉⲭⲣⲓⲥⲧⲟⲥ	-2178
▁ⲁⲧ	-2179
ⲇⲁⲛ	-2180
ⲏⲛⲉ	-2181
ϫⲱϩⲙ	-2182
▁ϣⲁⲛ	-2183
▁ⲁⲩⲁ	-2184
▁ⲉⲩⲛ	-2185
ⲙⲟⲩⲓ	-2186
ⲛⲧⲟϣ	-2187
ⲧⲁⲗⲟ	-2188
ⲃⲉⲛⲛⲏ	-2189
ⲙⲉⲣⲓⲥ	-2190
ⲡⲗⲁⲛⲁ	-2191
ϣϭⲙϭⲟⲙ	-2192
▁ⲉϣⲁⲣⲉ	-2193
▁ⲛⲙⲙⲁⲥ	-2194
▁ⲛⲥⲁⲧⲉ	-2195
ⲭⲣⲏⲥⲧⲟⲥ	-2196
▁ⲁⲩⲥⲱⲟⲩϩ	-2197
▁ϩⲙⲡⲉⲡⲛⲉⲩⲙⲁ	-2198
▁ⲡⲉϫⲉⲇⲁⲩⲉⲓⲇ	-2199
▁ⲛⲧϩⲓⲉⲣⲟⲩⲥⲁⲗⲏⲙ	-2200
ⲉⲙ	-2201
ⲡⲧ	-2202
▁ⲁϣ	-2203
ⲑⲁⲃ	-2204
ⲟⲗⲥ	-2205
ϣⲓⲣⲉ	-2206
▁ⲁⲉⲓ	-2207
▁ⲁⲛⲁ	-2208
ⲕⲉⲉⲥ	-2209
ⲕⲉⲙⲁ	-2210
ⲙⲉⲛⲏ	-2211
ⲙⲙⲟⲛ	-2212
▁ⲉⲓⲣⲉ	-2213
▁ⲉⲟⲟⲩ	-2214
▁ⲉⲡⲁⲓ	-2215
▁ⲉⲣⲉⲛ	-2216
▁ⲙⲟⲩϩ	-2217
▁ⲛϣⲏⲛ	-2218
▁ⲛⲅⲧⲙ	-2219
▁ⲛⲧⲁⲡ	-2220
▁ⲣⲱⲙⲉ	-2221
ⲫⲁⲛⲟⲥ	-2222
ϩⲧⲟⲟⲩⲉ	-2223
▁ⲉϥⲛⲏⲩ	-2224
▁ⲉⲡⲙⲟⲩ	-2225
▁ⲛⲉⲓⲱⲧ	-2226
▁ⲟⲩⲛⲟⲩ	-2227
▁ϩⲛⲧϭⲓϫ	-2228
▁ⲉⲧⲃⲉϫⲉ	-2229
▁ⲛⲁⲥⲛⲏⲩ	-2230
▁ⲛⲧⲉⲧⲛⲁ	-2231
▁ⲧϣⲉⲉⲣⲉ	-2232
ⲡⲓⲕⲁⲗⲉⲓ	-2233
▁ⲛϭⲓⲡⲣⲣⲟ	-2234
▁ⲛⲟⲩϣⲏⲣⲉ	-2235
▁ϫⲓⲛⲛϣⲟⲣⲡ	-2236
ⲙⲛⲧⲥⲛⲟⲟⲩⲥ	-2237
▁ⲡⲡⲁⲛⲧⲟⲕⲣⲁⲧⲱⲣ	-2238
ϩⲟⲧ	-2239
ⲕⲟⲓ	-2240
ⲛⲛⲁ	-2241
ϣⲧⲏⲛ	-2242
▁ⲉϫⲉ	-2243
▁ⲕⲁⲛ	-2244
▁ⲛⲅⲉ	-2245
ⲕⲁⲁⲥ	-2246
ⲙⲟⲩⲛ	-2247
ⲧⲱϭⲉ	-2248
ϩⲟⲟⲩⲧ	-2249
▁ϫⲉⲉⲕ	-2250
▁ⲁⲓϫⲓ	-2251
ⲗⲁⲧⲟⲥ	-2252
ⲛⲟⲩⲱⲙ	-2253
ⲣⲡⲱⲃϣ	-2254
ⲥⲕⲏⲛⲏ	-2255
▁ⲉⲉⲓⲣⲉ	-2256
▁ⲙⲡⲉⲧⲉ	-2257
▁ⲛϩⲏⲧⲕ	-2258
▁ⲛⲅⲃⲱⲕ	-2259
▁ⲛⲛⲉⲧⲉ	-2260
ⲃⲉⲛⲛⲏⲣ	-2261
ⲡⲓⲥⲧⲟⲥ	-2262
ⲣϣⲡⲏⲣⲉ	-2263
ⲯⲁⲗⲙⲟⲥ	-2264
▁ⲁϥϫⲟⲟⲥ	-2265
▁ⲁⲓⲥⲱⲧⲙ	-2266
▁ⲉⲩⲣⲱⲙⲉ	-2267
▁ⲛⲉⲥⲟⲟⲩ	-2268
▁ⲡⲉⲧⲉⲣⲉ	-2269
ⲡⲓⲑⲩⲙⲓⲁ	-2270
▁ⲉⲧⲉⲧⲛⲛⲁ	-2271
▁ⲛⲧⲉϥϭⲓϫ	-2272
ⲡⲁⲣⲁⲃⲟⲗⲏ	-2273
▁ϩⲛⲧⲡⲟⲗⲓⲥ	-2274
▁ⲉⲓⲥϩⲏⲏⲧⲉ	-2275
▁ⲛⲁⲅⲅⲉⲗⲟⲥ	-2276
▁ⲛⲧⲙⲛⲧⲣⲣⲟ	-2277
▁ϩⲛⲛⲉⲧⲙⲟⲟⲩⲧ	-2278
ⲕⲣ	-2279
ⲃⲏⲛ	-2280
ⲅⲓⲁ	-2281
ϣⲁⲁⲣ	-2282
▁ϣⲁⲓ	-2283
ⲁⲣⲉϩ	-2284
ⲗⲓⲃⲁ	-2285
ⲡⲏⲅⲏ	-2286
ⲣⲓⲭⲱ	-2287
ⲧⲁⲗⲉ	-2288
▁ϣⲓⲡⲉ	-2289
▁ⲁϥϩⲉ	-2290
▁ⲉⲧⲏⲡ	-2291
▁ⲉⲩⲙⲁ	-2292
▁ⲛⲛⲓⲙ	-2293
▁ⲡⲣⲁⲛ	-2294
ⲣⲓⲥⲓⲥ	-2295
▁ϩⲟⲧⲁⲛ	-2296
▁ⲕⲁⲗⲱⲥ	-2297
▁ⲙⲙⲱⲁⲃ	-2298
▁ⲛⲉⲃⲟⲧ	-2299
▁ⲛⲥⲁⲟⲩ	-2300
▁ⲡⲉⲟⲟⲩ	-2301
▁ⲉⲧϩⲟⲟⲩ	-2302
▁ⲙⲛⲡⲕⲁϩ	-2303
▁ⲙⲡⲁⲙⲧⲟ	-2304
▁ⲙⲡⲧⲟⲟⲩ	-2305
▁ⲛⲁⲁⲣⲱⲛ	-2306
▁ⲛⲁⲙⲙⲱⲛ	-2307
▁ⲛⲟⲩⲛⲁⲙ	-2308
▁ⲛⲣⲟⲩϩⲉ	-2309
▁ⲡⲉⲧⲣⲟⲥ	-2310
▁ⲁϥⲙⲟⲟϣⲉ	-2311
▁ⲛⲉⲫⲣⲁⲓⲙ	-2312
▁ⲛⲧⲁⲯⲩⲭⲏ	-2313
ⲅⲁⲗⲓⲗⲁⲓⲁ	-2314
ⲙⲟⲣⲣⲁⲓⲟⲥ	-2315
▁ϩⲙⲡϫⲟⲉⲓⲥ	-2316
▁ⲙⲡⲉϥⲗⲁⲟⲥ	-2317
ⲗⲏⲣⲟⲛⲟⲙⲉⲓ	-2318
▁ⲁϥⲡⲁⲧⲁⲥⲥⲉⲓ	-2319
▁ⲡⲉⲡⲣⲟⲫⲏⲧⲏⲥ	-2320
ϫϩ	-2321
ϩⲟⲥ	-2322
ⲅⲙⲁ	-2323
ⲗⲁϩ	-2324
ϣϭⲟⲙ	-2325
ϩⲃⲥⲱ	-2326
▁ϩⲏⲧ	-2327
▁ϫⲉⲕ	-2328
ⲛⲟⲩⲛ	-2329
ⲡⲁⲍⲉ	-2330
ⲥⲃⲃⲉ	-2331
▁ϫⲉⲉϥ	-2332
▁ⲉⲓⲧⲉ	-2333
▁ⲉⲙⲡⲉ	-2334
▁ⲙⲡⲓⲥ	-2335
▁ⲙⲡⲣϯ	-2336
▁ⲛⲙⲟⲩ	-2337
▁ⲛⲛⲁⲩ	-2338
ⲟⲓⲕⲟⲩ	-2339
ⲧⲁⲥⲓⲥ	-2340
▁ϩⲙⲡⲁⲓ	-2341
▁ϫⲉⲉⲓⲉ	-2342
▁ⲉⲧϩⲛⲧ	-2343
▁ⲉⲧⲟⲛϩ	-2344
▁ⲙⲙⲏⲛⲉ	-2345
▁ⲙⲟⲩⲧⲉ	-2346
▁ⲙⲡⲙⲉϩ	-2347
▁ⲛⲥⲁⲃⲉ	-2348
▁ⲛⲧⲉⲧⲙ	-2349
ⲯⲁⲗⲗⲉⲓ	-2350
▁ⲁϥⲉⲓⲛⲉ	-2351
▁ⲁⲩⲟⲩⲱⲙ	-2352
▁ⲥⲁⲃⲁⲱⲑ	-2353
▁ⲡⲉϥϣⲏⲣⲉ	-2354
▁ⲙⲡⲟⲛⲏⲣⲟⲛ	-2355
▁ⲛⲧⲉⲓⲙⲓⲛⲉ	-2356
ϩⲕ	-2357
▁ϭ	-2358
ⲱⲡ	-2359
ⲅⲓⲥ	-2360
ⲕⲁⲩ	-2361
ⲧⲓⲁ	-2362
ϩⲁⲗⲁ	-2363
▁ⲉⲧⲱ	-2364
▁ⲛⲙⲛ	-2365
▁ⲧⲡⲉ	-2366
ⲙϩⲓⲧ	-2367
ⲥⲓⲟⲩ	-2368
ⲥⲓⲱⲛ	-2369
ⲧⲛⲟϭ	-2370
▁ⲕⲟⲩⲓ	-2371
ϩⲟⲉⲓⲧⲉ	-2372
▁ⲙⲛⲛⲉⲕ	-2373
▁ⲛϫⲁⲓⲉ	-2374
▁ⲛⲉⲧⲟⲩ	-2375
ⲗⲓⲃⲁⲛⲟⲥ	-2376
▁ϫⲉⲧⲱⲟⲩⲛ	-2377
▁ⲉⲧⲛⲙⲙⲁϥ	-2378
▁ⲛⲉⲧⲟⲩⲏϩ	-2379
▁ⲡⲁϫⲟⲉⲓⲥ	-2380
ⲙⲛⲧⲣⲙⲙⲁⲟ	-2381
ⲟⲓⲕⲟⲩⲙⲉⲛⲏ	-2382
▁ⲛⲧⲁⲡⲛⲟⲩⲧⲉ	-2383
▁ⲉⲙ	-2384
ⲕⲁⲥ	-2385
ⲗⲟⲓ	-2386
ⲛⲁϩ	-2387
ⲣⲁϣ	-2388
ⲣⲉⲕ	-2389
ⲥⲟϭ	-2390
ⲫⲑⲁ	-2391
ϫⲓⲧⲥ	-2392
ϭⲃⲟⲓ	-2393
ⲉⲓⲟⲩ	-2394
ⲓⲕⲟⲛ	-2395
ⲗⲡⲓⲥ	-2396
ⲡⲱϩⲧ	-2397
ⲥⲁϩⲱ	-2398
ⲧⲉⲓⲁ	-2399
ϣⲟⲙⲧⲉ	-2400
ϩⲓⲟⲩⲉ	-2401
▁ϩⲁⲧⲛ	-2402
▁ⲁϫⲓⲥ	-2403
▁ⲉⲕϫⲱ	-2404
▁ⲙⲁⲩⲁ	-2405
▁ⲛϭⲓϫ	-2406
▁ⲛⲁϫⲓ	-2407
▁ⲛⲛⲟϭ	-2408
ⲧⲉⲩϣⲏ	-2409
▁ϫⲉⲉⲩⲉ	-2410
▁ⲉⲡⲣⲁⲛ	-2411
▁ⲛϩⲏⲧⲛ	-2412
ⲁⲛⲟⲙⲓⲁ	-2413
ϩⲉⲗⲡⲓⲍⲉ	-2414
▁ⲁϥⲉⲓⲣⲉ	-2415
▁ⲉⲡⲉϥⲙⲁ	-2416
▁ⲛⲟⲩⲏⲏⲃ	-2417
▁ⲁⲓⲏⲥⲟⲩⲥ	-2418
▁ⲙⲛⲁⲁⲣⲱⲛ	-2419
▁ⲙⲡⲛⲉⲩⲙⲁ	-2420
▁ⲙⲙⲁⲛⲁⲥⲥⲏ	-2421
ⲛⲱ	-2422
ⲇⲱⲛ	-2423
ⲡⲉⲛ	-2424
ⲣⲱϩ	-2425
ⲧⲏϥ	-2426
ϫⲡⲟϥ	-2427
ϭⲗⲟϭ	-2428
▁ⲙⲡⲕ	-2429
▁ⲡⲓⲥ	-2430
ⲏⲥⲓⲥ	-2431
ⲙⲛⲧϥ	-2432
ⲟⲓⲗⲉ	-2433
ⲟⲓⲛⲉ	-2434
ⲣⲱⲕϩ	-2435
ϥⲧⲟⲟⲩ	-2436
ϩⲁⲣⲙⲁ	-2437
ϩⲛⲁⲁⲩ	-2438
▁ⲉⲧⲉⲩ	-2439
▁ⲛⲁⲉⲓ	-2440
ⲕⲁⲛⲇⲁ	-2441
ⲟⲩⲟⲛϩ	-2442
ϫⲓϣⲓⲡⲉ	-2443
▁ⲉⲗⲁⲁⲩ	-2444
▁ⲛϩⲣⲟⲩ	-2445
▁ⲛϭⲓⲓⲱ	-2446
▁ⲡⲉϫⲉⲡ	-2447
ⲥⲩⲣⲓⲟⲥ	-2448
▁ϩⲛⲟⲩⲙⲉ	-2449
▁ⲁⲩⲥⲱⲧⲙ	-2450
▁ⲉϥϩⲟⲟⲩ	-2451
▁ⲛϭⲓϩⲉⲛ	-2452
▁ϫⲉⲛⲧⲱⲧⲛ	-2453
▁ϩⲙⲡⲉϥϩⲏⲧ	-2454
▁ϩⲛⲧⲡⲓⲥⲧⲓⲥ	-2455
▁ⲁϥⲁϩⲉⲣⲁⲧϥ	-2456
▁ⲙⲛⲛⲉⲩⲉⲣⲏⲩ	-2457
ⲑⲓ	-2458
ⲑⲙ	-2459
▁ⲥⲟ	-2460
ⲇⲁⲃ	-2461
ⲉⲓⲙ	-2462
ⲛⲉⲛ	-2463
ⲣⲙⲡ	-2464
ϥⲱⲧⲉ	-2465
ϩⲏⲃⲉ	-2466
ϩⲓⲏⲙ	-2467
▁ⲉⲩⲥ	-2468
▁ⲛⲧⲟ	-2469
ⲏⲏϣⲉ	-2470
ⲕⲉⲩⲏ	-2471
▁ⲁⲥⲉⲓ	-2472
▁ⲉⲩϫⲓ	-2473
ⲧⲉⲧⲛⲁ	-2474
▁ⲉϫⲱⲧⲛ	-2475
▁ⲉⲧⲉⲙⲡ	-2476
▁ⲉⲧⲥⲏϩ	-2477
▁ⲛϭⲓⲡⲁ	-2478
▁ⲉⲧⲟⲟⲧⲛ	-2479
▁ⲛⲅϫⲟⲟⲥ	-2480
▁ⲛⲧⲥⲱϣⲉ	-2481
▁ⲡⲉϩⲟⲟⲩ	-2482
▁ⲡⲟⲩⲏⲏⲃ	-2483
▁ⲛⲧϣⲉⲉⲣⲉ	-2484
▁ϩⲛⲟⲩⲥⲁⲧⲉ	-2485
▁ⲛⲛⲉⲓϣⲁϫⲉ	-2486
▁ⲛⲟⲩⲥϩⲓⲙⲉ	-2487
▁ⲛⲧⲉϥⲯⲩⲭⲏ	-2488
▁ⲥⲉⲛⲁϣⲱⲡⲉ	-2489
▁ⲉⲣⲉⲡϫⲟⲉⲓⲥ	-2490
▁ⲛⲛⲇⲓⲕⲁⲓⲟⲥ	-2491
ϥⲱ	-2492
ⲣⲕ	-2493
ⲁⲩⲱ	-2494
ⲏⲟⲩ	-2495
ⲗⲏⲕ	-2496
ⲙϩⲁ	-2497
ⲭⲉⲃ	-2498
ϩⲩⲗⲏ	-2499
ϫⲛⲟⲩ	-2500
ϭⲗⲓⲗ	-2501
▁ⲁϥⲁ	-2502
ⲁⲣⲛⲁ	-2503
ⲛⲉⲩⲉ	-2504
ⲟⲟⲧⲉ	-2505
ⲥⲟⲩⲟ	-2506
▁ⲉϩⲣⲁ	-2507
▁ⲛϫⲓⲛ	-2508
▁ⲛⲱⲛⲉ	-2509
ⲟⲩⲥⲏⲥ	-2510
ⲟⲩⲧⲱⲛ	-2511
▁ⲉⲧϩⲙⲡ	-2512
▁ⲉⲧⲃⲉⲧ	-2513
▁ⲡⲁⲥⲟⲛ	-2514
ⲑⲩⲣⲓⲟⲛ	-2515
▁ϫⲉⲥⲉⲛⲁ	-2516
▁ⲉⲧⲉⲡⲁⲓ	-2517
▁ⲡϩⲙϩⲁⲗ	-2518
ⲡⲉⲓⲣⲁⲍⲉ	-2519
▁ⲉϥⲙⲟⲟϣⲉ	-2520
▁ϩⲙⲡⲉⲩϩⲏⲧ	-2521
▁ϫⲉⲡⲛⲟⲩⲧⲉ	-2522
▁ⲓⲱϩⲁⲛⲛⲏⲥ	-2523
▁ⲡⲉⲕϩⲙϩⲁⲗ	-2524
ⲭⲁⲛⲁⲛⲁⲓⲟⲥ	-2525
▁ⲛⲧⲉⲣⲉϥⲛⲁⲩ	-2526
ϫⲃ	-2527
ϣⲱϥ	-2528
ϥⲁⲓ	-2529
ⲃⲁⲥ	-2530
ⲅⲱⲛ	-2531
ⲉⲓⲉ	-2532
ⲕⲁⲡ	-2533
ϣⲟⲩⲱ	-2534
▁ⲙⲙⲟ	-2535
ⲛⲁϩⲃ	-2536
ⲛⲧⲁⲥ	-2537
ⲡⲱⲣϣ	-2538
ϣⲁϩⲟⲙ	-2539
▁ⲓⲱⲁⲃ	-2540
▁ⲙⲡⲣⲣ	-2541
▁ⲛⲥⲟⲩ	-2542
▁ⲛⲧⲟⲩ	-2543
ⲛⲟⲩⲱϣ	-2544
ⲛⲧⲟⲟⲩ	-2545
▁ϣⲁⲃⲟⲗ	-2546
▁ⲉⲧϥⲛⲁ	-2547
▁ⲓⲁⲕⲱⲃ	-2548
▁ⲛⲕⲱϩⲧ	-2549
▁ⲧⲉϩⲓⲏ	-2550
ⲱⲟⲩⲥⲏⲥ	-2551
▁ϣⲁⲛⲧⲟⲩ	-2552
▁ⲉⲛϣⲁϫⲉ	-2553
▁ⲉⲧⲉϩⲓⲏ	-2554
ⲗⲉⲩⲓⲧⲏⲥ	-2555
▁ⲛⲟⲩⲙⲟⲟⲩ	-2556
ⲃⲁⲡⲧⲓⲥⲙⲁ	-2557
▁ϩⲉⲛⲕⲟⲟⲩⲉ	-2558
ⲁⲣⲭⲓⲉⲣⲉⲩⲥ	-2559
▁ⲛⲃⲉⲛⲓⲁⲙⲓⲛ	-2560
ⲓⲟ	-2561
▁ⲡⲱ	-2562
ⲅⲁⲣ	-2563
ⲟⲣⲧ	-2564
ⲡⲓⲣ	-2565
ⲧⲱⲕ	-2566
▁ⲁⲡⲉ	-2567
ⲁⲓⲁⲥ	-2568
ⲃⲏⲩⲉ	-2569
ⲗⲩⲅⲏ	-2570
ϣⲁϥⲧⲉ	-2571
▁ⲁϥϫⲱ	-2572
▁ⲉⲓϫⲱ	-2573
▁ⲉⲛⲥⲉ	-2574
▁ⲛⲥⲙⲏ	-2575
ⲙⲛⲧⲟⲩ	-2576
ⲥⲁϣϥⲉ	-2577
ⲧⲱⲙⲛⲧ	-2578
▁ϣⲁⲣⲟⲕ	-2579
▁ϩⲟⲓⲛⲉ	-2580
▁ⲁϥϩⲱⲛ	-2581
▁ⲙⲡⲟⲩⲁ	-2582
▁ⲙⲡⲟⲩⲥ	-2583
▁ⲛⲥⲁⲡⲉ	-2584
ⲧⲁⲛⲟⲉⲓ	-2585
ⲧⲟⲩϫⲟⲓ	-2586
▁ϩⲙⲡⲣⲁⲛ	-2587
▁ⲁⲩⲉⲓⲛⲉ	-2588
▁ⲉⲣⲉⲛⲉϥ	-2589
▁ⲉⲣⲉⲡⲉϥ	-2590
ⲡⲉϥⲉⲓⲱⲧ	-2591
ϩⲩⲡⲟⲙⲟⲛⲏ	-2592
▁ϣⲁⲉϩⲣⲁⲓ	-2593
▁ϩⲙⲡⲧⲣⲉϥ	-2594
▁ⲉⲡϫⲓⲛϫⲏ	-2595
▁ⲛⲟⲩϣⲁϫⲉ	-2596
▁ⲙⲡⲉϥϣⲏⲣⲉ	-2597
▁ⲛⲛⲉϩⲃⲏⲩⲉ	-2598
ⲡⲣⲟⲫⲏⲧⲉⲩⲉ	-2599
▁ⲛⲛⲉϥϩⲙϩⲁⲗ	-2600
▁ϩⲓⲧⲙⲡϫⲟⲉⲓⲥ	-2601
ⲅⲓ	-2602
ⲗϩ	-2603
ⲗⲥ	-2604
ϣⲁϩ	-2605
▁ⲓⲉ	-2606
ⲑⲟⲥ	-2607
ⲕⲃⲁ	-2608
ⲛⲁⲣ	-2609
ⲣⲁϩ	-2610
ⲣⲟϣ	-2611
ϣⲓⲃⲉ	-2612
ϩⲏⲛⲉ	-2613
▁ⲁⲁⲩ	-2614
▁ⲁⲙⲏ	-2615
▁ⲁⲣⲁ	-2616
▁ⲛⲃⲁ	-2617
ⲇⲩⲛⲁ	-2618
ⲥⲧⲣⲁ	-2619
▁ⲉⲡⲉⲧ	-2620
ⲇⲏⲙⲟⲥ	-2621
ⲑⲓⲥⲧⲁ	-2622
ⲙⲁⲗⲏⲕ	-2623
ⲣⲁⲥⲟⲩ	-2624
ⲥⲉⲡⲥⲱ	-2625
ϣⲡϩⲙⲟⲧ	-2626
▁ϫⲉϩⲉⲛ	-2627
▁ϫⲉⲡⲉⲧ	-2628
▁ⲛⲉⲩϫⲱ	-2629
ⲭⲉⲃⲣⲱⲛ	-2630
▁ϫⲉⲧⲉⲧⲛ	-2631
▁ⲉⲧⲟⲩⲏϩ	-2632
▁ϩⲓⲧⲉϩⲓⲏ	-2633
▁ⲁϥⲡⲁϩⲧϥ	-2634
▁ⲕⲁⲧⲁⲛⲉⲩ	-2635
▁ⲙⲛⲛⲕⲉⲙⲁ	-2636
▁ⲡⲉⲧϣⲟⲟⲡ	-2637
ⲭⲁⲗⲇⲁⲓⲟⲥ	-2638
▁ⲉⲡⲉϩⲣⲟⲟⲩ	-2639
▁ϩⲛⲧⲉⲣⲏⲙⲟⲥ	-2640
▁ⲛⲛⲣⲙⲛⲕⲏⲙⲉ	-2641
▁ⲛⲧⲉⲡϫⲟⲉⲓⲥ	-2642
ⲩⲣ	-2643
ϫⲏⲕ	-2644
▁ⲡⲓ	-2645
ⲁⲕⲉ	-2646
ⲏⲡⲉ	-2647
ⲗⲟⲙ	-2648
ⲧⲉⲥ	-2649
ⲫⲟⲣ	-2650
ϭⲓⲛⲉ	-2651
▁ⲁⲓⲣ	-2652
▁ⲉϥϩ	-2653
▁ⲉⲁⲥ	-2654
▁ⲉⲧϥ	-2655
▁ⲧⲉⲓ	-2656
ⲙⲓⲥⲉ	-2657
ⲟⲩⲧⲛ	-2658
ⲡⲉⲍⲁ	-2659
ⲧⲱⲙⲁ	-2660
▁ϥⲛⲏⲩ	-2661
▁ϫⲉⲉⲩ	-2662
▁ⲛⲃⲁⲗ	-2663
▁ⲛⲟⲩⲥ	-2664
ⲕⲉⲟⲩⲁ	-2665
ⲟⲩⲛⲟⲩ	-2666
ⲡⲁϩⲣⲉ	-2667
ⲣⲙⲣⲁϣ	-2668
▁ϣⲁⲛⲧϥ	-2669
▁ⲉⲙⲓϣⲉ	-2670
▁ⲛⲛⲟⲃⲉ	-2671
▁ⲛⲧϭⲟⲙ	-2672
▁ⲡⲉⲧⲉⲛ	-2673
▁ⲡⲉⲧⲟⲩ	-2674
ⲓⲟⲩⲇⲁⲥ	-2675
ⲙⲡⲟⲗⲓⲥ	-2676
▁ⲁϥⲕⲧⲟϥ	-2677
▁ⲁⲩⲉⲓⲣⲉ	-2678
▁ⲛϣⲟⲙⲛⲧ	-2679
▁ⲛⲛⲉⲧⲛⲁ	-2680
▁ⲡⲛⲟⲙⲟⲥ	-2681
ⲇⲩⲛⲁⲧⲟⲥ	-2682
▁ⲉϩⲧⲟⲟⲩⲉ	-2683
▁ⲙⲡⲉⲕⲉⲓⲱⲧ	-2684
▁ⲧϩⲁⲗⲁⲥⲥⲁ	-2685
ⲃⲛⲏ	-2686
ⲇⲟⲥ	-2687
ⲛⲧⲥ	-2688
ⲟⲡϥ	-2689
ⲱϩⲉ	-2690
ϣⲁⲁⲧ	-2691
ϩⲉⲛⲁ	-2692
ϩⲱⲃⲥ	-2693
▁ⲉⲕⲁ	-2694
▁ⲛϥϯ	-2695
ⲃⲗⲗⲉ	-2696
ⲟⲛⲧⲉ	-2697
ⲡⲓⲅⲝ	-2698
ϫⲛⲟⲩϥ	-2699
▁ϩⲛⲅⲁ	-2700
▁ϫⲉⲧⲁ	-2701
▁ϫⲓⲛⲉ	-2702
▁ⲉⲛⲉⲓ	-2703
▁ⲛⲅⲛⲁ	-2704
▁ⲛⲱⲛϩ	-2705
▁ⲟⲩⲙⲉ	-2706
▁ⲡⲃⲟⲗ	-2707
ⲙⲛⲧⲁⲧ	-2708
ⲛⲁϩⲧⲉ	-2709
ⲧⲁⲙⲟⲓ	-2710
▁ⲁⲩⲙⲟⲩ	-2711
▁ⲉϫⲛⲧⲁ	-2712
▁ⲉⲣⲁⲧⲥ	-2713
▁ⲛⲛⲟⲩϫ	-2714
▁ⲡⲉϥⲛⲁ	-2715
▁ⲛⲁⲓⲁⲧϥ	-2716
▁ⲛⲁⲧϩⲏⲧ	-2717
▁ⲛⲓⲱⲥⲏⲫ	-2718
▁ⲛⲛⲟⲩⲧⲉ	-2719
▁ⲛⲧⲉϩⲓⲏ	-2720
ⲃⲁⲃⲩⲗⲱⲛ	-2721
ⲧⲉⲥϩⲓⲙⲉ	-2722
▁ⲡⲟⲩⲟⲉⲓⲛ	-2723
ⲛⲧⲃⲛⲟⲟⲩⲉ	-2724
▁ϩⲙⲡⲛⲟⲙⲟⲥ	-2725
▁ⲙⲡⲉϥⲣⲁⲥⲧⲉ	-2726
ⲟⲇ	-2727
ϣⲏⲓ	-2728
▁ⲗⲟ	-2729
ⲁⲛⲉ	-2730
ⲑⲁⲓ	-2731
ⲗⲓⲡ	-2732
ⲗⲓⲥ	-2733
ⲙⲙⲉ	-2734
ⲙⲡⲁ	-2735
ⲣⲱⲓ	-2736
ⲧⲟϭ	-2737
ϩⲣⲁϥ	-2738
▁ⲁⲛⲉ	-2739
ⲗⲉⲉⲙ	-2740
ⲣⲉϥϯ	-2741
ⲣⲣⲣⲟ	-2742
ⲥⲟⲩⲛ	-2743
ⲭⲟⲩⲥ	-2744
ϩⲟⲙⲛⲧ	-2745
ϫⲓⲟⲟⲣ	-2746
ϭⲟⲓⲗⲉ	-2747
ϭⲟⲟⲗⲉ	-2748
▁ⲁϥϭⲱ	-2749
▁ⲙⲙⲟⲩ	-2750
▁ⲛⲉⲩⲥ	-2751
ⲓⲙⲏⲧⲓ	-2752
ⲫⲓⲗⲓⲡ	-2753
▁ϩⲛⲛⲁⲓ	-2754
▁ϩⲛⲟⲩⲁ	-2755
▁ϯϩⲧⲏⲕ	-2756
▁ⲁϥϫⲡⲟ	-2757
▁ⲛⲧⲉⲣⲓ	-2758
ⲇⲟⲕⲓⲙⲁ	-2759
▁ϩⲁⲣⲟⲟⲩ	-2760
▁ϩⲛⲟⲩⲙⲁ	-2761
▁ϫⲉⲙⲁⲣⲉ	-2762
▁ϫⲉⲛⲧⲟϥ	-2763
▁ⲁϥⲟⲩⲱϩ	-2764
ⲕⲉⲛⲧⲟⲗⲏ	-2765
ⲛⲏⲥⲧⲉⲩⲉ	-2766
ⲟⲓⲃⲱⲧⲟⲥ	-2767
ⲡⲟⲧⲁⲥⲥⲉ	-2768
▁ⲙⲡⲉⲕⲣⲁⲛ	-2769
▁ⲛⲟⲩⲕⲟⲩⲓ	-2770
▁ⲉⲧⲛⲁϣⲱⲡⲉ	-2771
▁ⲛⲛⲉⲩⲉⲣⲏⲩ	-2772
▁ⲡⲉϫⲉⲥⲁⲟⲩⲗ	-2773
▁ϩⲙⲡⲉⲟⲩⲟⲉⲓϣ	-2774
▁ⲁⲩⲁϩⲉⲣⲁⲧⲟⲩ	-2775
▁ⲁϥⲟⲩⲉϩⲥⲁϩⲛⲉ	-2776
ⲃⲣ	-2777
ⲣⲩ	-2778
ϩⲟⲓ	-2779
ϫⲱϥ	-2780
▁ϣⲟ	-2781
ⲇⲁⲙ	-2782
ⲕⲉⲇ	-2783
ⲣⲁⲥ	-2784
ⲥⲁⲙ	-2785
ⲧⲁⲡ	-2786
ⲱⲙⲉ	-2787
ϩⲣⲟⲕ	-2788
▁ⲁϥⲉ	-2789
▁ⲉϥϯ	-2790
▁ⲥⲟⲧ	-2791
ⲃⲧⲱⲧ	-2792
ⲓⲙⲟⲩ	-2793
ⲡⲟⲩⲁ	-2794
ⲣⲙϩⲉ	-2795
ϥⲟⲧⲟⲩ	-2796
▁ϩⲙⲙⲁ	-2797
▁ϫⲓⲥⲉ	-2798
▁ⲉϩⲱⲃ	-2799
▁ⲛⲧⲁⲛ	-2800
▁ⲡⲙⲉϩ	-2801
▁ⲡⲛⲟϭ	-2802
ⲇⲓϩⲁⲙ	-2803
ⲙⲁⲣⲓⲁ	-2804
ⲛⲟⲩⲛⲉ	-2805
ⲡⲁⲥⲭⲁ	-2806
ⲧⲁⲗϭⲟ	-2807
ϩⲁⲗⲁⲧⲉ	-2808
▁ⲉⲣⲉⲡⲁ	-2809
▁ⲛⲅⲛⲁⲩ	-2810
▁ⲛⲉⲛⲧⲁ	-2811
ⲃⲁⲁⲙⲡⲉ	-2812
ⲏⲥⲁⲓⲁⲥ	-2813
ⲙⲛⲧⲛⲟϭ	-2814
▁ⲛϥϣⲱⲡⲉ	-2815
▁ⲛϫⲱⲱⲣⲉ	-2816
ⲁⲃⲣⲁϩⲁⲙ	-2817
ⲃⲏⲑⲗⲉⲉⲙ	-2818
ⲙⲟⲟⲩⲧⲟⲩ	-2819
ⲣⲟⲩⲟⲉⲓⲛ	-2820
ⲧⲉⲓⲣⲏⲛⲏ	-2821
▁ϩⲙⲡⲉⲓⲙⲁ	-2822
▁ⲉⲩⲫⲣⲁⲛⲉ	-2823
ⲇⲟⲕⲓⲙⲁⲍⲉ	-2824
▁ϩⲙⲡⲛⲟⲩⲧⲉ	-2825
▁ⲙⲡⲉϥⲥⲱⲙⲁ	-2826
▁ⲛⲟⲩⲙⲏⲏϣⲉ	-2827
▁ⲛⲧⲉⲥⲕⲏⲛⲏ	-2828
▁ⲛⲁⲗⲗⲟⲫⲩⲗⲟⲥ	-2829
ϩⲁⲉ	-2830
▁ⲥⲱ	-2831
ⲏⲃⲉ	-2832
ⲕⲁⲓ	-2833
ⲣⲟⲧ	-2834
ⲱⲥⲕ	-2835
▁ϣϣⲉ	-2836
▁ϩⲓⲥ	-2837
▁ϭⲟⲙ	-2838
▁ⲱϫⲛ	-2839
ⲙⲁⲕϩ	-2840
ⲟⲩϣⲏ	-2841
ⲧⲉⲣⲉ	-2842
ϫⲟⲉⲓⲧ	-2843
▁ϩⲟⲟⲩ	-2844
▁ⲉⲛⲛⲁ	-2845
▁ⲉⲣⲉⲧ	-2846
▁ⲙⲛⲓⲱ	-2847
▁ⲙⲡⲉⲣ	-2848
▁ⲛϭⲟⲙ	-2849
▁ⲛⲛⲁⲥ	-2850
ⲛⲣⲱⲙⲉ	-2851
ⲥⲟⲩⲱⲛ	-2852
▁ϩⲁⲣⲟⲥ	-2853
▁ϩⲓⲧⲛⲧ	-2854
▁ϫⲉⲉⲕⲉ	-2855
▁ⲉϫⲙⲡⲁ	-2856
▁ⲙⲉⲉⲩⲉ	-2857
▁ⲛⲟⲩⲙⲁ	-2858
▁ⲡⲧⲟⲟⲩ	-2859
ⲟⲩⲛⲧⲁϥ	-2860
ⲭⲟⲣⲧⲟⲥ	-2861
▁ϩⲁⲣⲱⲧⲛ	-2862
▁ⲉϥϣⲁϫⲉ	-2863
▁ⲉϫⲛⲧⲉϥ	-2864
▁ⲉⲓⲙⲏⲧⲓ	-2865
▁ⲧⲁⲯⲩⲭⲏ	-2866
ⲃⲁⲓϣⲓⲛⲉ	-2867
ⲧⲃⲛⲟⲟⲩⲉ	-2868
▁ⲓⲱⲛⲁⲑⲁⲛ	-2869
▁ⲛϩⲧⲟⲟⲩⲉ	-2870
▁ⲛⲅⲁⲗⲁⲁⲇ	-2871
ⲙⲉⲧⲁⲛⲟⲉⲓ	-2872
ⲫⲓⲗⲓⲡⲡⲟⲥ	-2873
▁ϩⲙⲡⲉⲕϩⲏⲧ	-2874
▁ⲉⲡⲡⲟⲗⲉⲙⲟⲥ	-2875
▁ⲉϫⲙⲡⲓⲥⲣⲁⲏⲗ	-2876
ϫⲙ	-2877
▁ⲃⲁ	-2878
▁ⲏⲉ	-2879
▁ⲱϣ	-2880
ⲓⲧⲛ	-2881
ⲙⲓⲟ	-2882
ⲛⲁⲕ	-2883
ⲣⲧⲩ	-2884
▁ⲡⲣⲟ	-2885
ⲃⲟⲩⲥ	-2886
ⲃⲱⲱⲛ	-2887
ⲕⲟⲧⲥ	-2888
ⲙⲟⲕϩ	-2889
ⲣⲙⲣⲙ	-2890
ⲥⲱⲟⲩ	-2891
ⲧⲁⲩⲉ	-2892
ⲧⲟⲗⲏ	-2893
ⲧⲱⲣⲡ	-2894
ϣⲟⲣϣⲣ	-2895
ϩⲓⲥⲧⲁ	-2896
ϭⲟⲟⲙⲉ	-2897
▁ⲁⲓⲉⲓ	-2898
▁ⲛⲁϩⲣ	-2899
▁ⲟⲩⲱϩ	-2900
▁ⲧⲁⲕⲟ	-2901
ⲕⲟⲡⲟⲥ	-2902
ⲙⲛⲧⲛⲁ	-2903
ⲟⲩⲟⲙϥ	-2904
ⲣⲁⲛⲁϥ	-2905
ⲧⲁϫⲣⲉ	-2906
ⲧⲥⲃⲃⲉ	-2907
▁ϩⲁⲧⲉϥ	-2908
▁ϫⲉⲛⲉϥ	-2909
▁ϭⲙϭⲟⲙ	-2910
▁ⲉⲕⲏⲙⲉ	-2911
▁ⲉⲣⲉⲡⲉ	-2912
▁ⲙⲙⲓⲥⲉ	-2913
▁ⲛⲧⲉⲣϥ	-2914
ⲟⲩⲉⲃⲟⲗ	-2915
ⲡⲁⲣⲁⲅⲉ	-2916
ⲧⲁⲩⲣⲟⲩ	-2917
ϣⲟⲩϩⲏⲛⲉ	-2918
ϩⲏⲅⲉⲙⲱⲛ	-2919
▁ϩⲁⲛⲟⲃⲉ	-2920
▁ⲁϥⲥⲙⲟⲩ	-2921
▁ⲁⲩϫⲟⲟⲩ	-2922
▁ⲉϫⲛⲛⲉϥ	-2923
▁ⲉϫⲛⲛⲉⲩ	-2924
▁ⲉⲧⲉⲓⲣⲉ	-2925
▁ⲟⲩⲟⲉⲓϣ	-2926
ⲕⲁⲑⲓⲥⲧⲁ	-2927
ⲥⲩⲛⲑⲓⲟⲥ	-2928
........	-2929
▁ϩⲛⲛϣⲏⲣⲉ	-2930
▁ϫⲉⲉϣⲱⲡⲉ	-2931
▁ⲛⲧⲁⲧⲉⲧⲛ	-2932
▁ⲧⲉⲥϩⲓⲙⲉ	-2933
▁ⲛⲁⲙⲉⲣⲁⲧⲉ	-2934
▁ⲛⲛⲓⲟⲩⲇⲁⲓ	-2935
▁ϩⲛⲛⲉϩⲃⲏⲩⲉ	-2936
▁ⲛⲣⲉϥⲣⲛⲟⲃⲉ	-2937
▁ⲕⲏ	-2938
ⲃⲟⲥ	-2939
ⲗⲁⲕ	-2940
ⲗⲉⲃ	-2941
ⲯⲱⲛ	-2942
ϩⲱⲧⲡ	-2943
▁ϣⲁⲥ	-2944
▁ϫⲉⲥ	-2945
ⲛⲏⲟⲩ	-2946
ⲟⲛⲟⲛ	-2947
ⲩⲗⲟⲥ	-2948
ϣϣⲕⲁⲕ	-2949
▁ⲉⲙⲙⲁ	-2950
▁ⲉⲧϩⲁ	-2951
▁ⲟⲩⲱⲙ	-2952
▁ⲧⲁⲁⲩ	-2953
ⲟⲩⲁϣϥ	-2954
ⲡⲉⲓⲑⲉ	-2955
ⲣⲱⲇⲏⲥ	-2956
▁ϣⲟⲙⲛⲧ	-2957
▁ϫⲉϥⲛⲁ	-2958
▁ϫⲉⲛⲧⲕ	-2959
▁ⲥⲱⲟⲩϩ	-2960
ⲃⲣⲁⲓⲟⲥ	-2961
ⲡⲉⲕϩⲏⲧ	-2962
ϫⲓϫⲉⲉⲩⲉ	-2963
▁ϩⲛⲧⲉⲧⲛ	-2964
▁ϫⲉⲉϣϫⲉ	-2965
▁ϫⲉⲉⲃⲟⲗ	-2966
▁ⲉϥϣⲟⲟⲡ	-2967
▁ⲉⲧⲣⲉⲧⲛ	-2968
▁ⲙⲙⲓⲛⲙⲙ	-2969
▁ⲙⲙⲟⲟϣⲉ	-2970
▁ⲙⲡⲉⲧⲛⲁ	-2971
▁ⲙⲡⲙⲟⲟⲩ	-2972
▁ⲙⲡⲛⲟⲃⲉ	-2973
▁ϩⲙⲡⲧⲣⲉⲩ	-2974
▁ϫⲉⲉⲧⲉⲧⲛ	-2975
▁ϫⲉⲟⲩⲛⲟⲩ	-2976
▁ⲉⲧⲉⲧⲛϫⲱ	-2977
▁ⲙⲡⲙⲛⲧⲣⲉ	-2978
▁ⲛⲧⲥⲟⲫⲓⲁ	-2979
▁ⲟⲩⲥϩⲓⲙⲉ	-2980
▁ⲁⲃⲏⲥⲁⲗⲱⲙ	-2981
▁ⲛϭⲓⲛⲣⲱⲙⲉ	-2982
▁ⲛϭⲓⲡⲗⲁⲟⲥ	-2983
▁ⲛⲧⲡⲓⲥⲧⲓⲥ	-2984
ⲙⲛⲧⲣⲙⲛϩⲏⲧ	-2985
ϣⲟⲧ	-2986
ϩⲣⲱ	-2987
ⲓⲡⲉ	-2988
ⲕⲟⲗ	-2989
ⲛⲏϫ	-2990
ⲣⲱⲕ	-2991
ⲧⲥⲁ	-2992
ⲫⲁⲥ	-2993
▁ⲉⲡⲓ	-2994
▁ⲙⲉϥ	-2995
ⲟⲗⲟⲙ	-2996
ⲡⲱⲣϫ	-2997
ⲣⲏⲙⲁ	-2998
ⲣⲱⲧⲉ	-2999
ⲥⲡⲓⲣ	-3000
ⲧⲙⲟⲩ	-3001
ϣⲃⲉⲉⲣ	-3002
▁ϫⲉⲁⲥ	-3003
▁ⲉⲓⲛⲉ	-3004
▁ⲉⲟⲩⲁ	-3005
▁ⲛⲅϫⲓ	-3006
▁ⲛⲥⲟⲛ	-3007
▁ⲡⲥⲟⲛ	-3008
▁ⲥⲁϣϥ	-3009
ⲕⲟⲛⲉⲓ	-3010
ⲙⲁⲥⲧⲓ	-3011
ⲛⲁⲭⲟⲥ	-3012
ϣⲧⲣⲧⲱⲣ	-3013
ϭⲟⲟⲩⲛⲉ	-3014
▁ϩⲙⲟⲟⲥ	-3015
▁ⲉϫⲛⲛⲁ	-3016
▁ⲙⲡⲟⲩⲉ	-3017
▁ⲙⲡⲣⲁⲛ	-3018
▁ⲛⲕⲣⲟϥ	-3019
▁ⲛⲧⲉⲟⲩ	-3020
ⲍⲉⲕⲓⲁⲥ	-3021
ⲧⲛⲁϩⲧⲉ	-3022
ⲭⲁⲛⲁⲁⲛ	-3023
▁ϫⲉⲛⲧⲁⲩ	-3024
▁ϫⲉⲟⲩϣⲁ	-3025
▁ⲉϥϫⲟⲥⲉ	-3026
▁ⲉⲧⲃⲉⲡⲉ	-3027
▁ⲉⲩϩⲟⲟⲩ	-3028
▁ⲙⲡⲉⲃⲟⲧ	-3029
ⲓⲟⲩⲟⲉⲓϣ	-3030
ⲙⲛⲧⲕⲟⲩⲓ	-3031
ⲡⲟⲛⲏⲣⲟⲥ	-3032
▁ⲙⲛⲡⲗⲁⲟⲥ	-3033
▁ⲙⲡⲉⲗⲁⲁⲩ	-3034
▁ⲙⲡⲉⲩⲙⲧⲟ	-3035
▁ϫⲉⲓⲏⲥⲟⲩⲥ	-3036
▁ⲁⲩⲟⲩⲁϩⲟⲩ	-3037
▁ⲛⲧⲁϥϣⲱⲡⲉ	-3038
▁ⲉⲣⲉⲡⲛⲟⲩⲧⲉ	-3039
▁ⲙⲛⲛⲉϥϣⲏⲣⲉ	-3040
▁ⲙⲛⲡⲓⲥⲣⲁⲏⲗ	-3041
▁ⲛⲧⲉⲕⲕⲗⲏⲥⲓⲁ	-3042
▁ⲛⲧⲉⲣⲟⲩⲥⲱⲧⲙ	-3043
▁ⲧϩⲓⲉⲣⲟⲩⲥⲁⲗⲏⲙ	-3044
ϯⲁ	-3045
ⲕⲩ	-3046
ⲩϩ	-3047
ϩⲙⲡ	-3048
ϭⲟⲧ	-3049
ⲅⲟⲣ	-3050
ⲇⲣⲁ	-3051
ⲛⲧⲕ	-3052
ⲧⲛϩ	-3053
ⲱⲟⲩ	-3054
ϣϩⲏⲧ	-3055
ϭⲱⲣϭ	-3056
▁ⲙⲉⲩ	-3057
▁ⲧⲉⲥ	-3058
▁ⲧⲟⲟ	-3059
ⲛⲟⲓⲁ	-3060
ⲣⲉϥⲣ	-3061
ⲣⲱϩⲧ	-3062
ⲥⲱⲣⲙ	-3063
ⲧⲓⲍⲉ	-3064
ⲭⲙⲁⲗ	-3065
ⲱⲣⲉⲓ	-3066
▁ϫⲉϣⲁ	-3067
▁ⲁⲩϫⲱ	-3068
▁ⲉⲡⲉⲥ	-3069
▁ⲉⲣⲱϥ	-3070
▁ⲙⲏⲧⲓ	-3071
▁ⲛϩⲙⲉ	-3072
▁ⲡϩⲏⲧ	-3073
▁ⲡⲣⲟⲥ	-3074
▁ⲧⲏⲣⲛ	-3075
ⲅⲉⲛⲟⲥ	-3076
ⲗⲏⲣⲟⲥ	-3077
ⲗⲱⲥⲓⲁ	-3078
ⲙⲉⲥⲧⲉ	-3079
ⲛⲁⲅⲕⲏ	-3080
ⲥⲙⲓⲛⲉ	-3081
ⲧⲁⲛⲁⲥ	-3082
ⲧⲃⲃⲏⲩ	-3083
▁ϩⲛⲧⲉⲥ	-3084
▁ⲉϥⲟⲩⲟ	-3085
▁ⲉⲟⲩⲱⲙ	-3086
▁ⲙⲛⲛⲉⲥ	-3087
▁ⲛϩⲟⲧⲉ	-3088
ⲕⲗⲟⲟⲗⲉ	-3089
ⲧⲥⲁⲃⲟⲓ	-3090
ϣⲁⲛϩⲧⲏϥ	-3091
▁ϫⲉⲛⲛⲉⲩ	-3092
▁ⲁϥⲧⲁⲁϥ	-3093
▁ⲁⲙⲁϩⲧⲉ	-3094
▁ⲁⲩⲧⲁⲁⲩ	-3095
▁ⲙⲙⲛⲧⲣⲉ	-3096
▁ⲛϭⲓⲛⲉϥ	-3097
▁ⲛⲁⲧⲁⲕⲟ	-3098
ⲟⲣⲫⲁⲛⲟⲥ	-3099
▁ϫⲉⲛⲧⲉⲧⲛ	-3100
▁ⲁⲃⲣⲁϩⲁⲙ	-3101
▁ⲁⲩⲙⲟⲩⲧⲉ	-3102
▁ⲁⲩⲟⲩⲱϣⲃ	-3103
▁ⲧⲉⲭⲁⲣⲓⲥ	-3104
ⲁⲅⲅⲉⲗⲓⲍⲉ	-3105
▁ⲙⲡⲉⲓϣⲁϫⲉ	-3106
▁ⲙⲡⲉⲧϩⲟⲟⲩ	-3107
▁ⲙⲡⲣⲣϩⲟⲧⲉ	-3108
▁ⲛϩⲣⲟⲩⲃⲏⲛ	-3109
▁ⲛⲧⲉⲣⲉϥⲉⲓ	-3110
▁ⲛⲧⲉⲣⲟⲩⲉⲓ	-3111
▁ⲛⲓⲱϩⲁⲛⲛⲏⲥ	-3112
▁ⲧⲉⲧⲛⲥⲟⲟⲩⲛ	-3113
▁ⲉⲕⲗⲏⲣⲟⲛⲟⲙⲉⲓ	-3114
ϣϥⲉ	-3115
ϣⲉⲡ	-3116
ϩⲱⲙ	-3117
ϯⲥⲟ	-3118
ⲉⲓⲣ	-3119
ⲟⲗϭ	-3120
ⲟⲣⲙ	-3121
ⲫⲓⲁ	-3122
ϣⲟⲩⲟ	-3123
ϩⲧⲏⲩ	-3124
▁ϩⲓⲉ	-3125
▁ⲉⲅⲁ	-3126
ⲃⲁⲥⲁ	-3127
ⲍⲱⲟⲛ	-3128
ⲕⲗⲟⲙ	-3129
ⲥⲧⲱⲧ	-3130
ⲧⲱⲱⲣ	-3131
▁ϣⲏⲣⲉ	-3132
▁ϩⲓⲡⲉ	-3133
▁ⲙⲡⲁⲣ	-3134
▁ⲛⲉⲙⲛ	-3135
▁ⲣⲁϣⲉ	-3136
▁ⲧϭⲓϫ	-3137
ⲟⲩⲟⲉⲓ	-3138
ⲧⲁⲫⲟⲥ	-3139
ⲭⲣⲏⲙⲁ	-3140
▁ϩⲓⲱⲟⲩ	-3141
▁ϫⲉⲛⲉⲩ	-3142
▁ⲉϣⲁϫⲉ	-3143
▁ⲉⲥϣⲁⲛ	-3144
▁ⲛϩⲏⲕⲉ	-3145
▁ⲛⲟⲩⲛⲁ	-3146
ⲣϩⲙϩⲁⲗ	-3147
ⲧⲁϩⲟⲟⲩ	-3148
ⲧⲁⲛⲟⲓⲁ	-3149
ϩⲓⲉⲣⲓⲭⲱ	-3150
ϭⲓⲃⲱⲧⲟⲥ	-3151
▁ϩⲛⲥⲓⲱⲛ	-3152
▁ϫⲉⲥⲱⲧⲙ	-3153
▁ⲁϥⲕⲁⲁϥ	-3154
▁ⲉⲡⲧⲏⲣϥ	-3155
▁ⲉⲣϣⲁⲛⲡ	-3156
▁ⲙⲛⲟⲩⲟⲛ	-3157
▁ⲙⲡⲥⲱⲙⲁ	-3158
▁ⲛⲛϩⲏⲕⲉ	-3159
▁ⲡⲉϫⲉⲓⲱ	-3160
▁ⲡⲉⲛⲧⲁⲩ	-3161
ⲕⲉⲛⲟⲩⲧⲉ	-3162
ⲧⲣⲁⲡⲉⲍⲁ	-3163
▁ϩⲙⲡⲁϩⲏⲧ	-3164
▁ⲁⲙⲱⲩⲥⲏⲥ	-3165
▁ⲁⲩⲙⲟⲟϣⲉ	-3166
▁ⲙⲛⲛⲣⲱⲙⲉ	-3167
▁ⲙⲡⲉⲥⲙⲟⲧ	-3168
▁ⲙⲡⲣⲧⲣⲉⲩ	-3169
▁ⲛϩⲉⲛⲛⲟϭ	-3170
▁ⲛϭⲓⲟⲩⲟⲛ	-3171
▁ⲛⲟⲩϩⲟⲟⲩ	-3172
ⲩⲥⲧⲏⲣⲓⲟⲛ	-3173
▁ϩⲛⲟⲩϩⲟⲟⲩ	-3174
▁ⲉⲣϣⲁⲛⲟⲩⲁ	-3175
▁ⲛϩⲉⲛϣⲁϫⲉ	-3176
▁ⲡⲇⲓⲕⲁⲓⲟⲥ	-3177
▁ⲉⲧϩⲛⲙⲡⲏⲩⲉ	-3178
▁ⲛⲛⲁⲥⲥⲩⲣⲓⲟⲥ	-3179
▁ⲙⲡⲉⲩⲁⲅⲅⲉⲗⲓⲟⲛ	-3180
ϣⲱⲙ	-3181
ϩⲣⲃ	-3182
ϩⲧⲟ	-3183
ϭⲥⲉ	-3184
ⲗⲁⲓ	-3185
ⲗⲟⲅ	-3186
ⲝⲓⲥ	-3187
ⲟϩⲉ	-3188
ⲣⲓⲧ	-3189
ϫⲣⲟⲡ	-3190
▁ⲉⲓⲁ	-3191
▁ⲛϩⲩ	-3192
▁ⲛⲟϭ	-3193
▁ⲛⲥⲩ	-3194
ⲁⲍⲁⲣ	-3195
ⲑⲁⲣⲁ	-3196
ⲗⲗⲟⲥ	-3197
ⲙⲛⲧⲥ	-3198
ⲥⲙⲟⲧ	-3199
ⲧⲙⲁⲓ	-3200
ϩⲁⲙⲏⲛ	-3201
▁ϥⲛⲁϯ	-3202
▁ⲙⲡⲕⲉ	-3203
▁ⲙⲧⲟⲛ	-3204
▁ⲛⲥⲉϯ	-3205
ⲗⲉⲩⲉⲓ	-3206
ⲙϩⲁⲁⲩ	-3207
▁ⲕⲁϩⲏⲩ	-3208
▁ⲛⲟⲩϭⲥ	-3209
ⲃⲟⲏⲑⲓⲁ	-3210
ⲧⲁⲑⲓⲟⲥ	-3211
▁ϩⲛⲡⲕⲁϩ	-3212
▁ϫⲉⲁⲙⲟⲩ	-3213
▁ⲛⲁⲧⲁⲁϥ	-3214
▁ⲛⲟⲩϫⲁⲓ	-3215
▁ⲛⲧⲟⲟⲧⲕ	-3216
▁ⲟⲩⲉⲃⲟⲗ	-3217
ⲛⲉϩⲃⲏⲩⲉ	-3218
ⲡⲉⲩⲟⲩⲟⲓ	-3219
▁ϩⲙⲡⲗⲁⲟⲥ	-3220
▁ⲉⲡⲉϩⲟⲩⲟ	-3221
▁ⲉⲩⲙⲟⲟϣⲉ	-3222
▁ⲛⲟⲩⲕⲱϩⲧ	-3223
▁ⲟⲩⲙⲏⲏϣⲉ	-3224
ⲭⲙⲁⲗⲱⲥⲓⲁ	-3225
▁ⲉⲛⲧⲁⲧⲉⲧⲛ	-3226
▁ⲙⲡⲁϫⲟⲉⲓⲥ	-3227
▁ⲛϫⲓⲛϭⲟⲛⲥ	-3228
▁ⲛⲛⲉⲧⲟⲩⲏϩ	-3229
▁ⲛⲧⲉⲣⲟⲩⲛⲁⲩ	-3230
▁ⲡⲉⲥⲩⲛⲑⲓⲟⲥ	-3231
▁ⲉⲣⲉⲡϩⲓⲉⲣⲉⲩⲥ	-3232
▁ⲛϩⲉⲛⲡⲉⲧϩⲟⲟⲩ	-3233
ⲩⲟ	-3234
ϩⲟⲡ	-3235
ϭⲟⲥ	-3236
ⲃⲉⲉ	-3237
ⲅⲟⲩ	-3238
ⲗⲟϥ	-3239
ⲛⲉⲣ	-3240
ϣⲱⲧⲉ	-3241
▁ⲉⲥⲟ	-3242
▁ⲉⲧϯ	-3243
▁ⲛⲅϯ	-3244
▁ⲛⲅⲣ	-3245
▁ⲛⲓⲁ	-3246
ⲅⲁⲗⲁ	-3247
ⲇⲉⲱⲛ	-3248
ⲇⲣⲁⲕ	-3249
ⲕⲧⲟⲓ	-3250
ⲙⲡⲉⲩ	-3251
ⲛⲏⲙⲁ	-3252
ⲛⲟⲉⲓ	-3253
ⲛⲟⲩⲁ	-3254
ϣⲟⲟⲩⲉ	-3255
ϭⲟⲣϭⲥ	-3256
▁ϥⲛⲁⲣ	-3257
▁ϥⲥⲏϩ	-3258
▁ϫⲉⲉⲣ	-3259
▁ϫⲓⲛⲁ	-3260
▁ⲛⲅⲁⲇ	-3261
▁ⲛⲙⲡⲁ	-3262
▁ⲛⲥⲁⲃ	-3263
ⲗⲁⲥⲥⲉ	-3264
ⲙⲉⲥⲧⲱ	-3265
ⲧⲏⲏⲃⲉ	-3266
▁ϩⲁⲣⲟⲓ	-3267
▁ϯⲛⲁⲕⲱ	-3268
▁ⲙⲟⲛⲟⲛ	-3269
▁ⲛⲓⲱⲁⲃ	-3270
▁ⲛⲛϭⲟⲙ	-3271
ⲉⲛⲧⲟⲗⲏ	-3272
ⲟⲩⲣⲱⲙⲉ	-3273
▁ϣⲁⲡⲛⲁⲩ	-3274
▁ϩⲓϫⲛⲧⲉ	-3275
▁ⲁϥⲕⲟⲧϥ	-3276
▁ⲉⲡⲉⲓⲇⲏ	-3277
▁ⲉⲧⲙⲧⲣⲉ	-3278
▁ⲙⲙⲏⲏϣⲉ	-3279
▁ⲙⲡⲉⲓⲱⲧ	-3280
ⲡⲉϥⲟⲩⲟⲓ	-3281
ⲡⲟⲛⲏⲣⲓⲁ	-3282
▁ϫⲉⲁⲧⲉⲧⲛ	-3283
▁ⲁϥⲟⲩⲱⲛϩ	-3284
▁ⲁϩⲉⲣⲁⲧϥ	-3285
▁ⲙⲡⲉⲛⲓⲡⲉ	-3286
▁ⲛⲛⲉϥϭⲓϫ	-3287
▁ⲡⲉⲛⲉⲓⲱⲧ	-3288
ⲇⲓⲁⲕⲟⲛⲉⲓ	-3289
ⲙⲙⲁⲑⲏⲧⲏⲥ	-3290
ⲡⲁⲣⲑⲉⲛⲟⲥ	-3291
▁ϩⲛⲧⲉϥϭⲓϫ	-3292
▁ϩⲛⲧⲉⲫⲩⲗⲏ	-3293
▁ⲙⲡⲉⲕⲗⲁⲟⲥ	-3294
▁ⲛⲛⲉϥⲙⲁⲑⲏⲧⲏⲥ	-3295
ⲓⲧ	-3296
ϩⲛⲉ	-3297
ϩⲣⲏ	-3298
ⲇⲓⲱ	-3299
ⲓϣⲉ	-3300
ⲝⲟⲙ	-3301
ⲟⲑⲉ	-3302
ⲟⲕϩ	-3303
ⲣⲉⲥ	-3304
ⲣⲱⲥ	-3305
ϣⲧⲁⲙ	-3306
ϣⲱⲣⲡ	-3307
▁ⲁⲕϯ	-3308
▁ⲉϩⲉ	-3309
▁ⲉⲁⲛ	-3310
▁ⲉⲕⲱ	-3311
▁ⲙⲉϩ	-3312
▁ⲙⲛⲉ	-3313
▁ⲛⲛⲟ	-3314
ⲉⲓⲧⲉ	-3315
ⲕⲁⲁⲕ	-3316
ⲗⲉⲩⲉ	-3317
ⲗⲏⲅⲏ	-3318
ⲙⲟⲩⲗ	-3319
ⲙⲣⲣⲉ	-3320
ⲟⲩⲱⲧ	-3321
ⲧⲣⲓⲁ	-3322
ⲧⲱⲃϩ	-3323
ϣⲟⲛⲧⲉ	-3324
ϩⲃⲟⲩⲣ	-3325
ϩⲏⲥⲓⲁ	-3326
▁ⲁⲛⲉⲓ	-3327
▁ⲙⲛϩⲛ	-3328
▁ⲙⲡⲁⲥ	-3329
▁ⲛϭⲓⲥ	-3330
▁ⲛⲣⲱϥ	-3331
▁ⲛⲥⲁⲣ	-3332
▁ⲛⲥⲱⲥ	-3333
▁ⲛⲧⲁⲥ	-3334
▁ⲡⲉⲧϯ	-3335
ⲡϣⲏⲣⲉ	-3336
ⲡⲗⲩⲅⲏ	-3337
ⲣⲁⲥⲓⲥ	-3338
ⲣⲏⲥⲓⲁ	-3339
ⲥⲩⲣⲓⲁ	-3340
ⲧⲁⲙⲟⲕ	-3341
ⲩⲥⲱⲧⲙ	-3342
▁ϩⲛⲛⲉⲥ	-3343
▁ϫⲉⲡⲉⲕ	-3344
▁ϯⲛⲁϫⲓ	-3345
▁ⲉϥⲟⲛϩ	-3346
▁ⲉⲛϣⲁⲛ	-3347
▁ⲉⲟⲩⲟⲛ	-3348
▁ⲉⲩⲛⲏⲩ	-3349
▁ⲉⲩⲛⲟϭ	-3350
▁ⲕⲉⲟⲩⲁ	-3351
▁ⲙⲡⲁⲣⲁ	-3352
▁ⲛⲟⲩϣⲏ	-3353
▁ⲛⲥⲁⲛⲉ	-3354
▁ⲧⲟⲟⲧϥ	-3355
ⲇⲣⲁⲕⲱⲛ	-3356
ⲓⲙⲟⲟϣⲉ	-3357
ⲕⲁⲡⲛⲟⲥ	-3358
ⲙⲡϣⲓⲛⲉ	-3359
ⲛⲟⲩⲏⲏⲃ	-3360
ⲟⲗⲟⲕⲁⲩ	-3361
ⲧⲁⲣⲭⲟⲥ	-3362
ϩⲓⲧⲟⲩⲱⲕ	-3363
▁ϫⲉⲛⲉⲣⲉ	-3364
▁ⲉⲣⲉⲧⲉϥ	-3365
▁ⲛⲟⲩⲣⲣⲟ	-3366
▁ⲛⲟⲩⲥⲟⲡ	-3367
▁ⲛⲟⲩⲱⲛⲉ	-3368
▁ⲛⲥⲁⲃⲟⲗ	-3369
ⲃⲁⲡⲧⲓⲍⲉ	-3370
ⲓⲕⲟⲥⲙⲟⲥ	-3371
ⲡⲟⲣⲛⲉⲓⲁ	-3372
ⲧⲥⲟⲩⲧⲱⲛ	-3373
ⲱϩⲁⲛⲛⲏⲥ	-3374
▁ⲉⲩⲉϣⲱⲡⲉ	-3375
▁ⲙⲡⲙⲏⲏϣⲉ	-3376
▁ⲛⲥⲉϣⲱⲡⲉ	-3377
▁ⲛⲭⲁⲛⲁⲁⲛ	-3378
▁ⲡⲉϥⲉⲓⲱⲧ	-3379
▁ⲡⲓⲥⲧⲉⲩⲉ	-3380
ⲇⲓⲁⲕⲟⲛⲓⲁ	-3381
ϩⲟⲙⲟⲗⲟⲅⲉⲓ	-3382
▁ⲛⲧⲁϥϫⲟⲟⲥ	-3383
▁ⲛⲛⲉⲡⲣⲟⲫⲏⲧⲏⲥ	-3384
ⲍⲏ	-3385
ⲡⲣ	-3386
ⲥϥ	-3387
ϣⲁⲕ	-3388
ϫⲏⲩ	-3389
▁ϫⲛ	-3390
ⲃⲉϥ	-3391
ⲃⲉⲗ	-3392
ⲃⲉⲣ	-3393
ⲕⲉⲧ	-3394
ⲟⲣϫ	-3395
ⲧⲙⲁ	-3396
ⲧⲛⲟ	-3397
ⲱⲣⲉ	-3398
ϩⲏⲃⲥ	-3399
▁ϩⲣⲁ	-3400
▁ⲉϩⲛ	-3401
▁ⲓⲱⲃ	-3402
▁ⲕⲓⲙ	-3403
▁ⲛⲥⲏ	-3404
▁ⲛⲥⲟ	-3405
▁ⲛⲧⲙ	-3406
▁ⲟⲛϩ	-3407
ⲁϣⲁⲓ	-3408
ⲃⲓⲏⲛ	-3409
ⲕⲟⲟⲩ	-3410
ⲗⲟⲩⲗ	-3411
ⲛϣⲟⲧ	-3412
ⲛⲟⲩϫ	-3413
ⲥⲱϣϥ	-3414
ⲧⲟⲙⲥ	-3415
ⲧⲥⲃⲱ	-3416
ⲧⲱϩⲥ	-3417
ⲩⲣⲟⲥ	-3418
ϩⲓⲕⲱⲛ	-3419
ϩⲧⲏⲧⲛ	-3420
▁ϩⲁⲧⲉ	-3421
▁ⲁⲙⲟⲩ	-3422
▁ⲁⲧⲉⲧ	-3423
▁ⲁⲩⲕⲁ	-3424
▁ⲁⲩⲕⲱ	-3425
▁ⲉϥⲉϯ	-3426
▁ⲙⲡⲥⲁ	-3427
▁ⲛⲁⲭⲓ	-3428
▁ⲛⲏⲟⲩ	-3429
▁ⲟⲉⲓⲕ	-3430
▁ⲟⲩⲙⲁ	-3431
▁ⲡⲉⲧⲓ	-3432
ⲑⲏⲥⲓⲥ	-3433
ⲕⲟⲛⲟⲙ	-3434
ⲕⲣⲙⲣⲙ	-3435
ⲙⲙⲟⲟⲩ	-3436
ⲡⲉⲓⲱⲧ	-3437
ⲥⲧⲟⲗⲏ	-3438
▁ϩⲛⲛⲉⲛ	-3439
▁ϫⲉⲟⲩⲁ	-3440
▁ⲙⲡϩⲁⲡ	-3441
▁ⲛϩⲟⲩⲛ	-3442
▁ⲡⲉϫⲉⲁ	-3443
ⲛⲉⲥⲟⲟⲩ	-3444
ⲧⲁⲙⲓⲟϥ	-3445
▁ϣⲧⲟⲣⲧⲣ	-3446
▁ϫⲉⲁⲛⲟⲛ	-3447
▁ⲉⲁⲧⲉⲧⲛ	-3448
▁ⲉⲛϣⲏⲣⲉ	-3449
▁ⲙⲡⲟⲉⲓⲕ	-3450
▁ⲛⲛⲧⲉⲧⲛ	-3451
▁ⲛⲥⲉⲛⲁϣ	-3452
▁ⲟⲩϣⲏⲣⲉ	-3453
▁ⲧⲉⲛⲧⲁⲥ	-3454
ⲡⲓⲑⲩⲙⲉⲓ	-3455
▁ϩⲓⲡϫⲁⲓⲉ	-3456
▁ϩⲙⲡϣⲁϫⲉ	-3457
▁ϩⲙⲡⲉⲣⲡⲉ	-3458
▁ϩⲙⲡⲕⲁⲕⲉ	-3459
▁ⲙⲡⲉϥⲣⲁⲛ	-3460
▁ⲛϯⲥⲟⲟⲩⲛ	-3461
▁ⲛⲉϩⲃⲏⲩⲉ	-3462
▁ⲛⲟⲩⲟⲉⲓⲛ	-3463
▁ⲁϥⲁⲙⲁϩⲧⲉ	-3464
▁ⲉⲡⲕⲟⲥⲙⲟⲥ	-3465
▁ⲙⲛⲙⲱⲩⲥⲏⲥ	-3466
▁ⲙⲡⲟⲛⲏⲣⲟⲥ	-3467
▁ⲛϩⲉⲛⲣⲱⲙⲉ	-3468
▁ⲛϭⲓⲫⲁⲣⲁⲱ	-3469
▁ⲛⲛⲉⲣⲣⲱⲟⲩ	-3470
▁ⲡⲉⲯⲁⲗⲙⲟⲥ	-3471
▁ϩⲙⲡⲕⲟⲥⲙⲟⲥ	-3472
▁ϫⲉⲁⲡⲛⲟⲩⲧⲉ	-3473
▁ⲛϭⲓⲡⲛⲟⲩⲧⲉ	-3474
▁..........	-3475
▁ⲛⲛⲣⲉϥⲣⲛⲟⲃⲉ	-3476
ⲣϩ	-3477
ϩⲱⲕ	-3478
▁ⲉⲉ	-3479
ⲗⲟⲩ	-3480
ⲙⲛⲁ	-3481
ⲙⲟⲛ	-3482
ⲛⲓⲁ	-3483
ⲡⲁϣ	-3484
ⲡⲁⲧ	-3485
ⲡⲟⲟ	-3486
ⲣⲱⲑ	-3487
ⲧⲏⲓ	-3488
ϩⲏⲧⲥ	-3489
ϭⲱⲧⲡ	-3490
▁ⲉⲓⲟ	-3491
▁ⲉⲧⲕ	-3492
▁ⲉⲧⲥ	-3493
▁ⲛϣⲓ	-3494
▁ⲱⲣⲕ	-3495
ⲙⲏⲥⲉ	-3496
ⲙⲗⲁϩ	-3497
ⲛⲓⲡⲉ	-3498
ⲟⲩⲉⲓ	-3499
ⲣⲟⲩⲃ	-3500
ⲥⲥⲁⲓ	-3501
ϣⲙⲟⲩⲛ	-3502
ϥⲉⲟⲟⲩ	-3503
ϩⲉⲣⲁⲧ	-3504
▁ϩⲁⲡⲉ	-3505
▁ϫⲉⲧⲛ	-3506
▁ⲉⲥⲛⲁ	-3507
▁ⲉⲧϫⲓ	-3508
▁ⲉⲧⲉⲡ	-3509
▁ⲙⲛϩⲉ	-3510
▁ⲙⲡϣⲁ	-3511
▁ⲡⲉⲧⲟ	-3512
▁ⲡⲱⲃϣ	-3513
ⲙⲉⲣⲟⲥ	-3514
ⲣⲉⲙⲏⲧ	-3515
ⲧⲁⲗⲁⲓ	-3516
▁ϩⲙⲡⲉⲥ	-3517
▁ϫⲉⲛⲧⲉ	-3518
▁ⲉⲛⲧⲁⲛ	-3519
▁ⲙⲡϩⲏⲧ	-3520
▁ⲛϩⲉⲛⲁ	-3521
▁ⲛⲙϩⲉⲛ	-3522
▁ⲡⲁⲣⲁⲛ	-3523
▁ⲡⲉⲧϫⲱ	-3524
ⲙⲟⲥⲩⲛⲏ	-3525
ⲟⲗⲟⲙⲱⲛ	-3526
ⲥⲟⲟⲩϩⲥ	-3527
ϩⲁⲣϣϩⲏⲧ	-3528
ϩⲟⲩⲉⲓⲧⲉ	-3529
▁ϩⲓϫⲛⲟⲩ	-3530
▁ϫⲉⲛⲧⲁⲓ	-3531
▁ⲁϥϣⲗⲏⲗ	-3532
▁ⲉϩⲁⲣⲉϩ	-3533
▁ⲉⲙⲟⲟϣⲉ	-3534
▁ⲉⲩϣⲁϫⲉ	-3535
▁ⲕⲁⲧⲁⲡⲉ	-3536
▁ⲛϣⲉⲉⲣⲉ	-3537
▁ⲛⲁϣⲏⲣⲉ	-3538
▁ⲛⲛⲉⲛⲧⲁ	-3539
▁ⲛⲛⲉⲧⲟⲩ	-3540
ⲟⲩⲥϩⲓⲙⲉ	-3541
ⲡⲉⲓϣⲁϫⲉ	-3542
ⲣⲧⲩⲣⲓⲟⲛ	-3543
ϩⲉⲃⲣⲁⲓⲟⲥ	-3544
▁ϩⲛⲙⲡⲏⲩⲉ	-3545
▁ϩⲛⲧⲥⲏϥⲉ	-3546
▁ϫⲉϩⲁⲙⲏⲛ	-3547
▁ⲉⲥⲉϣⲱⲡⲉ	-3548
▁ⲉⲧⲙⲟⲟϣⲉ	-3549
▁ⲙⲛⲧⲉⲩϣⲏ	-3550
▁ⲙⲡⲉⲥϩⲁⲓ	-3551
▁ⲙⲡⲓⲥⲧⲟⲥ	-3552
▁ⲛⲧⲉⲧⲛⲧⲙ	-3553
ⲕⲁⲑⲁⲣⲧⲟⲛ	-3554
▁ⲙⲙⲓⲛⲙⲙⲟϥ	-3555
▁ⲛϭⲓⲡⲣⲱⲙⲉ	-3556
▁ⲛⲧⲉⲧⲛⲃⲱⲕ	-3557
ⲟⲗⲟⲕⲁⲩⲧⲱⲙⲁ	-3558
▁ⲛⲁⲡⲟⲥⲧⲟⲗⲟⲥ	-3559
▁ⲉⲧⲡⲁⲣⲉⲙⲃⲟⲗⲏ	-3560
▁ⲕⲁⲧⲁⲛⲉⲩⲇⲏⲙⲟⲥ	-3561
▁ⲙⲛⲛⲉⲡⲣⲉⲥⲃⲩⲧⲉⲣⲟⲥ	-3562
ϫⲉⲕ	-3563
ϭⲏⲣ	-3564
▁ⲁϩ	-3565
▁ⲁⲗ	-3566
ⲑⲣⲁ	-3567
ⲡⲓⲉ	-3568
ⲧⲟⲣ	-3569
ⲧⲡⲉ	-3570
ϣⲟⲡⲧ	-3571
ϥⲓⲧϥ	-3572
ϩⲙⲉϥ	-3573
▁ⲁⲓⲁ	-3574
▁ⲉⲁⲓ	-3575
▁ⲙⲡⲛ	-3576
▁ⲛⲧⲱ	-3577
▁ⲡⲁⲣ	-3578
▁ⲧⲉⲛ	-3579
ⲃⲟⲉⲥ	-3580
ⲓⲕⲓⲁ	-3581
ⲟⲙⲡⲉ	-3582
ⲣⲁϩⲧ	-3583
ⲣⲱϣⲉ	-3584
ⲥⲁϩⲉ	-3585
ⲧⲁⲕⲉ	-3586
ⲩⲧⲟⲥ	-3587
ϩⲧⲱⲱⲣ	-3588
ϫⲓϭⲟⲗ	-3589
▁ϩⲁⲟⲩ	-3590
▁ϫⲉⲛϯ	-3591
▁ⲁϥⲱϣ	-3592
▁ⲁϩⲉⲛ	-3593
▁ⲉϥϩⲛ	-3594
▁ⲉⲛⲓⲙ	-3595
▁ⲉⲣϣⲁ	-3596
▁ⲙⲡⲱⲧ	-3597
▁ⲛϩⲣⲁ	-3598
ⲙⲏⲏⲧⲉ	-3599
ⲛⲟⲩϥⲉ	-3600
ⲡⲁⲣⲁⲅ	-3601
ⲡⲗⲁⲟⲥ	-3602
ⲥⲟⲟⲩϩ	-3603
ⲥⲟⲧⲡϥ	-3604
ⲧⲏⲅⲟⲣ	-3605
▁ϣⲁⲛⲧⲓ	-3606
▁ⲉⲛⲉⲧⲛ	-3607
▁ⲉⲣⲱⲙⲉ	-3608
▁ⲙⲫⲩⲗⲏ	-3609
▁ⲛⲉⲧϩⲛ	-3610
▁ⲥⲉⲛⲏⲩ	-3611
ⲛⲉⲕⲃⲁⲗ	-3612
ⲛⲟⲩϫⲁⲓ	-3613
ⲧⲁⲩⲣⲟⲥ	-3614
ⲧⲟⲩⲛⲉⲥ	-3615
▁ϩⲙⲡⲉⲧⲛ	-3616
▁ⲉⲧⲃⲉⲛⲉ	-3617
▁ⲕⲥⲟⲟⲩⲛ	-3618
▁ⲙⲡⲉⲕϩⲟ	-3619
▁ⲙⲡⲟⲩϩⲉ	-3620
▁ⲡⲉϥⲥⲟⲛ	-3621
▁ⲡⲉⲧⲛⲏⲩ	-3622
▁ⲧⲁⲅⲁⲡⲏ	-3623
▁ⲧⲛⲛⲟⲟⲩ	-3624
ⲟⲓⲕⲟⲛⲟⲙ	-3625
ⲡⲓⲥⲧⲟⲗⲏ	-3626
ⲥⲁⲙⲁⲣⲓⲁ	-3627
▁ϩⲛⲟⲩⲙⲟⲩ	-3628
▁ϫⲉⲛⲣⲱⲙⲉ	-3629
▁ⲁϥⲁⲣⲭⲉⲓ	-3630
▁ⲁϥⲟⲩⲱϣⲧ	-3631
▁ⲉϥϣⲁⲛⲉⲓ	-3632
▁ⲉⲓⲏⲥⲟⲩⲥ	-3633
▁ⲙⲡϫⲱⲱⲙⲉ	-3634
▁ⲙⲡⲉⲥⲛⲟϥ	-3635
ⲛⲁⲥⲧⲁⲥⲓⲥ	-3636
▁ϩⲛⲟⲩⲙⲟⲟⲩ	-3637
▁ⲁⲩⲣϣⲡⲏⲣⲉ	-3638
▁ⲙⲙⲁⲇⲓϩⲁⲙ	-3639
▁ⲛⲛⲉϥϣⲏⲣⲉ	-3640
▁ⲛⲧⲉⲥϩⲓⲙⲉ	-3641
▁ϫⲉⲡⲁϫⲟⲉⲓⲥ	-3642
▁ⲙⲡⲉⲛⲛⲟⲩⲧⲉ	-3643
▁ⲛⲧⲉⲧⲛϣⲱⲡⲉ	-3644
▁ⲛϭⲓⲛⲓⲟⲩⲇⲁⲓ	-3645
▁ⲉϩⲉⲛⲡⲉⲧϩⲟⲟⲩ	-3646
▁ⲟⲩⲡⲉⲧϣⲟⲩⲉⲓⲧ	-3647
▁ⲛⲛⲁϩⲣⲙⲡⲛⲟⲩⲧⲉ	-3648
ⲁⲙ	-3649
ⲉϣ	-3650
ϩⲱⲗ	-3651
ϫⲁϥ	-3652
ⲁⲃⲏ	-3653
ⲇⲓⲥ	-3654
ⲛⲧⲱ	-3655
ⲟⲣⲁ	-3656
ⲡⲟⲛ	-3657
ⲡⲟⲧ	-3658
ⲥⲙⲛ	-3659
ⲥⲭⲏ	-3660
ⲭⲓⲁ	-3661
▁ⲙⲁⲗ	-3662
▁ⲛⲏⲓ	-3663
▁ⲡⲥⲁ	-3664
▁ⲧⲃⲃ	-3665
ⲃⲣⲣⲉ	-3666
ⲉⲛⲉϩ	-3667
ⲙⲉⲱⲛ	-3668
ⲛⲟⲩϩ	-3669
ⲟⲙⲧⲉ	-3670
ⲡⲓⲧⲉ	-3671
ⲡⲱϣⲥ	-3672
ⲧⲁⲓⲟ	-3673
ⲫⲑⲁⲉ	-3674
▁ϯⲛⲏⲩ	-3675
▁ⲁϥⲕⲁ	-3676
▁ⲉⲡⲉⲛ	-3677
▁ⲉⲡⲥⲁ	-3678
▁ⲛⲅⲉⲓ	-3679
▁ⲛⲉⲓⲉ	-3680
▁ⲛⲉⲙⲁ	-3681
▁ⲛⲟⲩϣ	-3682
▁ⲧⲉⲛⲁ	-3683
ⲣϩⲟⲩⲟ	-3684
ⲥⲟⲩⲧⲛ	-3685
ⲧⲁⲅⲙⲁ	-3686
ⲧⲟⲟⲧϥ	-3687
ⲭⲓⲗⲓⲁ	-3688
ϣⲉⲟⲉⲓϣ	-3689
▁ϩⲓⲧⲟⲩ	-3690
▁ϩⲛⲣⲱϥ	-3691
▁ϫⲉⲁⲙⲏ	-3692
▁ⲁⲁⲣⲱⲛ	-3693
▁ⲉⲉⲓⲙⲉ	-3694
▁ⲉⲛϭⲓϫ	-3695
▁ⲙⲏⲡⲱⲥ	-3696
▁ⲙⲛⲧⲣⲉ	-3697
▁ⲛϩⲏⲧⲉ	-3698
▁ⲛⲃⲗⲗⲉ	-3699
▁ⲛⲕⲁⲕⲉ	-3700
▁ⲛⲕⲛⲧⲉ	-3701
▁ⲛⲥⲱⲧⲛ	-3702
▁ⲟⲩⲁⲁϥ	-3703
▁ⲟⲩⲁⲁⲃ	-3704
▁ⲡⲉⲃⲟⲗ	-3705
▁ⲡⲙⲟⲟⲩ	-3706
ⲉⲛⲕⲟⲧⲕ	-3707
ⲡⲉⲧⲣⲟⲥ	-3708
ⲡⲗⲁⲥⲥⲉ	-3709
ⲥⲧⲩⲗⲟⲥ	-3710
ⲫⲣⲁⲅⲓⲥ	-3711
ϩⲟⲣⲁⲥⲓⲥ	-3712
▁ϩⲛⲧⲙⲛⲧ	-3713
▁ⲙⲁⲩⲁⲁⲧ	-3714
▁ⲛϩⲟⲙⲛⲧ	-3715
▁ⲛϩⲟⲟⲩⲧ	-3716
▁ⲛⲁⲛⲟⲩⲥ	-3717
▁ⲛⲕⲉⲥⲟⲡ	-3718
▁ⲛⲛⲟⲉⲓⲕ	-3719
▁ⲛⲣⲙⲙⲁⲟ	-3720
▁ⲛⲥⲟⲫⲟⲥ	-3721
▁ⲛⲧⲁⲓⲉⲓ	-3722
▁ⲛⲧⲥⲏϥⲉ	-3723
▁ⲧⲥⲟⲫⲓⲁ	-3724
ⲡⲟⲛⲏⲣⲟⲛ	-3725
▁ϩⲁⲧⲉϥϩⲏ	-3726
▁ⲙⲡⲁⲩⲗⲟⲥ	-3727
▁ⲙⲡⲉϥⲥⲟⲛ	-3728
▁ⲛⲁⲅⲁⲑⲟⲛ	-3729
▁ⲛⲉϥϣⲟⲟⲡ	-3730
▁ⲛⲧⲉϥϭⲟⲙ	-3731
▁ⲡⲕⲟⲥⲙⲟⲥ	-3732
ⲙⲛⲧⲁⲧϩⲏⲧ	-3733
ϩⲩⲡⲟⲙⲉⲓⲛⲉ	-3734
▁ϩⲙⲡⲉⲥⲛⲟϥ	-3735
▁ⲁⲩϣⲧⲟⲣⲧⲣ	-3736
▁ⲙⲙⲁⲑⲏⲧⲏⲥ	-3737
▁ⲙⲡⲁⲥⲉⲃⲏⲥ	-3738
▁ⲙⲡⲟⲩⲟⲉⲓⲛ	-3739
▁ⲛⲧⲉϥⲙⲁⲁⲩ	-3740
▁ⲛⲧⲉϥⲟⲣⲅⲏ	-3741
▁ⲛⲧⲉⲡϩⲩⲗⲏ	-3742
▁ⲟⲩⲡⲛⲉⲩⲙⲁ	-3743
▁ⲡⲉϫⲉⲡⲣⲣⲟ	-3744
▁ⲡⲉⲛϫⲟⲉⲓⲥ	-3745
▁ⲧⲉϥⲥϩⲓⲙⲉ	-3746
ⲭⲓⲗⲓⲁⲣⲭⲟⲥ	-3747
▁ⲙⲡⲇⲓⲕⲁⲓⲟⲥ	-3748
▁ⲙⲡⲉⲕϩⲙϩⲁⲗ	-3749
▁ⲛⲥⲁⲡϫⲟⲉⲓⲥ	-3750
▁ⲁⲩϯⲡⲉⲩⲟⲩⲟⲓ	-3751
▁ⲛⲟⲩⲇⲓⲁⲑⲏⲕⲏ	-3752
▁ⲙⲡⲙⲁⲣⲧⲩⲣⲓⲟⲛ	-3753
ⲃⲗ	-3754
ⲗϫ	-3755
ϭⲁⲓ	-3756
▁ⲅⲉ	-3757
▁ⲥⲓ	-3758
ⲁⲣⲓ	-3759
ⲕⲓⲛ	-3760
ⲗⲓⲙ	-3761
ⲛⲓⲙ	-3762
ⲣⲩⲥ	-3763
ⲥⲟⲥ	-3764
ⲥⲱⲣ	-3765
ⲧϥⲓ	-3766
ⲧⲃⲁ	-3767
ⲧⲱϩ	-3768
ⲫⲣⲟ	-3769
ⲭⲓⲥ	-3770
ϩⲣⲁⲕ	-3771
ϭⲣⲱϩ	-3772
ϯⲧⲱⲛ	-3773
▁ⲉϥⲓ	-3774
▁ⲡⲣⲏ	-3775
ⲅⲓⲟⲥ	-3776
ⲉⲓⲇⲱ	-3777
ⲗⲓⲍⲉ	-3778
ⲗⲟⲟⲩ	-3779
ⲙⲛⲱⲛ	-3780
ⲛⲟⲩⲱ	-3781
ⲟⲗⲥⲗ	-3782
ⲟⲟⲩⲛ	-3783
ⲟⲩⲏⲩ	-3784
ⲣⲁⲧⲥ	-3785
ⲣⲃⲟⲗ	-3786
ⲥⲉⲛⲁ	-3787
ⲧⲓⲙⲁ	-3788
ⲧⲱϩⲙ	-3789
ⲧⲱⲗⲙ	-3790
ϩⲁⲧⲏⲩ	-3791
▁ϣⲁⲟⲩ	-3792
▁ϫⲉⲛⲅ	-3793
▁ⲁⲥϫⲓ	-3794
▁ⲉϥⲕⲏ	-3795
▁ⲛⲥⲁϥ	-3796
▁ⲛⲧⲟϣ	-3797
▁ⲡⲱⲛϩ	-3798
ⲑⲉⲧⲉⲓ	-3799
ⲛⲁⲇⲁⲃ	-3800
ⲛⲟⲩⲱϩ	-3801
ⲧⲁϩⲟϥ	-3802
ⲧⲟⲩϫⲉ	-3803
ⲫⲏⲧⲏⲥ	-3804
ϩⲉⲃⲱⲱⲛ	-3805
ϩⲟⲩⲟⲣⲧ	-3806
ϩⲥⲁϩⲛⲉ	-3807
▁ϥⲛⲁϫⲓ	-3808
▁ϩⲁⲛⲉϥ	-3809
▁ϩⲙϩⲁⲗ	-3810
▁ϯϣⲟⲟⲡ	-3811
▁ϯⲛⲁϫⲱ	-3812
▁ⲁⲓⲃⲱⲕ	-3813
▁ⲉϩⲣⲁϥ	-3814
▁ⲉⲡⲣⲣⲟ	-3815
▁ⲕⲁⲧⲁⲧ	-3816
▁ⲛⲧⲁⲩⲥ	-3817
▁ⲛⲧⲉⲡⲉ	-3818
▁ⲛⲧⲉⲣⲛ	-3819
▁ⲥⲉⲛⲁⲣ	-3820
▁ⲧϩⲓⲙⲉ	-3821
ⲉⲓⲟⲟⲩⲉ	-3822
ⲏⲗⲩⲧⲟⲥ	-3823
ⲙⲁⲣⲣⲟⲥ	-3824
ⲙⲁⲥⲕⲟⲥ	-3825
ⲙⲉⲗⲉⲧⲁ	-3826
ⲙⲟⲕⲙⲉⲕ	-3827
ⲧⲁⲛϩⲟⲩ	-3828
ⲭⲁⲣⲓⲍⲉ	-3829
▁ϩⲁϩⲧⲏϥ	-3830
▁ϩⲓϫⲱⲟⲩ	-3831
▁ϩⲙⲡⲧⲣⲁ	-3832
▁ϫⲉϩⲣⲁⲓ	-3833
▁ϫⲉⲛϯⲛⲁ	-3834
▁ϫⲉⲛⲧⲁϥ	-3835
▁ⲁϥⲣⲓⲙⲉ	-3836
▁ⲁϥⲧⲁⲁⲩ	-3837
▁ⲁϥⲧⲣⲉⲩ	-3838
▁ⲉϥⲛⲁϣⲧ	-3839
▁ⲉⲣⲉϩⲉⲛ	-3840
▁ⲛϫⲟⲉⲓⲥ	-3841
▁ⲛⲧⲟⲟⲧⲥ	-3842
▁ⲛⲧⲥⲁⲣⲝ	-3843
ⲉⲓⲇⲱⲗⲟⲛ	-3844
ⲛⲧⲟⲩⲉⲓⲏ	-3845
ⲧⲁⲙⲓⲟⲟⲩ	-3846
ⲧⲉⲕⲯⲩⲭⲏ	-3847
▁ϩⲛⲟⲩϩⲁⲡ	-3848
▁ϩⲛⲟⲩϭⲟⲙ	-3849
▁ϩⲛⲟⲩⲱⲣϫ	-3850
▁ϫⲉⲡⲉⲧⲛⲁ	-3851
▁ϯⲛⲁⲉⲓⲛⲉ	-3852
▁ⲁⲩⲟⲩⲱϣⲧ	-3853
▁ⲁⲩⲣϩⲟⲧⲉ	-3854
▁ⲕⲁⲧⲁⲡⲉϥ	-3855
▁ⲙⲡⲉⲕⲥⲟⲛ	-3856
▁ⲛⲉⲩϣⲟⲟⲡ	-3857
▁ⲛⲛⲉⲥⲛⲏⲩ	-3858
▁ⲛⲛⲉⲩϭⲓϫ	-3859
▁ⲛⲥⲉϫⲟⲟⲥ	-3860
▁ⲡⲉⲧⲟⲩⲏϩ	-3861
▁ϫⲉⲡⲁⲉⲓⲱⲧ	-3862
▁ⲙⲁⲧⲟⲩϫⲟⲓ	-3863
▁ⲛⲣⲉϥⲙⲓϣⲉ	-3864
▁ⲛⲧⲉⲧⲛⲛⲁⲩ	-3865
ⲉⲓⲱϩⲁⲛⲛⲏⲥ	-3866
ⲝⲟⲙⲟⲗⲟⲅⲉⲓ	-3867
ⲭⲉⲓⲙⲁⲣⲣⲟⲥ	-3868
▁.........	-3869
▁ⲉⲛⲧⲁϥϫⲟⲟⲥ	-3870
▁ⲛⲁⲃⲏⲥⲁⲗⲱⲙ	-3871
▁ⲛⲛⲉⲛⲉⲓⲟⲧⲉ	-3872
▁ⲙⲡⲥⲁⲃⲃⲁⲧⲟⲛ	-3873
▁ⲛⲧⲉⲣⲉϥⲥⲱⲧⲙ	-3874
▁ⲛⲛⲉⲭⲁⲗⲇⲁⲓⲟⲥ	-3875
▁ⲛⲧⲟⲓⲕⲟⲩⲙⲉⲛⲏ	-3876
▁ⲛⲧⲡⲁⲣⲉⲙⲃⲟⲗⲏ	-3877
▁ⲡⲉϫⲉⲥⲁⲙⲟⲩⲏⲗ	-3878
ⲡⲕ	-3879
ϩⲏⲗ	-3880
ϩⲛⲧ	-3881
▁ϥⲟ	-3882
▁ϩⲩ	-3883
▁ⲛϫ	-3884
ⲁⲓⲥ	-3885
ⲁⲣⲏ	-3886
ⲗⲏⲧ	-3887
ⲗⲥⲱ	-3888
ⲛⲏⲃ	-3889
ⲟⲩⲭ	-3890
ⲧⲁϥ	-3891
ϣⲣϣⲱ	-3892
ϩⲓϫⲛ	-3893
ϭⲣⲟϭ	-3894
▁ϩⲛⲉ	-3895
▁ϯⲟⲩ	-3896
▁ⲁⲩⲉ	-3897
▁ⲉⲕⲟ	-3898
▁ⲏⲟⲩ	-3899
▁ⲛⲃⲗ	-3900
▁ⲧⲙⲉ	-3901
ⲃⲁⲱⲛ	-3902
ⲃⲏⲙⲁ	-3903
ⲅⲓⲍⲉ	-3904
ⲉⲓⲁⲥ	-3905
ⲝⲁⲛⲉ	-3906
ⲣⲓⲁⲥ	-3907
ⲥⲟⲃⲕ	-3908
ϣⲁⲛⲧⲁ	-3909
ϣⲁⲛⲧⲙ	-3910
ϥⲓⲧⲟⲩ	-3911
ϫⲓⲥⲃⲱ	-3912
ϫⲛⲁⲁⲩ	-3913
▁ϩⲓⲥⲉ	-3914
▁ϯⲛⲁⲣ	-3915
▁ⲉϥϫⲓ	-3916
▁ⲉϥⲟϣ	-3917
▁ⲉⲙⲡϥ	-3918
▁ⲉⲡⲟⲩ	-3919
▁ⲉⲧⲙⲉ	-3920
▁ⲉⲧⲱⲛ	-3921
▁ⲉⲩⲕⲏ	-3922
▁ⲙⲡⲉⲡ	-3923
▁ⲛϩⲁⲉ	-3924
▁ⲛϭⲱⲃ	-3925
▁ⲛⲛⲕⲁ	-3926
▁ⲟⲩⲱⲛ	-3927
▁ⲧⲛⲁⲩ	-3928
ⲇⲱⲗⲟⲛ	-3929
ⲕⲁⲧⲟⲛ	-3930
ⲗⲟⲅⲭⲏ	-3931
ⲙⲁⲓⲟⲥ	-3932
ⲙⲡⲩⲗⲏ	-3933
ⲛⲧⲏⲧⲛ	-3934
ⲟⲩⲱⲗⲥ	-3935
ⲥⲁⲛⲟⲩ	-3936
ⲧⲁⲗⲟϥ	-3937
ⲧⲥⲁⲃⲉ	-3938
ϣⲟⲩⲱⲟⲩ	-3939
▁ⲁⲡⲕⲁϩ	-3940
▁ⲉⲣⲉⲧⲉ	-3941
▁ⲉⲧⲁⲁϥ	-3942
▁ⲙⲡⲣⲟⲩ	-3943
▁ⲡⲇⲟⲩⲝ	-3944
ⲃⲟⲩⲛⲟⲥ	-3945
ⲇⲉⲕⲓⲁⲥ	-3946
ⲡⲁⲧⲣⲓⲁ	-3947
ⲡⲉⲩϩⲏⲧ	-3948
ⲣⲟⲕϩⲟⲩ	-3949
▁ϣⲁⲧⲛⲁⲩ	-3950
▁ϩⲛⲧⲙⲉϩ	-3951
▁ϫⲉⲉϥⲛⲁ	-3952
▁ϫⲉⲛⲧϩⲉ	-3953
▁ϫⲉⲡⲥⲁϩ	-3954
▁ϯⲛⲁⲃⲱⲕ	-3955
▁ⲁϥⲟⲩⲱⲙ	-3956
▁ⲁⲙⲏⲓⲧⲛ	-3957
▁ⲁⲩⲕⲱⲧⲉ	-3958
▁ⲉϥϫⲁϩⲙ	-3959
▁ⲉⲃⲟⲗϩⲙ	-3960
▁ⲉⲡϣⲏⲣⲉ	-3961
▁ⲉⲣⲉⲛⲉⲩ	-3962
▁ⲉⲧⲉⲣⲉⲡ	-3963
▁ⲙⲙⲉⲉⲣⲉ	-3964
▁ⲙⲡⲟⲩⲱϣ	-3965
▁ⲛⲉϩⲟⲟⲩ	-3966
▁ⲛⲥⲁϩⲉⲛ	-3967
▁ⲡⲁⲗⲁⲟⲥ	-3968
▁ⲡⲉϥⲣⲁⲛ	-3969
▁ⲡⲉⲛⲧⲁⲕ	-3970
▁ⲥⲉⲛⲁϫⲓ	-3971
▁ⲧⲉⲫⲩⲗⲏ	-3972
ⲙⲙⲱⲩⲥⲏⲥ	-3973
ⲥⲁⲗⲡⲓⲅⲝ	-3974
ⲥⲁⲗⲡⲓⲍⲉ	-3975
ⲧⲟⲩⲛⲟⲥϥ	-3976
▁ϩⲙⲡⲉϥⲏⲓ	-3977
▁ⲉⲛⲁϣⲁϫⲉ	-3978
▁ⲉⲡⲉϩⲟⲟⲩ	-3979
▁ⲙⲡⲉϥϩⲏⲧ	-3980
▁ⲙⲡⲉⲕϩⲏⲧ	-3981
▁ⲙⲡⲣϫⲟⲟⲥ	-3982
▁ⲛⲁⲓⲁⲧⲟⲩ	-3983
▁ⲛⲧⲉⲧⲛϫⲓ	-3984
ⲁⲃⲏⲥⲁⲗⲱⲙ	-3985
ⲛⲟⲩⲉⲣⲏⲧⲉ	-3986
▁ϩⲓϫⲛⲡⲕⲁϩ	-3987
▁ϩⲛⲧⲉⲟⲩϣⲏ	-3988
▁ⲉⲛⲉϩⲃⲏⲩⲉ	-3989
▁ⲛⲓⲱⲛⲁⲑⲁⲛ	-3990
▁ⲛⲛⲉⲩϣⲏⲣⲉ	-3991
▁ⲛⲟⲩⲑⲩⲥⲓⲁ	-3992
▁ⲡⲉⲧⲙⲟⲟϣⲉ	-3993
▁ⲉⲧⲛⲁⲛⲟⲩⲟⲩ	-3994
▁ⲉⲧⲣⲉϥϣⲱⲡⲉ	-3995
▁ⲙⲛⲧⲥⲛⲟⲟⲩⲥ	-3996
▁ⲙⲡⲁⲅⲅⲉⲗⲟⲥ	-3997
▁ⲛⲛⲉⲧⲙⲟⲟⲩⲧ	-3998
ⲡⲣⲟⲥⲏⲗⲩⲧⲟⲥ	-3999
▁ϩⲛⲟⲩⲡⲓⲥⲧⲓⲥ	-4000
▁ⲛⲧⲕⲟⲓⲃⲱⲧⲟⲥ	-4001
ⲕⲁⲧⲟⲛⲧⲁⲣⲭⲟⲥ	-4002
▁ⲙⲡⲉⲧϩⲓⲧⲟⲩⲱϥ	-4003
▁ϩⲛⲟⲩⲇⲓⲕⲁⲓⲟⲥⲩⲛⲏ	-4004
▁ⲙⲫ	-4005
ⲗⲱⲙ	-4006
ⲛⲕⲁ	-4007
ⲣⲏⲛ	-4008
ⲥⲏϭ	-4009
ϣⲟⲡϥ	-4010
▁ⲉⲩϯ	-4011
▁ⲥⲃⲱ	-4012
ⲁⲓⲁⲓ	-4013
ⲉⲓⲏⲩ	-4014
ⲕⲓⲃⲉ	-4015
ⲗⲁⲙⲡ	-4016
ⲙⲉϣⲧ	-4017
ⲙⲟⲣϥ	-4018
ⲙⲟⲩⲣ	-4019
ⲙⲡⲉⲓ	-4020
ⲟⲇⲟⲗ	-4021
ⲧⲁϣⲟ	-4022
ⲧⲁⲙⲉ	-4023
ⲩⲥⲓⲥ	-4024
ϣⲟⲡⲟⲩ	-4025
ϩⲓⲛⲏⲃ	-4026
▁ϩⲏⲧⲥ	-4027
▁ϩⲛⲕⲁ	-4028
▁ϫⲟⲟϥ	-4029
▁ⲉϫⲉⲛ	-4030
▁ⲕⲱⲧⲉ	-4031
▁ⲙⲡϩⲟ	-4032
▁ⲛⲁⲣⲁ	-4033
▁ⲛⲥⲁⲧ	-4034
▁ⲡⲙⲟⲩ	-4035
▁ⲥϩⲁⲓ	-4036
ⲑⲁⲙⲁⲣ	-4037
ⲗⲁⲁⲧⲉ	-4038
ⲗⲁⲧⲏⲥ	-4039
ⲛⲟϥⲣⲉ	-4040
ⲡⲁⲣⲭⲏ	-4041
ϫⲓϫⲉⲟⲩ	-4042
▁ϩⲛⲧⲉⲓ	-4043
▁ϫⲉⲛⲛⲁ	-4044
▁ⲉⲛϥⲛⲁ	-4045
▁ⲉⲛⲉⲣⲉ	-4046
▁ⲉⲩⲛⲁⲣ	-4047
▁ⲙⲛⲡⲉⲥ	-4048
▁ⲛⲁⲃⲱⲕ	-4049
▁ⲛⲛⲉⲕⲉ	-4050
▁ⲛⲥⲉⲉⲓ	-4051
▁ⲡⲛⲟⲃⲉ	-4052
▁ⲥⲉⲛⲁϯ	-4053
ⲓⲉⲣⲱⲟⲩ	-4054
ⲗⲟⲩⲗⲁⲓ	-4055
ⲛⲉϩⲟⲟⲩ	-4056
ⲡⲁⲣⲁⲃⲁ	-4057
ⲥⲟⲩⲱⲛϥ	-4058
ⲩⲫⲣⲁⲛⲉ	-4059
ⲫⲣⲟⲛⲉⲓ	-4060
ϭⲙⲡϣⲓⲛⲉ	-4061
▁ϣⲁⲛⲧⲉϥ	-4062
▁ϩⲓⲧⲛⲛⲉ	-4063
▁ϫⲉⲉⲓⲛⲁ	-4064
▁ⲁϥⲧⲁⲙⲓ	-4065
▁ⲁⲓϣⲱⲡⲉ	-4066
▁ⲁⲓⲉⲓⲙⲉ	-4067
▁ⲉϫⲙⲡⲉⲕ	-4068
▁ⲉϫⲛϩⲉⲛ	-4069
▁ⲉⲁⲙⲛⲧⲉ	-4070
▁ⲉⲡⲉⲕⲣⲟ	-4071
▁ⲉⲧⲉⲧⲛⲟ	-4072
▁ⲉⲧⲕⲱⲧⲉ	-4073
▁ⲉⲩϣⲟⲟⲡ	-4074
▁ⲙⲡⲓⲉⲣⲟ	-4075
▁ⲛϣⲡⲏⲣⲉ	-4076
▁ⲛⲅⲥⲱⲧⲙ	-4077
▁ⲛⲗⲉⲩⲉⲓ	-4078
▁ⲛⲧⲁϥⲉⲓ	-4079
▁ⲟⲩⲕⲟⲩⲓ	-4080
▁ⲡⲁⲣⲭⲱⲛ	-4081
ⲧⲛⲛⲟⲟⲩⲧ	-4082
ϣⲁⲩⲙⲟⲩⲧⲉ	-4083
▁ⲁⲩϩⲙⲟⲟⲥ	-4084
▁ⲉϫⲛⲧⲁⲡⲉ	-4085
▁ⲉⲣⲉϣⲁⲛⲧ	-4086
▁ⲙⲛⲛⲉⲩⲕⲉ	-4087
▁ⲙⲡⲡⲁⲥⲭⲁ	-4088
▁ⲛⲁⲅⲁⲑⲟⲥ	-4089
▁ⲛⲁⲥⲉⲃⲏⲥ	-4090
▁ⲛⲙⲡⲟⲗⲓⲥ	-4091
▁ⲛⲛⲉⲥⲟⲟⲩ	-4092
▁ⲛⲟⲩⲗⲁⲟⲥ	-4093
▁ⲛⲧⲉⲕϭⲓϫ	-4094
ⲇⲁⲙⲁⲥⲕⲟⲥ	-4095
ⲇⲓⲁⲕⲟⲛⲟⲥ	-4096
ⲓⲟⲣⲇⲁⲛⲏⲥ	-4097
ⲕⲁⲑⲁⲣⲥⲓⲁ	-4098
ⲕⲁⲛⲇⲁⲗⲟⲛ	-4099
ⲡⲁⲣϩⲏⲥⲓⲁ	-4100
ⲡⲓⲥⲕⲟⲡⲟⲥ	-4101
▁ϩⲛⲟⲩⲕⲱϩⲧ	-4102
▁ϩⲛⲧⲉⲩⲛⲟⲩ	-4103
▁ϩⲛⲧⲧⲁⲡⲣⲟ	-4104
▁ⲉϥⲛⲁϣⲱⲡⲉ	-4105
▁ⲉⲑⲁⲗⲁⲥⲥⲁ	-4106
▁ⲉⲧⲉⲣⲏⲙⲟⲥ	-4107
ⲙⲩⲥⲧⲏⲣⲓⲟⲛ	-4108
▁ⲙⲛⲛⲉⲧⲟⲩⲏϩ	-4109
▁ⲛⲙⲡⲉⲧϩⲟⲟⲩ	-4110
▁ⲛⲛⲉϥϩⲟⲓⲧⲉ	-4111
▁ⲛⲛⲉⲩⲉⲓⲟⲧⲉ	-4112
▁ⲛⲟⲩⲉⲓⲣⲏⲛⲏ	-4113
▁ⲡⲉⲧⲛⲁϣⲱⲡⲉ	-4114
▁ϩⲙⲡⲡⲟⲗⲉⲙⲟⲥ	-4115
▁ⲡⲉⲛⲧⲁϥϣⲱⲡⲉ	-4116
▁ⲙⲡⲡⲉⲧⲛⲁⲛⲟⲩϥ	-4117
▁ⲓ	-4118
ϣⲏⲡ	-4119
ϣⲱⲧ	-4120
ϩⲉⲧ	-4121
ⲁⲓⲑ	-4122
ⲕⲟϥ	-4123
ⲗϭⲉ	-4124
ⲛⲛⲉ	-4125
ⲛⲧⲛ	-4126
ⲟⲃϣ	-4127
ⲧⲣⲟ	-4128
ⲧⲱⲙ	-4129
ϣⲟⲃⲉ	-4130
ϩⲣⲟⲩ	-4131
ϩⲧⲏⲓ	-4132
ϫⲉⲣⲟ	-4133
▁ⲁⲛⲣ	-4134
▁ⲕⲧⲟ	-4135
▁ⲛⲁⲉ	-4136
ⲁⲓⲣⲉ	-4137
ⲃⲱⲧⲉ	-4138
ⲉⲙⲓⲛ	-4139
ⲗⲓⲟⲥ	-4140
ⲛⲧϩⲉ	-4141
ⲛⲧⲏϭ	-4142
ⲣⲏϭⲉ	-4143
ⲣⲓⲍⲉ	-4144
ⲣⲟⲙⲁ	-4145
ⲥⲃⲧⲉ	-4146
▁ϩⲁⲡⲥ	-4147
▁ϩⲓⲟⲩ	-4148
▁ⲁϩⲁϩ	-4149
▁ⲉⲕⲉϯ	-4150
▁ⲉⲛⲉⲥ	-4151
▁ⲛⲁⲡⲁ	-4152
▁ⲛⲣⲁⲛ	-4153
▁ⲡⲣⲉϥ	-4154
▁ⲧⲁⲁϥ	-4155
▁ⲧⲁⲙⲓ	-4156
ⲇⲣⲓⲟⲛ	-4157
ⲗⲁⲭⲓⲥ	-4158
ⲗⲟⲓϭⲉ	-4159
ⲗⲱⲛⲏⲥ	-4160
ⲛⲁϣⲧⲉ	-4161
ⲡⲗⲏⲅⲏ	-4162
ⲥⲉⲃⲱⲛ	-4163
ⲧⲉⲧⲛⲉ	-4164
ⲩⲣⲅⲟⲥ	-4165
ϭⲁⲙⲟⲩⲗ	-4166
▁ϩⲁⲣⲟⲕ	-4167
▁ϩⲁⲧⲉⲕ	-4168
▁ϩⲛⲙⲙⲁ	-4169
▁ϫⲉⲡⲉⲓ	-4170
▁ⲁⲥⲃⲱⲕ	-4171
▁ⲁⲩⲛⲟϭ	-4172
▁ⲉⲙⲡⲟⲩ	-4173
▁ⲉⲣⲁⲧⲕ	-4174
▁ⲉⲣⲉⲛⲁ	-4175
▁ⲉⲧⲁϩⲉ	-4176
▁ⲉⲧⲙⲛⲧ	-4177
▁ⲕⲣⲓⲛⲉ	-4178
▁ⲙⲡⲏⲩⲉ	-4179
▁ⲛⲉⲟⲟⲩ	-4180
▁ⲛⲍⲱⲟⲛ	-4181
▁ⲛⲏⲥⲁⲩ	-4182
▁ⲛⲙⲧⲟⲛ	-4183
▁ⲛⲣⲁϣⲉ	-4184
▁ⲛⲥⲓⲟⲩ	-4185
▁ⲛⲥⲱⲉⲓ	-4186
▁ⲛⲧⲁⲓⲥ	-4187
▁ⲡⲁϩⲏⲧ	-4188
▁ⲥⲃⲧⲱⲧ	-4189
ⲕⲟⲓⲛⲱⲛ	-4190
ⲕⲟⲩⲛⲁⲙ	-4191
ⲗⲁⲙⲡⲁⲥ	-4192
ⲣⲏⲙⲓⲁⲥ	-4193
ϥⲉⲛⲧⲟⲗⲏ	-4194
ϥⲓⲣⲟⲟⲩϣ	-4195
▁ϣⲁⲣⲟⲟⲩ	-4196
▁ϩⲁⲣⲁⲧϥ	-4197
▁ϫⲉⲛⲛⲉⲕ	-4198
▁ⲁϥⲟⲩⲱⲛ	-4199
▁ⲁⲕϣⲱⲡⲉ	-4200
▁ⲁⲡⲁϩⲏⲧ	-4201
▁ⲁⲩϣⲁϫⲉ	-4202
▁ⲉϫⲛⲛⲉⲕ	-4203
▁ⲉⲧⲙⲏⲧⲉ	-4204
▁ⲙⲙⲁⲧⲟⲓ	-4205
▁ⲙⲛⲧⲙⲛⲧ	-4206
▁ⲛϫⲟⲉⲓⲧ	-4207
▁ⲛⲉⲛⲧⲁϥ	-4208
▁ⲛⲧⲉⲧⲛϯ	-4209
▁ⲛⲧⲡⲩⲗⲏ	-4210
▁ⲡⲉⲧⲛⲁϯ	-4211
▁ⲡⲙⲏⲏϣⲉ	-4212
▁ⲡⲛⲉⲩⲙⲁ	-4213
▁ⲥⲉⲛⲁϩⲉ	-4214
ⲑⲩⲥⲓⲁⲍⲉ	-4215
ⲕⲉⲥⲉⲉⲡⲉ	-4216
ⲛⲏⲥⲧⲉⲓⲁ	-4217
ⲡⲓⲗⲁⲧⲟⲥ	-4218
ⲥⲉⲡⲥⲱⲡϥ	-4219
ⲧⲉϥⲙⲁⲁⲩ	-4220
ⲧⲛⲛⲟⲟⲩϥ	-4221
▁ϫⲉⲟⲩⲛⲟϭ	-4222
▁ⲁⲧⲁⲯⲩⲭⲏ	-4223
▁ⲙⲡⲣⲧⲣⲉϥ	-4224
▁ⲛⲁⲙⲟⲟϣⲉ	-4225
▁ⲛⲧⲉⲯⲩⲭⲏ	-4226
▁ⲧⲛⲥⲟⲟⲩⲛ	-4227
ⲡⲁⲅⲅⲉⲗⲟⲥ	-4228
ⲡⲁⲣⲣⲏⲥⲓⲁ	-4229
▁ϩⲛⲟⲩⲣⲁϣⲉ	-4230
▁ⲉⲣⲉⲡⲣⲱⲙⲉ	-4231
▁ⲉⲧⲃⲏⲏⲧⲟⲩ	-4232
▁ⲙⲡⲉⲓⲗⲁⲟⲥ	-4233
▁ⲙⲡⲉⲧϫⲟⲥⲉ	-4234
▁ⲛⲧⲉⲥⲕⲩⲛⲏ	-4235
▁ⲡⲉⲧⲥⲟⲟⲩⲛ	-4236
ⲕⲁⲛⲇⲁⲗⲓⲍⲉ	-4237
▁ⲙⲛⲛⲉϥⲣⲱⲙⲉ	-4238
▁ⲙⲡⲗⲓⲃⲁⲛⲟⲥ	-4239
▁ⲛⲛⲉⲧⲛⲉⲣⲏⲩ	-4240
▁ⲛⲛⲉⲩⲛⲟⲩⲧⲉ	-4241
▁ⲥⲉⲛⲁⲙⲟⲩⲧⲉ	-4242
▁ϩⲛⲧⲉⲧⲛⲙⲏⲧⲉ	-4243
▁ⲙⲡⲇⲓⲁⲃⲟⲗⲟⲥ	-4244
▁ⲛϭⲓⲛϩⲉⲑⲛⲟⲥ	-4245
▁ⲛⲧⲉⲧⲛⲥⲟⲟⲩⲛ	-4246
▁ⲛⲧⲥⲩⲛⲁⲅⲱⲅⲏ	-4247
▁ⲙⲡⲉⲑⲩⲥⲓⲁⲥⲧⲏⲣⲓⲟⲛ	-4248
ⲕϥ	-4249
ϩⲟⲛ	-4250
▁ⲁⲣ	-4251
▁ⲛⲭ	-4252
▁ⲧⲟ	-4253
ⲅⲁⲥ	-4254
ⲅⲉⲑ	-4255
ⲙⲉϥ	-4256
ⲛⲧⲓ	-4257
ⲣⲉⲓ	-4258
ⲧⲁⲣ	-4259
ϣⲥⲛⲉ	-4260
ϫⲉⲛⲉ	-4261
▁ϫⲉⲙ	-4262
▁ⲁϥⲧ	-4263
▁ⲉϥⲣ	-4264
▁ⲉⲣⲛ	-4265
▁ⲧⲱⲕ	-4266
ⲃⲟⲩⲣ	-4267
ⲉⲓⲟⲛ	-4268
ⲙⲡⲟⲩ	-4269
ⲛⲟϫⲧ	-4270
ⲟⲛⲓⲁ	-4271
ⲟⲩⲓⲁ	-4272
ⲧⲁⲩⲱ	-4273
ⲭⲱⲣⲏ	-4274
ϫⲡⲟⲟⲩ	-4275
▁ϣⲕⲁⲕ	-4276
▁ϩⲁⲧⲙ	-4277
▁ϩⲓⲣⲛ	-4278
▁ⲁⲩϭⲱ	-4279
▁ⲉϫⲛⲡ	-4280
▁ⲕⲧⲟϥ	-4281
▁ⲙⲙⲁⲓ	-4282
▁ⲛϥϫⲓ	-4283
▁ⲛϭⲓⲉ	-4284
▁ⲛⲁⲛⲁ	-4285
▁ⲛⲅⲁⲣ	-4286
▁ⲛⲥⲉⲣ	-4287
ⲇⲏⲥⲓⲥ	-4288
ⲍⲁⲭⲁⲣ	-4289
ⲑⲃⲃⲓⲉ	-4290
ⲓⲉⲛⲉϩ	-4291
ⲗⲅⲁⲗⲁ	-4292
ⲗⲡⲓⲍⲉ	-4293
ⲟⲩⲁϩϥ	-4294
ⲟⲩⲗⲱⲛ	-4295
ⲥⲩⲅⲅⲉ	-4296
ⲧⲃⲃⲟϥ	-4297
ⲧⲛⲟⲃⲉ	-4298
ⲧⲟⲙⲥϥ	-4299
ⲧⲟⲩϫⲟ	-4300
ⲭⲁⲗⲉⲃ	-4301
ⲭⲣⲉⲓⲁ	-4302
ϯⲛⲟⲩϥⲉ	-4303
▁ϩⲁⲣⲟⲛ	-4304
▁ϩⲓϫⲛⲧ	-4305
▁ϩⲛⲡⲙⲁ	-4306
▁ϫⲉⲕⲛⲁ	-4307
▁ϫⲓⲛⲡⲉ	-4308
▁ⲉϯϩⲱⲛ	-4309
▁ⲉⲧⲃⲉⲛ	-4310
▁ⲛϣⲱⲣⲡ	-4311
▁ⲛⲁⲙⲟⲩ	-4312
▁ⲛⲁⲛⲁⲩ	-4313
▁ⲛⲣⲉϥϯ	-4314
▁ⲟⲩⲟⲛϩ	-4315
ⲃⲁⲗϩⲏⲧ	-4316
ⲃⲟⲏⲑⲟⲥ	-4317
ⲓⲙⲉⲗⲉⲭ	-4318
ⲕⲉⲗⲉⲩⲉ	-4319
ⲛⲁϩⲙⲉⲧ	-4320
ⲥⲧⲣⲁⲧⲏ	-4321
ϥⲁⲓϣⲓⲛⲉ	-4322
ϫⲉⲛⲉⲡⲱⲣ	-4323
▁ϫⲉⲙⲙⲟⲛ	-4324
▁ⲁϥϣⲓⲛⲉ	-4325
▁ⲁⲩⲧⲁⲙⲉ	-4326
▁ⲉϥⲉⲓⲛⲉ	-4327
▁ⲉϥⲉⲓⲣⲉ	-4328
▁ⲉⲡϫⲟⲉⲓ	-4329
▁ⲉⲡⲣⲱⲙⲉ	-4330
▁ⲉⲧⲃⲉⲡⲁ	-4331
▁ⲉⲧⲱⲙⲛⲧ	-4332
▁ⲙⲙⲁⲉⲓⲛ	-4333
▁ⲙⲡⲁϩⲏⲧ	-4334
▁ⲙⲡⲁⲣⲁⲛ	-4335
▁ⲙⲡⲕⲱϩⲧ	-4336
▁ⲙⲡⲙⲁⲥⲉ	-4337
▁ⲛϭⲓⲛⲉⲩ	-4338
▁ⲛⲁⲟⲩⲱϩ	-4339
▁ⲛⲛⲁⲃⲁⲗ	-4340
▁ⲛⲟⲩϩⲁⲡ	-4341
▁ⲡⲉⲧⲉⲛϥ	-4342
▁ⲡⲉⲧⲛⲁϣ	-4343
▁ⲧⲧⲁⲡⲣⲟ	-4344
ⲗⲏⲗⲟⲩⲓⲁ	-4345
ⲛⲉⲩⲉⲣⲏⲩ	-4346
ⲡⲟⲣⲛⲉⲩⲉ	-4347
▁ϩⲛⲛⲣⲱⲙⲉ	-4348
▁ϫⲓⲛⲉⲛⲉϩ	-4349
▁ⲁϥⲣϩⲟⲧⲉ	-4350
▁ⲁⲩⲕⲟⲧⲟⲩ	-4351
▁ⲉⲕⲉϫⲟⲟⲥ	-4352
▁ⲉⲧⲃⲉⲡⲉⲕ	-4353
▁ⲉⲧⲧⲁⲓⲏⲩ	-4354
▁ⲛⲉⲧϣⲟⲟⲡ	-4355
▁ⲛⲓⲉⲥⲥⲁⲓ	-4356
▁ⲛⲟⲩⲟⲉⲓⲕ	-4357
▁ⲛⲧⲉϥⲁⲡⲉ	-4358
▁ⲡⲉϩⲣⲟⲟⲩ	-4359
▁ⲡⲉⲕⲉⲓⲱⲧ	-4360
ⲍⲁⲭⲁⲣⲓⲁⲥ	-4361
ⲙⲁⲕⲁⲣⲓⲟⲥ	-4362
ⲙⲛⲧϣⲁϥⲧⲉ	-4363
ⲣⲉϥϫⲓⲟⲩⲉ	-4364
ⲣⲙⲉⲓⲟⲟⲩⲉ	-4365
▁ϣⲁⲡⲉϩⲟⲟⲩ	-4366
▁ⲉⲛⲉⲓϣⲁϫⲉ	-4367
▁ⲉⲡⲉϣⲧⲉⲕⲟ	-4368
▁ⲙⲡⲉϥⲉⲟⲟⲩ	-4369
▁ⲙⲡⲉϥⲟⲩⲱϣ	-4370
▁ⲙⲡⲉϩⲣⲟⲟⲩ	-4371
▁ⲛϩⲓⲉⲣⲓⲭⲱ	-4372
▁ⲛⲇⲩⲛⲁⲧⲟⲥ	-4373
▁ⲡⲁⲅⲅⲉⲗⲟⲥ	-4374
▁ⲡⲉⲥⲡⲉⲣⲙⲁ	-4375
▁ⲉⲧⲃⲉⲧⲏⲩⲧⲛ	-4376
▁ⲙⲛⲧⲉϥⲙⲁⲁⲩ	-4377
▁ⲙⲡⲉⲑⲩⲣⲓⲟⲛ	-4378
▁ⲛϭⲓⲡⲉⲧⲣⲟⲥ	-4379
▁ⲛⲛⲉⲕϩⲙϩⲁⲗ	-4380
▁ⲛⲧⲓⲟⲩⲇⲁⲓⲁ	-4381
▁ⲡⲇⲓⲁⲃⲟⲗⲟⲥ	-4382
ϩⲟⲗⲟⲕⲁⲩⲧⲱⲙⲁ	-4383
▁ⲁϥϯⲡⲉϥⲟⲩⲟⲓ	-4384
▁ⲉⲡⲉⲭⲣⲓⲥⲧⲟⲥ	-4385
▁ⲛⲛⲉⲧⲛⲉⲓⲟⲧⲉ	-4386
▁ϩⲛⲟⲩϫⲓⲛϭⲟⲛⲥ	-4387
▁ⲛⲛⲉⲡⲣⲉⲥⲃⲩⲧⲉⲣⲟⲥ	-4388
ⲁⲑ	-4389
ⲥⲣ	-4390
ⲩⲙ	-4391
ϣⲏⲙ	-4392
ϩⲥⲉ	-4393
▁ⲅⲁ	-4394
▁ⲥⲃ	-4395
ⲁⲡⲁ	-4396
ⲗⲁⲙ	-4397
ⲗⲓⲛ	-4398
ⲡⲏⲥ	-4399
ⲡⲥⲱ	-4400
ⲣϣⲉ	-4401
ⲣⲓⲣ	-4402
ⲥⲁⲫ	-4403
ϣⲟⲟⲥ	-4404
ϩⲣⲟϣ	-4405
▁ϫⲉⲱ	-4406
▁ⲃⲱⲗ	-4407
▁ⲕⲃⲁ	-4408
▁ⲡⲗⲁ	-4409
▁ⲡⲛⲁ	-4410
▁ⲧⲣⲉ	-4411
ⲁⲓⲱⲛ	-4412
ⲁⲣⲙⲁ	-4413
ⲇⲓⲟⲛ	-4414
ⲉⲃⲟⲗ	-4415
ⲏⲗⲟⲥ	-4416
ⲕⲧⲟⲛ	-4417
ⲙⲡⲉⲕ	-4418
ⲛⲉⲩⲏ	-4419
ⲟⲃϩⲉ	-4420
ⲟⲡⲟⲩ	-4421
ⲟⲥⲟⲛ	-4422
ⲡⲗⲁⲝ	-4423
ⲣⲉⲧⲏ	-4424
ⲥⲟⲩⲱ	-4425
ⲧⲏⲧⲛ	-4426
ⲧⲱⲣⲉ	-4427
ϫⲱⲱⲗⲉ	-4428
▁ϩⲉⲛⲉ	-4429
▁ϫⲉⲙⲉ	-4430
▁ϯⲛⲁⲩ	-4431
▁ⲁⲩⲥⲱ	-4432
▁ⲉⲛⲟⲩ	-4433
▁ⲉⲧϫⲱ	-4434
▁ⲉⲧⲃⲏ	-4435
▁ⲙⲛⲁⲃ	-4436
▁ⲙⲡⲁⲧ	-4437
▁ⲛⲥⲱⲛ	-4438
▁ⲡⲉⲧⲕ	-4439
▁ⲥⲟⲧⲡ	-4440
ⲇⲓⲥⲟⲥ	-4441
ⲓⲕⲓⲙⲁ	-4442
ⲓⲙⲟⲑⲉ	-4443
ⲕⲁⲉⲓⲧ	-4444
ⲙⲟⲩⲛⲅ	-4445
ⲛⲉⲓⲛⲉ	-4446
ⲟⲩⲛⲟϭ	-4447
ⲟⲩⲱϣⲥ	-4448
ⲥⲕⲉⲩⲏ	-4449
ⲥⲟⲉⲓⲧ	-4450
▁ϥⲧⲟⲟⲩ	-4451
▁ϫⲓⲛⲙⲡ	-4452
▁ⲁϥⲧⲣⲉ	-4453
▁ⲉⲧⲉⲙⲛ	-4454
▁ⲉⲧⲉⲟⲩ	-4455
▁ⲛⲉⲓⲛⲁ	-4456
▁ⲛⲉⲩⲛⲁ	-4457
▁ⲛⲛⲣⲉϥ	-4458
▁ⲛⲥⲉϫⲓ	-4459
▁ⲛⲥⲓⲛⲁ	-4460
▁ⲛⲥⲛⲟϥ	-4461
▁ⲛⲥⲱⲧⲡ	-4462
▁ⲟⲩⲕⲁϩ	-4463
▁ⲧⲁⲣⲭⲏ	-4464
▁ⲧⲡⲁϣⲉ	-4465
ⲗⲉⲁⲍⲁⲣ	-4466
ⲛⲁϣⲱⲡⲉ	-4467
ⲡⲁϩⲧⲟⲩ	-4468
ⲡⲉⲛⲓⲡⲉ	-4469
ⲥⲟⲧⲙⲟⲩ	-4470
ⲧⲁⲅⲁⲡⲏ	-4471
ϭⲣⲟⲟⲙⲡⲉ	-4472
▁ϫⲉϣⲁϫⲉ	-4473
▁ϫⲉⲛⲧⲁⲕ	-4474
▁ϫⲓⲛⲙⲙⲁ	-4475
▁ϯϩⲧⲏⲧⲛ	-4476
▁ⲁϥϭⲱⲛⲧ	-4477
▁ⲁⲩϫⲟⲟⲥ	-4478
▁ⲉⲡⲉⲟⲟⲩ	-4479
▁ⲉⲡⲧⲁⲕⲟ	-4480
▁ⲉⲧⲃⲏⲏⲧ	-4481
▁ⲉⲧⲉⲧⲁⲓ	-4482
▁ⲉⲩⲉⲓⲣⲉ	-4483
▁ⲕⲁⲧⲁⲧⲉ	-4484
▁ⲙⲙⲉⲣⲓⲧ	-4485
▁ⲙⲡⲉϥϩⲟ	-4486
▁ⲙⲡⲉϥⲏⲓ	-4487
▁ⲙⲡⲕⲁⲧⲁ	-4488
▁ⲛϥⲧⲟⲟⲩ	-4489
▁ⲛⲧⲉⲣⲉⲡ	-4490
▁ⲛⲧⲟⲣⲅⲏ	-4491
▁ⲡⲉⲧⲛⲛⲁ	-4492
▁ⲥⲟⲟⲩⲧⲛ	-4493
ⲓⲙⲟⲑⲉⲟⲥ	-4494
ⲙⲱⲟⲩⲥⲏⲥ	-4495
ⲛⲉⲓϣⲁϫⲉ	-4496
ⲟⲇⲟⲗⲓⲁⲥ	-4497
▁ϩⲁⲧⲉⲕϩⲏ	-4498
▁ϩⲓⲟⲩⲛⲁⲙ	-4499
▁ϩⲙⲡϫⲁⲓⲉ	-4500
▁ⲁϥⲛⲟⲩϭⲥ	-4501
▁ⲉⲡⲉⲛⲧⲁϥ	-4502
▁ⲕⲁⲧⲁⲧⲉϥ	-4503
▁ⲛⲛⲁϣⲁϫⲉ	-4504
▁ⲡⲁⲙⲉⲣⲓⲧ	-4505
ⲙⲡⲉⲧϩⲟⲟⲩ	-4506
▁ϥⲥⲙⲁⲙⲁⲁⲧ	-4507
▁ϩⲛⲟⲩϣⲥⲛⲉ	-4508
▁ϯⲛⲁⲟⲩⲱⲛϩ	-4509
▁ⲁⲓϫⲓϣⲕⲁⲕ	-4510
▁ⲉϫⲙⲡⲧⲟⲟⲩ	-4511
▁ⲉⲧⲙⲛⲧⲣⲣⲟ	-4512
▁ⲙⲛⲓⲏⲥⲟⲩⲥ	-4513
▁ⲛϭⲓⲡϣⲏⲣⲉ	-4514
▁ⲛⲛⲉⲩⲛⲟⲃⲉ	-4515
▁ⲛⲟⲩⲙⲁⲉⲓⲛ	-4516
▁ⲛⲥⲁⲙⲟⲩⲏⲗ	-4517
▁ⲛⲧⲉⲓⲣⲏⲛⲏ	-4518
ⲥⲭⲏⲙⲟⲥⲩⲛⲏ	-4519
▁ϩⲛⲧⲉⲩⲙⲏⲧⲉ	-4520
▁ⲉϥⲁϩⲉⲣⲁⲧϥ	-4521
▁ⲉⲧⲟⲩⲙⲟⲩⲧⲉ	-4522
▁ⲙⲡⲉⲑⲣⲟⲛⲟⲥ	-4523
▁ⲟⲩⲇⲓⲕⲁⲓⲟⲥ	-4524
▁ϩⲛⲟⲩⲥⲟⲟⲩⲧⲛ	-4525
▁ⲉⲛⲧⲁⲡⲛⲟⲩⲧⲉ	-4526
▁ⲙⲛⲛⲉϥϩⲙϩⲁⲗ	-4527
▁ⲙⲡⲣⲉϥⲣⲛⲟⲃⲉ	-4528
▁ⲙⲡⲣⲧⲣⲉⲗⲁⲁⲩ	-4529
ϩⲉⲕⲁⲧⲟⲛⲧⲁⲣⲭⲟⲥ	-4530
▁ⲉⲗ	-4531
▁ⲙⲟ	-4532
▁ⲛⲍ	-4533
▁ⲧⲙ	-4534
ⲁⲧⲕ	-4535
ⲃⲉⲕ	-4536
ⲏⲗⲱ	-4537
ⲓⲭⲁ	-4538
ⲓⲱⲧ	-4539
ⲛⲁⲭ	-4540
ⲥⲱϥ	-4541
ⲫⲉⲥ	-4542
ϣⲓⲕⲉ	-4543
ϩⲁⲧⲉ	-4544
ϩⲟⲙⲧ	-4545
ϭⲟⲡϥ	-4546
▁ϩⲏⲗ	-4547
▁ϩⲓⲁ	-4548
▁ϩⲟⲙ	-4549
▁ⲉϥⲥ	-4550
▁ⲟⲩⲕ	-4551
ⲃⲓⲟⲥ	-4552
ⲇⲉⲩⲉ	-4553
ⲕⲁⲣⲙ	-4554
ⲕⲱⲛⲥ	-4555
ⲙⲯⲱⲛ	-4556
ⲛⲧⲓⲟ	-4557
ⲡⲏⲩⲉ	-4558
ⲣⲭⲉⲓ	-4559
ⲥⲓϣⲉ	-4560
ⲧⲱⲟⲩ	-4561
ⲭⲁⲗⲁ	-4562
ϩⲓⲉⲓⲧ	-4563
ϫⲃⲃⲉⲥ	-4564
ϫⲛⲟⲟⲩ	-4565
▁ϩⲉⲛⲁ	-4566
▁ϩⲧⲏϥ	-4567
▁ϩⲧⲏⲕ	-4568
▁ϫⲉⲁⲡ	-4569
▁ⲁϣⲁⲓ	-4570
▁ⲉϫⲉⲙ	-4571
▁ⲉⲁⲁϥ	-4572
▁ⲉⲁⲁⲩ	-4573
▁ⲉⲧϩⲉ	-4574
▁ⲉⲧⲉⲥ	-4575
▁ⲕⲁⲁⲧ	-4576
▁ⲙⲛⲙⲁ	-4577
▁ⲙⲡⲟⲣ	-4578
▁ⲛⲅⲁⲓ	-4579
▁ⲛⲛⲉϩ	-4580
▁ⲡϩⲱⲃ	-4581
▁ⲡⲉⲧⲁ	-4582
▁ⲧϭⲟⲙ	-4583
▁ⲧⲁⲡⲉ	-4584
ⲉⲥⲟⲟⲩ	-4585
ⲗⲗⲁⲕⲏ	-4586
ⲙⲉⲗⲟⲥ	-4587
ⲡⲉⲕⲣⲟ	-4588
ⲣⲟⲟⲩⲧ	-4589
ⲥⲁϩⲱϥ	-4590
ⲧⲁⲛϩⲟ	-4591
ⲧⲙⲁⲓⲟ	-4592
ⲫⲟⲣⲉⲓ	-4593
ϣⲟⲩⲱⲃⲉ	-4594
ϣⲡϩⲓⲥⲉ	-4595
ϩⲟⲡⲗⲟⲛ	-4596
▁ϥϣⲟⲟⲡ	-4597
▁ϩⲁⲧⲉⲩ	-4598
▁ⲙⲛⲡⲏⲓ	-4599
▁ⲛϩⲱⲧⲡ	-4600
▁ⲛⲁϩⲣⲙ	-4601
▁ⲛⲉϥϫⲱ	-4602
▁ⲛⲥⲉϩⲉ	-4603
▁ⲛⲧⲉⲛⲁ	-4604
▁ⲡⲁⲗⲓⲛ	-4605
▁ⲣⲛⲟⲃⲉ	-4606
▁ⲧⲉⲥⲙⲏ	-4607
ⲁⲥⲡⲁⲍⲉ	-4608
ⲙⲙⲏⲏϣⲉ	-4609
ⲡⲩⲣⲅⲟⲥ	-4610
ⲧⲁⲕⲟⲟⲩ	-4611
ⲧⲁⲙⲱⲧⲛ	-4612
ⲧⲉⲕϭⲓϫ	-4613
ⲧⲧⲏⲩⲧⲛ	-4614
ϩⲉⲇⲣⲓⲟⲛ	-4615
▁ϫⲉⲉⲣⲉⲡ	-4616
▁ⲁϥⲉⲓⲙⲉ	-4617
▁ⲁϥⲧⲁϩⲟ	-4618
▁ⲁⲩⲧⲁⲕⲟ	-4619
▁ⲉϥϣⲓⲛⲉ	-4620
▁ⲉϥϯⲥⲃⲱ	-4621
▁ⲉⲡⲗⲁⲟⲥ	-4622
▁ⲉⲥϫⲟⲟⲣ	-4623
▁ⲉⲧⲛⲁϣⲧ	-4624
▁ⲉⲧⲥⲟⲧⲡ	-4625
▁ⲙⲁⲩⲁⲁⲩ	-4626
▁ⲙⲡⲉⲣⲏⲧ	-4627
▁ⲛϭⲓⲟⲩⲁ	-4628
▁ⲛⲁⲥⲙⲟⲩ	-4629
▁ⲛⲅⲉⲓⲣⲉ	-4630
▁ⲛⲟⲩⲏⲣⲡ	-4631
▁ⲛⲧⲉⲥⲃⲱ	-4632
▁ⲟⲩϣⲁϫⲉ	-4633
ⲃⲓⲙⲉⲗⲉⲭ	-4634
ⲕⲉⲇⲟⲛⲓⲁ	-4635
ⲣⲟⲩⲃⲉⲓⲛ	-4636
▁ϥⲛⲁϫⲟⲟⲥ	-4637
▁ϩⲙⲡϣⲁⲁⲣ	-4638
▁ϩⲙⲡⲉϥⲙⲁ	-4639
▁ϩⲛⲟⲩⲕⲁϩ	-4640
▁ⲁϥϫⲓⲧⲟⲩ	-4641
▁ⲁⲣⲓϩⲟⲧⲉ	-4642
▁ⲁⲩⲕⲧⲟⲟⲩ	-4643
▁ⲉϥϩⲙⲟⲟⲥ	-4644
▁ⲉϥⲥⲟⲟⲩⲛ	-4645
▁ⲉⲛⲁⲛⲟⲩⲥ	-4646
▁ⲉⲥⲟⲩⲁⲁⲃ	-4647
▁ⲉⲧⲙⲧⲣⲉⲩ	-4648
▁ⲕⲁⲧⲁⲡⲉⲕ	-4649
▁ⲙⲛⲟⲩⲛⲟϭ	-4650
▁ⲛⲉϩⲓⲟⲙⲉ	-4651
▁ⲛⲛⲉⲧⲟⲛϩ	-4652
ⲉⲡⲓⲕⲁⲗⲉⲓ	-4653
▁ϩⲛⲟⲩϭⲱⲛⲧ	-4654
▁ⲉϥⲧⲁϫⲣⲏⲩ	-4655
▁ⲉⲛⲁⲛⲟⲩⲟⲩ	-4656
▁ⲉⲧⲉⲧⲏⲩⲧⲛ	-4657
▁ⲛⲉϥⲙⲟⲟϣⲉ	-4658
▁ⲛⲟⲩⲡⲟⲗⲓⲥ	-4659
▁ⲛⲥⲁⲟⲩⲛⲁⲙ	-4660
▁ⲛⲧⲉⲕⲯⲩⲭⲏ	-4661
▁ⲟⲩⲁⲅⲁⲑⲟⲛ	-4662
▁ⲡⲉϥϩⲙϩⲁⲗ	-4663
▁ⲡⲉⲧⲟⲩⲁⲁⲃ	-4664
ⲗⲗⲟⲫⲩⲗⲗⲟⲥ	-4665
ⲡⲁⲣⲁⲇⲓⲥⲟⲥ	-4666
▁ⲛⲧⲉⲣⲉϥⲃⲱⲕ	-4667
▁ⲡⲉⲧⲛⲁⲛⲟⲩϥ	-4668
ⲕⲁⲧⲁⲫⲣⲟⲛⲉⲓ	-4669
ⲙⲛⲧϣⲁⲛϩⲧⲏϥ	-4670
ⲭⲉⲓⲣⲟⲩⲃⲉⲓⲛ	-4671
▁ϩⲙⲡⲙⲉϩⲥⲁϣϥ	-4672
▁ⲛⲧⲉⲣⲉϥϣⲱⲡⲉ	-4673
▁ⲧⲇⲓⲕⲁⲓⲟⲥⲩⲛⲏ	-4674
▁ϩⲛⲧⲡⲁⲣⲉⲙⲃⲟⲗⲏ	-4675
▁ⲙⲛⲛⲉⲫⲁⲣⲓⲥⲥⲁⲓⲟⲥ	-4676
ϣⲃ	-4677
ϭⲗ	-4678
ⲡⲛ	-4679
ⲱⲗ	-4680
ϥⲧⲟ	-4681
ϩⲱϫ	-4682
ϫⲟϥ	-4683
ϫⲟⲕ	-4684
ϭⲛⲁ	-4685
▁ⲇⲁ	-4686
ⲃⲁⲛ	-4687
ⲏϥⲉ	-4688
ⲓⲛⲏ	-4689
ⲕⲁⲣ	-4690
ⲝⲉⲥ	-4691
ⲟⲙⲧ	-4692
ⲧⲏϣ	-4693
ϣⲱⲙⲉ	-4694
ϣⲱⲟⲩ	-4695
ϩⲙⲙⲉ	-4696
▁ϭⲟⲗ	-4697
▁ⲉϥⲁ	-4698
▁ⲉⲛⲟ	-4699
▁ⲉⲛⲧ	-4700
▁ⲟⲩⲃ	-4701
▁ⲟⲩⲥ	-4702
▁ⲧⲁⲣ	-4703
ⲁⲣⲭⲏ	-4704
ⲉⲓⲉⲛ	-4705
ⲙⲁⲏⲗ	-4706
ⲙⲟⲛⲧ	-4707
ⲛⲉϩⲙ	-4708
ⲛⲟϫⲥ	-4709
ⲟⲛⲟⲥ	-4710
ⲣⲏϫϥ	-4711
ⲣⲟⲩⲱ	-4712
ⲣⲭⲏⲥ	-4713
ⲥⲁϣⲉ	-4714
ⲥⲏⲫⲁ	-4715
ⲥⲟϣϥ	-4716
ⲥⲟⲟϥ	-4717
ⲧⲁⲙⲟ	-4718
ⲧⲏⲡⲉ	-4719
ⲱⲣⲧⲣ	-4720
ϣⲟⲩϣⲧ	-4721
ϩⲓⲱⲛⲉ	-4722
ϩⲟⲧϩⲧ	-4723
ϩⲩⲡⲟⲕ	-4724
ϫⲟⲟⲩⲕ	-4725
▁ϫⲁⲓⲉ	-4726
▁ⲁⲓⲕⲱ	-4727
▁ⲁⲡⲉϥ	-4728
▁ⲁⲩⲱϣ	-4729
▁ⲉⲧⲙⲡ	-4730
▁ⲕⲁⲁϥ	-4731
▁ⲙⲡⲣⲱ	-4732
▁ⲛϥⲉⲓ	-4733
▁ⲛϭⲟⲗ	-4734
▁ⲛⲅⲕⲱ	-4735
▁ⲛⲛⲏⲣ	-4736
▁ⲛⲟⲩⲕ	-4737
▁ⲟⲩⲉⲓ	-4738
ⲍⲁⲓⲟⲥ	-4739
ⲕⲉⲟⲟⲩ	-4740
ⲙⲛⲧⲙⲉ	-4741
ⲙⲟⲩϣⲧ	-4742
ⲛⲁⲅⲕⲁ	-4743
ⲛⲉϩⲡⲉ	-4744
ⲛⲓⲧⲏⲥ	-4745
ⲟⲩⲣⲟⲧ	-4746
ⲡⲱⲣⲓⲁ	-4747
ⲣⲩⲥⲥⲉ	-4748
ⲥⲕⲏⲩⲉ	-4749
ⲧⲁⲩⲟϥ	-4750
ⲧⲉⲩⲙⲁ	-4751
ⲧⲟⲉⲓⲧ	-4752
ⲧⲥⲁⲃⲟ	-4753
ⲫⲉⲥⲟⲥ	-4754
ϫⲓϣⲕⲁⲕ	-4755
▁ϣⲁⲣⲟⲛ	-4756
▁ϩⲁⲡϩⲟ	-4757
▁ϩⲓⲧⲛⲛ	-4758
▁ϩⲛⲟⲩⲥ	-4759
▁ϫⲉⲛⲉⲕ	-4760
▁ⲁⲩⲛⲉϫ	-4761
▁ⲉⲡⲉⲧⲛ	-4762
▁ⲉⲡⲟⲩⲁ	-4763
▁ⲉⲡⲱⲛϩ	-4764
▁ⲉⲧϭⲓϫ	-4765
▁ⲙⲛⲛⲉⲛ	-4766
▁ⲙⲛⲟⲩⲁ	-4767
▁ⲙⲛⲡⲉⲩ	-4768
▁ⲙⲛⲧⲉⲩ	-4769
▁ⲙⲡϩⲁⲧ	-4770
▁ⲛⲁⲃⲁⲗ	-4771
▁ⲛⲛⲁⲩⲏ	-4772
▁ⲛⲟⲩⲏⲓ	-4773
▁ⲛⲥⲁⲣⲝ	-4774
▁ⲛⲥⲏϥⲉ	-4775
▁ⲛⲧⲁⲡⲉ	-4776
ⲙⲡⲉⲙⲧⲟ	-4777
ⲛⲁⲙⲛⲧⲉ	-4778
ⲡⲉⲧϩⲏⲡ	-4779
ⲧⲏⲟⲩⲧⲛ	-4780
ϩⲏⲣⲱⲇⲏⲥ	-4781
ϫⲓⲥⲟⲟⲩⲉ	-4782
▁ϫⲉⲙⲡⲟⲩ	-4783
▁ⲁϥϭⲱϣⲧ	-4784
▁ⲁϥⲧⲁⲕⲟ	-4785
▁ⲁϥⲧⲁⲩⲟ	-4786
▁ⲁⲩⲉⲓⲙⲉ	-4787
▁ⲉⲧⲉⲛⲥⲉ	-4788
▁ⲉⲧⲥⲱⲧⲙ	-4789
▁ⲙⲙⲟⲟⲛⲉ	-4790
▁ⲙⲛⲡⲣⲣⲟ	-4791
▁ⲙⲡϭⲱⲛⲧ	-4792
▁ⲙⲡⲉⲧⲟⲩ	-4793
▁ⲛϭⲓⲡⲉϥ	-4794
▁ⲛⲁⲥⲱⲧⲙ	-4795
▁ⲛⲉⲧⲉⲧⲛ	-4796
▁ⲛⲙⲡⲁⲣⲁ	-4797
▁ⲛⲛⲁϭⲓϫ	-4798
▁ⲛⲛⲉⲧⲉⲛ	-4799
▁ⲛⲣⲁⲥⲧⲉ	-4800
▁ⲛⲧⲁϭⲓϫ	-4801
▁ⲛⲧⲉⲣⲉⲥ	-4802
▁ⲡⲉϩⲟⲩⲟ	-4803
▁ⲥⲉⲛⲁϥⲓ	-4804
ⲇⲓⲕⲁⲓⲟⲛ	-4805
ⲡⲁⲧⲁⲥⲥⲉ	-4806
ⲣⲉϥϣⲙϣⲉ	-4807
ⲧⲁⲙⲉⲓⲟⲛ	-4808
ⲧⲟⲩϫⲟⲟⲩ	-4809
▁ϩⲓⲧⲛϩⲉⲛ	-4810
▁ϩⲓⲧⲟⲟⲧⲥ	-4811
▁ϩⲙⲡⲉⲕⲣⲟ	-4812
▁ϩⲙⲡⲣⲱⲙⲉ	-4813
▁ϫⲉⲛⲧⲟⲟⲩ	-4814
▁ϯⲛⲁⲥⲙⲟⲩ	-4815
▁ⲁϥⲛⲟⲩϫⲉ	-4816
▁ⲉⲇⲁⲩⲉⲓⲇ	-4817
▁ⲉⲡⲛⲟⲙⲟⲥ	-4818
▁ⲉⲧⲃⲏⲏⲧⲕ	-4819
▁ⲉⲩⲥϩⲓⲙⲉ	-4820
▁ⲛϣⲁⲉⲛⲉϩ	-4821
▁ⲛⲅⲥⲟⲟⲩⲛ	-4822
▁ⲛⲛⲉϣⲏⲣⲉ	-4823
▁ⲛⲧⲉⲕⲙⲛⲧ	-4824
▁ⲡⲉⲧⲙⲙⲁⲩ	-4825
▁ⲧⲙⲛⲧⲣⲣⲟ	-4826
ⲃⲟⲩⲥⲁⲓⲟⲥ	-4827
ⲕⲁⲣⲙⲏⲗⲟⲥ	-4828
ⲩⲥⲧⲁⲑⲓⲟⲥ	-4829
▁ϣⲁⲛⲓⲉⲛⲉϩ	-4830
▁ϫⲉⲉⲧⲉⲧⲛⲉ	-4831
▁ϫⲉⲡⲁϣⲏⲣⲉ	-4832
▁ⲁⲩⲁⲙⲁϩⲧⲉ	-4833
▁ⲉⲛⲉⲩⲉⲣⲏⲩ	-4834
▁ⲉⲡⲓⲥⲣⲁⲏⲗ	-4835
▁ⲉⲧⲛⲁⲛⲟⲩⲥ	-4836
▁ⲉⲧⲣⲉϥⲃⲱⲕ	-4837
▁ⲛⲛⲉⲥϣⲱⲡⲉ	-4838
▁ⲛⲧⲉⲣⲟⲙⲡⲉ	-4839
▁ⲥⲉⲛⲁϫⲟⲟⲥ	-4840
ⲙⲁⲕⲉⲇⲟⲛⲓⲁ	-4841
▁ϩⲛⲟⲩⲟⲩⲛⲟϥ	-4842
▁ϩⲛⲧⲙⲛⲧⲣⲣⲟ	-4843
▁ϫⲓⲛⲡⲉϩⲟⲟⲩ	-4844
▁ⲛⲛⲁⲅⲅⲉⲗⲟⲥ	-4845
ⲥⲩⲛϩⲉⲇⲣⲓⲟⲛ	-4846
▁ⲙⲛⲧⲉϥⲥϩⲓⲙⲉ	-4847
▁ⲛⲧⲉⲑⲁⲗⲁⲥⲥⲁ	-4848
▁ⲛϩⲉⲛⲕⲉⲛⲟⲩⲧⲉ	-4849
▁ⲛϭⲓⲓⲱϩⲁⲛⲛⲏⲥ	-4850
▁ⲡⲉⲛⲧⲁϥⲧⲁⲙⲓⲉ	-4851
▁ⲛϭⲓⲛⲉϥⲙⲁⲑⲏⲧⲏⲥ	-4852
▁ⲑ	-4853
▁ⲫ	-4854
ⲟϫ	-4855
ⲣϣ	-4856
ϩⲙⲛ	-4857
ϫⲓⲧ	-4858
▁ⲛⲱ	-4859
▁ⲫⲓ	-4860
ⲇⲉⲓ	-4861
ⲇⲱⲙ	-4862
ⲕⲱⲥ	-4863
ⲗⲩⲭ	-4864
ⲙϣⲉ	-4865
ⲙⲫⲓ	-4866
ⲡⲟⲕ	-4867
ⲣⲅⲁ	-4868
ⲧⲏⲡ	-4869
ⲫⲉⲗ	-4870
ⲱⲙⲥ	-4871
ϣⲟⲩⲉ	-4872
ϩⲁⲡⲥ	-4873
ϩⲏⲧϥ	-4874
ϩⲱⲱⲣ	-4875
▁ⲁⲥⲁ	-4876
▁ⲉⲗⲓ	-4877
▁ⲡϩⲟ	-4878
▁ⲫⲓϥ	-4879
ⲇⲟⲙⲁ	-4880
ⲉⲓⲃⲉ	-4881
ⲍⲁⲣⲉ	-4882
ⲑⲉⲙⲁ	-4883
ⲓⲁⲁϥ	-4884
ⲓⲙⲟⲛ	-4885
ⲙⲁⲓⲁ	-4886
ⲙⲛⲧⲏ	-4887
ⲥⲉⲩϩ	-4888
ⲧⲁⲁⲕ	-4889
ⲧⲏⲙⲁ	-4890
ⲧⲱⲙⲥ	-4891
ⲭⲓⲙⲁ	-4892
ϩⲏⲗⲉⲓ	-4893
ϫⲓⲕⲃⲁ	-4894
ϭⲃⲟⲉⲓ	-4895
▁ϣⲟⲣⲡ	-4896
▁ϩⲏⲃⲉ	-4897
▁ϩⲓⲧⲉ	-4898
▁ϩⲱⲱⲥ	-4899
▁ⲁⲛⲉⲩ	-4900
▁ⲃⲟⲉⲥ	-4901
▁ⲉⲙⲉϥ	-4902
▁ⲛϣⲁⲩ	-4903
▁ⲛⲇⲁⲛ	-4904
▁ⲛⲕⲱⲃ	-4905
▁ⲛⲥⲁⲓ	-4906
▁ⲣⲓⲕⲉ	-4907
▁ⲧⲁϩⲉ	-4908
ⲃⲟⲥⲑⲉ	-4909
ⲓⲥⲁⲣⲁ	-4910
ⲕⲁϩⲏⲩ	-4911
ⲥⲁⲭⲁⲣ	-4912
ⲧⲁⲝⲓⲥ	-4913
ⲧⲉⲓⲛⲉ	-4914
ⲧⲉⲛⲟⲩ	-4915
ϣⲛϩⲧⲏϥ	-4916
ϫⲟⲟⲣⲟⲩ	-4917
ϭⲟⲉⲓⲗⲉ	-4918
▁ϣⲁⲣⲉⲧ	-4919
▁ϣⲟϫⲛⲉ	-4920
▁ϥⲛⲁϩⲉ	-4921
▁ϩⲓⲣⲙⲡ	-4922
▁ϫⲓⲛⲧⲁ	-4923
▁ⲁϥⲡⲱϩ	-4924
▁ⲁⲩⲛⲧϥ	-4925
▁ⲉϩⲟⲩⲟ	-4926
▁ⲉⲉⲓⲛⲉ	-4927
▁ⲉⲧϩⲏⲛ	-4928
▁ⲉⲧⲣⲉⲧ	-4929
▁ⲕⲁⲧⲁⲛ	-4930
▁ⲙⲡⲁⲧϥ	-4931
▁ⲛϩⲓⲥⲉ	-4932
▁ⲛⲉⲧϩⲓ	-4933
▁ⲛⲗⲁⲟⲥ	-4934
▁ⲛⲣⲙϩⲉ	-4935
▁ⲟⲩϫⲁⲓ	-4936
▁ⲡϣⲟⲣⲡ	-4937
▁ⲧϩⲟⲧⲉ	-4938
ⲁⲅⲁⲑⲟⲛ	-4939
ⲉⲓⲉⲛⲓⲛ	-4940
ⲙⲉⲣⲓⲧϥ	-4941
ⲛⲁⲣⲭⲱⲛ	-4942
ⲟⲗⲉⲙⲟⲥ	-4943
ⲡⲓⲧⲓⲙⲁ	-4944
ⲣⲁⲥⲙⲟⲥ	-4945
ϣⲣϣⲱⲣⲟⲩ	-4946
▁ϩⲙⲡϩⲏⲧ	-4947
▁ϩⲛⲗⲁⲁⲩ	-4948
▁ϩⲧⲟⲟⲩⲉ	-4949
▁ϫⲉⲟⲩⲟⲛ	-4950
▁ⲁϥⲕⲁⲁⲩ	-4951
▁ⲁϥⲥϩⲁⲓ	-4952
▁ⲁⲛⲥⲱⲧⲙ	-4953
▁ⲁⲩⲛⲟϫϥ	-4954
▁ⲉϥⲥⲟⲧⲡ	-4955
▁ⲉϫⲛⲛⲁⲓ	-4956
▁ⲉⲧⲉⲥⲙⲏ	-4957
▁ⲕⲁⲓⲅⲁⲣ	-4958
▁ⲕⲁⲧⲁⲛⲉ	-4959
▁ⲙⲡϩⲏⲕⲉ	-4960
▁ⲙⲡⲁⲧⲟⲩ	-4961
▁ⲙⲡⲕⲱⲧⲉ	-4962
▁ⲛϫⲓⲟⲩⲉ	-4963
▁ⲛϭⲓⲛⲉⲕ	-4964
▁ⲛⲁϣⲁϫⲉ	-4965
▁ⲛⲁⲙⲛⲧⲉ	-4966
▁ⲛⲁⲙⲟⲩϩ	-4967
▁ⲛⲅⲟⲩⲱⲙ	-4968
▁ⲛⲕⲉⲟⲩⲁ	-4969
▁ⲛⲛⲕⲟⲧⲕ	-4970
▁ⲛⲣⲣⲱⲟⲩ	-4971
▁ⲛⲥⲁⲧⲉϥ	-4972
▁ⲛⲧⲁⲩⲉⲓ	-4973
▁ⲛⲧⲉⲧⲛⲣ	-4974
▁ⲟⲩϩⲟⲟⲩ	-4975
▁ⲟⲩⲉⲓⲛⲉ	-4976
▁ⲡⲉⲕⲥⲟⲛ	-4977
▁ⲡⲉⲛⲧⲁⲓ	-4978
▁ⲧⲉⲯⲩⲭⲏ	-4979
ⲁⲃⲟⲩⲗⲱⲛ	-4980
ⲙⲉϩⲥⲛⲁⲩ	-4981
ⲛⲁⲅⲕⲁⲍⲉ	-4982
ⲛⲧⲓⲟⲭⲓⲁ	-4983
ⲡⲉⲧⲛϩⲏⲧ	-4984
ⲡⲟⲗⲉⲙⲉⲓ	-4985
ⲥⲟⲟⲩϩⲟⲩ	-4986
▁ϩⲓⲧⲟⲟⲧⲕ	-4987
▁ϩⲛⲟⲩϭⲓϫ	-4988
▁ϩⲛⲧⲥⲁⲣⲝ	-4989
▁ϫⲉⲡϣⲏⲣⲉ	-4990
▁ϫⲉⲧⲉⲛⲟⲩ	-4991
▁ⲁⲃⲉⲛⲛⲏⲣ	-4992
▁ⲁⲩⲧⲟⲙⲥϥ	-4993
▁ⲉⲕⲉⲉⲓⲣⲉ	-4994
▁ⲕⲛⲁϣⲱⲡⲉ	-4995
▁ⲙⲡⲉⲧⲣⲟⲥ	-4996
▁ⲛⲁⲟⲩⲱⲛϩ	-4997
▁ⲛⲁⲧⲥⲱⲧⲙ	-4998
▁ⲛⲉⲓⲣⲏⲛⲏ	-4999
▁ⲛⲛⲁⲣⲭⲱⲛ	-5000
▁ⲛⲛⲉϥⲃⲁⲗ	-5001
▁ⲛⲛⲉⲕϭⲓϫ	-5002
▁ⲛⲛⲉⲣⲱⲙⲉ	-5003
▁ⲡⲁϩⲙϩⲁⲗ	-5004
▁ⲡⲉⲓϣⲁϫⲉ	-5005
▁ⲡⲉⲧϩⲟⲟⲩ	-5006
▁ⲧⲉϥⲯⲩⲭⲏ	-5007
▁ⲧⲡⲓⲥⲧⲓⲥ	-5008
ⲕⲁⲑⲁⲣⲓⲍⲉ	-5009
ⲙⲁⲥⲧⲓⲅⲟⲩ	-5010
ⲛⲉⲓⲇⲏⲥⲓⲥ	-5011
ⲭⲙⲁⲗⲱⲧⲟⲥ	-5012
▁ϩⲛⲧⲉϥϭⲟⲙ	-5013
▁ⲁϥⲕⲉⲗⲉⲩⲉ	-5014
▁ⲉⲛⲧⲁϥϩⲱⲛ	-5015
▁ⲉⲧⲁⲛⲟⲙⲓⲁ	-5016
▁ⲉⲧⲣⲉⲩⲃⲱⲕ	-5017
▁ⲙⲡⲉⲕϣⲏⲣⲉ	-5018
▁ⲙⲡⲉⲧⲛⲙⲧⲟ	-5019
▁ⲙⲡⲟⲩⲉⲓⲙⲉ	-5020
▁ⲛϩⲉⲛⲕⲟⲩⲓ	-5021
▁ⲛϭⲓⲡⲉⲧⲛⲁ	-5022
▁ϩⲙⲡⲟⲩⲟⲉⲓⲛ	-5023
▁ϩⲛⲃⲏⲑⲗⲉⲉⲙ	-5024
▁ⲙⲛⲧⲉⲓⲣⲏⲛⲏ	-5025
▁ⲙⲡⲉϥϩⲙϩⲁⲗ	-5026
▁ⲙⲡⲉϥϫⲟⲉⲓⲥ	-5027
▁ⲛϩⲉⲛⲛⲟⲩⲧⲉ	-5028
▁ⲛⲁⲉⲩⲫⲣⲁⲛⲉ	-5029
▁ⲛⲛⲉⲕⲉⲓⲟⲧⲉ	-5030
▁ⲛⲧⲉϥⲥϩⲓⲙⲉ	-5031
▁ⲡⲁⲣⲭⲓⲉⲣⲉⲩⲥ	-5032
▁ϫⲉⲉⲣⲉⲡϫⲟⲉⲓⲥ	-5033
▁ⲛϭⲓⲙⲙⲁⲑⲏⲧⲏⲥ	-5034
▁ⲛⲕⲗⲏⲣⲟⲛⲟⲙⲓⲁ	-5035
▁ⲛⲛⲁϩⲣⲙⲙⲱⲩⲥⲏⲥ	-5036
ⲣϥ	-5037
ⲱⲓ	-5038
ϣⲛⲉ	-5039
ϣⲱϣ	-5040
ϣⲱⲛ	-5041
ϭⲱⲣ	-5042
▁ⲓⲁ	-5043
▁ⲗⲁ	-5044
ⲃⲉⲧ	-5045
ⲅⲁⲓ	-5046
ⲑⲟⲩ	-5047
ⲕⲁϣ	-5048
ⲗⲏⲑ	-5049
ⲙⲉⲗ	-5050
ⲙⲓⲥ	-5051
ⲛⲥⲉ	-5052
ⲟϩⲥ	-5053
ⲡⲣⲏ	-5054
ⲥⲉϩ	-5055
ⲥⲏⲓ	-5056
ⲥⲱⲥ	-5057
ⲧϥⲉ	-5058
ⲧⲏⲙ	-5059
ⲧⲣⲩ	-5060
ϩⲟⲃⲥ	-5061
ϭⲟⲥⲙ	-5062
ϯϩⲏⲩ	-5063
ϯⲟⲩⲱ	-5064
▁ⲃⲁⲣ	-5065
▁ⲉⲥⲓ	-5066
▁ⲉⲩⲣ	-5067
▁ⲛϫⲡ	-5068
ⲓⲙⲟⲥ	-5069
ⲓⲥⲙⲏ	-5070
ⲕⲉⲣⲁ	-5071
ⲕⲟⲧⲉ	-5072
ⲗⲱϫϩ	-5073
ⲙⲁⲛⲉ	-5074
ⲙⲙⲁⲓ	-5075
ⲛⲁⲅⲉ	-5076
ⲛⲓⲏⲗ	-5077
ⲟⲩⲛϥ	-5078
ⲟⲩⲛⲅ	-5079
ⲡⲏⲣⲡ	-5080
ⲣⲓⲙⲁ	-5081
ⲣⲟⲩⲑ	-5082
ⲥⲏⲃⲉ	-5083
ⲥⲙⲟⲥ	-5084
ⲧϭⲁⲓ	-5085
ⲧⲃⲉϥ	-5086
ϩⲁⲗⲏⲧ	-5087
▁ϩⲏⲧⲕ	-5088
▁ϩⲛϩⲉ	-5089
▁ⲁⲓϥⲓ	-5090
▁ⲁⲕⲕⲁ	-5091
▁ⲁⲕⲕⲱ	-5092
▁ⲉⲛⲉⲛ	-5093
▁ⲙⲙⲉⲗ	-5094
▁ⲙⲙⲏⲧ	-5095
▁ⲙⲙⲙⲟ	-5096
▁ⲙⲛⲕⲉ	-5097
▁ⲙⲛⲥⲓ	-5098
▁ⲛϣⲣⲡ	-5099
▁ⲛϥϩⲉ	-5100
▁ⲛϯⲟⲩ	-5101
▁ⲛⲁϥⲓ	-5102
▁ⲛⲉⲟⲩ	-5103
▁ⲛⲉⲧⲟ	-5104
▁ⲛⲟⲩϩ	-5105
▁ⲛⲥⲁⲗ	-5106
▁ⲧⲙⲉϩ	-5107
▁ⲧⲱⲇⲏ	-5108
ⲁϣⲕⲁⲕ	-5109
ⲁⲓⲃⲉⲥ	-5110
ⲁⲣⲏϫϥ	-5111
ⲃⲁⲣⲟⲥ	-5112
ⲃⲣⲏϭⲉ	-5113
ⲇⲓⲕⲓⲁ	-5114
ⲙⲉϣϣⲉ	-5115
ⲛⲟⲉⲓⲛ	-5116
ⲡⲁϩⲏⲧ	-5117
ⲧⲟⲟⲧⲕ	-5118
ϩⲁⲅⲓⲟⲥ	-5119
▁ϩⲛⲧⲙⲉ	-5120
▁ϩⲧⲏⲧⲛ	-5121
▁ϫⲉⲙⲡⲓ	-5122
▁ⲉϥⲉϫⲓ	-5123
▁ⲉⲕⲉϫⲓ	-5124
▁ⲉⲙⲛⲧϥ	-5125
▁ⲉⲛⲧⲟϣ	-5126
▁ⲉⲣⲱⲟⲩ	-5127
▁ⲉⲧⲁⲕⲟ	-5128
▁ⲉⲩⲥⲙⲏ	-5129
▁ⲙⲁⲣⲓⲁ	-5130
▁ⲙⲛϭⲟⲙ	-5131
▁ⲙⲡϩⲱⲃ	-5132
▁ⲙⲡⲣⲏⲥ	-5133
▁ⲙⲡⲣⲕⲱ	-5134
▁ⲛϩⲗⲗⲟ	-5135
▁ⲛϩⲧⲏⲩ	-5136
▁ⲛϭⲓⲧⲉ	-5137
▁ⲛⲃⲟⲧⲉ	-5138
▁ⲛⲉⲧϫⲱ	-5139
▁ⲛⲟⲩⲱϩ	-5140
▁ⲛⲥⲙⲟⲧ	-5141
▁ⲟⲩϩⲱⲃ	-5142
▁ⲟⲩⲱϣϥ	-5143
▁ⲣϩⲟⲧⲉ	-5144
▁ⲥⲓⲙⲱⲛ	-5145
ⲅⲉⲇⲉⲱⲛ	-5146
ⲕⲓⲑⲁⲣⲁ	-5147
ⲗⲩⲭⲛⲓⲁ	-5148
ⲛⲧⲁϥⲧⲉ	-5149
ⲟⲩⲁϣⲟⲩ	-5150
ⲡⲁⲥⲙⲟⲥ	-5151
ⲡⲁⲧϩⲏⲧ	-5152
ϩⲉⲛⲉⲃⲟⲗ	-5153
▁ϩⲉⲛⲛⲟϭ	-5154
▁ϩⲙⲡⲙⲟⲩ	-5155
▁ϫⲉⲛⲛⲉϥ	-5156
▁ⲁϥϫⲓⲧϥ	-5157
▁ⲁϥⲛⲟϫϥ	-5158
▁ⲁⲓⲁⲕⲱⲃ	-5159
▁ⲉϥⲥϩⲁⲓ	-5160
▁ⲉϫⲙⲡⲉⲩ	-5161
▁ⲉϫⲛⲛⲉⲧ	-5162
▁ⲉϫⲛⲧⲉⲕ	-5163
▁ⲉⲡⲉⲕⲏⲓ	-5164
▁ⲉⲧϩⲛⲧⲉ	-5165
▁ⲉⲧⲉⲙⲡⲉ	-5166
▁ⲉⲧⲉⲛⲁⲓ	-5167
▁ⲙⲁⲩⲁⲁⲕ	-5168
▁ⲙⲛϣϭⲟⲙ	-5169
▁ⲛϥϫⲟⲟⲥ	-5170
▁ⲛϭⲓⲡⲉⲕ	-5171
▁ⲛⲁϩⲣⲁϥ	-5172
▁ⲛⲁⲟⲩⲱⲙ	-5173
▁ⲛⲛⲧⲟⲟⲩ	-5174
▁ⲛⲟⲩϭⲟⲙ	-5175
▁ⲛⲥϣⲱⲡⲉ	-5176
▁ⲛⲥⲁⲃⲏⲗ	-5177
▁ⲛⲥⲁⲡⲉϥ	-5178
▁ⲟⲩⲕⲱϩⲧ	-5179
▁ⲥⲉⲛⲁϫⲱ	-5180
ⲃⲁⲥⲁⲛⲟⲥ	-5181
ⲇⲟⲩⲙⲁⲓⲁ	-5182
ⲛⲁⲭⲱⲣⲉⲓ	-5183
ⲛⲟⲙⲓⲙⲟⲛ	-5184
ⲩⲛⲁⲅⲱⲅⲏ	-5185
ⲫⲣⲁⲅⲓⲍⲉ	-5186
ϩⲩⲡⲟⲙⲓⲛⲉ	-5187
▁ϩⲁⲧⲉⲩϩⲏ	-5188
▁ϩⲙⲡⲁⲣⲁⲛ	-5189
▁ϫⲉⲟⲩⲟⲉⲓ	-5190
▁ϯⲛⲁϣⲱⲡⲉ	-5191
▁ⲁⲩϫⲛⲟⲩϥ	-5192
▁ⲉⲙⲱⲩⲥⲏⲥ	-5193
▁ⲉⲛⲉϥϭⲓϫ	-5194
▁ⲉⲡⲉⲕⲣⲁⲛ	-5195
▁ⲉⲡⲉⲥⲣⲁⲛ	-5196
▁ⲉⲧⲃⲉⲡⲉϥ	-5197
▁ⲉⲧⲉⲙⲡⲟⲩ	-5198
▁ⲉⲩⲟⲩϫⲁⲓ	-5199
▁ⲙⲛⲓⲁⲕⲱⲃ	-5200
▁ⲙⲡⲁⲧϩⲏⲧ	-5201
▁ⲛⲁⲧⲱⲟⲩⲛ	-5202
▁ⲛⲅⲙⲟⲟϣⲉ	-5203
▁ⲛⲛⲁⲧϩⲏⲧ	-5204
▁ⲛⲛⲉⲕⲃⲁⲗ	-5205
▁ⲛⲛⲥⲟⲫⲟⲥ	-5206
▁ⲛⲟⲩⲙⲁⲥⲉ	-5207
▁ⲛⲧⲉⲡⲕⲁϩ	-5208
▁ⲛⲧⲉⲧⲛⲛⲁ	-5209
▁ⲡⲉⲧⲉⲓⲣⲉ	-5210
▁ⲡⲉⲧⲉⲟⲩⲛ	-5211
▁ⲡⲉⲧⲉⲧⲛⲁ	-5212
ⲙⲡⲉⲩϣⲓⲛⲉ	-5213
ⲛⲉϩⲓⲟⲟⲩⲉ	-5214
ⲡⲉⲡⲛⲉⲩⲙⲁ	-5215
ϩⲩⲡⲟⲧⲁⲥⲥⲉ	-5216
▁ϣⲁϩⲧⲟⲟⲩⲉ	-5217
▁ϩⲙⲡϫⲱⲱⲙⲉ	-5218
▁ϩⲛⲙⲡⲟⲗⲓⲥ	-5219
▁ⲁϩⲉⲣⲁⲧⲟⲩ	-5220
▁ⲁⲩϫⲓϣⲕⲁⲕ	-5221
▁ⲉϫⲛⲛϣⲏⲣⲉ	-5222
▁ⲉⲡⲟⲩⲟⲉⲓⲛ	-5223
▁ⲉⲩⲛⲟϭⲛⲉϭ	-5224
▁ⲕⲁⲧⲁⲥⲁⲣⲝ	-5225
▁ⲙⲙⲟⲛⲁⲭⲟⲥ	-5226
▁ⲙⲡⲉϩⲓⲉⲓⲃ	-5227
▁ⲙⲡⲟⲩⲥⲱⲧⲙ	-5228
▁ⲛⲉϩⲓⲟⲟⲩⲉ	-5229
▁ⲛⲉⲩⲙⲟⲟϣⲉ	-5230
▁ⲛⲥⲁⲧⲉⲉⲣⲉ	-5231
▁ⲛⲧⲁⲩϣⲱⲡⲉ	-5232
ⲡⲉⲓⲣⲁⲥⲙⲟⲥ	-5233
▁ⲁⲗⲗⲏⲗⲟⲩⲓⲁ	-5234
▁ⲉϫⲛⲧⲉϥⲁⲡⲉ	-5235
▁ⲉⲛⲧⲁϥϣⲱⲡⲉ	-5236
▁ⲉⲧⲉⲧⲛⲉⲓⲣⲉ	-5237
▁ⲙⲡⲣⲟⲫⲏⲧⲏⲥ	-5238
▁ⲛϭⲓⲡⲉⲛⲧⲁϥ	-5239
▁ⲛⲛⲉϥϩⲃⲏⲩⲉ	-5240
ⲡⲉⲧⲛⲁⲛⲟⲩⲟⲩ	-5241
▁ϩⲓⲧⲛⲓⲏⲥⲟⲩⲥ	-5242
▁ϩⲛⲟⲩⲡⲛⲉⲩⲙⲁ	-5243
▁ϩⲛⲧⲓⲟⲩⲇⲁⲓⲁ	-5244
▁ϫⲉⲓⲱϩⲁⲛⲛⲏⲥ	-5245
▁ϫⲉⲙⲡⲣⲣϩⲟⲧⲉ	-5246
▁ϯⲡⲁⲣⲁⲕⲁⲗⲉⲓ	-5247
▁ⲛⲉϥⲙⲁⲑⲏⲧⲏⲥ	-5248
▁ⲛⲥⲁⲡⲉϩⲣⲟⲟⲩ	-5249
▁ⲡⲉⲧⲉⲟⲩⲛⲧⲁϥ	-5250
▁ⲛⲛⲉϥⲟⲩⲉⲣⲏⲧⲉ	-5251
▁ⲙⲛⲛⲉⲅⲣⲁⲙⲙⲁⲧⲉⲩⲥ	-5252
ϥⲧ	-5253
ⲑⲟ	-5254
ⲗⲕ	-5255
ϩⲙⲥ	-5256
ϫϩϫ	-5257
ϭⲱⲙ	-5258
▁ⲁϫ	-5259
▁ⲛⲡ	-5260
▁ⲛⲣ	-5261
▁ⲭⲱ	-5262
ⲇⲁⲣ	-5263
ⲑⲓⲁ	-5264
ⲕⲟⲧ	-5265
ⲗⲟⲕ	-5266
ⲛⲁⲡ	-5267
ⲛⲥⲁ	-5268
ⲟⲣϣ	-5269
ⲟⲩⲙ	-5270
ⲣⲁⲃ	-5271
ⲥⲱⲛ	-5272
ⲭⲁⲃ	-5273
ⲭⲱⲗ	-5274
ⲱϭⲉ	-5275
ⲱⲕⲉ	-5276
ⲱⲧϩ	-5277
ϩⲙⲉⲧ	-5278
ϩⲟⲡϥ	-5279
ϩⲟⲣϣ	-5280
ϫⲃⲓⲛ	-5281
ϫⲏϭⲉ	-5282
ϭⲟⲣϭ	-5283
▁ϩⲏⲛ	-5284
▁ⲁⲟⲩ	-5285
▁ⲁⲧⲁ	-5286
▁ⲛϥⲣ	-5287
▁ⲥⲟⲩ	-5288
ⲁⲕⲓⲙ	-5289
ⲃⲁⲓⲑ	-5290
ⲓⲛⲟⲛ	-5291
ⲕⲁⲡⲉ	-5292
ⲙⲉⲓⲛ	-5293
ⲙⲓⲭⲁ	-5294
ⲙⲙⲁⲕ	-5295
ⲛⲓϥⲉ	-5296
ⲟⲗⲟⲩ	-5297
ⲧⲁⲁⲧ	-5298
ⲧⲃⲛⲏ	-5299
ⲧⲟⲩⲣ	-5300
ⲱⲥⲏⲫ	-5301
ϣⲟⲉⲓϣ	-5302
ϩⲏⲧⲟⲩ	-5303
ϩⲟⲡⲟⲩ	-5304
▁ϣⲱϫⲡ	-5305
▁ϩⲁⲧⲁ	-5306
▁ϫⲉⲁϩ	-5307
▁ϫⲉⲁⲧ	-5308
▁ϫⲉⲉⲥ	-5309
▁ϫⲓⲧⲥ	-5310
▁ϭⲱⲛⲧ	-5311
▁ⲁⲓϩⲉ	-5312
▁ⲉⲩϥⲓ	-5313
▁ⲛϩⲣⲉ	-5314
▁ⲛⲁⲣⲭ	-5315
▁ⲛⲉϥⲟ	-5316
▁ⲛⲉϩⲉ	-5317
▁ⲛⲉⲩⲉ	-5318
▁ⲛⲏⲣⲡ	-5319
▁ⲛⲓⲁⲃ	-5320
▁ⲛⲙⲙⲉ	-5321
▁ⲡⲁⲙⲁ	-5322
▁ⲧⲁⲣⲉ	-5323
ⲅⲉⲓⲗⲉ	-5324
ⲉⲓⲁⲧϥ	-5325
ⲕⲏⲧⲁⲥ	-5326
ⲗⲁⲃⲁⲛ	-5327
ⲗⲁⲇⲟⲥ	-5328
ⲛϩⲏⲧϥ	-5329
ⲛⲁⲃⲱⲕ	-5330
ⲛⲟⲩⲟⲓ	-5331
ⲟⲩⲱⲛϥ	-5332
ⲡⲉⲕϩⲟ	-5333
ⲡⲉⲧⲁⲥ	-5334
ⲡⲟⲣⲛⲏ	-5335
ⲣⲙⲉⲓⲏ	-5336
ⲣⲩⲑⲣⲁ	-5337
ⲥⲟⲟⲛⲉ	-5338
ⲥⲟⲟⲩⲉ	-5339
ⲧⲁⲙⲟⲛ	-5340
ⲧⲁⲥⲓⲁ	-5341
ⲧⲟⲡⲟⲥ	-5342
ⲫⲓⲁⲗⲏ	-5343
ⲱⲧⲓⲍⲉ	-5344
ϩⲕⲁⲉⲓⲧ	-5345
▁ϥⲛⲁⲉⲓ	-5346
▁ϩⲁⲡⲉϥ	-5347
▁ϩⲓⲃⲟⲗ	-5348
▁ϩⲓⲡⲉϥ	-5349
▁ϩⲙⲡⲟⲩ	-5350
▁ϩⲛⲛⲉⲓ	-5351
▁ϫⲉⲁⲣⲓ	-5352
▁ϫⲉⲉⲧⲓ	-5353
▁ϫⲉⲛⲁϣ	-5354
▁ϫⲉⲛⲉⲓ	-5355
▁ϫⲓⲛⲟⲩ	-5356
▁ϯⲟⲩⲱϣ	-5357
▁ϯⲥⲟⲡⲥ	-5358
▁ⲁⲥϫⲡⲟ	-5359
▁ⲉⲩⲙⲛⲧ	-5360
▁ⲙⲁⲣⲉⲛ	-5361
▁ⲙⲙⲓⲛⲉ	-5362
▁ⲙⲡⲉⲩⲥ	-5363
▁ⲙⲡⲱϩⲥ	-5364
▁ⲛϥⲃⲱⲕ	-5365
▁ⲛϭⲓⲥⲁ	-5366
▁ⲛⲁⲇⲁⲙ	-5367
▁ⲛⲁⲛⲁⲓ	-5368
▁ⲛⲥⲁⲡⲁ	-5369
▁ⲛⲥⲟⲩⲟ	-5370
▁ⲛⲥⲱⲣⲙ	-5371
▁ⲛⲧⲁⲓⲱ	-5372
▁ⲡϩⲟⲟⲩ	-5373
▁ⲡⲉⲧⲙⲉ	-5374
▁ⲡⲟⲉⲓⲕ	-5375
▁ⲡⲟⲩⲱϣ	-5376
▁ⲧⲉⲥⲃⲱ	-5377
ⲕⲟⲩϫⲁⲓ	-5378
ⲛⲁϩⲙⲉϥ	-5379
ⲛⲧⲏⲩⲧⲛ	-5380
ⲟⲩⲕⲟⲩⲓ	-5381
ⲧⲉⲧⲛⲉⲓ	-5382
ⲧⲟⲟⲧⲟⲩ	-5383
ⲧⲣϩⲟⲧⲉ	-5384
▁ϫⲉϩⲁⲡⲥ	-5385
▁ϫⲉⲁϫⲓⲥ	-5386
▁ϫⲉⲛⲅⲛⲁ	-5387
▁ⲁϥϫⲓⲥⲉ	-5388
▁ⲁⲩⲟⲩⲱⲛ	-5389
▁ⲉϥⲕⲱⲧⲉ	-5390
▁ⲉϥⲟⲩⲏϩ	-5391
▁ⲉϥⲟⲩⲱϣ	-5392
▁ⲉⲕⲣⲓⲛⲉ	-5393
▁ⲉⲙⲡⲁⲧϥ	-5394
▁ⲉⲥϩⲟⲟⲩ	-5395
▁ⲉⲧⲟⲟⲧⲉ	-5396
▁ⲉⲧⲥⲱϣⲉ	-5397
▁ⲕⲁⲧⲁⲡⲁ	-5398
▁ⲙⲁⲗⲗⲟⲛ	-5399
▁ⲙⲛⲛⲥⲱϥ	-5400
▁ⲙⲡϫⲁϫⲉ	-5401
▁ⲙⲡⲛⲟⲩⲃ	-5402
▁ⲙⲡⲛⲟⲩⲛ	-5403
▁ⲛϩⲟⲓⲛⲉ	-5404
▁ⲛϭⲓⲁⲡⲁ	-5405
▁ⲛⲣⲉϥϫⲓ	-5406
▁ⲛⲧⲉⲟⲩⲁ	-5407
▁ⲛⲧⲟⲟⲩⲛ	-5408
▁ⲡⲉϥϩⲏⲧ	-5409
▁ⲧⲁⲙⲁⲁⲩ	-5410
ⲕⲁⲧⲏⲅⲟⲣ	-5411
ⲡⲉⲕⲉⲓⲱⲧ	-5412
ⲡⲉⲧⲁⲥⲙⲁ	-5413
ⲣⲁⲧⲥⲱⲧⲙ	-5414
▁ϩⲙⲡϩⲟⲟⲩ	-5415
▁ϩⲙⲡⲁϣⲁⲓ	-5416
▁ϫⲉⲧⲉⲧⲛⲁ	-5417
▁ϯⲛⲁϫⲟⲟⲩ	-5418
▁ϯⲛⲁⲉⲓⲣⲉ	-5419
▁ⲁϥⲛⲕⲟⲧⲕ	-5420
▁ⲉⲙⲛⲗⲁⲁⲩ	-5421
▁ⲉⲙⲛⲙⲟⲟⲩ	-5422
▁ⲉⲩⲙⲉⲉⲩⲉ	-5423
▁ⲉⲩⲙⲟⲩⲧⲉ	-5424
▁ⲕⲁⲧⲁⲛⲉϥ	-5425
▁ⲙⲛⲓⲥⲁⲁⲕ	-5426
▁ⲙⲛⲡⲉϥⲏⲓ	-5427
▁ⲙⲛⲡⲉⲟⲟⲩ	-5428
▁ⲛϭⲓⲛⲧⲟϣ	-5429
▁ⲛⲃⲁⲁⲙⲡⲉ	-5430
▁ⲛⲙⲙⲏⲏϣⲉ	-5431
▁ⲛⲥⲩⲙⲉⲱⲛ	-5432
ⲙⲁⲓⲛⲟⲩⲧⲉ	-5433
ⲙⲫⲓⲃⲟⲥⲑⲉ	-5434
▁ϩⲛⲛⲉϥϭⲓϫ	-5435
▁ϩⲛⲟⲩⲉⲟⲟⲩ	-5436
▁ϩⲛⲟⲩⲥⲏϥⲉ	-5437
▁ϫⲉⲟⲩⲉⲃⲟⲗ	-5438
▁ϫⲉⲟⲩⲣⲱⲙⲉ	-5439
▁ⲛⲉϥϩⲙⲟⲟⲥ	-5440
▁ⲛⲉϥⲥⲟⲟⲩⲛ	-5441
▁ⲛⲉⲧⲣϩⲟⲧⲉ	-5442
▁ⲛⲥⲉⲟⲩⲱϣⲧ	-5443
▁ⲛⲧⲉⲣⲉϥϫⲉ	-5444
▁ⲛⲧⲉⲧⲏⲩⲧⲛ	-5445
▁ⲛⲧⲉⲧⲛϩⲉⲛ	-5446
ⲭⲙⲁⲗⲱⲧⲓⲍⲉ	-5447
▁ⲉϣⲁⲩⲙⲟⲩⲧⲉ	-5448
▁ⲉⲧⲣⲉⲩϣⲱⲡⲉ	-5449
▁ⲙⲡⲉⲧⲛⲥⲱⲧⲙ	-5450
▁ⲙⲡⲓⲟⲩⲟⲉⲓϣ	-5451
▁ⲙⲡⲡⲟⲛⲏⲣⲟⲛ	-5452
▁ⲛⲥⲁⲡⲛⲟⲩⲧⲉ	-5453
▁ϣⲁⲣⲉⲟⲩⲣⲱⲙⲉ	-5454
▁ϩⲛⲛⲉϩⲓⲟⲟⲩⲉ	-5455
▁ϩⲛⲟⲩⲕⲗⲏⲣⲟⲥ	-5456
▁ⲉⲧⲉⲧⲛⲥⲟⲟⲩⲛ	-5457
▁ⲙⲡⲁⲣⲁⲛⲟⲙⲟⲥ	-5458
ϫⲕ	-5459
ⲁϣ	-5460
ϣⲙⲧ	-5461
ϣⲛⲏ	-5462
ϩⲉϫ	-5463
ϩⲏⲙ	-5464
ϫⲱⲥ	-5465
ϯϩⲉ	-5466
▁ⲁⲅ	-5467
▁ⲡⲟ	-5468
ⲃⲁϣ	-5469
ⲅⲉⲛ	-5470
ⲇⲉⲕ	-5471
ⲗⲉϫ	-5472
ⲗⲉⲗ	-5473
ⲗⲟϫ	-5474
ⲗⲩⲡ	-5475
ⲟϭⲉ	-5476
ⲣⲓⲡ	-5477
ⲧⲙⲡ	-5478
ⲭⲉⲇ	-5479
ⲭⲏⲗ	-5480
ϩⲛⲁϥ	-5481
ϩⲟⲥⲉ	-5482
ϫⲡⲟⲕ	-5483
ϭⲃⲃⲉ	-5484
▁ϣⲁⲕ	-5485
▁ⲁⲕⲣ	-5486
▁ⲁⲥⲣ	-5487
▁ⲙⲡⲥ	-5488
▁ⲙⲫⲁ	-5489
▁ⲛⲁⲗ	-5490
▁ⲛⲕⲏ	-5491
▁ⲛⲧⲓ	-5492
▁ⲡⲱϣ	-5493
▁ⲧⲁϫ	-5494
ⲁⲓⲟⲛ	-5495
ⲅⲓⲗⲉ	-5496
ⲉⲓⲧⲛ	-5497
ⲉⲣⲏⲧ	-5498
ⲓⲙⲓⲁ	-5499
ⲙⲙⲁⲛ	-5500
ⲙⲟⲧⲛ	-5501
ⲛⲁϣⲧ	-5502
ⲛⲓⲍⲉ	-5503
ⲟⲙⲟⲩ	-5504
ⲟⲩⲟϫ	-5505
ⲟⲩⲟⲡ	-5506
ⲡⲉⲩⲥ	-5507
ⲡⲟⲩⲱ	-5508
ⲣⲁⲙⲉ	-5509
ⲣⲙⲁⲛ	-5510
ⲣⲙⲱⲛ	-5511
ⲥⲟⲩⲣ	-5512
ⲧϥⲛⲁ	-5513
ⲫⲉⲣⲉ	-5514
ⲭⲓⲱⲛ	-5515
ⲯⲓⲧⲉ	-5516
ϩⲉⲛⲛⲁ	-5517
ϩⲟⲉⲓⲙ	-5518
ϩⲣⲏⲣⲉ	-5519
ϩⲱⲱⲕⲉ	-5520
ϭⲟⲗⲧⲉ	-5521
▁ϣⲗⲏⲗ	-5522
▁ϩⲁⲛⲉ	-5523
▁ϩⲱⲃⲥ	-5524
▁ϫⲓⲛⲡ	-5525
▁ⲁϥϫⲉ	-5526
▁ⲁⲕϫⲓ	-5527
▁ⲁⲡⲉⲩ	-5528
▁ⲉⲙⲟⲩ	-5529
▁ⲉⲟⲩⲛ	-5530
▁ⲉⲧⲟϣ	-5531
▁ⲕⲛⲁⲣ	-5532
▁ⲙⲛⲥⲉ	-5533
▁ⲙⲡϣⲓ	-5534
▁ⲛϫⲱⲙ	-5535
▁ⲛⲛⲕⲉ	-5536
▁ⲛⲣⲙⲛ	-5537
▁ⲛⲧⲁⲣ	-5538
▁ⲛⲧⲕⲉ	-5539
▁ⲡϣⲣⲡ	-5540
▁ⲡⲱϩⲧ	-5541
▁ⲣⲓⲙⲉ	-5542
▁ⲥⲁϩⲱ	-5543
ⲍⲁⲣⲟⲥ	-5544
ⲓⲛⲑⲟⲥ	-5545
ⲓⲧⲉⲓⲁ	-5546
ⲕⲣⲙⲉⲥ	-5547
ⲗⲏⲑⲱⲥ	-5548
ⲙⲙⲓⲥⲉ	-5549
ⲛⲁⲁⲕⲉ	-5550
ⲡⲓⲉⲣⲟ	-5551
ⲣϭⲣⲱϩ	-5552
ⲣⲁϩⲧϥ	-5553
ⲣⲏⲏⲧⲉ	-5554
ⲣⲟⲕϩϥ	-5555
ⲣⲟⲕϩⲥ	-5556
ⲥⲁϩⲱⲕ	-5557
ⲥⲁⲃⲉⲉ	-5558
ⲥⲁⲣⲓⲁ	-5559
ⲧⲁϭⲥⲉ	-5560
ⲧⲁⲗⲏⲩ	-5561
ⲧⲓⲕⲟⲛ	-5562
ⲧⲙⲟⲕϩ	-5563
ⲩⲥⲙⲟⲥ	-5564
ⲭⲁⲓⲣⲉ	-5565
ϩⲉⲣⲁⲧⲕ	-5566
ϩⲟⲣⲟⲙⲁ	-5567
▁ϩⲓⲱⲱⲕ	-5568
▁ϩⲛⲟⲩϯ	-5569
▁ⲁϥϫⲱϩ	-5570
▁ⲁϥⲕⲱⲧ	-5571
▁ⲉϥⲥⲱⲕ	-5572
▁ⲉⲟⲩⲱϩ	-5573
▁ⲉⲩⲕⲁϩ	-5574
▁ⲙⲙⲁϩⲉ	-5575
▁ⲙⲙⲁⲁⲃ	-5576
▁ⲙⲙⲟⲩⲓ	-5577
▁ⲙⲛⲟⲩⲉ	-5578
▁ⲙⲛⲡⲉⲓ	-5579
▁ⲙⲡⲛⲟϭ	-5580
▁ⲙⲡⲛⲟⲩ	-5581
▁ⲛϥⲙⲟⲩ	-5582
▁ⲛϭⲓⲁⲃ	-5583
▁ⲛⲛⲃⲁⲗ	-5584
▁ⲛⲟⲩⲧⲉ	-5585
▁ⲛⲥⲙⲟⲩ	-5586
▁ⲛⲧⲁⲛⲁ	-5587
▁ⲡⲉⲧϩⲓ	-5588
▁ⲡⲕⲁⲕⲉ	-5589
▁ⲥⲁϩⲛⲉ	-5590
▁ⲧⲁϫⲣⲟ	-5591
▁ⲧⲟⲣⲅⲏ	-5592
▁ⲧⲱⲙⲛⲧ	-5593
▁ⲭⲱⲣⲓⲥ	-5594
ⲛⲁϩⲙⲟⲩ	-5595
ⲛⲁⲓⲧⲉⲓ	-5596
ⲛⲉⲣⲅⲉⲓ	-5597
ⲧⲁⲩⲟⲟⲩ	-5598
ⲧⲙⲁⲉⲓⲟ	-5599
ⲧⲥⲁⲃⲟⲕ	-5600
▁ϥⲛⲁⲙⲟⲩ	-5601
▁ϩⲛⲧϭⲟⲙ	-5602
▁ⲁⲓϫⲟⲟⲩ	-5603
▁ⲁⲛϣⲏⲣⲉ	-5604
▁ⲁⲩϫⲓⲧϥ	-5605
▁ⲁⲩⲕⲁⲁϥ	-5606
▁ⲉⲕⲉⲓⲣⲉ	-5607
▁ⲉⲧϩⲙⲡⲉ	-5608
▁ⲉⲧⲣϩⲱⲃ	-5609
▁ⲉⲩⲛⲁϣⲧ	-5610
▁ⲉⲩⲧⲁⲕⲟ	-5611
▁ⲕⲁⲧⲁⲟⲩ	-5612
▁ⲙⲛⲛⲥⲁⲡ	-5613
▁ⲙⲛⲡⲉⲧⲛ	-5614
▁ⲙⲡⲉϥⲙⲁ	-5615
▁ⲙⲡⲥⲁϣϥ	-5616
▁ⲛⲉⲩⲧⲟϣ	-5617
▁ⲛⲛⲉⲕϫⲓ	-5618
▁ⲛⲛⲛⲟⲃⲉ	-5619
▁ⲛⲟⲩⲱⲛϩ	-5620
▁ⲛⲣⲟⲉⲓⲥ	-5621
▁ⲛⲧϩⲓⲏⲙ	-5622
▁ⲛⲧⲉⲕϩⲉ	-5623
▁ⲟⲩϩⲏⲕⲉ	-5624
▁ⲟⲩϩⲟⲧⲉ	-5625
▁ⲟⲩⲛϭⲟⲙ	-5626
▁ⲟⲩⲛⲧⲁⲓ	-5627
▁ⲟⲩⲟⲉⲓⲛ	-5628
▁ⲡⲉⲕⲣⲁⲛ	-5629
▁ⲡⲉⲥⲙⲟⲩ	-5630
▁ⲥⲉⲛⲁⲉⲓ	-5631
▁ⲧⲉϥϭⲟⲙ	-5632
▁ⲯⲁⲗⲗⲉⲓ	-5633
ⲉⲍⲉⲕⲓⲁⲥ	-5634
ⲛⲟⲩⲣⲱⲙⲉ	-5635
ⲡⲁⲓⲇⲉⲩⲉ	-5636
ⲡⲟⲩⲟⲉⲓⲛ	-5637
ⲥϩⲟⲩⲟⲣⲧ	-5638
▁ϣⲁϥϫⲟⲟⲥ	-5639
▁ϩⲏⲅⲉⲙⲱⲛ	-5640
▁ϩⲙⲡϫⲓⲥⲉ	-5641
▁ϩⲛⲁⲙⲛⲧⲉ	-5642
▁ϩⲛⲙⲡⲩⲗⲏ	-5643
▁ϩⲛⲛⲁϭⲓϫ	-5644
▁ϩⲛⲛⲉⲩⲙⲁ	-5645
▁ϫⲉⲉⲣϣⲁⲛ	-5646
▁ϫⲉⲛⲁⲛⲟⲩ	-5647
▁ϫⲉⲡⲣⲱⲙⲉ	-5648
▁ⲁϥϫⲓⲟⲟⲣ	-5649
▁ⲁⲥⲧⲱⲟⲩⲛ	-5650
▁ⲁⲩϩⲓⲟⲩⲉ	-5651
▁ⲉϫⲛⲟⲩⲟⲛ	-5652
▁ⲉⲙⲙⲁⲁϫⲉ	-5653
▁ⲉⲙⲟⲩⲟⲩⲧ	-5654
▁ⲉⲧⲃⲉⲧⲉϥ	-5655
▁ⲉⲧⲃⲏⲏⲧⲥ	-5656
▁ⲉⲩϫⲱⲱⲙⲉ	-5657
▁ⲙⲁⲧⲁⲙⲟⲓ	-5658
▁ⲙⲛⲟⲩⲙⲛⲧ	-5659
▁ⲙⲡⲉⲛⲧⲁⲩ	-5660
▁ⲙⲡⲟⲩⲏⲏⲃ	-5661
▁ⲛⲁⲛⲟⲩⲟⲩ	-5662
▁ⲛⲁⲧⲛⲟⲃⲉ	-5663
▁ⲛⲉϥϣⲏⲣⲉ	-5664
▁ⲛⲉⲧⲉⲧⲛⲁ	-5665
▁ⲛⲧⲃⲁⲥⲁⲛ	-5666
▁ⲧⲉϥⲙⲁⲁⲩ	-5667
ⲃⲁⲥⲁⲛⲓⲍⲉ	-5668
ⲕⲁⲑⲁⲣⲧⲟⲥ	-5669
ⲛⲁⲅⲅⲉⲗⲟⲥ	-5670
ⲛⲉⲩⲉⲓⲟⲧⲉ	-5671
ⲛⲟⲩⲧⲉⲗⲏⲗ	-5672
ϭⲙⲡⲉⲩϣⲓⲛⲉ	-5673
▁ϩⲛⲭⲉⲃⲣⲱⲛ	-5674
▁ϫⲉⲡⲉⲛⲧⲁϥ	-5675
▁ⲁⲧⲉⲧⲛⲛⲁⲩ	-5676
▁ⲁⲩⲡⲁϩⲧⲟⲩ	-5677
▁ⲉⲛϩⲉⲑⲛⲟⲥ	-5678
▁ⲉⲧⲕⲛⲁⲃⲱⲕ	-5679
▁ⲉⲩϣⲟⲩⲉⲓⲧ	-5680
▁ⲙⲛⲡⲛⲟⲩⲧⲉ	-5681
▁ⲙⲡⲉϣⲧⲉⲕⲟ	-5682
▁ⲛⲗⲉⲩⲓⲧⲏⲥ	-5683
▁ⲛⲛⲉⲕϣⲏⲣⲉ	-5684
▁ⲛⲛⲉⲛⲉⲣⲏⲩ	-5685
▁ⲛⲟⲩⲉⲣⲏⲧⲉ	-5686
▁ⲛⲧⲉⲭⲁⲣⲓⲥ	-5687
▁ⲡⲉⲛⲥⲱⲧⲏⲣ	-5688
▁ⲥⲉⲛⲁⲧⲁⲕⲟ	-5689
▁ϩⲙⲡⲉⲧⲛϩⲏⲧ	-5690
▁ϩⲛϩⲉⲛϣⲁϫⲉ	-5691
▁ϩⲛⲛⲉⲧⲛϩⲏⲧ	-5692
▁ϩⲛⲟⲩⲡⲉⲧⲣⲁ	-5693
▁ϫⲉⲛϯⲥⲟⲟⲩⲛ	-5694
▁ⲁⲧⲉⲧⲛⲥⲱⲧⲙ	-5695
▁ⲉⲓⲛⲁⲧⲛⲧⲱⲛ	-5696
▁ⲉⲧⲃⲁⲃⲩⲗⲱⲛ	-5697
▁ⲙⲛⲛⲉⲕϣⲏⲣⲉ	-5698
▁ⲛϭⲓⲛⲁⲣⲭⲱⲛ	-5699
▁ⲛⲓⲉⲣⲉⲙⲓⲁⲥ	-5700
▁ⲛⲛⲉϩⲓⲟⲟⲩⲉ	-5701
▁ⲛⲛⲉⲕϩⲃⲏⲩⲉ	-5702
▁ⲛⲧⲉⲧⲛⲉⲓⲙⲉ	-5703
▁ⲥⲉⲛⲁⲕⲧⲟⲟⲩ	-5704
ⲉⲩⲁⲅⲅⲉⲗⲓⲍⲉ	-5705
ⲧⲁⲗⲁⲓⲡⲱⲣⲓⲁ	-5706
▁ϩⲛⲧⲉϥⲧⲁⲡⲣⲟ	-5707
▁ⲙⲛⲡⲉⲡⲛⲉⲩⲙⲁ	-5708
▁ⲛϭⲓⲛⲉⲧⲟⲩⲏϩ	-5709
▁ⲛⲁⲕⲁⲑⲁⲣⲧⲟⲛ	-5710
▁ⲛⲉⲡⲣⲟⲫⲏⲧⲏⲥ	-5711
▁ⲡⲉϫⲉⲧⲉⲥϩⲓⲙⲉ	-5712
▁ⲙⲛⲛⲉⲡⲣⲟⲫⲏⲧⲏⲥ	-5713
▁ⲛϭⲓⲛⲁⲣⲭⲓⲉⲣⲉⲩⲥ	-5714
ⲉϥ	-5715
ⲙϣ	-5716
ⲛϥ	-5717
ⲡⲩ	-5718
ⲧⲃ	-5719
ϣⲏⲧ	-5720
ϫⲁϫ	-5721
▁ⲥⲩ	-5722
ⲃⲏⲇ	-5723
ⲅⲁⲇ	-5724
ⲍⲉⲣ	-5725
ⲕⲟⲡ	-5726
ⲗⲉⲕ	-5727
ⲗⲱⲧ	-5728
ⲙⲓⲧ	-5729
ⲟⲛⲓ	-5730
ⲣⲉⲁ	-5731
ⲣⲱⲙ	-5732
ⲥⲏⲣ	-5733
ⲫⲟⲓ	-5734
ⲭⲉⲙ	-5735
ⲭⲉⲧ	-5736
ϣⲟⲗⲥ	-5737
ϥⲱϭⲉ	-5738
ϩⲣⲁⲩ	-5739
ϭⲁⲗⲉ	-5740
ϭⲱⲡⲉ	-5741
▁ϣⲣⲡ	-5742
▁ϩⲙⲉ	-5743
▁ⲁⲁϥ	-5744
▁ⲁⲥⲱ	-5745
▁ⲃⲟⲗ	-5746
▁ⲉⲁⲕ	-5747
▁ⲗⲟⲓ	-5748
▁ⲙⲟⲥ	-5749
▁ⲛⲁⲅ	-5750
▁ⲛⲓⲥ	-5751
▁ⲡⲟⲣ	-5752
▁ⲡⲟⲥ	-5753
▁ⲡⲱϩ	-5754
▁ⲧⲕⲉ	-5755
▁ⲱⲛϩ	-5756
ⲁⲛⲟⲕ	-5757
ⲁⲥⲓⲥ	-5758
ⲇⲟⲛⲏ	-5759
ⲇⲣⲟⲥ	-5760
ⲉⲓⲁⲧ	-5761
ⲉⲓⲗⲁ	-5762
ⲑⲁⲛⲉ	-5763
ⲕⲟⲟϩ	-5764
ⲗⲉⲓⲙ	-5765
ⲗⲟⲩⲥ	-5766
ⲙⲟⲣⲧ	-5767
ⲛⲟⲩⲧ	-5768
ⲛⲧⲏⲩ	-5769
ⲟⲃⲧⲉ	-5770
ⲡⲛⲟⲛ	-5771
ⲡⲟⲗⲟ	-5772
ⲭⲗⲟⲥ	-5773
ϣⲟⲣⲡϥ	-5774
ϩⲟⲥⲟⲛ	-5775
ϫⲁⲧϥⲉ	-5776
ϫⲓϩⲁⲡ	-5777
ϫⲟⲩⲱⲧ	-5778
▁ϣⲁⲡⲉ	-5779
▁ϫⲉⲉⲛ	-5780
▁ϭⲉⲡⲏ	-5781
▁ϯⲟⲩⲱ	-5782
▁ⲁϥⲥⲱ	-5783
▁ⲁⲣⲓⲥ	-5784
▁ⲉⲙⲉⲩ	-5785
▁ⲉⲟⲩⲉ	-5786
▁ⲉⲧⲉⲓ	-5787
▁ⲉⲧⲉⲙ	-5788
▁ⲙⲁⲁⲃ	-5789
▁ⲛϩⲁⲡ	-5790
▁ⲛⲅϥⲓ	-5791
▁ⲛⲙⲛⲉ	-5792
▁ⲛⲥⲁⲛ	-5793
▁ⲛⲥⲟϭ	-5794
▁ⲟⲩⲉϣ	-5795
▁ⲡⲁⲣⲭ	-5796
▁ⲡⲟⲩⲱ	-5797
▁ⲧⲁⲕⲉ	-5798
ⲃⲁⲣⲛⲁ	-5799
ⲃⲁⲥⲁⲛ	-5800
ⲃⲟⲟⲛⲉ	-5801
ⲑⲩⲙⲉⲓ	-5802
ⲓⲁⲑⲁⲣ	-5803
ⲕⲁⲓⲟⲥ	-5804
ⲕⲁⲩⲙⲁ	-5805
ⲕⲓⲛⲇⲩ	-5806
ⲙⲟⲛⲁⲥ	-5807
ⲛⲉϩⲥⲉ	-5808
ⲟⲓⲛⲱⲛ	-5809
ⲟⲩϩⲟⲣ	-5810
ⲟⲩⲁϣⲥ	-5811
ⲟⲩⲁϩⲕ	-5812
ⲡϣⲁϫⲉ	-5813
ⲡⲟⲩⲇⲏ	-5814
ⲣⲓⲛⲟⲛ	-5815
ⲧⲁⲓⲟⲥ	-5816
......	-5817
ϩⲩⲡⲁⲣⲭ	-5818
▁ϣⲟⲟⲩⲉ	-5819
▁ϩⲓⲛⲉϩ	-5820
▁ϩⲛⲥⲟⲩ	-5821
▁ϩⲛⲧϩⲏ	-5822
▁ϩⲟⲥⲟⲛ	-5823
▁ϩⲣⲟⲩⲑ	-5824
▁ϫⲉⲡⲙⲁ	-5825
▁ϫⲟⲉⲓⲥ	-5826
▁ϯⲉⲟⲟⲩ	-5827
▁ϯⲛⲁϥⲓ	-5828
▁ⲁϥϫⲡⲉ	-5829
▁ⲁϥⲁⲗⲉ	-5830
▁ⲁϥⲧⲁϫ	-5831
▁ⲉϥⲙⲏⲣ	-5832
▁ⲉϥⲛⲁⲩ	-5833
▁ⲉϥⲛⲏϫ	-5834
▁ⲉⲡϩⲁⲡ	-5835
▁ⲉⲡⲁⲙⲁ	-5836
▁ⲉⲩⲛⲁⲩ	-5837
▁ⲉⲩⲱⲛϩ	-5838
▁ⲙⲉϣⲁⲕ	-5839
▁ⲙⲛⲛⲉⲓ	-5840
▁ⲙⲛⲧⲉⲥ	-5841
▁ⲙⲡⲁϩⲟ	-5842
▁ⲙⲡⲃⲟⲗ	-5843
▁ⲛϩⲟⲉⲓ	-5844
▁ⲛϩⲧⲏϥ	-5845
▁ⲛⲉϥϩⲛ	-5846
▁ⲛⲉϥⲛⲁ	-5847
▁ⲛⲉⲃⲟⲗ	-5848
▁ⲛⲉⲧⲉϥ	-5849
▁ⲛⲛϩⲏⲧ	-5850
▁ⲛⲛⲉⲩⲥ	-5851
▁ⲛⲟⲩⲉⲓ	-5852
▁ⲛⲧⲉⲛⲉ	-5853
▁ⲟⲩⲃⲏⲕ	-5854
▁ⲡϣⲓⲛⲉ	-5855
▁ⲡⲉⲧϩⲛ	-5856
▁ⲥⲁϣϥⲉ	-5857
▁ⲧⲱⲱⲃⲉ	-5858
ⲃⲟⲩⲥⲑⲉ	-5859
ⲅⲱⲛⲓⲍⲉ	-5860
ⲇⲁⲓⲙⲟⲛ	-5861
ⲑⲉⲱⲣⲉⲓ	-5862
ⲓⲙⲟⲩⲧⲉ	-5863
ⲓⲥⲧⲉⲩⲉ	-5864
ⲕⲟⲥⲙⲉⲓ	-5865
ⲙⲁⲙⲁⲁⲧ	-5866
ⲙⲡⲉⲓⲙⲁ	-5867
ⲛⲁϩⲃⲉϥ	-5868
ⲛⲧⲱⲟⲩⲛ	-5869
ⲟⲛⲏⲣⲟⲥ	-5870
ⲟⲛⲟⲥⲟⲣ	-5871
ⲟⲩⲛⲟⲥϥ	-5872
ⲟⲩⲟⲛϩϥ	-5873
ⲡⲗⲁⲧⲓⲁ	-5874
ⲡⲣⲟⲟⲩϣ	-5875
ⲣⲟⲩⲛⲟϭ	-5876
ⲣⲥⲟⲟⲩⲉ	-5877
ⲥⲩⲛⲁⲅⲉ	-5878
ⲧⲁⲉⲓⲏⲩ	-5879
ⲧⲁⲛϩⲟⲓ	-5880
ⲧⲁⲟⲩⲟⲓ	-5881
ⲧⲉϥϭⲓϫ	-5882
ⲧⲙⲯⲩⲭⲏ	-5883
ⲧⲟⲩⲉⲓⲟ	-5884
ⲧⲡⲟⲗⲓⲥ	-5885
ϩⲉⲛϩⲟⲟⲩ	-5886
▁ϩⲓⲉⲃⲓⲱ	-5887
▁ϫⲉⲉⲛⲛⲁ	-5888
▁ϫⲉⲕⲁⲧⲁ	-5889
▁ⲁϥⲛⲧⲟⲩ	-5890
▁ⲁϥⲧⲁⲗⲉ	-5891
▁ⲁⲓϣⲁϫⲉ	-5892
▁ⲁⲧⲉⲧⲛⲁ	-5893
▁ⲁⲩⲕⲁⲁⲩ	-5894
▁ⲁⲩⲙⲟⲩϩ	-5895
▁ⲁⲩⲣⲓⲙⲉ	-5896
▁ⲁⲩⲧⲁⲗⲉ	-5897
▁ⲃⲟⲏⲑⲉⲓ	-5898
▁ⲉϥⲉϫⲱⲕ	-5899
▁ⲉϫⲙⲡⲉⲓ	-5900
▁ⲉϫⲙⲡⲙⲁ	-5901
▁ⲉⲃⲟⲗϩⲓ	-5902
▁ⲉⲓϣⲟⲟⲡ	-5903
▁ⲉⲛⲉⲛⲧⲁ	-5904
▁ⲉⲡϫⲁⲓⲉ	-5905
▁ⲉⲡⲉⲣⲡⲉ	-5906
▁ⲉⲡⲕⲁⲕⲉ	-5907
▁ⲉⲧⲃⲉⲧⲉ	-5908
▁ⲉⲧⲉⲥⲃⲱ	-5909
▁ⲉⲧⲟⲟⲧⲥ	-5910
▁ⲉⲧⲣⲉⲩⲥ	-5911
▁ⲉⲩⲟⲩⲏϩ	-5912
▁ⲉⲩⲟⲩⲱⲙ	-5913
▁ⲕⲁⲣⲡⲟⲥ	-5914
▁ⲕⲉⲕⲟⲩⲓ	-5915
▁ⲗⲟⲓⲡⲟⲛ	-5916
▁ⲙⲡⲟⲩⲉϣ	-5917
▁ⲛϥⲉⲓⲣⲉ	-5918
▁ⲛϯⲙⲓⲛⲉ	-5919
▁ⲛⲁϫⲓⲥⲉ	-5920
▁ⲛⲁⲉⲓⲙⲉ	-5921
▁ⲛⲁⲉⲓⲣⲉ	-5922
▁ⲛⲅϣⲱⲡⲉ	-5923
▁ⲛⲉϥⲃⲁⲗ	-5924
▁ⲛⲕⲟⲟⲩⲉ	-5925
▁ⲛⲛⲉⲧⲙⲉ	-5926
▁ⲛⲟⲩⲙⲟⲩ	-5927
▁ⲛⲥⲁⲣⲟⲩ	-5928
▁ⲛⲥⲓⲙⲱⲛ	-5929
▁ⲟⲩⲃⲟⲧⲉ	-5930
▁ⲡⲟⲩϫⲁⲓ	-5931
ⲁϩⲉⲣⲁⲧⲕ	-5932
ⲙⲟⲛⲁⲭⲟⲥ	-5933
ⲙⲡⲉϩⲟⲟⲩ	-5934
ⲙⲡⲛⲟⲩⲧⲉ	-5935
ⲛⲟⲩⲟⲉⲓϣ	-5936
ⲡⲏⲣⲉⲧⲏⲥ	-5937
ⲱⲁⲃⲓⲧⲏⲥ	-5938
▁ϥⲛⲁⲥⲱⲧⲙ	-5939
▁ϩⲉⲛⲣⲱⲙⲉ	-5940
▁ϩⲓⲡⲧⲟⲟⲩ	-5941
▁ϩⲓⲣⲙⲡⲣⲟ	-5942
▁ϩⲓⲧⲙⲡⲉϥ	-5943
▁ϩⲓⲧⲟⲟⲧⲛ	-5944
▁ϩⲛⲟⲩϩⲱⲡ	-5945
▁ϫⲉⲉϥⲧⲱⲛ	-5946
▁ⲁⲓⲟⲩⲱϣⲃ	-5947
▁ⲁⲩⲛⲟϫⲟⲩ	-5948
▁ⲉϥϣⲁⲛⲟⲩ	-5949
▁ⲉⲓⲛⲁⲃⲱⲕ	-5950
▁ⲉⲕϣⲁⲛⲟⲩ	-5951
▁ⲉⲛϥϣⲟⲟⲡ	-5952
▁ⲉⲛⲉⲛⲧⲁⲩ	-5953
▁ⲉⲧⲃⲉⲛⲁⲓ	-5954
▁ⲉⲧⲉⲧⲛϣⲁ	-5955
▁ⲉⲩϩⲙⲟⲟⲥ	-5956
▁ⲙⲙⲛⲗⲁⲁⲩ	-5957
▁ⲙⲛϥⲧⲟⲟⲩ	-5958
▁ⲙⲛⲛⲉⲧϩⲛ	-5959
▁ⲙⲛⲡϣⲏⲣⲉ	-5960
▁ⲙⲡϩⲙϩⲁⲗ	-5961
▁ⲙⲡⲁϣⲏⲣⲉ	-5962
▁ⲛϣⲉⲗⲉⲉⲧ	-5963
▁ⲛⲛⲁϩⲣⲁⲕ	-5964
▁ⲛⲛⲁϫⲁϫⲉ	-5965
▁ⲛⲛⲉⲗⲁⲁⲩ	-5966
▁ⲛⲛⲉⲯⲩⲭⲏ	-5967
▁ⲛⲛⲟⲩⲏⲏⲃ	-5968
▁ⲛⲛⲧⲱⲣⲧⲣ	-5969
▁ⲛⲥⲓⲕⲓⲙⲁ	-5970
▁ⲛⲧⲉⲧⲛϩⲉ	-5971
▁ⲡⲉⲧϣⲁϫⲉ	-5972
▁ⲧⲁϣⲉⲉⲣⲉ	-5973
▁ⲧⲉⲓⲣⲏⲛⲏ	-5974
ⲃⲁⲣⲛⲁⲃⲁⲥ	-5975
▁ϩⲙⲡⲉⲕⲣⲁⲛ	-5976
▁ϩⲛⲟⲩϩⲟⲧⲉ	-5977
▁ϩⲛⲧⲉⲭⲱⲣⲁ	-5978
▁ϫⲉⲟⲩⲛϭⲟⲙ	-5979
▁ⲁϥⲙⲟⲩⲟⲩⲧ	-5980
▁ⲁⲃⲓⲙⲉⲗⲉⲭ	-5981
▁ⲉϥϣⲟⲩⲉⲓⲧ	-5982
▁ⲉⲛⲉⲛⲧⲟⲗⲏ	-5983
▁ⲉⲩⲛⲁϣⲱⲡⲉ	-5984
▁ⲙⲁⲧⲥⲁⲃⲟⲓ	-5985
▁ⲙⲡⲉϥϭⲱⲛⲧ	-5986
▁ⲛⲉϥϩⲃⲏⲩⲉ	-5987
▁ⲛⲛⲉⲩⲯⲩⲭⲏ	-5988
▁ⲛⲟⲩⲟⲩⲛⲟϥ	-5989
▁ⲛⲧⲛⲥⲟⲟⲩⲛ	-5990
▁ⲟⲩⲡⲓⲥⲧⲟⲥ	-5991
ⲇⲁⲓⲙⲟⲛⲓⲟⲛ	-5992
ⲟⲓⲕⲟⲛⲟⲙⲟⲥ	-5993
ⲡⲁⲣⲁⲅⲅⲓⲗⲉ	-5994
ⲡⲓⲟⲣⲇⲁⲛⲏⲥ	-5995
ⲡⲣⲟⲥⲧⲁⲅⲙⲁ	-5996
ⲧⲁϩⲉⲣⲁⲧⲟⲩ	-5997
ⲯⲁⲗⲧⲏⲣⲓⲟⲛ	-5998
▁ϩⲛⲟⲩⲧⲁⲡⲣⲟ	-5999
▁ϫⲉⲧⲉⲓⲣⲏⲛⲏ	-6000
▁ⲉⲧⲡⲓⲥⲧⲉⲩⲉ	-6001
▁ⲉⲧⲣⲉⲥϣⲱⲡⲉ	-6002
▁ⲙⲛⲛⲥⲁⲧⲣⲉϥ	-6003
▁ⲙⲛⲟⲩⲥϩⲓⲙⲉ	-6004
▁ⲙⲡⲡⲟⲗⲉⲙⲟⲥ	-6005
▁ⲛϩⲉⲛⲕⲟⲟⲩⲉ	-6006
▁ⲛϭⲓⲛⲉϩⲟⲟⲩ	-6007
▁ⲛϭⲓⲡⲁⲉⲓⲱⲧ	-6008
▁ⲛⲟⲩⲭⲟⲣⲧⲟⲥ	-6009
▁ⲛⲥⲁⲧⲁⲯⲩⲭⲏ	-6010
▁ⲛⲧⲉⲧⲛⲥⲱⲧⲙ	-6011
▁ⲟⲩⲉϩⲥⲁϩⲛⲉ	-6012
ⲕⲗⲏⲣⲟⲛⲟⲙⲟⲥ	-6013
▁ⲉⲧⲉⲧⲛⲛⲁⲃⲱⲕ	-6014
▁ⲉⲩⲙⲛⲧⲙⲛⲧⲣⲉ	-6015
▁ⲕⲁⲧⲁⲡⲛⲟⲙⲟⲥ	-6016
▁ⲙⲙⲛⲧⲥⲛⲟⲟⲩⲥ	-6017
▁ⲙⲛϩⲉⲛϣⲡⲏⲣⲉ	-6018
▁ⲙⲛⲓⲱϩⲁⲛⲛⲏⲥ	-6019
▁ⲛⲁⲣⲭⲓⲉⲣⲉⲩⲥ	-6020
▁ⲛⲛⲉⲧⲑⲃⲃⲓⲏⲩ	-6021
▁ϩⲓⲧⲛⲧⲡⲓⲥⲧⲓⲥ	-6022
▁ϩⲛⲧⲉⲕⲕⲗⲏⲥⲓⲁ	-6023
▁ⲙⲡⲉⲧϩⲓⲧⲟⲩⲱⲕ	-6024
▁ⲛⲇⲓⲕⲁⲓⲟⲥⲩⲛⲏ	-6025
▁ⲛⲛⲁⲙⲟⲣⲣⲁⲓⲟⲥ	-6026
▁ⲙⲛⲛⲉϥⲙⲁⲑⲏⲧⲏⲥ	-6027
▁ϩⲙⲡⲉⲩⲁⲅⲅⲉⲗⲓⲟⲛ	-6028
▁ⲙⲛⲧϩⲓⲉⲣⲟⲩⲥⲁⲗⲏⲙ	-6029
ϩⲗ	-6030
ϭⲡ	-6031
▁ⲍ	-6032
ⲁϩ	-6033
ⲁⲅ	-6034
ⲉⲕ	-6035
ⲏϫ	-6036
ⲗϥ	-6037
ϣⲣⲱ	-6038
ϥⲉⲧ	-6039
ϩⲓⲡ	-6040
ϭⲟⲩ	-6041
▁··	-6042
▁ⲃⲉ	-6043
ⲇⲣⲉ	-6044
ⲗϭⲟ	-6045
ⲟⲏⲑ	-6046
ⲟⲕⲙ	-6047
ⲟⲙⲥ	-6048
ⲟⲟⲧ	-6049
ⲡⲉϩ	-6050
ⲡⲛⲁ	-6051
ⲣⲉⲛ	-6052
ⲥⲏϣ	-6053
ⲫⲁⲛ	-6054
ⲭⲟⲇ	-6055
ⲱⲛϣ	-6056
ⲱⲱϥ	-6057
ϣⲏⲩⲉ	-6058
ϣⲟⲙⲧ	-6059
ϩⲙⲟⲙ	-6060
ϩⲣⲱⲧ	-6061
ϭⲟⲟϣ	-6062
ϭⲱⲃⲉ	-6063
▁···	-6064
▁ϩⲛⲥ	-6065
▁ϫⲱϩ	-6066
▁ⲁϥⲕ	-6067
▁ⲉⲣⲙ	-6068
▁ⲕⲧⲉ	-6069
▁ⲙⲉⲥ	-6070
▁ⲛⲁⲡ	-6071
▁ⲛⲇⲁ	-6072
▁ⲛⲉⲙ	-6073
▁ⲡϣⲁ	-6074
▁ⲡⲁⲃ	-6075
▁ⲡⲱⲓ	-6076
▁ⲣⲉⲕ	-6077
▁ⲱⲛⲉ	-6078
ⲁⲛⲁⲛ	-6079
ⲃⲃⲁⲓ	-6080
ⲇⲇⲟⲩ	-6081
ⲉⲧⲟⲥ	-6082
ⲙⲁⲕⲁ	-6083
ⲛⲟϫⲕ	-6084
ⲟⲃϣϥ	-6085
ⲟⲓⲱⲥ	-6086
ⲟⲛⲧⲁ	-6087
ⲡⲉϩⲧ	-6088
ⲣⲉⲩⲉ	-6089
ⲥⲉⲡⲥ	-6090
ⲥⲱⲃϩ	-6091
ⲥⲱⲱϥ	-6092
ⲧⲁϩⲙ	-6093
ⲩⲣⲓⲁ	-6094
ϣⲟⲩⲣⲏ	-6095
ϫⲓⲟⲩⲁ	-6096
ϭⲣⲁϩⲧ	-6097
ϯⲁⲛⲟⲥ	-6098
▁ϩⲱⲱⲧ	-6099
▁ϫⲉⲕⲱ	-6100
▁ϫⲓⲛⲧ	-6101
▁ϫⲟⲥⲉ	-6102
▁ⲁⲛⲧⲁ	-6103
▁ⲁⲡⲟⲗ	-6104
▁ⲃⲁⲓⲑ	-6105
▁ⲉⲕⲉⲣ	-6106
▁ⲉⲡϩⲟ	-6107
▁ⲉⲧϩⲏ	-6108
▁ⲉⲧⲕⲱ	-6109
▁ⲉⲩⲙⲉ	-6110
▁ⲉⲩⲟⲩ	-6111
▁ⲙⲛⲙⲡ	-6112
▁ⲙⲡⲓⲁ	-6113
▁ⲙⲡⲓⲉ	-6114
▁ⲛϩⲣⲱ	-6115
▁ⲛⲃⲟⲗ	-6116
▁ⲛⲃⲱⲕ	-6117
▁ⲛⲉⲩⲟ	-6118
▁ⲛⲛⲓⲁ	-6119
▁ⲟⲩⲁⲧ	-6120
▁ⲟⲩⲏϩ	-6121
▁ⲡϩⲁⲡ	-6122
▁ⲡⲁϩⲟ	-6123
▁ⲡⲱⲛⲉ	-6124
▁ⲣϩⲱⲃ	-6125
▁ⲧⲁⲭⲏ	-6126
ⲁⲩⲥⲓⲥ	-6127
ⲇⲓⲱⲕⲉ	-6128
ⲓⲛⲉⲉⲥ	-6129
ⲙϩⲁⲟⲩ	-6130
ⲙⲁⲉⲓⲟ	-6131
ⲙⲁⲧⲟⲓ	-6132
ⲙⲟⲕϩⲥ	-6133
ⲙⲡⲉⲧⲛ	-6134
ⲛⲟⲩⲉϣ	-6135
ⲟⲕⲕⲟⲥ	-6136
ⲟⲩⲟϣϥ	-6137
ⲟⲩⲱϩⲙ	-6138
ⲡⲧⲱⲙⲁ	-6139
ⲣⲁⲕⲧϥ	-6140
ⲥⲉⲓⲁⲧ	-6141
ⲧⲁϩⲟⲕ	-6142
ⲧⲁⲙⲟϥ	-6143
ⲧⲉⲕⲛⲁ	-6144
ⲧⲟϭⲟⲩ	-6145
ⲧⲟⲗⲙⲁ	-6146
ⲭⲟⲣⲟⲥ	-6147
ⲭⲱⲣⲏⲃ	-6148
ϫⲓⲥⲙⲟⲩ	-6149
▁ϣⲁⲣⲉⲛ	-6150
▁ϩⲁⲣⲱϥ	-6151
▁ϩⲉⲛⲟⲩ	-6152
▁ϩⲓϫⲛⲛ	-6153
▁ϩⲓⲱⲱⲥ	-6154
▁ϩⲙⲡⲉⲛ	-6155
▁ϩⲟⲟⲩⲧ	-6156
▁ϫⲉϩⲣⲁ	-6157
▁ϫⲉϩⲱⲃ	-6158
▁ϫⲉⲧⲱⲕ	-6159
▁ⲁϥⲛⲉϫ	-6160
▁ⲁϥⲱⲣⲕ	-6161
▁ⲁⲛⲛⲁⲩ	-6162
▁ⲁⲥⲛⲁⲩ	-6163
▁ⲉϥⲛⲁⲣ	-6164
▁ⲉϥⲡⲏⲧ	-6165
▁ⲉϫⲟⲟⲥ	-6166
▁ⲉⲙⲏⲥⲉ	-6167
▁ⲉⲙⲡⲁⲧ	-6168
▁ⲉⲛⲁϣⲉ	-6169
▁ⲉⲥⲛⲏⲩ	-6170
▁ⲉⲧϩⲏⲡ	-6171
▁ⲉⲩⲙⲉϩ	-6172
▁ⲓⲥⲁⲁⲕ	-6173
▁ⲕⲁⲕⲱⲥ	-6174
▁ⲕⲟⲩⲱϣ	-6175
▁ⲙⲙⲟⲉⲓ	-6176
▁ⲙⲡⲁⲧⲉ	-6177
▁ⲛϣⲃⲏⲣ	-6178
▁ⲛϫⲁϫⲉ	-6179
▁ⲛⲁⲑⲁⲃ	-6180
▁ⲛⲁⲣⲭⲏ	-6181
▁ⲛⲉϣⲁⲩ	-6182
▁ⲛⲕⲟⲧⲕ	-6183
▁ⲛⲛⲱϩⲉ	-6184
▁ⲛⲟⲣⲅⲏ	-6185
▁ⲛⲟⲩⲱϣ	-6186
▁ⲛⲧⲁϩⲉ	-6187
▁ⲛⲧⲉⲡⲁ	-6188
▁ⲛⲧⲉⲥⲁ	-6189
▁ⲟⲩⲣⲉϥ	-6190
▁ⲟⲩⲣⲣⲟ	-6191
▁ⲡⲉⲓⲕⲉ	-6192
▁ⲥⲁϩⲱⲕ	-6193
▁ⲧⲁⲣⲉϥ	-6194
▁ⲧⲉⲗⲏⲗ	-6195
ⲃⲁⲣⲟⲩⲭ	-6196
ⲃⲟⲩⲭⲟⲇ	-6197
ⲓⲙⲏⲏϣⲉ	-6198
ⲕⲉϣⲏⲣⲉ	-6199
ⲕⲉⲇⲣⲟⲥ	-6200
ⲗⲩⲡⲧⲟⲛ	-6201
ⲛⲁⲥⲛⲏⲩ	-6202
ⲛⲟⲩⲱϣⲧ	-6203
ⲛⲧⲉⲛⲟⲩ	-6204
ⲣⲛⲟϥⲣⲉ	-6205
ⲣⲛⲟⲉⲓⲕ	-6206
ⲥⲁⲙⲯⲱⲛ	-6207
ⲧⲟⲩϫⲟⲛ	-6208
ⲧⲣⲁⲡⲏⲥ	-6209
ⲭⲟⲩⲥⲉⲓ	-6210
ϥⲁⲓⲛⲁϩⲃ	-6211
ϭⲓⲛϣⲁϫⲉ	-6212
▁ϩⲓϫⲛⲧⲁ	-6213
▁ϩⲓⲧⲛⲧⲉ	-6214
▁ϩⲓⲧⲟⲟⲧ	-6215
▁ϩⲛⲟⲩⲏⲓ	-6216
▁ϩⲛⲧϩⲁⲏ	-6217
▁ϫⲉϣⲁⲣⲉ	-6218
▁ϫⲉⲙⲁⲣⲛ	-6219
▁ϫⲉⲙⲡⲉⲣ	-6220
▁ⲁϥⲧⲁⲁⲥ	-6221
▁ⲁⲓⲥϩⲁⲓ	-6222
▁ⲁⲕⲉⲓⲣⲉ	-6223
▁ⲁⲡⲣⲱⲙⲉ	-6224
▁ⲁⲩϣⲱⲱⲧ	-6225
▁ⲁⲩⲁϣⲁⲓ	-6226
▁ⲁⲩⲙⲓϣⲉ	-6227
▁ⲁⲩⲣⲁϣⲉ	-6228
▁ⲁⲩⲣⲱⲙⲉ	-6229
▁ⲉϥⲙⲟⲩϩ	-6230
▁ⲉϥⲟⲩⲱⲙ	-6231
▁ⲉⲣⲉⲡⲉⲧ	-6232
▁ⲉⲧϣⲁϫⲉ	-6233
▁ⲉⲧϫⲟⲟⲣ	-6234
▁ⲉⲧⲉⲕⲛⲁ	-6235
▁ⲉⲧⲉⲛⲟⲩ	-6236
▁ⲉⲧⲉⲣⲉⲛ	-6237
▁ⲉⲧⲣⲉϥϯ	-6238
▁ⲉⲩϣⲏⲣⲉ	-6239
▁ⲉⲩϭⲱϣⲧ	-6240
▁ⲉⲩⲛⲁⲉⲣ	-6241
▁ⲓⲉⲫⲑⲁⲉ	-6242
▁ⲕⲛⲁⲙⲟⲩ	-6243
▁ⲙⲡⲉⲕⲏⲓ	-6244
▁ⲛϫⲓⲛϫⲏ	-6245
▁ⲛⲅⲉⲛⲉⲁ	-6246
▁ⲛⲉⲧⲛⲏⲩ	-6247
▁ⲛⲙⲙⲟⲟⲩ	-6248
▁ⲛⲛⲉⲧⲛⲣ	-6249
▁ⲛⲛⲗⲁⲟⲥ	-6250
▁ⲛⲟⲩⲕⲁϩ	-6251
▁ⲛⲧϩⲟⲧⲉ	-6252
▁ⲛⲧⲥⲁⲧⲉ	-6253
▁ⲟⲩⲗⲁⲟⲥ	-6254
▁ⲟⲩⲛⲧⲁϥ	-6255
▁ⲟⲩⲛⲧⲁⲛ	-6256
▁ⲡⲉⲥϩⲁⲓ	-6257
▁ⲡⲉⲧⲉⲟⲩ	-6258
▁ⲡⲙⲉⲣⲓⲧ	-6259
▁ⲥⲟⲩⲧⲱⲛ	-6260
▁ⲧⲁϩⲟⲟⲩ	-6261
▁ⲧⲏⲟⲩⲧⲛ	-6262
ⲁⲣⲑⲉⲛⲟⲥ	-6263
ⲇⲉⲓⲡⲛⲟⲛ	-6264
ⲍⲱⲣⲁⲓⲟⲥ	-6265
ⲙⲉϩⲥⲁϣϥ	-6266
ⲙⲛⲧϩⲏⲕⲉ	-6267
ⲛⲉⲛⲛⲟⲃⲉ	-6268
ⲛⲧⲁⲧϩⲏⲧ	-6269
ⲣⲉϥϯϩⲁⲡ	-6270
ⲧⲁⲙⲁϩⲧⲉ	-6271
ⲧⲁⲟⲩⲟⲉⲓ	-6272
▁ϣⲟⲩϩⲏⲛⲉ	-6273
▁ϩⲉⲛϩⲟⲟⲩ	-6274
▁ϩⲓϫⲙⲡⲉϥ	-6275
▁ϩⲓⲡⲉⲕⲣⲟ	-6276
▁ϩⲙⲡⲟⲩⲱϣ	-6277
▁ϩⲛⲟⲩϩⲓⲏ	-6278
▁ϩⲛⲧϩⲟⲧⲉ	-6279
▁ϩⲟⲙⲟⲓⲱⲥ	-6280
▁ϯⲛⲁϣⲁϫⲉ	-6281
▁ⲁϥⲧⲁϩⲟϥ	-6282
▁ⲁⲓⲙⲟⲟϣⲉ	-6283
▁ⲁⲩϯⲉⲟⲟⲩ	-6284
▁ⲁⲩⲧⲁⲙⲓⲟ	-6285
▁ⲉϥⲟⲩⲟⲃϣ	-6286
▁ⲉⲕⲥⲟⲟⲩⲛ	-6287
▁ⲉⲙⲟⲟⲩⲧϥ	-6288
▁ⲉⲛⲧⲁⲩⲉⲓ	-6289
▁ⲉⲟⲩⲉⲃⲟⲗ	-6290
▁ⲉⲧϩⲓⲃⲟⲗ	-6291
▁ⲉⲧⲥⲟⲫⲓⲁ	-6292
▁ⲕⲛⲁϫⲟⲟⲥ	-6293
▁ⲙⲡϥⲥⲱⲧⲙ	-6294
▁ⲙⲡϭⲉⲣⲱⲃ	-6295
▁ⲙⲡⲉⲕⲗⲟⲙ	-6296
▁ⲙⲡⲉⲙϩⲓⲧ	-6297
▁ⲙⲡⲉⲩⲕⲁϩ	-6298
▁ⲙⲡⲓⲥⲧⲓⲥ	-6299
▁ⲙⲡⲟⲩϫⲁⲓ	-6300
▁ⲙⲡⲣϣⲱⲡⲉ	-6301
▁ⲛϥⲧⲱⲟⲩⲛ	-6302
▁ⲛϭⲓⲛⲉⲧⲛ	-6303
▁ⲛⲉⲣⲣⲱⲟⲩ	-6304
▁ⲛⲓⲟⲩⲇⲁⲥ	-6305
▁ⲛⲣⲙⲛϩⲏⲧ	-6306
▁ⲛⲥⲁⲥⲡⲓⲣ	-6307
▁ⲛⲥⲟⲇⲟⲙⲁ	-6308
▁ⲛⲧⲁϥⲁⲁⲩ	-6309
▁ⲛⲧⲥⲩⲣⲓⲁ	-6310
▁ⲡⲉⲛⲧⲁϥϯ	-6311
ⲛⲉⲕⲗⲟⲟⲗⲉ	-6312
ⲟⲩⲛϣⲟⲙⲛⲧ	-6313
ⲣⲉϥⲙⲟⲟⲩⲧ	-6314
ⲥⲩⲛϩⲓⲥⲧⲁ	-6315
ⲭⲉⲧⲧⲁⲓⲟⲥ	-6316
▁ϩⲛⲧⲙⲏⲏⲧⲉ	-6317
▁ϫⲓⲛⲁⲣⲏϫϥ	-6318
▁ⲁⲁⲃⲣⲁϩⲁⲙ	-6319
▁ⲉϫⲙⲡⲗⲁⲟⲥ	-6320
▁ⲉⲡⲉⲓϣⲁϫⲉ	-6321
▁ⲉⲧϣⲟⲩⲉⲓⲧ	-6322
▁ⲉⲧⲉⲙⲛⲧⲟⲩ	-6323
▁ⲕⲁⲧⲁⲡⲧⲱϣ	-6324
▁ⲙⲙⲱⲟⲩⲥⲏⲥ	-6325
▁ⲙⲡⲁⲟⲩϫⲁⲓ	-6326
▁ⲙⲡⲉϥϣⲁϫⲉ	-6327
▁ⲙⲡⲉϥⲟⲩⲟⲓ	-6328
▁ⲙⲡⲉϥⲧⲟⲟⲩ	-6329
▁ⲙⲡⲉⲓⲣⲱⲙⲉ	-6330
▁ⲛϥⲧⲙϣⲱⲡⲉ	-6331
▁ⲛϩⲉⲛϣⲏⲣⲉ	-6332
▁ⲛⲉⲧⲙⲟⲟϣⲉ	-6333
▁ⲛⲉⲩϩⲓⲟⲙⲉ	-6334
▁ⲛⲛⲉϩⲓⲟⲙⲉ	-6335
▁ⲛⲛⲉⲕϣⲁϫⲉ	-6336
▁ⲛⲛⲉⲛⲧⲟⲗⲏ	-6337
▁ⲛⲟⲩϣⲟϫⲛⲉ	-6338
▁ⲛⲟⲩϩⲙϩⲁⲗ	-6339
▁ⲛⲣⲙⲛⲕⲏⲙⲉ	-6340
▁ⲛⲥⲁⲗⲡⲓⲅⲝ	-6341
▁ⲛⲥⲟⲗⲟⲙⲱⲛ	-6342
▁ⲛⲧϩⲉⲗⲡⲓⲥ	-6343
▁ⲛⲧⲁⲛⲟⲙⲓⲁ	-6344
▁ⲡⲉⲟⲩⲟⲉⲓϣ	-6345
▁ⲡⲉⲧϩⲁⲣⲉϩ	-6346
▁ⲧⲇⲓⲁⲑⲏⲕⲏ	-6347
▁ⲧⲉⲝⲟⲩⲥⲓⲁ	-6348
ⲥⲧⲣⲁⲧⲉⲩⲙⲁ	-6349
ⲧⲕⲟⲓⲃⲱⲧⲟⲥ	-6350
ϩⲩⲡⲁⲣⲭⲟⲛⲧⲁ	-6351
▁ϩⲛⲛⲉⲧϫⲟⲥⲉ	-6352
▁ⲁⲩⲡⲓⲥⲧⲉⲩⲉ	-6353
▁ⲉⲛⲉϩⲓⲟⲟⲩⲉ	-6354
▁ⲙⲁⲣⲉϥⲥⲱⲧⲙ	-6355
▁ⲙⲛⲓⲱⲛⲁⲑⲁⲛ	-6356
▁ⲙⲛⲛϩⲉⲑⲛⲟⲥ	-6357
▁ⲙⲛⲛⲉⲛⲉⲣⲏⲩ	-6358
▁ⲙⲡⲉⲧⲟⲩⲁⲁⲃ	-6359
▁ⲙⲡⲥⲁⲧⲁⲛⲁⲥ	-6360
▁ⲛⲉⲧⲛⲁϣⲱⲡⲉ	-6361
▁ⲛⲙⲙⲁⲑⲏⲧⲏⲥ	-6362
▁ⲛⲛⲉⲧⲛϣⲏⲣⲉ	-6363
▁ⲛⲟⲩϩⲉⲑⲛⲟⲥ	-6364
▁ⲛⲧⲉⲝⲟⲩⲥⲓⲁ	-6365
▁ⲛⲧⲉⲧⲛϣⲙϣⲉ	-6366
▁ⲛⲧⲉⲧⲛⲟⲩⲱⲙ	-6367
▁ⲥⲉⲛⲁⲙⲟⲟϣⲉ	-6368
ⲁⲓⲭⲙⲁⲗⲱⲥⲓⲁ	-6369
ⲡⲁⲣⲁⲅⲅⲉⲓⲗⲉ	-6370
▁ϣⲁⲓⲉⲣⲉⲙⲓⲁⲥ	-6371
▁ϩⲛⲛⲉϥϩⲃⲏⲩⲉ	-6372
▁ⲉϫⲛⲛϩⲉⲑⲛⲟⲥ	-6373
▁ⲉⲓⲛⲁⲧⲛⲧⲱⲛⲅ	-6374
▁ⲙⲛⲛⲧⲃⲛⲟⲟⲩⲉ	-6375
▁ⲙⲡⲉⲓⲕⲟⲥⲙⲟⲥ	-6376
▁ⲛϭⲓⲡⲓⲥⲣⲁⲏⲗ	-6377
▁ⲛⲛⲉⲕⲉⲛⲧⲟⲗⲏ	-6378
▁ⲛⲛⲉⲕⲕⲗⲏⲥⲓⲁ	-6379
▁ⲛⲥⲁⲣⲟⲩⲉⲓⲁⲥ	-6380
▁ⲛⲧⲅⲁⲗⲓⲗⲁⲓⲁ	-6381
▁ⲛⲧⲙⲛⲧⲣⲙⲙⲁⲟ	-6382
▁ⲡⲁⲡⲟⲥⲧⲟⲗⲟⲥ	-6383
▁ϩⲙⲡⲥⲁⲃⲃⲁⲧⲟⲛ	-6384
▁ϩⲛⲧⲅⲁⲗⲓⲗⲁⲓⲁ	-6385
▁ⲉⲧⲉⲧⲛⲉϩⲁⲣⲉϩ	-6386
▁ⲙⲛⲡⲉⲭⲣⲓⲥⲧⲟⲥ	-6387
▁ⲛϩⲉⲛⲃⲁⲓϣⲓⲛⲉ	-6388
▁ⲛⲧⲉⲣⲉϩⲧⲟⲟⲩⲉ	-6389
▁ⲧⲁⲥⲭⲏⲙⲟⲥⲩⲛⲏ	-6390
ⲃⲟⲩⲭⲟⲇⲟⲛⲟⲥⲟⲣ	-6391
▁ⲉⲧⲉⲧⲛϣⲁⲛⲥⲱⲧⲙ	-6392
▁ⲙⲡⲛⲉⲩⲙⲁⲧⲓⲕⲟⲛ	-6393
▁ⲡⲉϫⲉⲡⲁⲅⲅⲉⲗⲟⲥ	-6394
▁ⲛⲟⲩⲑⲩⲥⲓⲁⲥⲧⲏⲣⲓⲟⲛ	-6395
ϫⲥ	-6396
ⲏⲙ	-6397
ⲓⲣ	-6398
ϣⲃⲣ	-6399
ϣⲛⲥ	-6400
ϩⲙϫ	-6401
ϩⲟⲟ	-6402
ϫⲟⲗ	-6403
ϭⲏⲡ	-6404
ϯⲃⲥ	-6405
▁ⲉϭ	-6406
▁ⲏⲡ	-6407
▁ⲡⲏ	-6408
ⲃϩⲉ	-6409
ⲃⲃⲟ	-6410
ⲃⲏϥ	-6411
ⲑⲁⲙ	-6412
ⲗⲁⲝ	-6413
ⲗⲁⲩ	-6414
ⲗⲏⲥ	-6415
ⲟⲣⲟ	-6416
ⲡⲉⲣ	-6417
ⲥⲉⲕ	-6418
ⲥⲏⲥ	-6419
ϩⲟⲩⲉ	-6420
ϩⲩⲡⲟ	-6421
ϭⲉⲉⲧ	-6422
▁ϣⲉⲡ	-6423
▁ϩⲛⲕ	-6424
▁ⲁⲗⲉ	-6425
▁ⲙⲏⲧ	-6426
▁ⲛⲕⲱ	-6427
▁ⲛⲙⲓ	-6428
▁ⲛⲙⲧ	-6429
▁ⲡⲁⲩ	-6430
▁ⲣⲣⲟ	-6431
▁ⲧⲁϯ	-6432
ⲁⲥⲡⲉ	-6433
ⲃⲛⲛⲉ	-6434
ⲅⲉⲗⲏ	-6435
ⲏⲥⲟⲥ	-6436
ⲑⲙⲕⲉ	-6437
ⲓⲕⲣⲟ	-6438
ⲕⲱⲗⲩ	-6439
ⲙⲛⲟⲥ	-6440
ⲛⲏⲫⲉ	-6441
ⲛⲟⲩϭ	-6442
ⲛⲧⲱⲥ	-6443
ⲟⲟⲩϣ	-6444
ⲟⲩⲉⲛ	-6445
ⲡⲁⲧⲁ	-6446
ⲡⲉⲧⲉ	-6447
ⲣⲟⲕϩ	-6448
ⲣⲟⲟⲃ	-6449
ⲣⲟⲩⲣ	-6450
ⲣⲡⲕⲉ	-6451
ⲥⲃⲟⲕ	-6452
ⲥⲉϣϥ	-6453
ⲧⲉϩⲙ	-6454
ⲧⲑⲁⲃ	-6455
ⲧⲟϭϥ	-6456
ⲧⲟⲛϩ	-6457
▁ϣⲓⲃⲉ	-6458
▁ϣⲟⲩⲟ	-6459
▁ϩⲛⲁϣ	-6460
▁ϩⲛⲙⲁ	-6461
▁ϩⲛⲛⲓ	-6462
▁ϩⲛⲡⲉ	-6463
▁ϩⲣⲟϣ	-6464
▁ϫⲉϥⲓ	-6465
▁ϯⲥⲃⲱ	-6466
▁ⲁϥⲉⲣ	-6467
▁ⲁϩⲟⲙ	-6468
▁ⲁⲕⲉⲓ	-6469
▁ⲁⲟⲩⲁ	-6470
▁ⲁⲩⲧⲱ	-6471
▁ⲉϥϣⲁ	-6472
▁ⲉϥϩⲁ	-6473
▁ⲉϫⲛⲁ	-6474
▁ⲉⲁϥⲣ	-6475
▁ⲉⲉⲓⲉ	-6476
▁ⲉⲝⲉⲥ	-6477
▁ⲉⲡⲁⲥ	-6478
▁ⲉⲡⲣⲏ	-6479
▁ⲉⲧⲁⲓ	-6480
▁ⲉⲩⲥⲁ	-6481
▁ⲙⲉⲣⲓ	-6482
▁ⲙⲡϣⲱ	-6483
▁ⲙⲡϥⲣ	-6484
▁ⲙⲡⲣⲉ	-6485
▁ⲛϥϥⲓ	-6486
▁ⲛϥϫⲱ	-6487
▁ⲛⲁⲡⲉ	-6488
▁ⲛⲟⲩϭ	-6489
▁ⲛⲧⲁⲁ	-6490
▁ⲛⲧⲃⲱ	-6491
▁ⲧⲁϩⲟ	-6492
▁ⲧⲁⲩⲉ	-6493
▁ⲧⲃⲃⲟ	-6494
▁ⲧⲛⲟϭ	-6495
▁ⲧⲱⲟⲩ	-6496
ⲅⲓⲅⲁⲥ	-6497
ⲇⲱⲣⲉⲁ	-6498
ⲑⲁⲉⲓⲙ	-6499
ⲕⲏⲡⲟⲥ	-6500
ⲕⲟⲙⲉⲥ	-6501
ⲙⲉⲣⲉϩ	-6502
ⲛⲟⲙⲧⲉ	-6503
ⲟⲏⲑⲟⲥ	-6504
ⲟⲟⲧⲟⲩ	-6505
ⲟⲣⲓⲛⲏ	-6506
ⲟⲩⲱⲥϥ	-6507
ⲡⲉⲣⲓⲥ	-6508
ⲡⲗⲁⲛⲏ	-6509
ⲣⲉⲥⲕⲉ	-6510
ⲣⲡⲃⲟⲗ	-6511
ⲥⲟⲗⲥⲗ	-6512
ⲥⲟⲩⲟⲓ	-6513
ⲥⲧⲣⲟⲛ	-6514
ⲧⲁϩⲟⲥ	-6515
ⲧⲁⲕⲟϥ	-6516
ⲧⲣⲟⲫⲏ	-6517
ⲫⲁⲣⲛⲁ	-6518
ϩⲁⲓⲥⲟⲩ	-6519
ϩⲉϫϩⲱϫ	-6520
ϩⲟⲙⲟⲗⲟ	-6521
ϫⲓⲉⲟⲟⲩ	-6522
▁ϥⲛⲁⲕⲱ	-6523
▁ϩⲓϫⲱⲛ	-6524
▁ϩⲛϩⲁϩ	-6525
▁ϫⲉⲙⲙⲛ	-6526
▁ⲁϥϫⲱⲕ	-6527
▁ⲁϥⲕⲧⲟ	-6528
▁ⲁϥⲛⲧϥ	-6529
▁ⲁⲥⲡⲱⲧ	-6530
▁ⲁⲩⲕⲓⲙ	-6531
▁ⲁⲩⲱϫⲛ	-6532
▁ⲉϣⲓⲛⲉ	-6533
▁ⲉϥϩⲏⲡ	-6534
▁ⲉϥⲙⲉϩ	-6535
▁ⲉϥⲛⲁϯ	-6536
▁ⲉϫⲟⲟⲩ	-6537
▁ⲉⲣⲉⲛⲉ	-6538
▁ⲉⲩⲡⲏⲧ	-6539
▁ⲑⲩⲥⲓⲁ	-6540
▁ⲕϣⲟⲟⲡ	-6541
▁ⲙⲁⲣⲉⲥ	-6542
▁ⲙⲙⲓⲭⲁ	-6543
▁ⲙⲟⲥⲧⲉ	-6544
▁ⲙⲡⲣⲕⲁ	-6545
▁ⲙⲡⲥⲟⲛ	-6546
▁ⲛϭⲓⲙⲡ	-6547
▁ⲛⲁϣⲱϥ	-6548
▁ⲛⲁⲡⲱⲧ	-6549
▁ⲛⲁⲱϫⲛ	-6550
▁ⲛⲉⲃⲓⲱ	-6551
▁ⲛⲉⲙⲁϥ	-6552
▁ⲛⲕⲟⲟϩ	-6553
▁ⲛⲟⲩϩⲉ	-6554
▁ⲛⲥⲁⲛⲁ	-6555
▁ⲛⲧⲁⲛⲉ	-6556
▁ⲛⲧⲁⲧⲙ	-6557
▁ⲟⲩⲙⲛⲧ	-6558
▁ⲡⲁⲣⲉϥ	-6559
▁ⲡⲉϥⲏⲓ	-6560
▁ⲡⲕⲟⲩⲓ	-6561
▁ⲡⲗⲁⲛⲁ	-6562
▁ⲡⲥⲁϣϥ	-6563
▁ⲧϣⲟⲣⲡ	-6564
▁ⲧⲁⲙⲓⲟ	-6565
▁ⲧⲁⲣⲉⲕ	-6566
▁ⲧⲉⲛⲧⲁ	-6567
ⲁϩⲉⲣⲁⲧ	-6568
ⲁⲩⲝⲁⲛⲉ	-6569
ⲅⲁⲗⲁⲁⲇ	-6570
ⲏⲥⲧⲉⲓⲁ	-6571
ⲙⲛⲧⲟⲩⲉ	-6572
ⲟⲩϣⲁϫⲉ	-6573
ⲡⲉϥϩⲏⲧ	-6574
ⲡⲟⲟⲛⲟⲩ	-6575
ⲣⲁⲓⲧⲉⲓ	-6576
ⲣⲅⲁⲧⲏⲥ	-6577
ⲧⲃⲃⲟⲟⲩ	-6578
ⲧⲉⲕϭⲟⲙ	-6579
▁ϣⲁⲡⲣⲣⲟ	-6580
▁ϩⲛⲟⲩϣⲓ	-6581
▁ϫⲉⲛϥⲛⲁ	-6582
▁ϫⲉⲡⲣⲣⲟ	-6583
▁ⲁϥⲡⲱⲣϣ	-6584
▁ⲁϥⲧⲁⲙⲉ	-6585
▁ⲁϩⲣⲱⲧⲛ	-6586
▁ⲁⲡⲙⲟⲟⲩ	-6587
▁ⲁⲩⲕⲁⲁⲧ	-6588
▁ⲉϥϭⲱϣⲧ	-6589
▁ⲉϩⲃⲟⲩⲣ	-6590
▁ⲉϫⲛⲧⲉⲩ	-6591
▁ⲉⲓϣⲁϫⲉ	-6592
▁ⲉⲛⲧⲁⲩⲥ	-6593
▁ⲉⲟⲩⲛⲁⲛ	-6594
▁ⲉⲟⲩⲱϣⲧ	-6595
▁ⲉⲡϫⲓⲥⲉ	-6596
▁ⲉⲡⲉⲕⲙⲁ	-6597
▁ⲉⲧϩⲓϫⲛ	-6598
▁ⲉⲧⲃⲉⲛⲁ	-6599
▁ⲉⲩⲣⲓⲙⲉ	-6600
▁ⲓⲟⲩⲇⲁⲥ	-6601
▁ⲕⲗⲏⲣⲟⲥ	-6602
▁ⲙⲛⲡⲙⲟⲩ	-6603
▁ⲙⲡϣⲓⲡⲉ	-6604
▁ⲙⲡⲁⲱⲛϩ	-6605
▁ⲙⲡⲉⲥⲏⲧ	-6606
▁ⲙⲡⲉⲧⲣⲁ	-6607
▁ⲛϥⲧⲁⲕⲟ	-6608
▁ⲛⲁⲧⲥⲃⲱ	-6609
▁ⲛⲛϫⲁϫⲉ	-6610
▁ⲛⲛⲉⲧϩⲛ	-6611
▁ⲛⲧⲟⲟⲧⲉ	-6612
▁ⲟⲩⲙⲁⲥⲉ	-6613
▁ⲡⲁⲧϩⲏⲧ	-6614
▁ⲡⲉⲥⲛⲟϥ	-6615
▁ⲡⲙⲁⲉⲓⲛ	-6616
▁ⲣⲣⲙⲙⲁⲟ	-6617
▁ⲥⲁⲙⲯⲱⲛ	-6618
▁ⲧⲉⲧⲛϫⲱ	-6619
ⲁⲣⲛⲁⲃⲁⲥ	-6620
ⲅⲉϩⲉⲛⲛⲁ	-6621
ⲕⲏⲣⲩⲥⲥⲉ	-6622
ⲕⲗⲩⲥⲙⲟⲥ	-6623
ⲙⲁⲛϣⲱⲡⲉ	-6624
ⲙⲓⲛⲁⲇⲁⲃ	-6625
ⲡⲁⲗⲗⲁⲕⲏ	-6626
ⲡⲉⲕϣⲏⲣⲉ	-6627
ⲡⲓⲥⲣⲁⲏⲗ	-6628
ⲣⲙⲡⲟⲟⲩⲉ	-6629
ⲧϩⲉⲗⲡⲓⲥ	-6630
ⲧⲛⲁϣⲱⲡⲉ	-6631
ϩⲣⲱⲙⲁⲓⲟⲥ	-6632
▁ϣⲁⲟⲩϫⲱⲙ	-6633
▁ϩⲁⲡⲉⲥⲏⲧ	-6634
▁ϩⲉⲛⲉⲃⲟⲗ	-6635
▁ϩⲛⲓⲁⲕⲱⲃ	-6636
▁ϫⲉϩⲙⲟⲟⲥ	-6637
▁ϫⲉⲉⲕϣⲁⲛ	-6638
▁ϫⲉⲙⲉϣⲁⲕ	-6639
▁ϫⲉⲙⲟⲟϣⲉ	-6640
▁ⲁϥϫⲛⲟⲩϥ	-6641
▁ⲁϥϭⲙϭⲟⲙ	-6642
▁ⲁϥⲕⲣⲓⲛⲉ	-6643
▁ⲁϥⲥⲱⲟⲩϩ	-6644
▁ⲁⲓϩⲁⲣⲉϩ	-6645
▁ⲁⲓⲧⲱⲟⲩⲛ	-6646
▁ⲁⲩⲁⲣⲭⲉⲓ	-6647
▁ⲉⲡⲁϣⲁϫⲉ	-6648
▁ⲉⲧϩⲙⲟⲟⲥ	-6649
▁ⲉⲧⲥⲟⲟⲩⲛ	-6650
▁ⲉⲩϣⲁⲛⲉⲓ	-6651
▁ⲕⲁⲧⲁϩⲱⲃ	-6652
▁ⲙⲡⲥⲟⲟⲩⲛ	-6653
▁ⲛϥⲥⲟⲟⲩⲛ	-6654
▁ⲛⲑⲗⲓⲯⲓⲥ	-6655
▁ⲛⲛⲁϩⲣⲁϥ	-6656
▁ⲛⲛⲟϭⲛⲉϭ	-6657
▁ⲛⲟⲩϩⲏⲕⲉ	-6658
▁ⲛⲥⲉⲥⲱⲧⲙ	-6659
▁ⲛⲧⲁⲙⲁⲁⲩ	-6660
▁ⲛⲧⲉϥⲙⲛⲧ	-6661
▁ⲟⲩϣⲡⲏⲣⲉ	-6662
▁ⲡⲃⲁⲡⲧⲓⲥ	-6663
▁ⲡⲉϥⲗⲁⲟⲥ	-6664
▁ⲡⲉⲧⲟⲩⲛⲁ	-6665
▁ⲡⲉⲧⲥⲱⲧⲙ	-6666
▁ⲡⲓⲗⲁⲧⲟⲥ	-6667
▁ⲥⲙⲁⲙⲁⲁⲧ	-6668
ⲓⲉⲣⲉⲙⲓⲁⲥ	-6669
ⲣⲉϥϫⲛⲁⲁⲩ	-6670
ⲥⲁϩⲉⲣⲁⲧⲥ	-6671
ⲧⲉϥⲥϩⲓⲙⲉ	-6672
ⲫⲁⲣⲛⲁⲟⲩⲙ	-6673
ϩⲉⲛⲁⲅⲁⲑⲟⲛ	-6674
▁ϩⲛⲇⲁⲩⲉⲓⲇ	-6675
▁ϩⲛⲛⲉⲩϭⲓϫ	-6676
▁ϩⲛⲧⲉⲕϭⲟⲙ	-6677
▁ϫⲉϯⲛⲁⲃⲱⲕ	-6678
▁ϫⲉⲁⲓϫⲟⲟⲥ	-6679
▁ⲁϥⲥⲟⲟⲩⲧⲛ	-6680
▁ⲁϥⲧⲛⲛⲟⲟⲩ	-6681
▁ⲉⲛϥⲥⲟⲟⲩⲛ	-6682
▁ⲉⲧⲉϥⲯⲩⲭⲏ	-6683
▁ⲉⲧⲉⲥⲕⲏⲛⲏ	-6684
▁ⲉⲧⲛⲁϣⲱⲟⲩ	-6685
▁ⲙⲛⲛⲥⲁⲧⲣⲉ	-6686
▁ⲙⲛⲡϫⲟⲉⲓⲥ	-6687
▁ⲙⲡⲁⲛⲟⲩⲧⲉ	-6688
▁ⲙⲡⲉⲛⲉⲓⲱⲧ	-6689
▁ⲙⲡⲉⲧⲟⲩⲛⲁ	-6690
▁ⲛϭⲓⲁⲁⲣⲱⲛ	-6691
▁ⲛϭⲓⲓⲁⲕⲱⲃ	-6692
▁ⲛϭⲓⲓⲱⲥⲏⲫ	-6693
▁ⲛϭⲓⲥⲓⲙⲱⲛ	-6694
▁ⲛⲉⲝⲟⲩⲥⲓⲁ	-6695
▁ⲛⲛⲉϥϣⲁϫⲉ	-6696
▁ⲛⲥⲉⲥⲟⲟⲩⲛ	-6697
▁ⲡⲁⲃⲟⲏⲑⲟⲥ	-6698
ⲇⲇⲟⲩⲕⲁⲓⲟⲥ	-6699
ⲙⲛⲧⲁⲧⲥⲃⲃⲉ	-6700
ⲩⲁⲅⲅⲉⲗⲓⲍⲉ	-6701
▁ϩⲛⲟⲩⲡⲟⲗⲓⲥ	-6702
▁ϯⲛⲁⲯⲁⲗⲗⲉⲓ	-6703
▁ⲉⲧϩⲛⲧⲙⲏⲧⲉ	-6704
▁ⲙⲁⲣⲉϥϣⲱⲡⲉ	-6705
▁ⲙⲛⲛⲉϥⲥⲛⲏⲩ	-6706
▁ⲙⲡϫⲓⲛϭⲟⲛⲥ	-6707
▁ⲙⲡⲉⲓⲛⲟⲙⲟⲥ	-6708
▁ⲛϭⲓⲇⲁⲩⲉⲓⲇ	-6709
▁ⲛϭⲓⲛⲉⲛⲧⲁⲩ	-6710
▁ⲛⲛⲉⲑⲏⲣⲓⲟⲛ	-6711
▁ⲛⲛⲧⲃⲛⲟⲟⲩⲉ	-6712
▁ⲛⲟⲩϭⲟⲟⲩⲛⲉ	-6713
▁ⲛⲟⲩⲡⲛⲉⲩⲙⲁ	-6714
▁ⲛⲧⲉⲓⲡⲟⲗⲓⲥ	-6715
▁ⲛⲧⲉⲕⲣⲓⲥⲓⲥ	-6716
▁ⲛⲧⲉⲧⲛϫⲟⲟⲥ	-6717
▁ⲡⲉϫⲉⲡⲇⲟⲩⲝ	-6718
ⲓⲉⲃⲟⲩⲥⲁⲓⲟⲥ	-6719
ⲥⲕⲁⲛⲇⲁⲗⲓⲍⲉ	-6720
ⲥⲩⲛⲉⲓⲇⲏⲥⲓⲥ	-6721
▁ϩⲛⲛⲧⲃⲛⲟⲟⲩⲉ	-6722
▁ϫⲉϥⲥⲙⲁⲙⲁⲁⲧ	-6723
▁ⲉⲛⲉⲕⲉⲛⲧⲟⲗⲏ	-6724
▁ⲉⲧⲁϩⲉⲣⲁⲧⲟⲩ	-6725
▁ⲉⲧⲅⲁⲗⲓⲗⲁⲓⲁ	-6726
▁ⲉⲧⲉⲑⲁⲗⲁⲥⲥⲁ	-6727
▁ⲙⲛⲛⲉⲩⲕⲉⲧⲙⲉ	-6728
▁ⲛϭⲓⲧⲉⲥϩⲓⲙⲉ	-6729
▁ⲛϭⲓⲧⲙⲛⲧⲣⲣⲟ	-6730
▁ⲛⲛⲉⲧⲥⲟⲩⲧⲱⲛ	-6731
▁ⲛⲧⲁⲇⲓⲁⲑⲏⲕⲏ	-6732
▁ⲛⲧⲉⲡⲓⲥⲣⲁⲏⲗ	-6733
▁ⲛⲧⲉⲣⲉϥⲉⲓⲙⲉ	-6734
▁ⲡⲁⲗⲗⲟⲫⲩⲗⲟⲥ	-6735
▁ⲡⲃⲁⲡⲧⲓⲥⲧⲏⲥ	-6736
▁ⲡⲡⲉⲧⲛⲁⲛⲟⲩϥ	-6737
ⲙⲟⲛⲁⲥⲧⲏⲣⲓⲟⲛ	-6738
▁ϩⲙⲡⲙⲉϩϣⲟⲙⲛⲧ	-6739
▁ϩⲛⲧⲥⲩⲛⲁⲅⲱⲅⲏ	-6740
▁ϫⲉⲡⲉⲭⲣⲓⲥⲧⲟⲥ	-6741
▁ⲉϫⲛⲧϩⲁⲗⲁⲥⲥⲁ	-6742
▁ⲛϭⲓⲡⲁⲅⲅⲉⲗⲟⲥ	-6743
▁ⲛⲛⲁⲣⲭⲓⲉⲣⲉⲩⲥ	-6744
▁ⲧⲉⲕⲗⲏⲣⲟⲛⲟⲙⲓⲁ	-6745
▁ⲛⲉⲡⲣⲉⲥⲃⲩⲧⲉⲣⲟⲥ	-6746
▁ⲙⲛⲟⲩⲇⲓⲕⲁⲓⲟⲥⲩⲛⲏ	-6747
ⲅⲱ	-6748
ⲉⲡ	-6749
ⲑⲱ	-6750
ⲕⲙ	-6751
ⲙⲃ	-6752
ⲛⲥ	-6753
ϣⲁⲁ	-6754
ϩⲁⲕ	-6755
ϩⲓⲣ	-6756
ϩⲱⲣ	-6757
ϫⲏⲣ	-6758
ϭⲁⲗ	-6759
ϭⲉⲛ	-6760
ϭⲗⲱ	-6761
ϯⲙⲏ	-6762
▁ϯϯ	-6763
ⲁⲛϣ	-6764
ⲁⲛⲁ	-6765
ⲃⲃⲱ	-6766
ⲃⲱⲑ	-6767
ⲅⲉⲣ	-6768
ⲇⲱⲃ	-6769
ⲇⲱⲑ	-6770
ⲍⲉⲃ	-6771
ⲓⲙⲉ	-6772
ⲓⲛⲁ	-6773
ⲕⲉⲓ	-6774
ⲛⲱⲉ	-6775
ⲟϣⲥ	-6776
ⲟⲩⲇ	-6777
ⲧⲟⲡ	-6778
ⲧⲥⲓ	-6779
ⲭⲱⲣ	-6780
ⲱⲣⲙ	-6781
ⲱⲧⲃ	-6782
ϣⲁⲣⲉ	-6783
ϩⲛⲟⲩ	-6784
ϩⲧⲏⲥ	-6785
ϫⲟⲩϥ	-6786
ϭⲣⲏⲛ	-6787
▁ϣⲁⲁ	-6788
▁ϣⲱⲡ	-6789
▁ϩⲱⲡ	-6790
▁ϫⲣⲟ	-6791
▁ⲁⲛⲓ	-6792
▁ⲁⲥⲉ	-6793
▁ⲁⲧⲉ	-6794
▁ⲙⲛⲅ	-6795
▁ⲙⲛⲥ	-6796
▁ⲛϭⲁ	-6797
▁ⲛⲃⲟ	-6798
▁ⲛⲣⲟ	-6799
▁ⲛⲭⲁ	-6800
▁ⲡⲏϩ	-6801
▁ⲣⲟⲩ	-6802
ⲃⲃⲉⲓ	-6803
ⲃⲟⲗϥ	-6804
ⲅⲙⲟⲥ	-6805
ⲇⲁⲍⲉ	-6806
ⲇⲓⲁⲥ	-6807
ⲓⲁⲁⲩ	-6808
ⲓⲟⲩⲇ	-6809
ⲓⲱⲟⲩ	-6810
ⲕⲓⲟⲛ	-6811
ⲗⲉⲧⲁ	-6812
ⲙⲓⲟⲛ	-6813
ⲛⲓⲕⲏ	-6814
ⲛⲟⲩⲕ	-6815
ⲟⲗⲉⲥ	-6816
ⲟⲟϩⲉ	-6817
ⲟⲟⲧⲕ	-6818
ⲟⲟⲩⲧ	-6819
ⲟⲣⲣⲁ	-6820
ⲟⲧⲟⲩ	-6821
ⲡⲉⲣⲉ	-6822
ⲡⲓⲥⲁ	-6823
ⲣϩⲁⲗ	-6824
ⲣⲙⲛⲧ	-6825
ⲣⲡⲁⲓ	-6826
ⲥⲁⲛϣ	-6827
ⲥⲏϣⲉ	-6828
ⲥⲓⲁⲥ	-6829
ⲥⲟϭⲛ	-6830
ⲭⲓⲟⲛ	-6831
ϣⲧⲣⲧⲣ	-6832
ϩⲁⲓⲣⲉ	-6833
ϩⲟⲛⲟⲩ	-6834
ϯϣⲓⲡⲉ	-6835
▁ϣⲁⲧⲛ	-6836
▁ϩⲟⲣϣ	-6837
▁ϫⲓⲧϥ	-6838
▁ϭⲱⲗⲡ	-6839
▁ϯϩⲱⲛ	-6840
▁ⲁϥⲡⲟ	-6841
▁ⲁⲛⲉϥ	-6842
▁ⲁⲛⲟⲩ	-6843
▁ⲉⲓⲧⲁ	-6844
▁ⲉⲛⲕⲁ	-6845
▁ⲉⲡϣⲁ	-6846
▁ⲉⲧⲕⲏ	-6847
▁ⲉⲧⲥⲁ	-6848
▁ⲉⲩⲱϣ	-6849
▁ⲕⲟⲧϥ	-6850
▁ⲕⲟⲧⲕ	-6851
▁ⲙⲡⲕⲱ	-6852
▁ⲛϣⲁϥ	-6853
▁ⲛϩⲣⲏ	-6854
▁ⲛⲁϫⲉ	-6855
▁ⲛⲁϭⲱ	-6856
▁ⲛⲓⲱⲃ	-6857
▁ⲛⲙⲛⲁ	-6858
▁ⲛⲧⲁϯ	-6859
▁ⲟⲩⲏⲩ	-6860
▁ⲟⲩⲛⲁ	-6861
▁ⲡⲉⲓⲉ	-6862
▁ⲡⲗⲁⲥ	-6863
▁ⲡⲟⲟϩ	-6864
▁ⲥⲓⲱⲛ	-6865
▁ⲥⲟⲧⲉ	-6866
▁ⲧⲁⲣⲛ	-6867
ⲁⲅⲁⲡⲏ	-6868
ⲁⲡⲏⲩⲉ	-6869
ⲃⲁϩⲁⲗ	-6870
ⲃⲁⲃⲉⲗ	-6871
ⲃⲃⲱⲣⲁ	-6872
ⲇⲓⲕⲟⲥ	-6873
ⲇⲟⲫⲉⲗ	-6874
ⲍⲁⲣⲉⲑ	-6875
ⲏⲥⲧⲟⲥ	-6876
ⲓⲕⲟⲩⲓ	-6877
ⲓⲟⲩϣⲏ	-6878
ⲓⲥⲙⲟⲧ	-6879
ⲕⲁⲛⲱⲛ	-6880
ⲕⲁⲣⲱⲓ	-6881
ⲕⲉⲩⲟⲥ	-6882
ⲗⲗⲁⲥⲁ	-6883
ⲗⲟⲅⲓⲁ	-6884
ⲛⲏⲥⲟⲥ	-6885
ⲟⲩⲁϩⲥ	-6886
ⲟⲩⲟⲃϣ	-6887
ⲟⲩⲱⲧⲉ	-6888
ⲡⲣⲟⲥⲉ	-6889
ⲡⲱⲣⲟⲥ	-6890
ⲣⲙⲛⲏⲓ	-6891
ⲥⲁⲉⲓⲛ	-6892
ⲥⲟⲡⲥⲡ	-6893
ⲧⲁⲗϭⲉ	-6894
ⲧⲛⲛⲁⲩ	-6895
ⲧⲣⲁⲧⲏ	-6896
ⲧⲣⲩⲫⲏ	-6897
ⲩⲉⲟⲟⲩ	-6898
▁ϣⲁⲡⲉⲩ	-6899
▁ϣⲟⲙⲧⲉ	-6900
▁ϥⲛⲁϥⲓ	-6901
▁ϩⲁϫⲱϥ	-6902
▁ϩⲁⲣⲁⲧ	-6903
▁ϩⲁⲧⲉⲛ	-6904
▁ϩⲁⲧⲛⲧ	-6905
▁ϩⲛⲟⲩⲉ	-6906
▁ϩⲛⲧⲉⲛ	-6907
▁ϩⲛⲧⲟⲩ	-6908
▁ⲁϥⲥⲙⲛ	-6909
▁ⲁϥⲧⲟⲩ	-6910
▁ⲁⲓⲧⲉⲓ	-6911
▁ⲁⲙⲛⲱⲛ	-6912
▁ⲁⲡⲟⲩⲁ	-6913
▁ⲇⲱⲣⲟⲛ	-6914
▁ⲉϣⲙϣⲉ	-6915
▁ⲉϥϫⲏⲕ	-6916
▁ⲉϥⲧⲱⲛ	-6917
▁ⲉⲡⲟⲩⲉ	-6918
▁ⲉⲡⲣⲡⲉ	-6919
▁ⲉⲣⲉⲧⲁ	-6920
▁ⲉⲣⲱⲧⲉ	-6921
▁ⲉⲧⲙⲉϩ	-6922
▁ⲓⲱⲥⲏⲫ	-6923
▁ⲙⲙⲓϣⲉ	-6924
▁ⲙⲛⲛⲟⲩ	-6925
▁ⲙⲛⲧϩⲉ	-6926
▁ⲙⲟⲅⲓⲥ	-6927
▁ⲙⲡϫⲱⲕ	-6928
▁ⲙⲡⲁⲏⲓ	-6929
▁ⲙⲡⲁⲙⲁ	-6930
▁ⲙⲡⲉⲓⲉ	-6931
▁ⲙⲡⲣⲉϥ	-6932
▁ⲙⲡⲣⲡⲉ	-6933
▁ⲛϩⲉⲛⲉ	-6934
▁ⲛϭⲱⲛⲧ	-6935
▁ⲛⲁϩⲣⲛ	-6936
▁ⲛⲁⲱⲛϩ	-6937
▁ⲛⲉⲧⲙⲉ	-6938
▁ⲛⲛⲧⲉⲧ	-6939
▁ⲛⲟⲩⲃⲱ	-6940
▁ⲛⲟⲩⲉϣ	-6941
▁ⲛⲥⲉϥⲓ	-6942
▁ⲛⲥⲏⲱⲛ	-6943
▁ⲛⲥⲱⲃⲉ	-6944
▁ⲛⲧⲁⲩⲉ	-6945
▁ⲛⲧⲛⲛⲁ	-6946
▁ⲛⲭⲏⲣⲁ	-6947
▁ⲡⲉϫⲉⲓ	-6948
▁ⲡⲉⲓⲛⲉ	-6949
▁ⲡⲉⲧϫⲓ	-6950
▁ⲡⲧⲁⲕⲟ	-6951
▁ⲥϩⲓⲙⲉ	-6952
▁ⲧⲥⲏϥⲉ	-6953
▁ⲧⲥⲱϣⲉ	-6954
ⲉⲓⲁⲕⲱⲃ	-6955
ⲍⲉⲃⲟⲩⲗ	-6956
ⲑⲃⲃⲓⲟϥ	-6957
ⲙⲉⲕⲙⲟⲩ	-6958
ⲙⲉⲥⲧⲱϥ	-6959
ⲛⲁⲛⲓⲁⲥ	-6960
ⲛⲁⲥⲧⲏⲥ	-6961
ⲟⲩⲉⲓⲛⲉ	-6962
ⲡⲟⲗⲗⲱⲛ	-6963
ⲣⲓⲡⲡⲁⲥ	-6964
ⲣⲙⲛϯⲙⲉ	-6965
ⲥⲁϩⲱⲟⲩ	-6966
ⲧⲁⲙⲓⲏⲩ	-6967
ⲧⲁⲙⲟⲟⲩ	-6968
ⲧⲟⲩϫⲟϥ	-6969
ⲧⲟⲩϫⲟⲕ	-6970
▁ϥⲛⲁⲱⲛϩ	-6971
▁ϥⲥⲟⲟⲩⲛ	-6972
▁ϩⲁϩⲧⲏⲓ	-6973
▁ϩⲓϫⲙⲡⲉ	-6974
▁ϩⲙⲡⲣⲡⲉ	-6975
▁ϫⲉϥⲟⲛϩ	-6976
▁ϫⲉⲁⲛⲁⲩ	-6977
▁ϫⲉⲉⲕⲛⲁ	-6978
▁ϫⲉⲛⲁⲓⲁ	-6979
▁ϯⲛⲁⲧⲣⲉ	-6980
▁ⲁϥⲡⲱϩⲧ	-6981
▁ⲁⲓϭⲱϣⲧ	-6982
▁ⲁⲕϫⲟⲟⲥ	-6983
▁ⲁⲕⲥⲱⲧⲙ	-6984
▁ⲁⲗⲏⲑⲱⲥ	-6985
▁ⲁⲛϣⲱⲡⲉ	-6986
▁ⲁⲡⲟⲗⲗⲱ	-6987
▁ⲅⲉⲇⲉⲱⲛ	-6988
▁ⲉⲕϣⲁⲛϯ	-6989
▁ⲉⲙⲛϭⲟⲙ	-6990
▁ⲉⲙⲡⲏⲩⲉ	-6991
▁ⲉⲛⲁϣⲱⲥ	-6992
▁ⲉⲡⲉⲩⲙⲁ	-6993
▁ⲉⲣⲉⲛⲉⲕ	-6994
▁ⲉⲧϩⲓϫⲙ	-6995
▁ⲉⲩⲕⲱⲧⲉ	-6996
▁ⲉⲩⲥⲱⲧⲙ	-6997
▁ⲙⲛⲣⲱⲙⲉ	-6998
▁ⲙⲛⲧϭⲟⲙ	-6999
▁ⲙⲡϣⲟⲣⲡ	-7000
▁ⲙⲡⲁⲓⲱⲛ	-7001
▁ⲙⲡⲉϥϩⲉ	-7002
▁ⲙⲡⲙⲟⲩⲓ	-7003
▁ⲙⲡⲟⲣⲛⲏ	-7004
▁ⲙⲡⲧⲏⲣϥ	-7005
▁ⲛϣⲟⲙⲧⲉ	-7006
▁ⲛⲁϩⲣⲁⲓ	-7007
▁ⲛⲁϫⲟⲟⲩ	-7008
▁ⲛⲁⲉⲓⲛⲉ	-7009
▁ⲛⲃⲗⲗⲁⲓ	-7010
▁ⲛⲓⲥⲁⲁⲕ	-7011
▁ⲛⲟⲩⲃⲁⲗ	-7012
▁ⲛⲟⲩⲛⲟⲩ	-7013
▁ⲛⲥⲉⲛⲁⲩ	-7014
▁ⲛⲧⲁⲁⲡⲉ	-7015
▁ⲛⲧⲁⲃⲱⲕ	-7016
▁ⲛⲧⲉⲗⲏⲗ	-7017
▁ⲛⲧⲉⲣⲉⲛ	-7018
▁ⲛⲧⲟⲟⲧⲛ	-7019
▁ⲟⲩⲙⲟⲟⲩ	-7020
▁ⲟⲩⲣⲓⲁⲥ	-7021
▁ⲡⲉⲧⲓⲛⲁ	-7022
▁ⲣⲙⲛⲧⲣⲉ	-7023
▁ⲥⲉϣⲓⲛⲉ	-7024
▁ⲧⲁⲉⲓⲟⲩ	-7025
▁ⲧⲟⲟⲧⲟⲩ	-7026
ⲅⲗⲩⲡⲧⲟⲛ	-7027
ⲕⲁⲥⲧⲣⲟⲛ	-7028
ⲕⲟⲗⲁⲥⲓⲥ	-7029
ⲙⲁⲥⲧⲓⲅⲝ	-7030
ⲛⲉϥϣⲏⲣⲉ	-7031
ⲟⲩⲣⲏⲏⲧⲉ	-7032
ⲣⲓⲭⲱⲣⲟⲥ	-7033
ⲥⲁⲧⲉⲉⲣⲉ	-7034
ⲭⲁⲗⲕⲓⲟⲛ	-7035
ϩⲁⲓⲣⲉⲥⲓⲥ	-7036
▁ϩⲓϫⲙⲡϩⲟ	-7037
▁ϩⲓϫⲛⲧⲉϥ	-7038
▁ϩⲙⲡⲉⲕⲏⲓ	-7039
▁ϩⲙⲡⲙⲟⲟⲩ	-7040
▁ϩⲛⲣⲣⲱⲟⲩ	-7041
▁ϩⲛⲧⲁϭⲓϫ	-7042
▁ϫⲉⲁϩⲣⲟⲕ	-7043
▁ϫⲉⲛⲧⲕⲟⲩ	-7044
▁ϫⲉⲭⲁⲓⲣⲉ	-7045
▁ϯⲛⲁⲧⲁⲁϥ	-7046
▁ⲁϥⲥⲟⲩⲧⲛ	-7047
▁ⲁϥⲧⲁⲙⲓⲟ	-7048
▁ⲉϥⲙⲉⲉⲩⲉ	-7049
▁ⲉϥⲧⲁⲓⲏⲩ	-7050
▁ⲉⲕⲉⲉⲓⲙⲉ	-7051
▁ⲉⲛⲉⲕϭⲓϫ	-7052
▁ⲉⲝⲟⲩⲥⲓⲁ	-7053
▁ⲉⲟⲩⲛⲧⲁⲛ	-7054
▁ⲉⲧⲃⲉⲡⲉⲓ	-7055
▁ⲉⲧⲣϩⲟⲧⲉ	-7056
▁ⲉⲩϣⲁⲛⲧⲁ	-7057
▁ⲉⲩⲟⲩⲁⲁⲃ	-7058
▁ⲙⲛⲛⲥⲱⲟⲩ	-7059
▁ⲙⲡϣⲟϫⲛⲉ	-7060
▁ⲙⲡⲉⲓⲕⲁϩ	-7061
▁ⲙⲡⲉⲥⲟⲩⲟ	-7062
▁ⲙⲡⲙⲉⲉⲩⲉ	-7063
▁ⲙⲡⲟⲩⲛⲁⲩ	-7064
▁ⲛϩⲉⲣⲙⲁⲛ	-7065
▁ⲛⲁⲕⲣⲓⲛⲉ	-7066
▁ⲛⲉⲓϣⲁϫⲉ	-7067
▁ⲛⲉⲕϣⲏⲣⲉ	-7068
▁ⲛⲉⲥⲉⲃⲱⲛ	-7069
▁ⲛⲉⲧⲟⲩⲱⲙ	-7070
▁ⲛⲉⲩϣⲏⲣⲉ	-7071
▁ⲛⲏⲥⲁⲓⲁⲥ	-7072
▁ⲛⲕⲗⲟⲟⲗⲉ	-7073
▁ⲛⲛⲉⲩⲃⲁⲗ	-7074
▁ⲛⲟⲩⲙⲟⲩⲓ	-7075
▁ⲛⲟⲩⲥⲏϥⲉ	-7076
▁ⲟⲩϩⲟⲟⲩⲧ	-7077
▁ⲡⲉⲧϫⲟⲥⲉ	-7078
ⲕⲓⲛⲇⲩⲛⲟⲥ	-7079
ⲗⲁⲭⲓⲥⲧⲟⲥ	-7080
ⲛⲁⲡⲁⲩⲥⲓⲥ	-7081
ⲛⲁⲥⲡⲟⲧⲟⲩ	-7082
ⲛⲧⲁⲩϫⲟⲟϥ	-7083
ⲟⲣⲟⲃⲁⲃⲉⲗ	-7084
ⲥⲩⲅⲅⲉⲛⲏⲥ	-7085
ⲧⲛⲛⲟⲟⲩⲥⲉ	-7086
ϩⲟⲙⲟⲗⲟⲅⲓⲁ	-7087
▁ϥⲛⲁⲟⲩϫⲁⲓ	-7088
▁ϩⲛϩⲉⲛⲱⲛⲉ	-7089
▁ϫⲉϯⲥⲟⲟⲩⲛ	-7090
▁ϫⲉⲁϩⲣⲱⲧⲛ	-7091
▁ϫⲉⲁⲙⲏⲓⲧⲛ	-7092
▁ϫⲉⲙⲛⲗⲁⲁⲩ	-7093
▁ϫⲉⲙⲡϩⲟⲟⲩ	-7094
▁ϫⲉⲛⲧⲁⲓⲉⲓ	-7095
▁ⲁϥϣⲛϩⲧⲏϥ	-7096
▁ⲁϥⲁⲥⲡⲁⲍⲉ	-7097
▁ⲁϥⲣϣⲡⲏⲣⲉ	-7098
▁ⲉϩⲉⲛϣⲁϫⲉ	-7099
▁ⲉϫⲙⲡⲉϥⲏⲓ	-7100
▁ⲉϫⲛⲥⲁⲟⲩⲗ	-7101
▁ⲉⲡⲉⲧϩⲟⲟⲩ	-7102
▁ⲉⲧⲙⲡⲉⲙⲧⲟ	-7103
▁ⲙⲁⲣⲉϥⲙⲟⲩ	-7104
▁ⲙⲛⲛⲉϩⲟⲟⲩ	-7105
▁ⲙⲡⲁⲙⲁⲗⲏⲕ	-7106
▁ⲙⲡⲉⲧⲙⲙⲁⲩ	-7107
▁ⲙⲡⲙⲉϩⲥⲉⲡ	-7108
▁ⲛⲉϥϩⲙϩⲁⲗ	-7109
▁ⲛⲉⲓⲕⲟⲟⲩⲉ	-7110
▁ⲛⲉⲧⲟⲩⲁⲁⲃ	-7111
▁ⲛⲉⲧⲥⲟⲟⲩⲛ	-7112
▁ⲛⲛⲁⲅⲁⲑⲟⲛ	-7113
▁ⲛⲛⲉⲕⲛⲟⲃⲉ	-7114
▁ⲛⲛⲉⲧⲛϩⲏⲧ	-7115
▁ⲛⲛⲉⲩϫⲁϫⲉ	-7116
▁ⲛⲥⲁϩⲃⲟⲩⲣ	-7117
▁ⲛⲧⲁⲥϣⲱⲡⲉ	-7118
▁ⲛⲧⲃⲛⲟⲟⲩⲉ	-7119
▁ⲛⲧⲉⲓⲟⲩⲇⲁ	-7120
▁ⲛⲧⲉⲣⲓⲛⲁⲩ	-7121
▁ⲡⲉϥⲟⲩⲟⲉⲓ	-7122
▁ⲡⲉⲧⲛⲁⲃⲱⲕ	-7123
▁ⲡⲉⲧⲛⲉⲓⲱⲧ	-7124
▁ⲡⲉⲩⲛⲟⲩⲧⲉ	-7125
▁ⲥⲉⲛⲁⲉⲓⲙⲉ	-7126
ⲃⲉⲛⲓⲁⲙⲉⲓⲛ	-7127
ⲫⲉⲣⲉⲍⲁⲓⲟⲥ	-7128
▁ϩⲙⲡⲉϣⲧⲉⲕⲟ	-7129
▁ϩⲙⲡⲉϥⲉⲟⲟⲩ	-7130
▁ϩⲛⲅⲁⲗⲅⲁⲗⲁ	-7131
▁ⲁϥⲥⲁⲗⲡⲓⲍⲉ	-7132
▁ⲁⲡⲁⲅⲅⲉⲗⲟⲥ	-7133
▁ⲉⲕϣⲁⲛⲥⲱⲧⲙ	-7134
▁ⲉⲛⲉⲧⲟⲩⲁⲁⲃ	-7135
▁ⲉⲡⲡⲉⲧϩⲟⲟⲩ	-7136
▁ⲙⲛϥⲧⲟⲟⲩϣⲉ	-7137
▁ⲙⲛⲛⲉⲩϣⲏⲣⲉ	-7138
▁ⲙⲡⲁⲣⲑⲉⲛⲟⲥ	-7139
▁ⲙⲡⲉⲕϫⲟⲉⲓⲥ	-7140
▁ⲙⲡⲡⲉⲧϩⲟⲟⲩ	-7141
▁ⲛⲁⲃⲓⲙⲉⲗⲉⲭ	-7142
▁ⲛⲅⲁϩⲉⲣⲁⲧⲕ	-7143
▁ⲛⲇⲓⲁⲕⲟⲛⲟⲥ	-7144
▁ⲛⲉⲕⲕⲗⲏⲥⲓⲁ	-7145
▁ⲛⲍⲁⲃⲟⲩⲗⲱⲛ	-7146
▁ⲛⲛϫⲁⲥⲓϩⲏⲧ	-7147
▁ⲛⲛⲉⲧⲛⲛⲟⲃⲉ	-7148
▁ⲛⲟⲩⲛⲟϭⲛⲉϭ	-7149
▁ⲛⲥⲉⲇⲉⲕⲓⲁⲥ	-7150
▁ⲛⲧⲁⲓⲏⲥⲟⲩⲥ	-7151
▁ⲛⲧⲉⲕϩⲙϩⲁⲗ	-7152
▁ⲛⲧⲉⲧⲛⲉⲓⲣⲉ	-7153
▁ⲡⲙⲉϩϣⲟⲙⲛⲧ	-7154
▁ⲧⲉⲑⲁⲗⲁⲥⲥⲁ	-7155
ⲉⲝⲟⲙⲟⲗⲟⲅⲉⲓ	-7156
ⲙⲛⲧⲁⲧⲛⲁϩⲧⲉ	-7157
▁ϩⲓⲡⲉⲑⲣⲟⲛⲟⲥ	-7158
▁ϩⲛⲛⲉⲕⲡⲟⲗⲓⲥ	-7159
▁ϫⲉⲉⲧⲉⲧⲛϣⲁⲛ	-7160
▁ⲁⲩⲡⲁⲧⲁⲥⲥⲉⲓ	-7161
▁ⲙⲛⲛⲉⲛⲉⲓⲟⲧⲉ	-7162
▁ⲙⲛⲛⲉⲧⲛⲙⲙⲁϥ	-7163
▁ⲙⲡⲙⲁⲕⲁⲣⲓⲟⲥ	-7164
▁ⲛⲇⲁⲓⲙⲱⲛⲓⲟⲛ	-7165
▁ⲛⲛⲉϥϩⲓⲟⲟⲩⲉ	-7166
▁ⲛⲛⲉϥⲉⲛⲧⲟⲗⲏ	-7167
▁ⲛⲛⲥⲁⲃⲃⲁⲧⲟⲛ	-7168
▁ⲡⲉϫⲉⲡⲁⲉⲓⲱⲧ	-7169
▁ⲡⲉⲛⲧⲁϥϫⲟⲟⲥ	-7170
▁ⲡⲉⲛⲧⲁϥⲧⲁⲙⲓ	-7171
▁ⲡⲛⲁⲍⲱⲣⲁⲓⲟⲥ	-7172
ⲁⲓⲭⲙⲁⲗⲱⲧⲓⲍⲉ	-7173
▁ϩⲙⲡⲉⲓⲕⲟⲥⲙⲟⲥ	-7174
▁ϩⲙⲡⲓⲟⲣⲇⲁⲛⲏⲥ	-7175
▁ϫⲉⲟⲩⲭⲣⲏⲥⲧⲟⲥ	-7176
▁ⲕⲁⲧⲁⲡⲉⲕϣⲁϫⲉ	-7177
▁ⲙⲡⲁⲙⲟⲣⲣⲁⲓⲟⲥ	-7178
▁ⲙⲡⲁⲣⲭⲓⲉⲣⲉⲩⲥ	-7179
▁ⲛϭⲓⲛⲣⲙⲛⲕⲏⲙⲉ	-7180
▁ⲛⲙⲡⲁⲣⲁⲛⲟⲙⲟⲥ	-7181
▁ⲛⲛⲁϩⲣⲙⲡⲗⲁⲟⲥ	-7182
▁ⲛⲧⲉϥⲇⲓⲁⲑⲏⲕⲏ	-7183
▁ϩⲛⲟⲩⲡⲁⲣⲣⲏⲥⲓⲁ	-7184
▁ⲙⲡⲉⲭⲁⲛⲁⲛⲁⲓⲟⲥ	-7185
▁ⲛⲁⲕⲗⲏⲣⲟⲛⲟⲙⲉⲓ	-7186
▁ⲛⲛⲁϩⲣⲛⲡϫⲟⲉⲓⲥ	-7187
▁ⲡⲉⲧⲉϣⲁⲩⲙⲟⲩⲧⲉ	-7188
▁ⲛⲟⲩⲇⲓⲕⲁⲓⲟⲥⲩⲛⲏ	-7189
▁ⲛⲧⲉⲕⲗⲏⲣⲟⲛⲟⲙⲓⲁ	-7190
▁ⲛϩⲉⲛⲡⲉⲧⲛⲁⲛⲟⲩⲟⲩ	-7191
▁ⲛⲧⲉⲕⲇⲓⲕⲁⲓⲟⲥⲩⲛⲏ	-7192
................	-7193
ϣⲕ	-7194
ϫⲧ	-7195
ⲩⲛ	-7196
ⲭⲟ	-7197
ϣⲛⲁ	-7198
ϥⲛⲧ	-7199
ϩⲃⲥ	-7200
ϩⲏⲕ	-7201
ϫϩⲉ	-7202
ϫⲙⲡ	-7203
ϭⲉⲡ	-7204
ϭⲓⲉ	-7205
ϭⲟϫ	-7206
▁ϯⲛ	-7207
▁ⲑⲁ	-7208
▁ⲓⲥ	-7209
ⲁⲁⲧ	-7210
ⲁⲃⲉ	-7211
ⲃⲏⲃ	-7212
ⲃⲟⲕ	-7213
ⲃⲟⲟ	-7214
ⲅⲁⲗ	-7215
ⲇⲉⲥ	-7216
ⲇⲱⲕ	-7217
ⲏⲅⲏ	-7218
ⲏⲗⲓ	-7219
ⲑⲏⲛ	-7220
ⲗⲁⲗ	-7221
ⲙⲃⲱ	-7222
ⲟϭϥ	-7223
ⲟⲕϥ	-7224
ⲟⲡⲧ	-7225
ⲡϩⲟ	-7226
ⲡⲟⲙ	-7227
ⲣⲓⲙ	-7228
ⲧⲟⲕ	-7229
ⲧⲟⲙ	-7230
ⲫⲁⲣ	-7231
ⲫⲏⲧ	-7232
ⲭⲣⲱ	-7233
ⲱⲇⲏ	-7234
ϣⲙⲟⲩ	-7235
ϣⲟϫⲡ	-7236
ϩⲱϥⲧ	-7237
ϫⲟⲩⲧ	-7238
▁ϣⲏⲡ	-7239
▁ϭⲓϫ	-7240
▁ϭⲱⲃ	-7241
▁ⲉϩⲓ	-7242
▁ⲉⲓⲙ	-7243
▁ⲉⲛⲅ	-7244
▁ⲉⲥⲱ	-7245
▁ⲉⲩⲕ	-7246
▁ⲕϫⲱ	-7247
▁ⲙⲉⲣ	-7248
▁ⲙⲏⲣ	-7249
▁ⲛⲇⲓ	-7250
▁ⲛⲍⲉ	-7251
▁ⲛⲭⲉ	-7252
▁ⲥⲁⲣ	-7253
▁ⲥⲉⲟ	-7254
▁ⲥⲏϩ	-7255
▁ⲥⲙⲏ	-7256
▁ⲧⲙⲁ	-7257
▁ⲧⲱϩ	-7258
ⲁⲩⲗⲏ	-7259
ⲃⲉⲉⲗ	-7260
ⲃⲓⲗⲉ	-7261
ⲓⲙⲛⲧ	-7262
ⲓⲱⲛⲉ	-7263
ⲕⲉⲩⲁ	-7264
ⲕⲉⲫⲁ	-7265
ⲕⲟⲣⲉ	-7266
ⲕⲱⲱⲥ	-7267
ⲙⲁⲁⲃ	-7268
ⲛⲧⲁⲧ	-7269
ⲟⲉⲓⲥ	-7270
ⲟⲕⲗⲏ	-7271
ⲟⲗⲙⲁ	-7272
ⲟⲛⲥϥ	-7273
ⲟⲡⲡⲏ	-7274
ⲡⲁϩⲧ	-7275
ⲣⲁϩⲉ	-7276
ⲣⲅⲉⲓ	-7277
ⲣⲓⲏⲗ	-7278
ⲥⲁⲣⲁ	-7279
ⲥⲓⲃⲧ	-7280
ⲧϥϫⲱ	-7281
ⲧⲁⲗϭ	-7282
ⲧⲁⲥⲉ	-7283
ⲧⲛⲁⲩ	-7284
ⲧⲟϣϥ	-7285
ⲧⲟⲟⲧ	-7286
ⲧⲣⲉⲕ	-7287
ⲧⲣⲉⲛ	-7288
ϩⲁⲙϣⲉ	-7289
ϫⲟⲟⲩⲧ	-7290
▁ϣⲟⲡϥ	-7291
▁ϥⲛⲁⲥ	-7292
▁ϫⲉϩⲛ	-7293
▁ⲁⲓⲥⲉ	-7294
▁ⲁⲩⲗⲟ	-7295
▁ⲉϥϩⲓ	-7296
▁ⲉⲕϣⲁ	-7297
▁ⲉⲗⲓⲁ	-7298
▁ⲉⲙⲁⲥ	-7299
▁ⲉⲧⲛⲉ	-7300
▁ⲉⲩⲥⲱ	-7301
▁ⲏⲛⲓⲙ	-7302
▁ⲙⲓϣⲉ	-7303
▁ⲙⲙⲁϩ	-7304
▁ⲙⲙⲁⲥ	-7305
▁ⲛϩⲁⲣ	-7306
▁ⲛϩⲟϥ	-7307
▁ⲛϯϩⲉ	-7308
▁ⲛⲁⲱϣ	-7309
▁ⲛⲉⲁϥ	-7310
▁ⲛⲉⲥⲉ	-7311
▁ⲛⲕⲁⲡ	-7312
▁ⲛⲙⲧⲉ	-7313
▁ⲛⲛⲏⲓ	-7314
▁ⲛⲛⲟⲣ	-7315
▁ⲛⲟⲩⲃ	-7316
▁ⲡⲉⲧⲥ	-7317
▁ⲡⲉⲩⲥ	-7318
▁ⲡⲟⲧⲥ	-7319
▁ⲣⲁⲧϥ	-7320
▁ⲣⲣⲣⲟ	-7321
▁ⲥⲉⲧⲡ	-7322
▁ⲥⲟⲡⲥ	-7323
ⲁⲁⲣⲱⲛ	-7324
ⲃⲁⲥⲓⲥ	-7325
ⲃⲉⲕⲕⲁ	-7326
ⲅⲉⲣⲅⲉ	-7327
ⲇⲟⲕⲉⲓ	-7328
ⲇⲣⲉⲁⲥ	-7329
ⲍⲱⲧⲟⲥ	-7330
ⲑⲁⲓⲟⲥ	-7331
ⲑⲓⲧⲟⲩ	-7332
ⲕⲟⲩⲉⲓ	-7333
ⲗⲉⲃⲓⲛ	-7334
ⲗⲓⲕⲓⲁ	-7335
ⲗⲓⲥⲧⲓ	-7336
ⲙⲃⲟⲗⲏ	-7337
ⲙⲉⲗⲉⲓ	-7338
ⲙⲏⲣⲟⲥ	-7339
ⲙⲙⲏⲧⲛ	-7340
ⲛⲁⲃⲁⲗ	-7341
ⲛⲟⲩϩⲉ	-7342
ⲟⲩⲁϩⲧ	-7343
ⲟⲩⲥⲟⲛ	-7344
ⲡϩⲓⲥⲉ	-7345
ⲡⲉϥⲏⲓ	-7346
ⲡⲗⲁϯⲁ	-7347
ⲡⲥⲛⲁⲩ	-7348
ⲡⲥⲱⲡϥ	-7349
ⲥⲏⲉⲓⲣ	-7350
ⲧⲁⲩⲗⲏ	-7351
ⲧⲥⲧⲟϥ	-7352
ⲧⲱⲣⲟⲩ	-7353
ⲫⲩⲥⲓⲥ	-7354
ϣⲃⲉⲉⲣⲉ	-7355
ϣⲡⲧⲱⲣⲉ	-7356
ϩⲏⲇⲟⲛⲏ	-7357
ϩⲟⲩⲙⲡⲉ	-7358
ϫⲛⲟⲩⲟⲩ	-7359
ϭⲉⲣⲟⲟⲃ	-7360
▁ϣⲁⲣⲟⲥ	-7361
▁ϣⲡⲏⲣⲉ	-7362
▁ϩⲉⲛⲕⲉ	-7363
▁ϩⲉⲛⲙⲉ	-7364
▁ϩⲓϫⲱⲓ	-7365
▁ϩⲓϫⲱⲥ	-7366
▁ϩⲛⲛⲏⲓ	-7367
▁ϩⲛⲛⲟⲩ	-7368
▁ϫⲉⲁⲡⲁ	-7369
▁ϫⲉⲁⲡⲉ	-7370
▁ϫⲉⲛⲉⲧ	-7371
▁ϫⲉⲛⲥⲉ	-7372
▁ϫⲉⲛⲧⲛ	-7373
▁ϫⲓⲥⲙⲏ	-7374
▁ϯϩⲧⲏϥ	-7375
▁ⲁϥⲧⲁⲗ	-7376
▁ⲁϩⲣⲟⲕ	-7377
▁ⲁⲓϩⲱⲛ	-7378
▁ⲁⲕⲛⲁⲩ	-7379
▁ⲁⲩϩⲱⲛ	-7380
▁ⲁⲩⲕⲱⲧ	-7381
▁ⲉϣⲗⲏⲗ	-7382
▁ⲉⲙⲡⲉϥ	-7383
▁ⲉⲛⲧⲁⲥ	-7384
▁ⲉⲡϫⲱⲕ	-7385
▁ⲉⲡⲁϩⲟ	-7386
▁ⲉⲣⲁⲧⲉ	-7387
▁ⲉⲧϫⲏⲕ	-7388
▁ⲉⲧⲣⲉⲥ	-7389
▁ⲉⲩϩⲁⲡ	-7390
▁ⲉⲩⲉϫⲓ	-7391
▁ⲉⲩⲛⲧϥ	-7392
▁ⲑⲃⲃⲓⲟ	-7393
▁ⲙⲛⲁⲡⲁ	-7394
▁ⲙⲛⲙⲙⲁ	-7395
▁ⲙⲛⲡⲁⲓ	-7396
▁ⲙⲡⲏⲣⲡ	-7397
▁ⲙⲡⲟⲟϩ	-7398
▁ⲛϩⲙⲟⲧ	-7399
▁ⲛϭⲓⲧⲁ	-7400
▁ⲛⲁⲑⲁⲛ	-7401
▁ⲛⲃⲗⲗⲁ	-7402
▁ⲛⲉⲙⲁⲕ	-7403
▁ⲛⲕⲁⲧⲁ	-7404
▁ⲛⲙⲕⲁϩ	-7405
▁ⲛⲛϣⲏⲛ	-7406
▁ⲛⲟⲩϫⲉ	-7407
▁ⲛⲟⲩϫⲱ	-7408
▁ⲛⲥϩⲁⲓ	-7409
▁ⲛⲥⲁⲙⲁ	-7410
▁ⲛⲧϭⲓϫ	-7411
▁ⲛⲧⲁϥϯ	-7412
▁ⲛⲧⲁϥⲉ	-7413
▁ⲛⲧⲁⲡⲁ	-7414
▁ⲛⲧⲙⲉϩ	-7415
▁ⲟⲩⲛⲧⲉ	-7416
▁ⲡϭⲱⲛⲧ	-7417
▁ⲡⲁⲙⲃⲱ	-7418
▁ⲡⲉⲕⲛⲁ	-7419
▁ⲡⲧⲏⲣϥ	-7420
▁ⲣϩⲟⲩⲟ	-7421
▁ⲣⲁⲥⲧⲉ	-7422
▁ⲣⲟⲉⲓⲥ	-7423
▁ⲧϩⲓⲏⲙ	-7424
▁ⲧⲁϩⲟϥ	-7425
▁ⲧⲁϩⲟⲓ	-7426
▁ⲧⲁϭⲓϫ	-7427
▁ⲧⲁⲃⲱⲕ	-7428
▁ⲧⲡⲩⲗⲏ	-7429
ⲁϣⲁϩⲟⲙ	-7430
ⲁⲑⲉⲧⲉⲓ	-7431
ⲅⲉⲛⲏⲙⲁ	-7432
ⲑⲁⲓⲙⲁⲛ	-7433
ⲕⲁⲧⲁⲗⲁ	-7434
ⲕⲉⲥⲟⲟⲩ	-7435
ⲗⲟⲓⲙⲟⲥ	-7436
ⲛⲟⲩⲁⲁⲃ	-7437
ⲛⲟⲩⲟⲙϥ	-7438
ⲟⲙⲟⲣⲣⲁ	-7439
ⲟⲛⲏⲣⲓⲁ	-7440
ⲟⲩⲱⲛⲟⲩ	-7441
ⲡⲟⲟⲛⲉϥ	-7442
ⲣⲙⲡϣⲁⲛ	-7443
ⲥⲟⲩⲱⲛⲧ	-7444
ⲩⲗⲏⲧⲟⲥ	-7445
ⲫⲣⲁⲧⲏⲥ	-7446
ϩⲁⲡⲗⲟⲩⲥ	-7447
ϩⲉⲛⲣⲱⲙⲉ	-7448
ϩⲓⲡⲡⲉⲩⲥ	-7449
ϭⲛⲁⲣⲓⲕⲉ	-7450
▁ϣⲟⲩⲉⲓⲧ	-7451
▁ϩⲁⲧⲉⲧⲛ	-7452
▁ϩⲓⲛⲟⲩⲃ	-7453
▁ϩⲙⲡⲏⲣⲡ	-7454
▁ϩⲛⲟⲩⲉⲓ	-7455
▁ϫⲉϥⲥⲏϩ	-7456
▁ϫⲉⲁⲓϩⲉ	-7457
▁ϫⲉⲉⲣⲉⲧ	-7458
▁ϫⲉⲙⲡⲉⲓ	-7459
▁ϫⲉⲙⲡⲉⲕ	-7460
▁ϫⲉⲛⲁϣⲉ	-7461
▁ϫⲉⲧⲛⲛⲁ	-7462
▁ⲁϥϣⲱⲱⲧ	-7463
▁ⲁϥⲙⲧⲟⲛ	-7464
▁ⲁϥⲥⲱⲧⲡ	-7465
▁ⲁϥⲧⲁⲗⲟ	-7466
▁ⲁϩⲟⲓⲛⲉ	-7467
▁ⲁϫⲛⲱϫⲛ	-7468
▁ⲁⲡⲗⲁⲟⲥ	-7469
▁ⲁⲧⲉⲧⲛϯ	-7470
▁ⲉϥϣⲁⲛⲧ	-7471
▁ⲉϥϣⲗⲏⲗ	-7472
▁ⲉϥϣⲟⲩⲉ	-7473
▁ⲉϥϩⲛⲟⲩ	-7474
▁ⲉϥⲉϣⲱⲙ	-7475
▁ⲉϥⲣⲓⲙⲉ	-7476
▁ⲉϫⲙⲡⲏⲓ	-7477
▁ⲉⲓⲟⲩⲱϣ	-7478
▁ⲉⲙⲛⲧⲟⲩ	-7479
▁ⲉⲙⲟⲩⲧⲉ	-7480
▁ⲉⲙⲡⲁⲧⲉ	-7481
▁ⲉⲛⲉⲓⲣⲉ	-7482
▁ⲉⲛⲥⲉⲛⲁ	-7483
▁ⲉⲛⲧⲁⲓⲥ	-7484
▁ⲉⲣⲉⲛⲁⲓ	-7485
▁ⲉⲣⲉⲧⲉⲕ	-7486
▁ⲉⲣⲉⲧⲉⲩ	-7487
▁ⲉⲧϣⲓⲛⲉ	-7488
▁ⲉⲧⲉϥⲛⲁ	-7489
▁ⲉⲧⲉⲣⲉⲧ	-7490
▁ⲉⲧⲟⲩⲟϫ	-7491
▁ⲉⲩϣⲟⲃⲉ	-7492
▁ⲉⲩϫⲁϩⲙ	-7493
▁ⲉⲩⲉⲓⲛⲉ	-7494
▁ⲉⲩⲣⲁϣⲉ	-7495
▁ⲙⲛⲛⲛⲟϭ	-7496
▁ⲙⲛⲡϩⲁⲧ	-7497
▁ⲙⲡϫⲟⲉⲓ	-7498
▁ⲙⲡⲉϥⲛⲁ	-7499
▁ⲙⲡⲉⲓⲛⲉ	-7500
▁ⲙⲡⲉⲕⲛⲁ	-7501
▁ⲙⲡⲕⲁⲕⲉ	-7502
▁ⲙⲡⲗⲩⲅⲏ	-7503
▁ⲙⲡⲣⲃⲱⲕ	-7504
▁ⲛϩⲁⲣⲙⲁ	-7505
▁ⲛϩⲩⲡⲟⲕ	-7506
▁ⲛⲁϫⲟⲟⲥ	-7507
▁ⲛⲁⲣⲛⲱⲛ	-7508
▁ⲛⲉϥⲛⲏⲩ	-7509
▁ⲛⲓⲁⲃⲓⲥ	-7510
▁ⲛⲛⲥⲓⲟⲩ	-7511
▁ⲛⲟⲩϣⲏⲛ	-7512
▁ⲛⲟⲩϩⲏⲧ	-7513
▁ⲛⲟⲩϩⲣⲉ	-7514
▁ⲛⲟⲩϩⲱⲃ	-7515
▁ⲛⲥⲁϣϥⲉ	-7516
▁ⲛⲥⲁⲛⲉⲕ	-7517
▁ⲛⲥⲉⲃⲱⲕ	-7518
▁ⲛⲧⲁⲕⲉⲓ	-7519
▁ⲛⲧⲛⲃⲱⲕ	-7520
▁ⲡϣⲟϫⲛⲉ	-7521
▁ⲡⲉⲓϩⲱⲃ	-7522
▁ⲡⲉⲧⲉⲙⲡ	-7523
▁ⲡⲕⲉⲟⲩⲁ	-7524
▁ⲥⲉϣⲟⲟⲡ	-7525
▁ⲭⲉⲃⲣⲱⲛ	-7526
ⲃⲟⲏⲑⲉⲓⲁ	-7527
ⲇⲓⲱⲅⲙⲟⲥ	-7528
ⲓⲉⲛⲧⲟⲗⲏ	-7529
ⲕⲏⲕⲁϩⲏⲩ	-7530
ⲙⲁⲓⲣⲱⲙⲉ	-7531
ⲙⲛⲧϩⲗⲗⲟ	-7532
ⲛⲁⲙⲁϩⲧⲉ	-7533
ⲛⲧⲁϥⲁⲁⲩ	-7534
ⲟⲩⲉϩⲛⲁⲩ	-7535
ⲡⲁⲙⲉⲉⲩⲉ	-7536
ⲡⲉⲧϫⲟⲥⲉ	-7537
ⲣⲙⲛⲧϩⲏⲧ	-7538
ⲥⲙⲛⲥⲛⲧⲉ	-7539
ⲧⲉⲧⲛⲛⲁⲩ	-7540
▁ϣⲁⲁⲣⲏϫϥ	-7541
▁ϩⲉⲗⲡⲓⲍⲉ	-7542
▁ϩⲙⲡⲕⲱϩⲧ	-7543
▁ϩⲙⲡⲥⲱⲙⲁ	-7544
▁ϩⲛϩⲉⲛⲙⲁ	-7545
▁ϩⲛⲧϩⲓⲏⲙ	-7546
▁ϩⲛⲧⲁⲣⲭⲏ	-7547
▁ϩⲛⲧⲁⲩⲗⲏ	-7548
▁ϩⲛⲧⲡⲁϣⲉ	-7549
▁ϫⲉⲉⲓⲥⲟⲩ	-7550
▁ϫⲉⲛⲛⲉⲧⲛ	-7551
▁ϫⲉⲥⲁⲟⲩⲗ	-7552
▁ⲁϥϣⲟⲣⲡϥ	-7553
▁ⲁϥⲛⲟϫⲟⲩ	-7554
▁ⲁϥⲡⲱⲱⲛⲉ	-7555
▁ⲁⲓⲙⲉⲥⲧⲉ	-7556
▁ⲁⲡⲁⲉⲓⲱⲧ	-7557
▁ⲁⲥϩⲙⲟⲟⲥ	-7558
▁ⲁⲥⲙⲟⲩⲧⲉ	-7559
▁ⲁⲩϫⲓⲟⲟⲣ	-7560
▁ⲉϥⲙⲟⲟⲩⲧ	-7561
▁ⲉϥⲧⲃⲃⲏⲩ	-7562
▁ⲉⲙⲡⲁⲧⲟⲩ	-7563
▁ⲉⲛⲉⲥⲱⲟⲩ	-7564
▁ⲉⲡⲁϣⲗⲏⲗ	-7565
▁ⲉⲡⲁⲩⲗⲟⲥ	-7566
▁ⲉⲡⲙⲏⲏϣⲉ	-7567
▁ⲉⲡⲧⲁⲫⲟⲥ	-7568
▁ⲉⲣϣⲁⲛⲡⲉ	-7569
▁ⲉⲣⲉⲡⲟⲩⲁ	-7570
▁ⲉⲧϩⲁⲣⲉϩ	-7571
▁ⲉⲧⲃⲉⲛⲉⲩ	-7572
▁ⲉⲧⲉⲁⲛⲟⲕ	-7573
▁ⲉⲧⲉⲛϥⲛⲁ	-7574
▁ⲉⲧⲉⲧⲛⲟⲩ	-7575
▁ⲉⲧⲛⲁϣⲱϥ	-7576
▁ⲉⲧⲣⲉϥⲉⲓ	-7577
▁ⲉⲩⲙⲏⲏϣⲉ	-7578
▁ⲉⲩⲥⲟⲟⲩϩ	-7579
▁ⲕⲁⲧⲁⲡⲉⲥ	-7580
▁ⲙⲁⲣⲉⲡⲉⲕ	-7581
▁ⲙⲡϥⲟⲩⲱϣ	-7582
▁ⲙⲡⲁϭⲱⲛⲧ	-7583
▁ⲙⲡⲁⲥⲟⲡⲥ	-7584
▁ⲙⲡⲉϥⲙⲟⲩ	-7585
▁ⲙⲡⲉϥⲱⲛϩ	-7586
▁ⲙⲡⲉⲕⲕⲁϩ	-7587
▁ⲙⲡⲣⲕⲁⲁⲧ	-7588
▁ⲛϩⲁⲓⲃⲉⲥ	-7589
▁ⲛⲉϥϣⲁϫⲉ	-7590
▁ⲛⲉϥⲟⲩⲏϩ	-7591
▁ⲛⲛϫⲱⲱⲣⲉ	-7592
▁ⲛⲛⲛⲟⲩⲧⲉ	-7593
▁ⲛⲛⲣⲣⲱⲟⲩ	-7594
▁ⲛⲟⲩϩⲙⲟⲧ	-7595
▁ⲛⲟⲩⲥⲙⲟⲩ	-7596
▁ⲛⲟⲩⲯⲩⲭⲏ	-7597
▁ⲛⲥⲉⲟⲩⲱⲙ	-7598
▁ⲛⲧⲁⲓⲛⲁⲩ	-7599
▁ⲛⲧⲉϥϩⲓⲏ	-7600
▁ⲛⲧⲉⲕϭⲟⲙ	-7601
▁ⲛⲧⲕⲁⲕⲓⲁ	-7602
▁ⲟⲩⲛⲟⲩⲧⲉ	-7603
▁ⲟⲩⲛⲧⲏⲧⲛ	-7604
▁ⲡⲉⲓⲣⲱⲙⲉ	-7605
▁ⲡⲉⲧⲉϣϣⲉ	-7606
▁ⲡⲉⲩϣⲓⲛⲉ	-7607
ⲁⲓⲥⲑⲏⲥⲓⲥ	-7608
ⲃⲁⲣⲃⲁⲣⲟⲥ	-7609
ⲇⲓⲁⲕⲣⲓⲛⲉ	-7610
ⲇⲩⲛⲁⲥⲧⲏⲥ	-7611
ⲕⲟⲓⲃⲱⲧⲟⲥ	-7612
ϩⲩⲡⲏⲣⲉⲧⲏⲥ	-7613
▁ϥⲛⲁⲧⲱⲱⲃⲉ	-7614
▁ϩⲙⲡⲙⲏⲏϣⲉ	-7615
▁ϩⲛⲛⲉϣⲏⲣⲉ	-7616
▁ϩⲛⲟⲩϣⲁϫⲉ	-7617
▁ⲁϥⲧⲁⲗⲟⲟⲩ	-7618
▁ⲁⲟⲩⲙⲏⲏϣⲉ	-7619
▁ⲉϫⲙⲡⲉϥϩⲟ	-7620
▁ⲉⲛⲉⲕϣⲁϫⲉ	-7621
▁ⲉⲛⲉⲛⲉⲣⲏⲩ	-7622
▁ⲉⲛⲧⲁϥⲁⲁⲥ	-7623
▁ⲉⲡⲁϩⲣⲟⲟⲩ	-7624
▁ⲉⲩⲉⲓⲣⲏⲛⲏ	-7625
▁ⲉⲩⲉⲙⲟⲩⲧⲉ	-7626
▁ⲉⲩⲧⲁϫⲣⲏⲩ	-7627
▁ⲙⲛⲇⲁⲩⲉⲓⲇ	-7628
▁ⲙⲛⲟⲩⲉⲟⲟⲩ	-7629
▁ⲙⲡⲉϥⲕⲱⲧⲉ	-7630
▁ⲙⲡⲉⲥⲉⲓⲱⲧ	-7631
▁ⲛϩⲏⲣⲱⲇⲏⲥ	-7632
▁ⲛϭⲓⲟⲩⲛⲟϭ	-7633
▁ⲛⲁⲃⲉⲛⲛⲏⲣ	-7634
▁ⲛⲁⲥⲟⲟⲩⲧⲛ	-7635
▁ⲛⲁⲧⲛⲁϩⲧⲉ	-7636
▁ⲛⲉⲧⲙⲟⲟⲩⲧ	-7637
▁ⲛⲉⲧⲙⲟⲥⲧⲉ	-7638
▁ⲛⲛⲁⲛⲟⲙⲟⲥ	-7639
▁ⲛⲟⲩϩⲓⲉⲓⲃ	-7640
▁ⲛⲟⲩⲉⲥⲟⲟⲩ	-7641
▁ⲛⲟⲩⲭⲁⲣⲓⲥ	-7642
▁ⲛⲥⲉⲕⲟⲧⲟⲩ	-7643
▁ⲛⲧⲁⲩϫⲡⲟϥ	-7644
▁ⲛⲧⲉⲑⲩⲥⲓⲁ	-7645
▁ⲛⲧⲉⲕⲟⲣⲅⲏ	-7646
▁ⲡⲉϫⲉⲓⲱⲁⲃ	-7647
▁ⲡⲉⲧϩⲙⲟⲟⲥ	-7648
▁ⲡⲉⲧⲛⲟⲩϩⲙ	-7649
▁ⲡⲙⲉϩⲥⲛⲁⲩ	-7650
▁ⲥⲉⲛⲁⲥⲱⲧⲙ	-7651
ⲟⲓⲕⲟⲛⲟⲙⲓⲁ	-7652
ⲡⲉⲧϣⲟⲩⲱⲟⲩ	-7653
ⲥⲩⲅⲅⲉⲛⲉⲓⲁ	-7654
▁ϩⲓⲱⲧⲧⲏⲩⲧⲛ	-7655
▁ϩⲛⲛⲉⲕϣⲁϫⲉ	-7656
▁ϩⲛⲟⲩⲧⲉⲗⲏⲗ	-7657
▁ϫⲉⲁⲓⲣⲛⲟⲃⲉ	-7658
▁ϯⲛⲁⲧⲛⲛⲟⲟⲩ	-7659
▁ⲁϥⲣⲡⲙⲉⲉⲩⲉ	-7660
▁ⲁⲩϫⲓϣⲟϫⲛⲉ	-7661
▁ⲁⲩⲥⲉⲡⲥⲱⲡϥ	-7662
▁ⲉⲛⲉⲧⲛⲉⲣⲏⲩ	-7663
▁ⲉⲛⲧⲁϥϣⲁϫⲉ	-7664
▁ⲉⲛⲧⲁⲩϣⲱⲡⲉ	-7665
▁ⲉⲥϣⲁⲛϣⲱⲡⲉ	-7666
▁ⲉⲧⲃⲉⲡϣⲁϫⲉ	-7667
▁ⲕⲁⲧⲁⲡϩⲩⲗⲏ	-7668
▁ⲕⲁⲧⲁⲡⲟⲗⲓⲥ	-7669
▁ⲙⲙⲓⲛⲙⲙⲟⲟⲩ	-7670
▁ⲙⲛⲡⲉⲕⲗⲁⲟⲥ	-7671
▁ⲙⲛⲧⲡⲓⲥⲧⲓⲥ	-7672
▁ⲙⲡⲉⲓϫⲱⲱⲙⲉ	-7673
▁ⲙⲡⲡⲟⲛⲏⲣⲟⲥ	-7674
▁ⲛϩⲉⲛⲉⲥⲟⲟⲩ	-7675
▁ⲛϭⲓⲛϩⲙϩⲁⲗ	-7676
▁ⲛϭⲓⲧϣⲉⲉⲣⲉ	-7677
▁ⲛⲛⲉⲧⲙⲟⲥⲧⲉ	-7678
▁ⲛⲥⲁⲇⲁⲩⲉⲓⲇ	-7679
▁ⲛⲧϭⲓⲃⲱⲧⲟⲥ	-7680
▁ⲛⲧⲁⲇⲁⲩⲉⲓⲇ	-7681
▁ⲛⲧⲉⲣⲉϥϩⲱⲛ	-7682
▁ⲡⲁⲣⲉϥϣⲟⲡⲧ	-7683
▁ⲡⲙⲁⲕⲁⲣⲓⲟⲥ	-7684
▁ⲧⲉⲧⲛⲁϣⲱⲡⲉ	-7685
▁ⲧⲙⲛⲧⲣⲙⲙⲁⲟ	-7686
▁ⲧⲥⲩⲛⲁⲅⲱⲅⲏ	-7687
ⲙⲛⲧϫⲁⲥⲓϩⲏⲧ	-7688
ⲛⲉϥⲟⲩⲉⲣⲏⲧⲉ	-7689
▁ϩⲛⲧⲉⲓⲡⲟⲗⲓⲥ	-7690
▁ϫⲉϩⲉⲛⲛⲟⲩⲧⲉ	-7691
▁ⲉⲩⲁϩⲉⲣⲁⲧⲟⲩ	-7692
▁ⲙⲛⲡⲉϥⲙⲏⲏϣⲉ	-7693
▁ⲙⲛⲧⲓⲙⲟⲑⲉⲟⲥ	-7694
▁ⲙⲡⲉⲕⲥⲡⲉⲣⲙⲁ	-7695
▁ⲛϭⲓⲡⲓⲗⲁⲧⲟⲥ	-7696
▁ⲛⲉϥⲁϩⲉⲣⲁⲧϥ	-7697
▁ⲛⲛⲉⲩⲡⲁⲧⲣⲓⲁ	-7698
▁ⲛⲧⲉϩⲟⲩⲉⲓⲧⲉ	-7699
▁ⲡⲉϫⲉⲡⲉⲧⲣⲟⲥ	-7700
▁ⲡⲉⲛⲧⲁϥⲉⲓⲛⲉ	-7701
ⲥⲧⲣⲁⲧⲏⲗⲁⲧⲏⲥ	-7702
▁ϩⲛⲛⲥⲩⲛⲁⲅⲱⲅⲏ	-7703
▁ⲛϩⲉⲛϥⲁⲓϣⲓⲛⲉ	-7704
▁ⲛⲛⲁⲡⲟⲥⲧⲟⲗⲟⲥ	-7705
▁ⲛⲛⲉϥⲁⲅⲅⲉⲗⲟⲥ	-7706
▁ⲛⲧⲉⲡϩⲓⲉⲣⲉⲩⲥ	-7707
▁ϩⲙⲡⲡⲁⲣⲁⲇⲓⲥⲟⲥ	-7708
▁ⲙⲛⲛⲁⲗⲗⲟⲫⲩⲗⲟⲥ	-7709
▁ⲛⲉⲅⲣⲁⲙⲙⲁⲧⲉⲩⲥ	-7710
▁ⲛⲛⲉⲭⲁⲛⲁⲛⲁⲓⲟⲥ	-7711
▁ⲙⲡⲕⲁⲧⲁⲡⲉⲧⲁⲥⲙⲁ	-7712
▁ⲉⲛⲧⲁⲩϭⲙⲡⲉⲩϣⲓⲛⲉ	-7713
▁ⲛⲧⲉϥⲕⲗⲏⲣⲟⲛⲟⲙⲓⲁ	-7714
ⲙⲱ	-7715
ⲝⲱ	-7716
ⲫⲱ	-7717
ϣⲏϥ	-7718
ϣⲓⲕ	-7719
ϥⲧⲉ	-7720
ϩⲉⲡ	-7721
ϩⲉⲣ	-7722
ϫⲱⲓ	-7723
ϭⲏⲛ	-7724
ϭⲣⲱ	-7725
▁ϣⲓ	-7726
▁ϣⲛ	-7727
▁ⲁⲉ	-7728
▁ⲟϣ	-7729
▁ⲣⲉ	-7730
▁ⲫⲁ	-7731
ⲁⲣⲝ	-7732
ⲃⲁⲑ	-7733
ⲃⲗⲏ	-7734
ⲃⲱⲣ	-7735
ⲅⲱⲣ	-7736
ⲏⲙⲁ	-7737
ⲑⲉⲥ	-7738
ⲙⲁϩ	-7739
ⲙⲙⲱ	-7740
ⲙⲟⲓ	-7741
ⲙⲡⲟ	-7742
ⲛⲕⲉ	-7743
ⲛⲟϣ	-7744
ⲟⲛϥ	-7745
ⲟⲟⲙ	-7746
ⲟⲣⲕ	-7747
ⲟⲥⲙ	-7748
ⲡⲣϣ	-7749
ⲣⲁⲙ	-7750
ⲣⲓⲱ	-7751
ⲧⲁϣ	-7752
ⲫⲉⲕ	-7753
ⲭⲁⲍ	-7754
ⲱⲙⲧ	-7755
ϣⲕⲟⲗ	-7756
ϣⲙⲧⲉ	-7757
ϣⲱⲥⲙ	-7758
ϩⲙⲉⲕ	-7759
ϩⲟⲗϭ	-7760
ϩⲱⲗϭ	-7761
ϫⲙⲡⲉ	-7762
ϫⲱⲕⲙ	-7763
▁ⲁⲁⲥ	-7764
▁ⲁⲓⲙ	-7765
▁ⲁⲕⲉ	-7766
▁ⲁⲛⲥ	-7767
▁ⲁⲥϯ	-7768
▁ⲁⲩϭ	-7769
▁ⲁⲭⲓ	-7770
▁ⲉϩⲙ	-7771
▁ⲉⲃⲁ	-7772
▁ⲉⲓⲱ	-7773
▁ⲉⲙⲙ	-7774
▁ⲉⲥϯ	-7775
▁ⲏⲛϥ	-7776
▁ⲏⲣⲡ	-7777
▁ⲙⲉⲗ	-7778
▁ⲛⲉϩ	-7779
▁ⲛⲍⲁ	-7780
▁ⲛⲑⲁ	-7781
▁ⲧⲁⲛ	-7782
▁ⲧⲃⲱ	-7783
ⲅⲗⲱⲙ	-7784
ⲉⲧⲡⲉ	-7785
ⲍⲁⲏⲗ	-7786
ⲑⲉⲣⲁ	-7787
ⲓⲱⲁⲃ	-7788
ⲓⲱⲣⲕ	-7789
ⲕⲁⲑⲉ	-7790
ⲕⲧⲟⲕ	-7791
ⲗⲁⲕⲙ	-7792
ⲗⲓⲥⲁ	-7793
ⲙⲁⲧⲉ	-7794
ⲙⲏⲛⲉ	-7795
ⲛⲉⲭⲉ	-7796
ⲛⲧⲉϥ	-7797
ⲟⲕϩⲥ	-7798
ⲟⲣⲛⲁ	-7799
ⲟⲩⲏⲛ	-7800
ⲡⲟⲗⲩ	-7801
ⲣⲉϩⲧ	-7802
ⲥⲁⲉⲓ	-7803
ⲥⲕⲁⲓ	-7804
ⲥⲟⲡⲟ	-7805
ⲥⲟⲧϥ	-7806
ⲥⲧⲙⲉ	-7807
ⲧⲁϩⲥ	-7808
ⲧⲁⲓⲉ	-7809
ⲧⲉⲕⲙ	-7810
ⲧⲉⲟⲩ	-7811
ⲧⲕⲁⲥ	-7812
ⲫⲟⲛⲏ	-7813
ⲫⲟⲣⲁ	-7814
ⲭⲓⲥⲉ	-7815
ϣⲁⲁⲧϥ	-7816
ϩⲁⲓⲟⲥ	-7817
ϩⲟϫϩϫ	-7818
ϫⲓⲟⲩⲉ	-7819
ϫⲟⲟⲩϥ	-7820
▁ϣⲁⲛⲉ	-7821
▁ϣⲙⲙⲟ	-7822
▁ϣⲱⲱⲧ	-7823
▁ϥⲱⲧⲉ	-7824
▁ϩⲛⲁⲥ	-7825
▁ϩⲛⲃⲁ	-7826
▁ϩⲛⲥⲉ	-7827
▁ϫⲉϩⲉ	-7828
▁ϫⲉϭⲱ	-7829
▁ⲁⲓϭⲱ	-7830
▁ⲉϥⲙⲉ	-7831
▁ⲉϥⲙⲡ	-7832
▁ⲉϥⲱϣ	-7833
▁ⲉϩⲟⲩ	-7834
▁ⲉⲡⲓⲁ	-7835
▁ⲉⲣⲁⲧ	-7836
▁ⲉⲧⲕⲉ	-7837
▁ⲉⲩⲟϣ	-7838
▁ⲕⲏⲙⲉ	-7839
▁ⲙⲛⲛⲓ	-7840
▁ⲙⲡⲣⲁ	-7841
▁ⲛϣϣⲉ	-7842
▁ⲛϩⲁⲏ	-7843
▁ⲛϩⲓⲏ	-7844
▁ⲛⲁϣⲉ	-7845
▁ⲛⲁϫⲱ	-7846
▁ⲛⲁⲃⲓ	-7847
▁ⲛⲃⲁⲣ	-7848
▁ⲛⲉⲓⲟ	-7849
▁ⲛⲉⲛⲟ	-7850
▁ⲛⲉⲧⲥ	-7851
▁ⲛⲗⲁⲥ	-7852
▁ⲛⲣⲱⲓ	-7853
▁ⲟⲩⲉⲛ	-7854
▁ⲟⲩⲏⲣ	-7855
▁ⲡϣⲱⲥ	-7856
▁ⲡϫⲱⲕ	-7857
▁ⲥⲉϫⲓ	-7858
▁ⲥⲟⲩⲛ	-7859
▁ⲧϩⲁⲏ	-7860
▁ⲧⲁϫⲓ	-7861
▁ⲧⲁⲁⲥ	-7862
▁ⲧⲟⲩⲱ	-7863
▁ⲧⲱⲃϩ	-7864
ⲁⲛⲉⲭⲉ	-7865
ⲃⲁⲧⲏⲥ	-7866
ⲃⲗⲏⲙⲁ	-7867
ⲅⲁⲓⲟⲥ	-7868
ⲉⲕⲓⲃⲉ	-7869
ⲕⲁⲗⲱⲛ	-7870
ⲕⲉⲣⲣⲟ	-7871
ⲕⲏⲥⲓⲥ	-7872
ⲗⲓⲙⲛⲏ	-7873
ⲗⲟⲙⲗⲙ	-7874
ⲗⲟⲟⲩⲉ	-7875
ⲙⲉⲛⲟⲥ	-7876
ⲙⲛⲧⲉⲩ	-7877
ⲙⲡⲁⲣⲁ	-7878
ⲛⲟⲙⲟⲛ	-7879
ⲟⲩⲃⲁϣ	-7880
ⲟⲩⲱϫⲛ	-7881
ⲡⲙⲟⲟⲩ	-7882
ⲡⲛⲟⲃⲉ	-7883
ⲣⲁⲓⲧⲉ	-7884
ⲥⲉⲏⲣⲡ	-7885
ⲥⲓⲟⲩⲣ	-7886
ⲧⲁϥⲧⲉ	-7887
ⲧⲁⲕⲟⲥ	-7888
ⲧⲉϥⲛⲁ	-7889
ⲧⲟⲛⲧⲛ	-7890
ⲧⲟⲣⲡϥ	-7891
ⲧⲣϩⲱⲃ	-7892
ⲫⲟⲣⲟⲥ	-7893
ϣⲁⲁⲧⲟⲩ	-7894
ϣⲛϩⲧⲏⲕ	-7895
ϩⲉⲗⲗⲏⲛ	-7896
ϩⲟⲧⲃⲉϥ	-7897
ϩⲣⲁⲭⲏⲗ	-7898
ϫⲟⲟⲗⲉⲥ	-7899
ϫⲟⲟⲩⲥⲉ	-7900
ϭⲟⲟⲗⲟⲩ	-7901
▁ϩⲁⲧⲏⲕ	-7902
▁ϩⲓⲣⲱⲥ	-7903
▁ϩⲓⲧⲉϥ	-7904
▁ϩⲓⲧⲛⲡ	-7905
▁ϩⲓⲱⲱⲧ	-7906
▁ϩⲙⲡⲓⲁ	-7907
▁ϩⲛϩⲣⲁ	-7908
▁ϩⲛⲛⲧⲁ	-7909
▁ϩⲱⲱⲧⲉ	-7910
▁ϫⲉⲁⲉⲓ	-7911
▁ϫⲉⲙⲡϥ	-7912
▁ϫⲉⲡⲉϥ	-7913
▁ϫⲉⲧⲉⲕ	-7914
▁ϯⲙⲧⲟⲛ	-7915
▁ⲁϥϫⲛⲉ	-7916
▁ⲁϥⲕⲧⲉ	-7917
▁ⲉϥϩⲏⲗ	-7918
▁ⲉϥⲃⲏⲕ	-7919
▁ⲉϥⲥⲏϩ	-7920
▁ⲉⲉⲓϫⲱ	-7921
▁ⲉⲕⲡⲏⲧ	-7922
▁ⲉⲛⲛⲉⲩ	-7923
▁ⲉⲛⲧⲟⲩ	-7924
▁ⲉⲡϩⲏⲧ	-7925
▁ⲉⲣⲁⲧⲛ	-7926
▁ⲉⲥⲟⲩⲛ	-7927
▁ⲉⲥⲧⲏⲙ	-7928
▁ⲉⲧⲛⲁϯ	-7929
▁ⲉⲧⲛⲁⲩ	-7930
▁ⲉⲩⲃⲏⲕ	-7931
▁ⲑⲃⲃⲓⲉ	-7932
▁ⲙⲛⲧⲙⲉ	-7933
▁ⲙⲡⲉϥⲉ	-7934
▁ⲙⲡⲣϥⲓ	-7935
▁ⲙⲯⲩⲭⲏ	-7936
▁ⲛϣⲟⲙⲧ	-7937
▁ⲛϣⲱⲛⲉ	-7938
▁ⲛϥⲛⲁⲩ	-7939
▁ⲛϩⲟⲙⲧ	-7940
▁ⲛϫⲛⲁϩ	-7941
▁ⲛⲃⲁⲓⲑ	-7942
▁ⲛⲙⲡⲉϥ	-7943
▁ⲛⲙⲡⲉⲧ	-7944
▁ⲛⲛⲁⲏⲧ	-7945
▁ⲛⲛⲉⲕⲁ	-7946
▁ⲛⲛⲉⲧⲥ	-7947
▁ⲛⲥⲛⲁⲩ	-7948
▁ⲛⲥⲟⲃⲧ	-7949
▁ⲛⲥⲟⲟⲩ	-7950
▁ⲛⲧⲁⲩⲣ	-7951
▁ⲛⲧⲟⲟⲧ	-7952
▁ⲟⲩϩⲏⲧ	-7953
▁ⲟⲩⲃⲏⲓ	-7954
▁ⲟⲩⲛⲧϥ	-7955
▁ⲡⲉϣⲁϥ	-7956
▁ⲡⲉⲓⲙⲁ	-7957
▁ⲡⲉⲕⲣⲟ	-7958
▁ⲡⲉⲭⲉⲇ	-7959
▁ⲡⲛⲟⲩⲃ	-7960
▁ⲡⲥⲱⲙⲁ	-7961
▁ⲣⲟⲙⲡⲉ	-7962
▁ⲣⲟⲩϩⲉ	-7963
▁ⲧⲁϭⲟⲙ	-7964
▁ⲧⲁⲣⲟⲩ	-7965
▁ⲧⲉⲃⲟⲗ	-7966
▁ⲧⲙⲏⲧⲉ	-7967
▁ⲭⲁⲣⲓⲥ	-7968
ⲁⲛⲁⲅⲕⲏ	-7969
ⲕⲁⲗⲁⲁⲩ	-7970
ⲗⲓⲧⲟⲩⲣ	-7971
ⲗⲟϫⲗⲉϫ	-7972
ⲙⲛⲧⲙⲁⲓ	-7973
ⲙⲟⲭⲗⲟⲥ	-7974
ⲛⲁⲑⲉⲙⲁ	-7975
ⲛⲉϥϭⲓϫ	-7976
ⲣⲁϩⲧⲟⲩ	-7977
ⲣⲁⲙⲉⲩⲥ	-7978
ⲣⲟϥⲣⲉϥ	-7979
ⲥⲗⲁⲁⲧⲉ	-7980
ⲧⲥⲁⲃⲟϥ	-7981
ⲭⲓⲙⲁⲁⲥ	-7982
ϩⲁⲗⲗⲁⲥⲁ	-7983
ϩⲏⲗⲉⲓⲁⲥ	-7984
ϭⲓⲛⲟⲩⲱⲙ	-7985
▁ϩⲓⲧⲙⲡⲁ	-7986
▁ϩⲙⲡⲁⲏⲓ	-7987
▁ϩⲛⲟⲩϫⲓ	-7988
▁ⲁϥⲙⲟⲣϥ	-7989
▁ⲁϥⲙⲟⲩϩ	-7990
▁ⲁϩⲉⲣⲁⲧ	-7991
▁ⲁⲓϫⲓⲥⲉ	-7992
▁ⲁⲓⲣⲧϩⲉ	-7993
▁ⲁⲓⲧⲁⲁⲩ	-7994
▁ⲁⲩϣⲓⲛⲉ	-7995
▁ⲁⲩϭⲱⲧⲡ	-7996
▁ⲉϥϣⲁⲁⲧ	-7997
▁ⲉϥⲛⲏⲟⲩ	-7998
▁ⲉϥⲟⲩⲏⲩ	-7999
▁ⲉϥⲥⲱⲧⲙ	-8000
▁ⲉϥⲧⲁⲩⲟ	-8001
▁ⲉⲙⲉⲉⲩⲉ	-8002
▁ⲉⲛⲟⲩϫⲉ	-8003
▁ⲉⲛⲧⲉⲧⲛ	-8004
▁ⲉⲡⲕⲱϩⲧ	-8005
▁ⲉⲥϣⲟⲟⲡ	-8006
▁ⲉⲧⲉⲟⲩⲛ	-8007
▁ⲉⲧⲛϩⲏⲧ	-8008
▁ⲉⲧⲟⲩϫⲉ	-8009
▁ⲉⲧⲱⲟⲩⲛ	-8010
▁ⲉⲩϣⲓⲛⲉ	-8011
▁ⲉⲩϩⲙⲟⲧ	-8012
▁ⲉⲩⲥⲛⲟϥ	-8013
▁ⲙⲁⲣⲉⲡⲁ	-8014
▁ⲙⲉⲗⲉⲧⲁ	-8015
▁ⲙⲙⲉⲗⲟⲥ	-8016
▁ⲙⲙⲛⲧⲛⲁ	-8017
▁ⲙⲡⲁϩⲁⲡ	-8018
▁ⲙⲡⲁⲥⲟⲛ	-8019
▁ⲙⲡⲇⲟⲩⲝ	-8020
▁ⲙⲡⲉⲧϩⲓ	-8021
▁ⲙⲡⲓⲛⲁⲩ	-8022
▁ⲙⲡⲧⲁⲕⲟ	-8023
▁ⲙⲡⲧⲃⲃⲟ	-8024
▁ⲛϥϣⲟⲟⲡ	-8025
▁ⲛϩⲃⲟⲩⲣ	-8026
▁ⲛϩⲉⲛⲕⲉ	-8027
▁ⲛϩⲉⲛⲟⲩ	-8028
▁ⲛⲁϩⲙⲉⲧ	-8029
▁ⲛⲅⲟⲩⲱϩ	-8030
▁ⲛⲉⲧⲟⲛϩ	-8031
▁ⲛⲉⲩⲛⲏⲩ	-8032
▁ⲛⲙⲙⲟⲩⲓ	-8033
▁ⲛⲛϩⲗⲗⲟ	-8034
▁ⲛⲛⲉϥⲛⲁ	-8035
▁ⲛⲛⲉⲧⲉⲩ	-8036
▁ⲛⲟⲩϩⲟⲣ	-8037
▁ⲛⲥⲁⲡⲉⲕ	-8038
▁ⲛⲥⲟⲉⲓⲧ	-8039
▁ⲛⲧⲉϩⲉⲛ	-8040
▁ⲛⲧⲉⲛⲉⲕ	-8041
▁ⲛⲧⲉⲥⲙⲏ	-8042
▁ⲟⲩⲗⲁⲁⲩ	-8043
▁ⲟⲩⲛϩⲁϩ	-8044
▁ⲟⲩⲛϩⲉⲛ	-8045
▁ⲡϫⲱⲱⲙⲉ	-8046
▁ⲡϭⲉⲣⲱⲃ	-8047
▁ⲡⲥⲟⲫⲟⲥ	-8048
▁ⲡⲧⲁⲉⲓⲟ	-8049
▁ⲧⲁⲙⲓⲟϥ	-8050
▁ⲧⲁⲥⲱⲛⲉ	-8051
▁ⲧⲱⲟⲩⲛⲉ	-8052
ⲁⲓⲥⲁⲣⲓⲁ	-8053
ⲉⲓⲟⲩⲇⲁⲥ	-8054
ⲓⲥⲑⲏⲥⲓⲥ	-8055
ⲕⲓⲃⲱⲧⲟⲥ	-8056
ⲗⲁⲕⲏⲧⲁⲥ	-8057
ⲙⲛⲧϣⲏⲣⲉ	-8058
ⲙⲛⲧⲁϥⲧⲉ	-8059
ⲛⲁⲛⲟⲙⲓⲁ	-8060
ⲟⲩⲁϩⲙⲉϥ	-8061
ⲣⲉϥⲙⲓϣⲉ	-8062
ⲣⲉⲕⲣⲓⲕⲉ	-8063
ⲣⲏⲛⲓⲕⲟⲛ	-8064
ⲥⲁⲧⲁⲛⲁⲥ	-8065
ⲥⲧⲁⲩⲣⲟⲥ	-8066
ⲧⲁⲗϭⲟⲟⲩ	-8067
ⲧⲉϥⲯⲩⲭⲏ	-8068
ⲧⲛⲁⲛⲟⲩϥ	-8069
ⲫⲓⲗⲓⲥⲧⲓ	-8070
ⲭⲓⲥⲉⲇⲉⲕ	-8071
ϣⲧⲣⲧⲱⲣⲟⲩ	-8072
▁ϥⲛⲁⲉⲓⲛⲉ	-8073
▁ϩⲓϫⲙⲡⲉⲓ	-8074
▁ϩⲓⲧⲛⲛⲉⲧ	-8075
▁ϩⲛⲕⲁⲇⲏⲥ	-8076
▁ϩⲛⲟⲩϩⲏⲧ	-8077
▁ϩⲛⲧⲁⲥⲓⲁ	-8078
▁ϩⲛⲭⲱⲣⲏⲃ	-8079
▁ϯⲛⲁⲡⲱϩⲧ	-8080
▁ϯⲛⲁⲧⲁⲁⲩ	-8081
▁ⲁϥⲟⲩⲁϩϥ	-8082
▁ⲁϥⲟⲩⲱϣϥ	-8083
▁ⲁⲓϩⲙⲟⲟⲥ	-8084
▁ⲁⲓⲙⲟⲩⲧⲉ	-8085
▁ⲁⲛⲙⲟⲟϣⲉ	-8086
▁ⲁⲡⲙⲏⲏϣⲉ	-8087
▁ⲉϥⲥⲃⲧⲱⲧ	-8088
▁ⲉϫⲛϩⲧⲏⲥ	-8089
▁ⲉϫⲛⲕⲏⲙⲉ	-8090
▁ⲉⲓⲙⲟⲟϣⲉ	-8091
▁ⲉⲕⲙⲟⲟϣⲉ	-8092
▁ⲉⲛⲙⲁⲁϫⲉ	-8093
▁ⲉⲛⲥⲟⲟⲩⲛ	-8094
▁ⲉⲡⲟⲩϫⲁⲓ	-8095
▁ⲉⲥⲧⲛⲧⲱⲛ	-8096
▁ⲉⲧϩⲛⲛⲉⲕ	-8097
▁ⲉⲧϭⲟⲟⲙⲉ	-8098
▁ⲉⲧⲙⲟⲥⲧⲉ	-8099
▁ⲉⲧⲛⲁϣⲱⲥ	-8100
▁ⲉⲧⲣⲉⲩⲉⲓ	-8101
▁ⲉⲩⲙⲁⲉⲓⲛ	-8102
▁ⲉⲩⲛⲁⲃⲱⲕ	-8103
▁ⲉⲩⲡⲟⲗⲓⲥ	-8104
▁ⲓⲁⲕⲱⲃⲟⲥ	-8105
▁ⲕⲛⲁⲉⲓⲙⲉ	-8106
▁ⲙⲁⲗⲓⲥⲧⲁ	-8107
▁ⲙⲡⲉⲣⲧⲣⲉ	-8108
▁ⲙⲡⲉⲩϩⲏⲧ	-8109
▁ⲙⲡⲟⲩⲛⲟϥ	-8110
▁ⲙⲡⲣⲧⲣⲉⲛ	-8111
▁ⲛϥϩⲙⲟⲟⲥ	-8112
▁ⲛϭⲓⲡϩⲏⲧ	-8113
▁ⲛⲁⲅⲣⲓⲟⲛ	-8114
▁ⲛⲁⲛⲟⲙⲟⲥ	-8115
▁ⲛⲁⲥⲟⲧⲡϥ	-8116
▁ⲛⲃⲟⲏⲑⲟⲥ	-8117
▁ⲛⲅϩⲁⲣⲉϩ	-8118
▁ⲛⲉⲕϣⲁϫⲉ	-8119
▁ⲛⲉⲩϣⲓⲛⲉ	-8120
▁ⲛⲓⲱⲁⲕⲓⲙ	-8121
▁ⲛⲛϩⲙϩⲁⲗ	-8122
▁ⲛⲛⲉⲓⲟⲧⲉ	-8123
▁ⲛⲟⲩⲥⲛⲟϥ	-8124
▁ⲛⲣⲉϥⲕⲱϩ	-8125
▁ⲛⲧⲁϥϩⲱⲛ	-8126
▁ⲛⲧⲉⲓϭⲟⲧ	-8127
▁ⲛⲧⲉⲗⲓⲟⲥ	-8128
▁ⲟⲩⲉⲥⲟⲟⲩ	-8129
▁ⲡⲉϥⲥⲱⲙⲁ	-8130
▁ⲡⲉⲕⲗⲁⲟⲥ	-8131
▁ⲡⲉⲩⲟⲩⲟⲓ	-8132
▁ⲧⲉⲕⲯⲩⲭⲏ	-8133
▁ⲧⲛⲛⲁⲃⲱⲕ	-8134
▁ⲧⲟⲩⲛⲟⲥϥ	-8135
ⲕⲁⲧⲁⲃⲟⲗⲏ	-8136
ⲕⲁⲧⲏⲅⲟⲣⲓ	-8137
ⲕⲟⲓⲛⲱⲛⲓⲁ	-8138
ⲙⲁⲕⲁⲣⲓⲍⲉ	-8139
ⲙⲛⲧϫⲱⲱⲣⲉ	-8140
ⲛⲉⲩⲫⲣⲁⲛⲉ	-8141
ⲡⲉⲛϫⲟⲉⲓⲥ	-8142
ⲡⲟⲗⲓⲧⲉⲓⲁ	-8143
ⲡⲣⲟⲃⲗⲏⲙⲁ	-8144
ⲣⲉϥⲙⲟⲩⲧⲉ	-8145
▁ϣⲁⲡⲉⲩⲛⲟϭ	-8146
▁ϥⲛⲁⲟⲩⲱⲛϩ	-8147
▁ϩⲙⲡⲉϥⲣⲁⲛ	-8148
▁ϩⲛⲛϣⲉⲉⲣⲉ	-8149
▁ϩⲛⲟⲩⲙⲛⲧⲁ	-8150
▁ϩⲛⲟⲩⲟⲣⲅⲏ	-8151
▁ϩⲛⲧⲉⲕϭⲓϫ	-8152
▁ϫⲉⲁⲓⲥⲱⲧⲙ	-8153
▁ϫⲉⲡⲉⲧⲣⲟⲥ	-8154
▁ⲁϥϣⲧⲟⲣⲧⲣ	-8155
▁ⲁϥϫⲓϣⲕⲁⲕ	-8156
▁ⲁϥⲉⲛⲕⲟⲧⲕ	-8157
▁ⲁϥⲧⲁⲕⲟⲟⲩ	-8158
▁ⲁⲩϯⲛⲟⲩϭⲥ	-8159
▁ⲁⲩⲁϣϣⲕⲁⲕ	-8160
▁ⲁⲩⲕⲁⲣⲱⲟⲩ	-8161
▁ⲉϫⲛⲛⲣⲱⲙⲉ	-8162
▁ⲉⲅⲁⲗⲅⲁⲗⲁ	-8163
▁ⲉⲕⲉⲧⲁⲙⲓⲟ	-8164
▁ⲉⲛⲧⲁⲓϩⲱⲛ	-8165
▁ⲉⲡⲁⲛⲟⲩⲧⲉ	-8166
▁ⲉⲧⲥⲟⲩⲧⲱⲛ	-8167
▁ⲉⲩⲁϣϣⲕⲁⲕ	-8168
▁ⲙⲁⲣⲉⲡⲕⲁϩ	-8169
▁ⲙⲁⲧⲁⲛϩⲟⲓ	-8170
▁ⲙⲉⲣⲉⲗⲁⲁⲩ	-8171
▁ⲙⲛⲛⲁⲣⲭⲱⲛ	-8172
▁ⲙⲛⲛⲉⲛⲧⲁⲩ	-8173
▁ⲙⲛⲡⲉϩⲟⲟⲩ	-8174
▁ⲙⲛⲧⲉⲩϭⲟⲙ	-8175
▁ⲙⲡⲁⲅⲁⲑⲟⲛ	-8176
▁ⲙⲡⲉⲓϩⲟⲟⲩ	-8177
▁ⲙⲡⲉⲕⲥⲱⲧⲙ	-8178
▁ⲙⲡⲓⲗⲁⲧⲟⲥ	-8179
▁ⲛϭⲓⲡϣⲁϫⲉ	-8180
▁ⲛⲉϥϣⲡⲏⲣⲉ	-8181
▁ⲛⲉⲑⲏⲣⲓⲟⲛ	-8182
▁ⲛⲉⲥⲡⲟⲧⲟⲩ	-8183
▁ⲛⲛⲉϥϫⲁϫⲉ	-8184
▁ⲛⲛⲉϥⲥⲛⲏⲩ	-8185
▁ⲛⲛⲉⲅⲣⲁⲫⲏ	-8186
▁ⲛⲛⲉⲕϫⲁϫⲉ	-8187
▁ⲛⲛⲉⲧϣⲟⲟⲡ	-8188
▁ⲛⲛⲉⲧⲉⲓⲣⲉ	-8189
▁ⲛⲛⲉⲧⲛϭⲓϫ	-8190
▁ⲛⲟⲩⲣⲟⲙⲡⲉ	-8191
▁ⲛⲥⲁⲧⲏⲩⲧⲛ	-8192
▁ⲛⲧⲁϥϣⲁϫⲉ	-8193
▁ⲛⲧⲁⲓϫⲟⲟⲥ	-8194
▁ⲛⲧⲉϥⲥⲏϥⲉ	-8195
▁ⲡⲉⲛⲧⲁϥⲉⲓ	-8196
▁ⲡⲉⲧⲕⲣⲓⲛⲉ	-8197
▁ⲥⲉⲛⲁϫⲱⲧⲉ	-8198
▁ⲥⲉⲛⲁⲥⲙⲟⲩ	-8199
▁ⲧⲉⲕⲟⲩⲛⲁⲙ	-8200
▁ⲧⲉⲧⲛⲛⲁϩⲉ	-8201
ⲟⲕⲗⲏϯⲁⲛⲟⲥ	-8202
ⲡⲁⲣⲁⲡⲧⲱⲙⲁ	-8203
ⲥⲧⲣⲁⲧⲏⲅⲟⲥ	-8204
▁ϩⲁⲧϩⲁⲓⲃⲉⲥ	-8205
▁ϩⲓϫⲙⲡⲧⲟⲟⲩ	-8206
▁ϩⲙⲡⲉϥϩⲓⲥⲉ	-8207
▁ϩⲙⲡⲉⲙϩⲁⲁⲩ	-8208
▁ϩⲙⲡⲕⲁⲣⲡⲟⲥ	-8209
▁ϩⲛϩⲉⲛϩⲓⲥⲉ	-8210
▁ϩⲛⲛⲉⲅⲣⲁⲫⲏ	-8211
▁ϩⲛⲟⲩϭⲉⲣⲱⲃ	-8212
▁ϩⲛⲟⲩⲙⲛⲧⲁⲧ	-8213
▁ϩⲛⲧⲉⲕⲟⲣⲅⲏ	-8214
▁ϩⲛⲧⲉⲕⲯⲩⲭⲏ	-8215
▁ϩⲛⲧⲉⲣⲟⲙⲡⲉ	-8216
▁ϩⲛⲧⲉⲥⲙⲏⲧⲉ	-8217
▁ϩⲩⲡⲟⲧⲁⲥⲥⲉ	-8218
▁ϫⲉϩⲣⲁⲃⲃⲉⲓ	-8219
▁ⲁϥϥⲓⲉⲓⲁⲧϥ	-8220
▁ⲁϥⲡⲓⲥⲧⲉⲩⲉ	-8221
▁ⲉϫⲙⲡϫⲟⲉⲓⲥ	-8222
▁ⲉⲡⲉⲟⲩⲟⲉⲓϣ	-8223
▁ⲉⲡⲉⲡⲛⲉⲩⲙⲁ	-8224
▁ⲙⲙⲁⲕⲁⲣⲓⲟⲥ	-8225
▁ⲙⲛⲛⲉϩⲓⲟⲙⲉ	-8226
▁ⲙⲛⲡⲉϥⲉⲓⲱⲧ	-8227
▁ⲙⲡⲉⲇⲣⲁⲕⲱⲛ	-8228
▁ⲙⲡⲉⲕⲛⲟⲙⲟⲥ	-8229
▁ⲙⲡⲉⲩϫⲟⲉⲓⲥ	-8230
▁ⲙⲫⲓⲗⲓⲡⲡⲟⲥ	-8231
▁ⲛϩⲉⲛⲁⲧⲑⲁⲃ	-8232
▁ⲛϭⲓⲙⲙⲏⲏϣⲉ	-8233
▁ⲛϭⲓⲛⲟⲩⲏⲏⲃ	-8234
▁ⲛϭⲓⲟⲩⲣⲱⲙⲉ	-8235
▁ⲛϭⲓⲡⲙⲏⲏϣⲉ	-8236
▁ⲛⲅⲟⲇⲟⲗⲓⲁⲥ	-8237
▁ⲛⲛⲗⲉⲩⲓⲧⲏⲥ	-8238
▁ⲛⲥⲁⲓⲏⲥⲟⲩⲥ	-8239
▁ⲛⲥⲉⲙⲟⲩⲟⲩⲧ	-8240
▁ⲡⲉⲛⲧⲁϥⲃⲱⲕ	-8241
▁ⲡⲓⲟⲣⲇⲁⲛⲏⲥ	-8242
▁ⲡⲣⲉϥⲣⲛⲟⲃⲉ	-8243
ⲉⲩⲁⲅⲅⲉⲗⲓⲟⲛ	-8244
ⲫⲓⲗⲓⲥⲧⲓⲉⲓⲙ	-8245
▁ϩⲓⲧⲙⲡⲛⲟⲙⲟⲥ	-8246
▁ϩⲓⲧⲛⲧⲧⲁⲡⲣⲟ	-8247
▁ϩⲙⲡⲁⲡⲛⲉⲩⲙⲁ	-8248
▁ϩⲛⲛⲉⲡⲗⲁⲧⲓⲁ	-8249
▁ϩⲛⲛⲉⲩϩⲃⲏⲩⲉ	-8250
▁ϩⲛⲧⲉⲕⲧⲁⲡⲣⲟ	-8251
▁ϫⲉϩⲙⲡⲉϩⲟⲟⲩ	-8252
▁ⲉϫⲛⲛⲉⲧⲟⲩⲏϩ	-8253
▁ⲉⲣϣⲁⲛⲡⲣⲱⲙⲉ	-8254
▁ⲉⲧⲥⲩⲛⲁⲅⲱⲅⲏ	-8255
▁ⲙⲛⲛⲉⲧⲙⲟⲟⲩⲧ	-8256
▁ⲙⲡⲡⲉⲧⲟⲩⲁⲁⲃ	-8257
▁ⲛϩⲉⲛϩⲉⲑⲛⲟⲥ	-8258
▁ⲛⲁⲙⲟⲣⲣⲁⲓⲟⲥ	-8259
▁ⲛⲛϩⲉⲃⲣⲁⲓⲟⲥ	-8260
▁ⲛⲧⲉⲣⲉⲟⲩⲛⲟϭ	-8261
▁ϩⲛⲛⲉϥϩⲓⲟⲟⲩⲉ	-8262
▁ⲉϫⲙⲡⲉⲑⲣⲟⲛⲟⲥ	-8263
▁ⲉⲣϣⲁⲛⲡϫⲟⲉⲓⲥ	-8264
▁ⲕⲁⲧⲁⲡⲉⲓϣⲁϫⲉ	-8265
▁ⲛϩⲩⲡⲟⲕⲣⲓⲧⲏⲥ	-8266
▁ⲛϭⲓⲓⲉⲣⲉⲙⲓⲁⲥ	-8267
▁ⲛⲁⲓⲭⲙⲁⲗⲱⲧⲟⲥ	-8268
▁ⲛⲧⲉϥⲟⲩⲉⲣⲏⲧⲉ	-8269
▁ⲛⲧⲉⲣⲉⲓⲏⲥⲟⲩⲥ	-8270
▁ϩⲁⲛⲉϥⲟⲩⲉⲣⲏⲧⲉ	-8271
▁ϩⲓⲧⲙⲡⲉⲡⲛⲉⲩⲙⲁ	-8272
▁ⲁⲩⲕⲗⲏⲣⲟⲛⲟⲙⲉⲓ	-8273
▁ⲉⲧⲇⲓⲕⲁⲓⲟⲥⲩⲛⲏ	-8274
▁ⲉⲩⲇⲓⲕⲁⲓⲟⲥⲩⲛⲏ	-8275
▁ⲕⲁⲧⲁⲛⲉϥϩⲃⲏⲩⲉ	-8276
▁ⲙⲙⲛⲧϩⲉⲃⲣⲁⲓⲟⲥ	-8277
▁ⲙⲛⲛⲉϥⲁⲅⲅⲉⲗⲟⲥ	-8278
▁ⲛϭⲓⲡⲙⲁⲕⲁⲣⲓⲟⲥ	-8279
▁ⲛⲉⲫⲁⲣⲓⲥⲥⲁⲓⲟⲥ	-8280
▁ⲛⲛⲁϩⲣⲙⲡϫⲟⲉⲓⲥ	-8281
▁ⲡⲉϫⲉⲁⲃⲏⲥⲁⲗⲱⲙ	-8282
▁ⲙⲡⲉⲭⲉⲓⲣⲟⲩⲃⲉⲓⲛ	-8283
▁ⲛⲛⲉⲫⲁⲣⲓⲥⲥⲁⲓⲟⲥ	-8284
▁ⲛⲟⲩⲙⲛⲧⲭⲣⲏⲥⲧⲟⲥ	-8285
▁ϩⲛⲧⲉⲕⲇⲓⲕⲁⲓⲟⲥⲩⲛⲏ	-8286
▁ⲛϭⲓⲛⲉⲫⲁⲣⲓⲥⲥⲁⲓⲟⲥ	-8287
▁ⲛⲧⲉⲧⲛⲕⲗⲏⲣⲟⲛⲟⲙⲉⲓ	-8288
ϭⲏ	-8289
▁ⲭ	-8290
ⲛⲛ	-8291
ⲱⲭ	-8292
ϣⲉⲧ	-8293
ϩⲣⲟ	-8294
ϩⲱϣ	-8295
ϩⲱⲥ	-8296
ϫⲁⲧ	-8297
ϭⲉϫ	-8298
ϭⲉⲙ	-8299
ϭⲣⲏ	-8300
▁ϭⲙ	-8301
▁ⲣⲁ	-8302
ⲁϣⲏ	-8303
ⲁⲁⲕ	-8304
ⲃⲏⲧ	-8305
ⲃⲱⲛ	-8306
ⲇⲇⲁ	-8307
ⲍⲉⲕ	-8308
ⲏⲧⲛ	-8309
ⲏⲱⲛ	-8310
ⲑⲉⲛ	-8311
ⲑⲏⲧ	-8312
ⲑⲟⲣ	-8313
ⲓⲃⲉ	-8314
ⲕⲁⲙ	-8315
ⲕⲟⲟ	-8316
ⲙⲉⲛ	-8317
ⲙⲉⲩ	-8318
ⲙⲏϩ	-8319
ⲙⲟϥ	-8320
ⲛⲁⲝ	-8321
ⲛⲏⲗ	-8322
ⲛⲟⲏ	-8323
ⲛⲟⲓ	-8324
ⲟϣϥ	-8325
ⲟⲓⲛ	-8326
ⲡⲁⲛ	-8327
ⲡⲓⲛ	-8328
ⲣⲁⲑ	-8329
ⲣⲛⲁ	-8330
ⲣⲱⲧ	-8331
ⲧⲁϩ	-8332
ⲧⲃⲧ	-8333
ⲧⲥⲟ	-8334
ⲩⲣⲁ	-8335
ⲱϩⲙ	-8336
ⲱⲃϩ	-8337
ⲱⲕⲙ	-8338
ⲱⲣϣ	-8339
ϣⲉⲉⲓ	-8340
ϣⲗⲁϩ	-8341
ϣⲟⲡⲥ	-8342
ϩⲃⲃⲉ	-8343
ϩⲟⲡⲧ	-8344
ϩⲟⲩⲱ	-8345
ϫⲉⲣⲉ	-8346
ϫⲓϩⲟ	-8347
ϫⲡⲟⲓ	-8348
▁ϣⲏⲛ	-8349
▁ϥϫⲓ	-8350
▁ϥⲧⲟ	-8351
▁ϩⲏⲩ	-8352
▁ϯⲥⲟ	-8353
▁ⲁϥⲛ	-8354
▁ⲁⲕⲁ	-8355
▁ⲁⲡⲟ	-8356
▁ⲃⲁⲓ	-8357
▁ⲉϥⲛ	-8358
▁ⲉϭⲱ	-8359
▁ⲉⲣⲡ	-8360
▁ⲏⲇⲏ	-8361
▁ⲕⲁϩ	-8362
▁ⲙⲛⲓ	-8363
▁ⲛϭⲱ	-8364
▁ⲛⲃⲉ	-8365
▁ⲡϣⲓ	-8366
▁ⲡⲏⲧ	-8367
▁ⲣⲁⲧ	-8368
▁ⲥⲉⲓ	-8369
▁ⲧⲁⲩ	-8370
ⲃⲁⲧⲉ	-8371
ⲅⲉⲓⲁ	-8372
ⲏⲗⲓⲝ	-8373
ⲑⲉⲟⲥ	-8374
ⲓⲁⲁⲥ	-8375
ⲗⲁⲓⲁ	-8376
ⲗⲁⲛⲁ	-8377
ⲗⲏⲛⲏ	-8378
ⲗⲓⲟⲛ	-8379
ⲙⲁⲓⲛ	-8380
ⲙⲉⲥⲓ	-8381
ⲙⲙⲙⲉ	-8382
ⲙⲟϫϩ	-8383
ⲙⲟⲩⲥ	-8384
ⲛⲉⲉϥ	-8385
ⲛⲏⲧⲛ	-8386
ⲛⲱⲟⲩ	-8387
ⲟⲩϩⲉ	-8388
ⲟⲫⲓⲁ	-8389
ⲡⲁϩⲥ	-8390
ⲡⲓⲣⲁ	-8391
ⲡⲓⲥⲉ	-8392
ⲡⲟⲇⲏ	-8393
ⲡⲟⲣϣ	-8394
ⲡⲟⲣⲕ	-8395
ⲣⲁⲍⲉ	-8396
ⲣⲁⲓⲁ	-8397
ⲣⲟⲃⲟ	-8398
ⲣⲟⲏⲣ	-8399
ⲣⲟⲫⲏ	-8400
ⲥⲉⲡⲏ	-8401
ⲥⲟⲣⲧ	-8402
ⲥⲩⲛⲏ	-8403
ⲧⲉⲭⲉ	-8404
ⲧⲥⲓⲟ	-8405
ⲩⲛⲟⲩ	-8406
ⲭⲁⲓⲁ	-8407
ϣⲁⲁⲣⲉ	-8408
ϣⲟⲟϭⲉ	-8409
ϩⲓⲗⲁⲥ	-8410
ϩⲗⲗⲟⲓ	-8411
ϭⲟⲗⲡⲥ	-8412
▁ϩⲛⲥⲓ	-8413
▁ϩⲟⲩⲟ	-8414
▁ϫⲉⲛϥ	-8415
▁ϯⲟⲛϩ	-8416
▁ⲁⲓϫⲱ	-8417
▁ⲁⲓⲁⲓ	-8418
▁ⲁⲛⲉⲕ	-8419
▁ⲁⲡⲉⲕ	-8420
▁ⲁⲣⲓϥ	-8421
▁ⲁⲥϩⲉ	-8422
▁ⲁⲧⲉⲩ	-8423
▁ⲉϥϥⲓ	-8424
▁ⲉϩⲁϩ	-8425
▁ⲉⲡⲣⲟ	-8426
▁ⲉⲡⲱⲧ	-8427
▁ⲉⲣⲱⲥ	-8428
▁ⲉⲧϫⲟ	-8429
▁ⲉⲩⲧⲙ	-8430
▁ⲕⲁⲁⲩ	-8431
▁ⲙⲙⲁⲛ	-8432
▁ⲙⲟⲕϩ	-8433
▁ⲙⲡϥϯ	-8434
▁ⲛϣⲃⲣ	-8435
▁ⲛϣⲙⲧ	-8436
▁ⲛϥⲕⲱ	-8437
▁ⲛϥⲥⲱ	-8438
▁ⲛϭⲟⲣ	-8439
▁ⲛⲁϣⲧ	-8440
▁ⲛⲁⲁⲥ	-8441
▁ⲛⲁⲧⲁ	-8442
▁ⲛⲃⲏⲑ	-8443
▁ⲛⲅϩⲉ	-8444
▁ⲛⲉϥϯ	-8445
▁ⲛⲉϩⲙ	-8446
▁ⲛⲕⲱϩ	-8447
▁ⲛⲛⲁⲣ	-8448
▁ⲛⲥⲓⲛ	-8449
▁ⲛⲧⲕⲓ	-8450
▁ⲡⲏⲣⲡ	-8451
▁ⲡⲟⲥⲟ	-8452
▁ⲡⲧⲟϣ	-8453
▁ⲡⲧⲱϣ	-8454
▁ⲣⲉⲕⲧ	-8455
▁ⲥⲃⲟⲕ	-8456
▁ⲥⲃⲧⲉ	-8457
▁ⲥⲟϣϥ	-8458
▁ⲧⲏⲡⲉ	-8459
ⲁⲡⲁⲧⲁ	-8460
ⲓⲥⲧⲏⲥ	-8461
ⲕⲁⲣⲧⲉ	-8462
ⲕⲉⲗⲁⲕ	-8463
ⲗⲁϩⲁⲙ	-8464
ⲗⲓⲛⲟⲥ	-8465
ⲗⲥⲱⲗϥ	-8466
ⲛⲁⲥⲉⲓ	-8467
ⲛⲟⲩⲟⲛ	-8468
ⲟⲕⲙⲉⲕ	-8469
ⲟⲛⲓⲁⲥ	-8470
ⲟⲣⲛⲏⲗ	-8471
ⲟⲩⲱⲧϩ	-8472
ⲡⲁⲣⲛⲁ	-8473
ⲣⲁϩⲧⲕ	-8474
ⲣⲁⲓⲧⲱ	-8475
ⲣⲁⲕⲧⲕ	-8476
ⲥⲁⲙⲏⲥ	-8477
ⲥⲙⲛⲧⲥ	-8478
ⲧⲟϣⲟⲩ	-8479
ⲧⲟⲟⲃⲉ	-8480
ⲧⲟⲩⲏⲧ	-8481
ⲫⲁⲉⲓⲛ	-8482
ϩⲟⲓⲙⲓⲁ	-8483
ϩⲟⲧⲃⲟⲩ	-8484
ϭⲗⲟⲟⲧⲉ	-8485
ϭⲟⲟⲗⲉϥ	-8486
▁ϩⲁⲧⲏϥ	-8487
▁ϩⲁⲧⲡⲉ	-8488
▁ϩⲓⲛⲉⲩ	-8489
▁ϩⲓⲣⲉⲛ	-8490
▁ϩⲙⲡϩⲟ	-8491
▁ϩⲙⲡⲉⲧ	-8492
▁ϩⲙⲡⲥⲁ	-8493
▁ϫⲉϩⲙⲡ	-8494
▁ϫⲉⲁⲛⲉ	-8495
▁ϫⲉⲁⲣⲁ	-8496
▁ϫⲉⲁⲧⲁ	-8497
▁ϫⲉⲁⲩⲣ	-8498
▁ϫⲉⲉⲥⲉ	-8499
▁ϫⲉⲙⲏⲡ	-8500
▁ϫⲉⲟⲩⲕ	-8501
▁ϫⲟⲩⲱⲧ	-8502
▁ⲁϥϯⲡⲓ	-8503
▁ⲁϥⲱⲛϩ	-8504
▁ⲁⲥϯⲡⲉ	-8505
▁ⲉϥⲉⲉⲓ	-8506
▁ⲉϩⲉⲛⲉ	-8507
▁ⲉϭⲱϣⲧ	-8508
▁ⲉⲃⲁⲓⲑ	-8509
▁ⲉⲕⲉⲕⲱ	-8510
▁ⲉⲛⲛⲉϥ	-8511
▁ⲉⲡϣⲏⲓ	-8512
▁ⲉⲡⲁⲏⲓ	-8513
▁ⲉⲡⲉⲓⲁ	-8514
▁ⲉⲥⲟⲣϫ	-8515
▁ⲉⲧⲁⲩⲉ	-8516
▁ⲉⲧⲓⲛⲁ	-8517
▁ⲉⲧⲙⲏⲣ	-8518
▁ⲉⲧⲛⲛⲁ	-8519
▁ⲉⲩϩⲏⲡ	-8520
▁ⲉⲩϩⲱⲃ	-8521
▁ⲉⲩⲕⲏⲃ	-8522
▁ⲉⲩⲟⲛϩ	-8523
▁ⲕⲛⲁϫⲓ	-8524
▁ⲕⲟⲧⲟⲩ	-8525
▁ⲗⲩⲡⲉⲓ	-8526
▁ⲙⲁⲁϫⲉ	-8527
▁ⲙⲁⲛⲱⲉ	-8528
▁ⲙⲁⲣⲟⲛ	-8529
▁ⲙⲛⲙⲏⲧ	-8530
▁ⲙⲛⲡⲕⲉ	-8531
▁ⲙⲡϣⲏⲛ	-8532
▁ⲙⲡϯⲟⲩ	-8533
▁ⲙⲡⲉⲓⲁ	-8534
▁ⲙⲡⲓϩⲉ	-8535
▁ⲙⲡⲣⲙⲛ	-8536
▁ⲛϣⲗⲟϥ	-8537
▁ⲛϥⲡⲱⲧ	-8538
▁ⲛϩⲉⲛⲧ	-8539
▁ⲛϭⲁⲗⲉ	-8540
▁ⲛϭⲓⲧⲡ	-8541
▁ⲛⲁϩⲱⲛ	-8542
▁ⲛⲁⲁⲁϥ	-8543
▁ⲛⲁⲁⲕⲉ	-8544
▁ⲛⲁⲕⲓⲙ	-8545
▁ⲛⲁⲥⲁⲫ	-8546
▁ⲛⲉⲇⲱⲙ	-8547
▁ⲛⲉⲧϩⲙ	-8548
▁ⲛⲉⲧⲕⲱ	-8549
▁ⲛⲉⲩⲕⲉ	-8550
▁ⲛⲉⲫⲑⲁ	-8551
▁ⲛⲕⲟⲩⲓ	-8552
▁ⲛⲛⲁϣⲧ	-8553
▁ⲛⲛⲟⲩⲉ	-8554
▁ⲛⲟϫⲟⲩ	-8555
▁ⲛⲟⲩⲕⲱ	-8556
▁ⲛⲟⲩⲛⲉ	-8557
▁ⲛⲟⲩⲱⲙ	-8558
▁ⲛⲣⲓⲙⲉ	-8559
▁ⲛⲧⲉⲧⲉ	-8560
▁ⲛⲧⲛⲟϭ	-8561
▁ⲟⲩϩⲁⲧ	-8562
▁ⲟⲩⲃⲏϥ	-8563
▁ⲟⲩⲛⲡⲉ	-8564
▁ⲟⲩⲣⲁⲛ	-8565
▁ⲟⲩⲱⲛⲉ	-8566
▁ⲡϩⲏⲕⲉ	-8567
▁ⲡⲉϥϩⲟ	-8568
▁ⲡⲉⲧⲉⲧ	-8569
▁ⲡⲉⲧⲣⲁ	-8570
▁ⲡⲕⲱϩⲧ	-8571
▁ⲡⲥⲟⲃⲧ	-8572
▁ⲣⲁⲧⲟⲩ	-8573
▁ⲣⲣⲱⲟⲩ	-8574
▁ⲧⲙⲁⲁⲩ	-8575
▁ⲧⲛⲧⲱⲛ	-8576
▁ⲧⲟⲟⲧⲉ	-8577
▁ⲧⲟⲟⲧⲥ	-8578
▁ⲧⲥⲁⲣⲝ	-8579
▁ⲭⲁⲗⲉⲃ	-8580
ⲁⲓϣⲓⲛⲉ	-8581
ⲃⲗⲃⲓⲗⲉ	-8582
ⲇⲟⲕⲓⲙⲏ	-8583
ⲇⲣⲓⲧⲏⲥ	-8584
ⲑⲁⲣⲓⲍⲉ	-8585
ⲕⲁϩⲧⲏⲓ	-8586
ⲙⲉⲗⲉⲧⲏ	-8587
ⲙⲓⲭⲁⲏⲗ	-8588
ⲛⲁϩⲙⲉⲕ	-8589
ⲛⲁϩⲙⲉⲛ	-8590
ⲟⲩⲥⲟⲟⲩ	-8591
ⲡⲉϥⲣⲁⲛ	-8592
ⲡⲟⲇⲓⲟⲛ	-8593
ⲣϫⲟⲉⲓⲥ	-8594
ⲣⲟⲩⲃⲓⲛ	-8595
ⲣⲟⲩⲟϭⲉ	-8596
ⲥⲁⲗⲟⲛⲓ	-8597
ⲥⲃⲧⲱⲧϥ	-8598
ⲧⲁⲗⲟⲟⲩ	-8599
ⲧⲁⲙⲓⲟⲥ	-8600
ⲧⲁⲛϩⲉⲧ	-8601
ⲧⲉϥⲁⲡⲉ	-8602
ⲧⲉⲧⲛⲛⲁ	-8603
ⲧⲉⲯⲩⲭⲏ	-8604
ϩⲁⲗⲁⲁⲧⲉ	-8605
ϩⲓⲧⲟⲩⲱⲓ	-8606
▁ϣⲁⲛⲧⲉⲧ	-8607
▁ϣⲟⲩϣⲟⲩ	-8608
▁ϥⲟⲩⲁⲁⲃ	-8609
▁ϩⲁϩⲧⲏⲕ	-8610
▁ϩⲁϩⲧⲏⲩ	-8611
▁ϩⲁⲣⲱⲟⲩ	-8612
▁ϩⲙⲡϣⲏⲛ	-8613
▁ϩⲛⲥⲏⲗⲱ	-8614
▁ϫⲉϭⲱϣⲧ	-8615
▁ϫⲉⲉⲉⲓⲉ	-8616
▁ϫⲉⲉⲩⲛⲁ	-8617
▁ⲁϥϩⲱⲃⲥ	-8618
▁ⲁϥϫⲓⲧⲥ	-8619
▁ⲁϥⲕⲁⲁⲧ	-8620
▁ⲁϥⲣⲁϣⲉ	-8621
▁ⲁϥⲧⲁϩⲥ	-8622
▁ⲁⲃⲓⲕⲓⲁ	-8623
▁ⲁⲓⲕⲧⲟⲓ	-8624
▁ⲁⲓⲱⲥⲏⲫ	-8625
▁ⲁⲛⲥϭⲏⲣ	-8626
▁ⲁⲥϫⲟⲟⲩ	-8627
▁ⲁⲩϣⲙϣⲉ	-8628
▁ⲁⲩϣⲧⲁⲙ	-8629
▁ⲁⲩⲣⲱϩⲧ	-8630
▁ⲁⲩⲧⲁϩⲟ	-8631
▁ⲁⲩⲧⲁⲗⲟ	-8632
▁ⲁⲫⲁⲣⲁⲱ	-8633
▁ⲇⲁⲛⲓⲏⲗ	-8634
▁ⲉϥϫⲟⲟⲣ	-8635
▁ⲉϥⲉⲃⲱⲕ	-8636
▁ⲉϥⲟⲩⲟϫ	-8637
▁ⲉϥⲣⲁϣⲉ	-8638
▁ⲉϥⲥⲙⲟⲩ	-8639
▁ⲉⲛⲉⲩⲙⲁ	-8640
▁ⲉⲟⲩⲱⲛϩ	-8641
▁ⲉⲡⲉⲛⲧⲁ	-8642
▁ⲉⲡⲛⲟⲩⲃ	-8643
▁ⲉⲧϩⲁⲧⲛ	-8644
▁ⲉⲧⲁⲥⲙⲏ	-8645
▁ⲉⲧⲉϣϣⲉ	-8646
▁ⲉⲧⲙⲛⲁⲩ	-8647
▁ⲉⲧⲛⲏⲟⲩ	-8648
▁ⲉⲧⲟⲣⲅⲏ	-8649
▁ⲉⲩϫⲟⲟⲣ	-8650
▁ⲉⲩϯⲥⲃⲱ	-8651
▁ⲉⲩⲉⲛⲁⲩ	-8652
▁ⲉⲩⲉⲟⲟⲩ	-8653
▁ⲉⲩⲛⲧⲁϥ	-8654
▁ⲉⲩⲥϩⲁⲓ	-8655
▁ⲉⲫⲣⲁⲓⲙ	-8656
▁ⲙⲁⲩⲁⲁⲥ	-8657
▁ⲙⲉⲗⲭⲱⲗ	-8658
▁ⲙⲉⲣⲕⲟⲩ	-8659
▁ⲙⲙⲁⲣⲓⲁ	-8660
▁ⲙⲙⲛϭⲟⲙ	-8661
▁ⲙⲛϩⲉⲛⲉ	-8662
▁ⲙⲛⲡⲟⲟϩ	-8663
▁ⲙⲡⲉⲕⲃⲁ	-8664
▁ⲙⲡⲉⲛⲧⲁ	-8665
▁ⲙⲡⲉⲧⲉⲛ	-8666
▁ⲙⲡⲟⲩϫⲓ	-8667
▁ⲙⲡⲣⲕⲱϩ	-8668
▁ⲙⲡⲥⲁⲃⲉ	-8669
▁ⲙⲡⲥⲃⲃⲉ	-8670
▁ⲙⲡⲥⲟⲃⲧ	-8671
▁ⲛϥϫⲓⲧⲥ	-8672
▁ⲛϥⲟⲩⲱⲙ	-8673
▁ⲛϩⲏⲗⲉⲓ	-8674
▁ⲛϫⲱⲱⲙⲉ	-8675
▁ⲛϭⲓⲡⲉⲓ	-8676
▁ⲛϭⲓⲧⲉⲕ	-8677
▁ⲛϯⲙⲡϣⲁ	-8678
▁ⲛⲁⲟⲩⲉⲙ	-8679
▁ⲛⲁⲧⲁⲁⲩ	-8680
▁ⲛⲉϥϭⲓϫ	-8681
▁ⲛⲛⲉⲣⲏⲧ	-8682
▁ⲛⲛⲉⲩϫⲓ	-8683
▁ⲛⲛⲥⲁⲃⲉ	-8684
▁ⲛⲟⲉⲙⲓⲛ	-8685
▁ⲛⲟⲩϩⲟϥ	-8686
▁ⲛⲟⲩⲛⲉϩ	-8687
▁ⲛⲟⲩⲛⲟϥ	-8688
▁ⲛⲟⲩⲣⲁⲛ	-8689
▁ⲛⲟⲩⲥⲟⲛ	-8690
▁ⲛⲥⲁⲛⲉⲩ	-8691
▁ⲛⲥⲏⲉⲓⲣ	-8692
▁ⲛⲧⲁⲩϩⲉ	-8693
▁ⲛⲧⲉϥϩⲉ	-8694
▁ⲛⲧⲉⲣⲓⲥ	-8695
▁ⲛⲧⲡⲁϣⲉ	-8696
▁ⲟⲩⲛⲟⲃⲉ	-8697
▁ⲟⲩⲛⲡⲉⲧ	-8698
▁ⲡⲉⲕϩⲏⲧ	-8699
▁ⲡⲉⲧⲛⲁⲩ	-8700
▁ⲥⲁⲩⲗⲟⲥ	-8701
▁ⲥⲉⲛⲁⲕⲁ	-8702
▁ⲧⲁϫⲟⲟⲥ	-8703
▁ⲧⲁϫⲣⲏⲩ	-8704
▁ⲧⲉϥϭⲓϫ	-8705
▁ⲧⲉⲛⲧⲁⲩ	-8706
▁ⲧⲙⲉⲣⲓⲥ	-8707
▁ⲧⲥⲁϣϥⲉ	-8708
ⲁⲓⲥⲑⲁⲛⲉ	-8709
ⲃⲉⲇⲁⲓⲟⲥ	-8710
ⲅⲉⲛⲛⲏⲙⲁ	-8711
ⲇⲣⲁⲁⲍⲁⲣ	-8712
ⲕⲁⲑⲉⲇⲣⲁ	-8713
ⲗⲁⲍⲁⲣⲟⲥ	-8714
ⲙⲉⲥⲥⲁⲉⲓ	-8715
ⲙⲛⲧⲥⲁⲃⲉ	-8716
ⲙⲡϫⲟⲉⲓⲥ	-8717
ⲛⲉϭⲛⲟⲩϭ	-8718
ⲛⲟⲩⲉⲃⲟⲗ	-8719
ⲡⲁⲥⲉⲃⲏⲥ	-8720
ⲡⲉⲕϣⲃⲏⲣ	-8721
ⲡⲟⲥⲕⲉⲩⲏ	-8722
ⲡⲟⲩⲇⲁⲍⲉ	-8723
ⲥⲟⲩⲱⲛⲟⲩ	-8724
ⲥⲧⲁⲩⲣⲟⲩ	-8725
ⲩⲧⲛⲛⲟⲟⲩ	-8726
ϣⲣⲡⲙⲙⲓⲥⲉ	-8727
▁ϣⲁⲛⲧϥⲉⲓ	-8728
▁ϣⲁⲧⲉⲛⲟⲩ	-8729
▁ϣⲁⲫⲁⲣⲁⲱ	-8730
▁ϥⲛⲁⲉⲓⲣⲉ	-8731
▁ϥⲛⲁⲧⲁⲕⲟ	-8732
▁ϩⲉⲛϣⲏⲣⲉ	-8733
▁ϩⲓⲡⲉⲥⲏⲧ	-8734
▁ϩⲓⲧⲟⲩⲱϥ	-8735
▁ϩⲓⲧⲟⲩⲱⲛ	-8736
▁ϩⲙⲡϣⲟⲣⲡ	-8737
▁ϩⲙⲡⲛⲟⲃⲉ	-8738
▁ϩⲛϩⲉⲛⲕⲉ	-8739
▁ϩⲛⲧⲉⲥⲃⲱ	-8740
▁ϫⲉϩⲁⲣⲉϩ	-8741
▁ϫⲉⲕⲁⲗⲱⲥ	-8742
▁ϫⲉⲛⲥⲉⲛⲁ	-8743
▁ϫⲓⲛⲙⲙⲟⲛ	-8744
▁ϯⲛⲁϫⲟⲟⲥ	-8745
▁ϯⲛⲁⲥⲱⲧⲙ	-8746
▁ϯⲣⲙⲛⲧⲣⲉ	-8747
▁ⲁⲡⲁⲩⲗⲟⲥ	-8748
▁ⲁⲡⲥⲱⲧⲏⲣ	-8749
▁ⲁⲩϫⲱⲱⲣⲉ	-8750
▁ⲁⲩⲧⲁⲟⲩⲟ	-8751
▁ⲉϥⲛⲁⲙⲟⲩ	-8752
▁ⲉϥⲛⲟⲩϫⲉ	-8753
▁ⲉϥⲟⲩⲟⲛϩ	-8754
▁ⲉϥⲣⲟⲟⲩⲧ	-8755
▁ⲉϩⲟⲩⲉⲟⲩ	-8756
▁ⲉⲃⲟⲏⲑⲉⲓ	-8757
▁ⲉⲛϩⲟⲥⲟⲛ	-8758
▁ⲉⲟⲩⲛⲧⲁⲩ	-8759
▁ⲉⲡⲉⲓϩⲱⲃ	-8760
▁ⲉⲡⲥⲟⲟⲩⲛ	-8761
▁ⲉⲣϩⲙϩⲁⲗ	-8762
▁ⲉⲧⲁⲅⲁⲡⲏ	-8763
▁ⲉⲧⲁⲯⲩⲭⲏ	-8764
▁ⲉⲧⲃⲉϩⲱⲃ	-8765
▁ⲉⲧⲃⲉⲧⲉⲩ	-8766
▁ⲉⲧⲃⲏⲏⲧⲉ	-8767
▁ⲉⲧⲃⲏⲏⲧⲛ	-8768
▁ⲉⲧⲙⲧⲣⲉϥ	-8769
▁ⲉⲩⲁⲥⲱⲟⲩ	-8770
▁ⲉⲩⲉⲟⲩⲱⲙ	-8771
▁ⲉⲩⲛⲟⲩϫⲉ	-8772
▁ⲉⲩⲟⲩⲛⲟϥ	-8773
▁ⲕⲁⲧⲁⲙⲙⲁ	-8774
▁ⲕⲁⲧⲁⲛⲏⲓ	-8775
▁ⲙⲁⲛⲁⲥⲥⲏ	-8776
▁ⲙⲙⲛϣϭⲟⲙ	-8777
▁ⲙⲛⲓⲟⲩⲇⲁ	-8778
▁ⲙⲛⲟⲩϫⲱⲙ	-8779
▁ⲙⲡϫⲱⲱⲣⲉ	-8780
▁ⲙⲡⲉⲥⲙⲟⲩ	-8781
▁ⲙⲡⲣϫⲓⲥⲉ	-8782
▁ⲙⲱⲟⲩⲥⲏⲥ	-8783
▁ⲛϭⲓⲛϭⲱⲣ	-8784
▁ⲛⲁⲧⲉⲗⲏⲗ	-8785
▁ⲛⲁⲧⲱⲙⲛⲧ	-8786
▁ⲛⲉϥⲟⲩⲱϣ	-8787
▁ⲛⲉϥⲥⲛⲏⲩ	-8788
▁ⲛⲉⲧϣⲙϣⲉ	-8789
▁ⲛⲉⲧⲉϥϫⲱ	-8790
▁ⲛⲓⲱⲥⲓⲁⲥ	-8791
▁ⲛⲕⲁⲣⲡⲟⲥ	-8792
▁ⲛⲛϫⲟⲉⲓⲧ	-8793
▁ⲛⲛⲉϣⲁϫⲉ	-8794
▁ⲛⲛⲉⲩϩⲏⲧ	-8795
▁ⲛⲛⲓⲛⲉⲩⲏ	-8796
▁ⲛⲟⲩⲉⲃⲟⲗ	-8797
▁ⲛⲟⲩⲉⲓⲱⲧ	-8798
▁ⲛⲟⲩⲕⲗⲟⲙ	-8799
▁ⲛⲟⲩⲣⲓⲁⲥ	-8800
▁ⲛⲟⲩⲭⲓⲱⲛ	-8801
▁ⲛⲥⲁⲛⲉⲧⲛ	-8802
▁ⲛⲥⲁⲟⲩⲥⲁ	-8803
▁ⲛⲥⲉⲛⲟϫϥ	-8804
▁ⲛⲥⲟⲩⲟⲩⲁ	-8805
▁ⲛⲧⲁϥⲛⲁⲩ	-8806
▁ⲛⲧⲁⲅⲁⲡⲏ	-8807
▁ⲛⲧⲁⲓⲁⲁϥ	-8808
▁ⲛⲧⲁⲕⲁⲁϥ	-8809
▁ⲛⲧⲁⲕⲁⲁⲩ	-8810
▁ⲛⲧⲁⲩⲁⲁⲩ	-8811
▁ⲛⲧⲉϥⲥⲙⲏ	-8812
▁ⲛⲧⲉⲧⲛⲕⲱ	-8813
▁ⲛⲧⲉⲭⲱⲣⲁ	-8814
▁ⲛⲧⲙⲉⲣⲓⲥ	-8815
▁ⲛⲧⲛⲥⲱⲧⲙ	-8816
▁ⲛⲧⲟⲩⲉⲓⲏ	-8817
▁ⲛⲭⲉⲃⲣⲱⲛ	-8818
▁ⲟⲩϣⲉⲉⲣⲉ	-8819
▁ⲟⲩϭⲉⲣⲱⲃ	-8820
▁ⲟⲩⲡⲟⲗⲓⲥ	-8821
▁ⲟⲩⲣⲙⲙⲁⲟ	-8822
▁ⲡⲁⲧⲁⲥⲥⲉ	-8823
▁ⲡⲉⲓⲗⲁⲟⲥ	-8824
▁ⲡⲉⲕϣⲏⲣⲉ	-8825
▁ⲡⲉⲛⲧⲁϥⲣ	-8826
▁ⲡⲉⲧⲛⲁϫⲓ	-8827
▁ⲥⲉⲛⲁⲛⲁⲩ	-8828
ⲉⲡⲓⲑⲩⲙⲉⲓ	-8829
ⲕⲁⲣⲧⲉⲣⲉⲓ	-8830
ⲙⲉϩϣⲟⲙⲛⲧ	-8831
ⲛⲉⲛⲉⲓⲟⲧⲉ	-8832
ⲡⲉⲩⲙⲉⲉⲩⲉ	-8833
ⲣⲙⲛⲛⲟⲩⲧⲉ	-8834
ⲧⲁⲛϩⲟⲩⲧⲕ	-8835
▁ϣⲁⲛⲧⲉϥⲉⲓ	-8836
▁ϣⲁⲡⲁⲉⲓⲱⲧ	-8837
▁ϩⲙⲡⲉⲙϩⲓⲧ	-8838
▁ϩⲛⲅⲁⲗⲁⲁⲇ	-8839
▁ϩⲛⲛⲉⲩⲃⲁⲗ	-8840
▁ϩⲛⲟⲩⲕⲣⲟϥ	-8841
▁ϩⲛⲟⲩⲥⲱⲧⲙ	-8842
▁ϫⲉⲁⲕⲥⲱⲧⲙ	-8843
▁ϫⲉⲙⲛϣϭⲟⲙ	-8844
▁ϫⲉⲛⲁⲛⲟⲩⲥ	-8845
▁ϫⲉⲥⲟⲟⲩⲧⲛ	-8846
▁ϯⲛⲁⲧⲱⲟⲩⲛ	-8847
▁ϯⲛⲁⲧⲱⲱⲃⲉ	-8848
▁ⲁⲛϩⲉⲑⲛⲟⲥ	-8849
▁ⲉϩⲉⲛϣⲏⲣⲉ	-8850
▁ⲉⲙⲁⲥⲥⲏⲫⲁ	-8851
▁ⲉⲛⲧⲁϥⲁⲁϥ	-8852
▁ⲉⲛⲧⲁϥⲁⲁⲩ	-8853
▁ⲉⲥⲧⲁϫⲣⲏⲩ	-8854
▁ⲉⲧⲉⲧⲛⲛⲁⲩ	-8855
▁ⲉⲧⲣⲉⲡⲟⲩⲁ	-8856
▁ⲉⲧⲣⲉⲧⲉⲧⲛ	-8857
▁ⲉⲧⲧⲁϫⲣⲏⲩ	-8858
▁ⲉⲩⲥⲟⲩⲧⲱⲛ	-8859
▁ⲕⲁⲧⲁⲧⲏⲡⲉ	-8860
▁ⲙⲛⲙⲡⲟⲗⲓⲥ	-8861
▁ⲙⲛⲡⲉⲥⲛⲟϥ	-8862
▁ⲙⲡⲉϥⲥⲱⲧⲙ	-8863
▁ⲙⲡⲉⲩⲉⲓⲱⲧ	-8864
▁ⲙⲡⲉⲩⲟⲩⲟⲓ	-8865
▁ⲙⲡⲟⲗⲉⲙⲟⲥ	-8866
▁ⲛϩⲉⲛϩⲟⲟⲩ	-8867
▁ⲛϭⲓⲡⲇⲟⲩⲝ	-8868
▁ⲛϭⲓⲡⲙⲟⲟⲩ	-8869
▁ⲛⲉⲍⲉⲕⲓⲁⲥ	-8870
▁ⲛⲉⲓⲇⲱⲗⲟⲛ	-8871
▁ⲛⲉⲕϩⲃⲏⲩⲉ	-8872
▁ⲛⲉⲗⲉⲁⲍⲁⲣ	-8873
▁ⲛⲉⲧⲛϣⲏⲣⲉ	-8874
▁ⲛⲛⲁϩⲣⲙⲡⲉ	-8875
▁ⲛⲛⲉϩⲙϩⲁⲗ	-8876
▁ⲛⲛⲕⲁⲣⲡⲟⲥ	-8877
▁ⲛⲟⲩϩⲁⲗⲏⲧ	-8878
▁ⲛⲟⲩⲁⲣⲭⲱⲛ	-8879
▁ⲛⲣⲉϥϯⲥⲃⲱ	-8880
▁ⲛⲥⲉⲙⲟⲟϣⲉ	-8881
▁ⲛⲥⲉⲟⲩⲱⲗⲥ	-8882
▁ⲛⲥⲉⲧⲱⲟⲩⲛ	-8883
▁ⲛⲥⲫⲣⲁⲅⲓⲥ	-8884
▁ⲛⲧⲁⲧⲁⲙⲟⲕ	-8885
▁ⲛⲧⲉⲕⲙⲁⲁⲩ	-8886
▁ⲟⲩⲁⲅⲁⲑⲟⲥ	-8887
▁ⲡϩⲓⲉⲣⲉⲩⲥ	-8888
▁ⲡⲁⲡⲛⲟⲩⲧⲉ	-8889
▁ⲡⲉⲛⲧⲁϥϩⲉ	-8890
▁ⲡⲉⲧⲉⲛϥⲛⲁ	-8891
▁ⲡⲕⲉⲥⲉⲉⲡⲉ	-8892
▁ⲥⲉⲛⲁϣⲓⲛⲉ	-8893
▁ⲧⲉϥϣⲉⲉⲣⲉ	-8894
▁ⲫⲓⲗⲓⲡⲡⲟⲥ	-8895
ⲅⲁⲗⲓⲗⲁⲓⲟⲥ	-8896
ⲉⲩⲥⲧⲁⲑⲓⲟⲥ	-8897
ϫⲓⲃⲁⲡⲧⲓⲥⲙⲁ	-8898
▁ϩⲓϫⲛⲛⲧⲟⲟⲩ	-8899
▁ϩⲓⲛⲉⲩⲉⲣⲏⲩ	-8900
▁ϩⲙⲡⲉϥⲥⲱⲙⲁ	-8901
▁ϩⲙⲡⲉⲓⲥⲙⲟⲧ	-8902
▁ϩⲛⲛⲉϥϩⲟⲟⲩ	-8903
▁ϩⲛⲟⲩϩⲣⲟⲟⲩ	-8904
▁ϩⲛⲟⲩⲁⲅⲁⲡⲏ	-8905
▁ϫⲉⲡⲁⲙⲉⲣⲓⲧ	-8906
▁ϫⲓⲛⲛⲧⲉⲛⲟⲩ	-8907
▁ⲁϥⲉⲡⲓⲧⲓⲙⲁ	-8908
▁ⲁⲓⲣⲡⲙⲉⲉⲩⲉ	-8909
▁ⲁⲧⲉⲧⲛⲉⲓⲙⲉ	-8910
▁ⲁⲩⲧⲱⲟⲩⲛⲟⲩ	-8911
▁ⲉϥⲥⲙⲁⲙⲁⲁⲧ	-8912
▁ⲉⲇⲁⲙⲁⲥⲕⲟⲥ	-8913
▁ⲉⲛⲁⲉⲛⲧⲟⲗⲏ	-8914
▁ⲉⲛⲥⲉⲥⲟⲟⲩⲛ	-8915
▁ⲉⲛⲧⲁⲓϫⲟⲟⲩ	-8916
▁ⲉⲛⲧⲁⲩⲧⲁⲁⲥ	-8917
▁ⲉⲣⲉⲛⲉϥⲃⲁⲗ	-8918
▁ⲉⲧϩⲛⲧⲥⲱϣⲉ	-8919
▁ⲉⲧⲁϣⲉⲟⲉⲓϣ	-8920
▁ⲉⲧⲃⲉⲡⲁϣⲁⲓ	-8921
▁ⲉⲧⲃⲉⲡⲁⲣⲁⲛ	-8922
▁ⲉⲧⲃⲉⲧϩⲟⲧⲉ	-8923
▁ⲉⲧⲣⲉⲕϣⲱⲡⲉ	-8924
▁ⲕⲁⲧⲁⲡⲁϣⲁⲓ	-8925
▁ⲙⲛⲛⲉⲧϣⲟⲟⲡ	-8926
▁ⲙⲛⲡⲁⲙⲁⲗⲏⲕ	-8927
▁ⲙⲡⲕⲉⲥⲉⲉⲡⲉ	-8928
▁ⲛϭⲓⲡⲉϩⲟⲟⲩ	-8929
▁ⲛⲉⲛϩⲉⲑⲛⲟⲥ	-8930
▁ⲛⲛⲉϥⲥⲕⲏⲩⲉ	-8931
▁ⲛⲛⲉⲡⲛⲉⲩⲙⲁ	-8932
▁ⲛⲛⲉⲧⲑⲗⲓⲃⲉ	-8933
▁ⲛⲛⲉⲧⲣϩⲟⲧⲉ	-8934
▁ⲛⲟⲩⲁⲛⲟⲙⲓⲁ	-8935
▁ⲛⲧⲉⲣⲟⲩⲃⲱⲕ	-8936
▁ⲛⲧⲉⲧⲛⲟⲩⲱϩ	-8937
▁ⲛⲧⲙⲛⲧⲥⲁⲃⲉ	-8938
▁ⲡⲁⲣⲁⲕⲁⲗⲉⲓ	-8939
▁ⲡⲉⲛⲧⲁϥⲛⲧⲕ	-8940
▁ⲡⲉⲧⲛⲛⲁⲁⲁϥ	-8941
▁ⲧⲉⲧⲛⲁⲉⲓⲙⲉ	-8942
ⲅⲉⲣⲅⲉⲥⲁⲓⲟⲥ	-8943
ⲛⲟⲩⲉⲉⲓⲉⲛⲓⲛ	-8944
ⲡⲣⲟⲥⲩⲗⲏⲧⲟⲥ	-8945
ϩⲓⲗⲁⲥⲧⲏⲣⲓⲟⲛ	-8946
▁ϣⲁⲣⲉⲡⲁⲧϩⲏⲧ	-8947
▁ϩⲁⲧϭⲓⲃⲱⲧⲟⲥ	-8948
▁ϩⲓⲛⲉϩⲓⲟⲟⲩⲉ	-8949
▁ϩⲛⲟⲩϩⲉⲗⲡⲓⲥ	-8950
▁ϩⲛⲧϩⲁⲗⲁⲥⲥⲁ	-8951
▁ϩⲛⲧⲉⲩⲧⲁⲡⲣⲟ	-8952
▁ⲁⲥϯⲡⲉⲥⲟⲩⲟⲓ	-8953
▁ⲉⲛⲉϥⲉⲛⲧⲟⲗⲏ	-8954
▁ⲉⲧϥⲛⲁⲥⲟⲧⲡϥ	-8955
▁ⲉⲧⲁⲛⲧⲓⲟⲭⲓⲁ	-8956
▁ⲉⲧⲃⲉⲡⲉⲕⲣⲁⲛ	-8957
▁ⲉⲧⲉⲕⲕⲗⲏⲥⲓⲁ	-8958
▁ⲉⲧⲉⲧⲛⲉⲟⲩⲱⲙ	-8959
▁ⲉⲧⲉⲧⲛⲟⲩⲁⲁⲃ	-8960
▁ⲉⲧⲣⲉⲧⲛⲉⲓⲣⲉ	-8961
▁ⲙⲉⲣⲕⲟⲩⲣⲓⲟⲥ	-8962
▁ⲙⲛⲃⲁⲣⲛⲁⲃⲁⲥ	-8963
▁ⲙⲛⲛⲉⲧⲟⲩⲁⲁⲃ	-8964
▁ⲙⲛⲛⲉⲧⲧⲛⲧⲱⲛ	-8965
▁ⲛⲉⲛⲧⲁⲩϣⲱⲡⲉ	-8966
▁ⲛⲛⲉⲓϩⲉⲑⲛⲟⲥ	-8967
▁ⲛⲟⲩⲡⲉⲧϩⲟⲟⲩ	-8968
▁ⲛⲥⲁⲡⲉϥⲉⲓⲱⲧ	-8969
▁ⲛⲧⲉⲣⲉϥϫⲟⲟⲩ	-8970
▁ⲛⲧⲉⲧⲛϩⲁⲣⲉϩ	-8971
▁ⲛⲧⲉⲧⲛⲙⲟⲟϣⲉ	-8972
▁ⲟⲩⲡⲣⲟⲫⲏⲧⲏⲥ	-8973
▁ⲡⲁⲙⲟⲣⲣⲁⲓⲟⲥ	-8974
▁ⲡⲉϫⲉⲡⲛⲟⲩⲧⲉ	-8975
▁ⲡⲉϫⲉⲥⲁⲙⲯⲱⲛ	-8976
▁ⲡⲉⲧⲉⲟⲩⲛϭⲟⲙ	-8977
▁ⲡⲉⲭⲉⲇⲇⲁⲓⲟⲥ	-8978
▁ⲉⲧⲉⲣⲉⲡⲛⲟⲩⲧⲉ	-8979
▁ⲉⲧⲙⲁⲕⲉⲇⲟⲛⲓⲁ	-8980
▁ⲙⲡⲙⲛⲧⲥⲛⲟⲟⲩⲥ	-8981
▁ⲙⲡⲟⲩⲉϣϭⲙϭⲟⲙ	-8982
▁ⲛⲉⲩⲁϩⲉⲣⲁⲧⲟⲩ	-8983
▁ⲛⲛⲉⲕⲟⲩⲉⲣⲏⲧⲉ	-8984
▁ⲛⲟⲩⲡⲁⲣⲁⲃⲟⲗⲏ	-8985
▁ⲛⲣⲉϥϫⲓⲛϭⲟⲛⲥ	-8986
▁ⲛⲧⲉⲧⲛⲡⲓⲥⲧⲓⲥ	-8987
▁ⲛⲧⲙⲛⲧⲣⲙⲛϩⲏⲧ	-8988
▁ⲡⲉⲭⲁⲛⲁⲛⲁⲓⲟⲥ	-8989
▁ϩⲓϫⲛⲧϩⲁⲗⲁⲥⲥⲁ	-8990
▁ϫⲓⲛⲧⲁⲙⲛⲧⲕⲟⲩⲓ	-8991
▁ⲉⲛⲉⲕⲇⲓⲕⲁⲓⲱⲙⲁ	-8992
▁ⲉⲡⲉⲩⲁⲅⲅⲉⲗⲓⲟⲛ	-8993
▁ⲛⲛⲉⲧⲁϩⲉⲣⲁⲧⲟⲩ	-8994
▁ⲛⲧⲉⲧⲛⲡⲓⲥⲧⲉⲩⲉ	-8995
▁ⲡⲉϫⲉⲓⲉⲣⲉⲙⲓⲁⲥ	-8996
▁ⲛϩⲉⲛⲡⲉⲧϣⲟⲩⲉⲓⲧ	-8997
▁ⲛⲥⲉⲕⲗⲏⲣⲟⲛⲟⲙⲉⲓ	-8998
▁ⲥⲉⲛⲁⲡⲁⲣⲁⲇⲓⲇⲟⲩ	-8999
▁ⲛⲧⲉⲕⲕⲗⲏⲣⲟⲛⲟⲙⲓⲁ	-9000
▁ⲉϫⲛⲧϩⲓⲉⲣⲟⲩⲥⲁⲗⲏⲙ	-9001
ϫⲗ	-9002
ⲅⲕ	-9003
ⲏⲃ	-9004
ⲏⲕ	-9005
ⲕⲥ	-9006
ⲗⲧ	-9007
ⲣϫ	-9008
ϣⲏⲕ	-9009
ϩⲃⲱ	-9010
ϩⲛⲁ	-9011
ϫⲓϥ	-9012
▁ϥⲉ	-9013
▁ϫⲁ	-9014
▁ⲏⲥ	-9015
ⲁⲍⲉ	-9016
ⲃⲏⲓ	-9017
ⲃⲏⲗ	-9018
ⲅⲇⲁ	-9019
ⲇⲟⲗ	-9020
ⲇⲱⲣ	-9021
ⲉⲭⲉ	-9022
ⲑⲉⲙ	-9023
ⲑⲉⲟ	-9024
ⲑⲉⲣ	-9025
ⲑⲑⲓ	-9026
ⲓⲱⲛ	-9027
ⲕⲉⲣ	-9028
ⲗⲩⲥ	-9029
ⲛϩⲉ	-9030
ⲛⲁⲑ	-9031
ⲛⲏϩ	-9032
ⲝⲁⲛ	-9033
ⲟⲗⲩ	-9034
ⲟⲩϣ	-9035
ⲡⲓⲧ	-9036
ⲡⲣⲁ	-9037
ⲥⲃⲟ	-9038
ⲥⲕⲥ	-9039
ⲥⲟⲓ	-9040
ⲧⲏϩ	-9041
ⲧⲥⲛ	-9042
ⲧⲱⲥ	-9043
ⲭⲓⲣ	-9044
ⲯⲁⲅ	-9045
ⲯⲓⲧ	-9046
ⲱⲗⲉ	-9047
ⲱⲛⲏ	-9048
ⲱⲛⲥ	-9049
ϣⲏϭⲉ	-9050
ϣⲟⲉⲓ	-9051
ϣⲟⲡⲛ	-9052
ϣⲟⲥⲙ	-9053
ϣⲣϣⲣ	-9054
ϣⲣⲱϣ	-9055
ϣⲱⲧⲙ	-9056
ϩⲏⲟⲩ	-9057
ϩⲓⲗⲁ	-9058
ϩⲓⲧⲉ	-9059
ϩⲛⲁⲩ	-9060
ϩⲣⲉⲛ	-9061
ϩⲧⲟⲡ	-9062
ϫⲡⲓⲉ	-9063
ϫⲱⲟⲩ	-9064
ϭⲟⲟⲃ	-9065
▁ϣϥⲉ	-9066
▁ϣⲱⲗ	-9067
▁ϩⲛⲙ	-9068
▁ϩⲣⲱ	-9069
▁ϫⲡⲉ	-9070
▁ⲁϫⲙ	-9071
▁ⲁⲱⲑ	-9072
▁ⲉⲕϯ	-9073
▁ⲉⲥⲁ	-9074
▁ⲏⲡⲉ	-9075
▁ⲙⲁⲥ	-9076
▁ⲙⲉⲕ	-9077
▁ⲛϥⲥ	-9078
▁ⲛϭⲉ	-9079
▁ⲛⲉⲣ	-9080
▁ⲛⲛⲏ	-9081
▁ⲛⲣⲁ	-9082
▁ⲛⲧⲏ	-9083
▁ⲟⲩϭ	-9084
▁ⲟⲩⲙ	-9085
▁ⲡⲧⲉ	-9086
▁ⲣⲱⲓ	-9087
▁ⲥⲱⲕ	-9088
▁ⲧⲱⲙ	-9089
ⲃⲉⲉⲣ	-9090
ⲃⲱϭⲉ	-9091
ⲃⲱⲧⲛ	-9092
ⲅⲓⲟⲛ	-9093
ⲇⲣⲓⲁ	-9094
ⲉⲓⲟϥ	-9095
ⲏⲥⲁⲩ	-9096
ⲑⲁⲓⲙ	-9097
ⲑⲁⲛⲁ	-9098
ⲑⲓⲏⲙ	-9099
ⲑⲙⲕⲟ	-9100
ⲓⲟⲩⲣ	-9101
ⲕⲁⲛⲁ	-9102
ⲕⲙⲧⲟ	-9103
ⲕⲛⲧⲉ	-9104
ⲕⲱⲧϥ	-9105
ⲗⲁⲙⲓ	-9106
ⲗⲓⲁⲥ	-9107
ⲗⲓⲗⲁ	-9108
ⲙⲉⲉⲓ	-9109
ⲛⲟϫⲛ	-9110
ⲛⲟⲩⲣ	-9111
ⲟϣⲧϥ	-9112
ⲟⲗⲱⲥ	-9113
ⲟⲙⲟⲥ	-9114
ⲟⲣⲕⲣ	-9115
ⲟⲣⲟⲥ	-9116
ⲟⲩⲇⲁ	-9117
ⲡϩⲏⲧ	-9118
ⲡⲉⲛⲉ	-9119
ⲡⲉⲣⲓ	-9120
ⲡⲟⲥⲉ	-9121
ⲣⲏⲟⲩ	-9122
ⲣⲥⲟⲥ	-9123
ⲥⲉⲧⲙ	-9124
ⲧⲉⲛϥ	-9125
ⲧⲙⲉϥ	-9126
ⲧⲛⲧⲱ	-9127
ⲧⲥⲧⲟ	-9128
ⲫⲟⲩⲇ	-9129
ⲭⲙⲁⲥ	-9130
ⲭⲟⲗⲏ	-9131
ⲱⲟⲩⲛ	-9132
ⲱⲣⲓⲁ	-9133
ϣⲟⲉⲓϫ	-9134
ϩⲁⲉⲉⲩ	-9135
ϩⲁⲙⲱⲥ	-9136
ϩⲣⲏⲧⲛ	-9137
ϫⲓϯⲡⲉ	-9138
ϫⲛⲟⲩⲕ	-9139
ϫⲟⲗϫⲗ	-9140
ϭⲟⲡⲟⲩ	-9141
▁ϣⲁⲩⲥ	-9142
▁ϣⲱⲛⲉ	-9143
▁ϩⲁⲡⲁ	-9144
▁ϩⲏⲗⲓ	-9145
▁ϩⲓϩⲟ	-9146
▁ϩⲛϩⲛ	-9147
▁ϩⲛⲁϥ	-9148
▁ϩⲛⲕⲉ	-9149
▁ϩⲛⲥⲁ	-9150
▁ϩⲟⲗϭ	-9151
▁ϩⲱⲧⲡ	-9152
▁ϫⲉϩⲱ	-9153
▁ϫⲉⲁϣ	-9154
▁ϭⲱⲣϭ	-9155
▁ⲁϥϭⲙ	-9156
▁ⲁϥⲧⲉ	-9157
▁ⲁⲓⲱϣ	-9158
▁ⲁⲛϩⲉ	-9159
▁ⲁⲥϭⲱ	-9160
▁ⲁⲥⲱϣ	-9161
▁ⲉϥⲥⲁ	-9162
▁ⲉϩⲟⲧ	-9163
▁ⲉⲕⲟⲩ	-9164
▁ⲉⲙⲙⲛ	-9165
▁ⲉⲙⲛⲧ	-9166
▁ⲉⲣⲟⲩ	-9167
▁ⲉⲣⲱⲓ	-9168
▁ⲉⲥⲕⲏ	-9169
▁ⲉⲧϣⲉ	-9170
▁ⲉⲧϥⲓ	-9171
▁ⲉⲧⲉⲣ	-9172
▁ⲉⲧⲥⲱ	-9173
▁ⲉⲧⲱϣ	-9174
▁ⲉⲩϣⲁ	-9175
▁ⲕⲁⲁⲥ	-9176
▁ⲙⲓⲭⲁ	-9177
▁ⲙⲛⲃⲁ	-9178
▁ⲙⲛⲓⲁ	-9179
▁ⲙⲛⲓⲥ	-9180
▁ⲙⲛⲧϥ	-9181
▁ⲙⲛⲧⲛ	-9182
▁ⲙⲟⲩⲛ	-9183
▁ⲙⲡϫⲓ	-9184
▁ⲙⲡⲱⲣ	-9185
▁ⲛϣⲟⲧ	-9186
▁ⲛϩⲟⲧ	-9187
▁ⲛϩⲱⲡ	-9188
▁ⲛϭⲓⲫ	-9189
▁ⲛⲁϣⲁ	-9190
▁ⲛⲁⲕⲉ	-9191
▁ⲛⲅϫⲱ	-9192
▁ⲛⲉⲁⲩ	-9193
▁ⲛⲉⲧϯ	-9194
▁ⲛⲉⲩϯ	-9195
▁ⲛⲛⲉϣ	-9196
▁ⲛⲛⲓⲉ	-9197
▁ⲛⲥⲃⲱ	-9198
▁ⲛⲧⲃⲧ	-9199
▁ⲛⲧⲛϩ	-9200
▁ⲟⲉⲓϣ	-9201
▁ⲟⲩⲉϩ	-9202
▁ⲟⲩⲛϯ	-9203
▁ⲡϣⲏⲛ	-9204
▁ⲡⲁⲕⲉ	-9205
▁ⲡⲃⲁⲗ	-9206
▁ⲡⲥⲁϩ	-9207
▁ⲡⲱϣⲥ	-9208
▁ⲣⲱϩⲧ	-9209
▁ⲥⲁϩⲉ	-9210
▁ⲧⲁϣⲉ	-9211
▁ⲧⲁⲉⲓ	-9212
▁ⲧⲃⲛⲏ	-9213
▁ⲯⲓⲧⲉ	-9214
▁ⲯⲩⲭⲏ	-9215
ⲁϩⲱⲱⲣ	-9216
ⲁⲃϩⲏⲧ	-9217
ⲁⲧⲣⲓⲁ	-9218
ⲃⲁϩⲥⲉ	-9219
ⲅⲉⲛⲏⲥ	-9220
ⲇⲁⲗⲓⲥ	-9221
ⲉⲓⲟⲟⲩ	-9222
ⲑⲁⲛⲓⲁ	-9223
ⲑⲩⲙⲓⲁ	-9224
ⲑⲱⲙⲁⲥ	-9225
ⲓⲥⲧⲟⲥ	-9226
ⲕⲁⲁⲧⲉ	-9227
ⲕⲁⲣⲓⲱ	-9228
ⲕⲁⲣⲱⲛ	-9229
ⲕⲁⲥⲕⲥ	-9230
ⲕⲟⲩⲕⲙ	-9231
ⲕⲟⲩⲟⲓ	-9232
ⲙⲁⲛⲟⲥ	-9233
ⲙⲉⲓⲟⲛ	-9234
ⲙⲟⲩⲕϩ	-9235
ⲛϣⲟⲣⲡ	-9236
ⲛⲉⲃⲟⲗ	-9237
ⲛⲉⲥⲟⲩ	-9238
ⲛⲟⲩⲉⲙ	-9239
ⲟⲣⲙⲉⲥ	-9240
ⲟⲧⲙⲟⲩ	-9241
ⲟⲩⲟⲙⲥ	-9242
ⲟⲩⲱⲧⲃ	-9243
ⲡⲁϭⲥⲉ	-9244
ⲡⲁⲛⲧⲁ	-9245
ⲡⲁⲣⲓⲥ	-9246
ⲡⲓⲛⲁⲝ	-9247
ⲡⲟⲣϫϥ	-9248
ⲣⲉⲱⲙⲁ	-9249
ⲣⲟⲟⲩⲉ	-9250
ⲣⲟⲭⲟⲥ	-9251
ⲣⲣⲱⲙⲉ	-9252
ⲥⲁⲗⲙⲁ	-9253
ⲥⲁⲣⲣⲁ	-9254
ⲥⲏⲇⲱⲑ	-9255
ⲥⲟⲧⲟⲩ	-9256
ⲥⲧⲙⲏⲧ	-9257
ⲧⲉⲓⲙⲉ	-9258
ⲧⲉⲛⲥⲉ	-9259
ⲧⲉⲥⲃⲱ	-9260
ⲧⲕⲟⲩⲓ	-9261
ⲧⲟⲟⲧⲥ	-9262
ⲧⲟⲩⲱⲧ	-9263
ⲧⲩⲡⲟⲥ	-9264
ⲩⲛⲁⲅⲱ	-9265
ⲩⲥⲟⲡⲥ	-9266
ⲯⲁⲅⲏⲥ	-9267
ϫⲁϩⲙⲟⲩ	-9268
ϭⲓⲛϭⲱⲣ	-9269
▁ϣⲁϥⲉⲓ	-9270
▁ϣⲁⲛⲧⲕ	-9271
▁ϥⲥⲟⲧⲡ	-9272
▁ϩⲁϩⲧⲛ	-9273
▁ϩⲓϫⲱⲕ	-9274
▁ϩⲓⲉⲓⲃ	-9275
▁ϩⲓⲏⲣⲡ	-9276
▁ϩⲓⲛⲉϥ	-9277
▁ϩⲓⲡⲉⲥ	-9278
▁ϩⲙⲡⲕⲉ	-9279
▁ϩⲛⲅⲉⲑ	-9280
▁ϫⲉⲁϥϯ	-9281
▁ϫⲉⲁϥⲣ	-9282
▁ϫⲉⲛⲟⲩ	-9283
▁ϫⲉⲟⲩⲥ	-9284
▁ϫⲉⲧⲉⲛ	-9285
▁ⲁϥϫⲓⲧ	-9286
▁ⲁϥⲁⲁϥ	-9287
▁ⲁϥⲁⲣⲭ	-9288
▁ⲁⲛⲃⲱⲕ	-9289
▁ⲁⲟⲩⲱⲛ	-9290
▁ⲁⲡⲣⲣⲟ	-9291
▁ⲁⲣⲓⲣⲉ	-9292
▁ⲃⲁⲣⲁⲕ	-9293
▁ⲃⲁⲣⲛⲏ	-9294
▁ⲉϥⲟⲃⲉ	-9295
▁ⲉϩⲣⲁⲩ	-9296
▁ⲉϫⲛⲓⲱ	-9297
▁ⲉⲁϥϫⲓ	-9298
▁ⲉⲁϥⲉⲓ	-9299
▁ⲉⲉⲓⲛⲁ	-9300
▁ⲉⲓⲥⲟⲩ	-9301
▁ⲉⲕⲁⲁⲩ	-9302
▁ⲉⲕⲛⲁϯ	-9303
▁ⲉⲕⲱⲧⲉ	-9304
▁ⲉⲙⲉⲣⲉ	-9305
▁ⲉⲙⲟⲟⲩ	-9306
▁ⲉⲡϩⲱⲃ	-9307
▁ⲉⲡⲛⲟϭ	-9308
▁ⲉⲣϩⲱⲃ	-9309
▁ⲉⲧϩⲉⲛ	-9310
▁ⲉⲧⲁϣⲉ	-9311
▁ⲉⲧⲁⲗⲉ	-9312
▁ⲉⲧⲉⲛϥ	-9313
▁ⲉⲧⲉⲛⲧ	-9314
▁ⲉⲧⲉⲡⲉ	-9315
▁ⲉⲧⲟⲟⲧ	-9316
▁ⲉⲧⲟⲣϫ	-9317
▁ⲉⲧⲟⲩⲉ	-9318
▁ⲉⲩϩⲏⲗ	-9319
▁ⲉⲩϩⲏⲩ	-9320
▁ⲉⲩⲙⲏⲣ	-9321
▁ⲉⲩⲛⲁⲙ	-9322
▁ⲉⲩⲟⲣϫ	-9323
▁ⲉⲩⲥⲉⲓ	-9324
▁ⲉⲩⲥⲱϣ	-9325
▁ⲉⲩⲧⲱⲛ	-9326
▁ⲓⲟⲩⲇⲁ	-9327
▁ⲙⲙⲁⲥⲉ	-9328
▁ⲙⲛⲛⲕⲁ	-9329
▁ⲙⲛⲡⲛⲁ	-9330
▁ⲙⲛⲧⲛⲁ	-9331
▁ⲙⲟⲉⲓⲧ	-9332
▁ⲙⲡⲉⲧϥ	-9333
▁ⲙⲡⲩⲗⲏ	-9334
▁ⲛϥⲱⲛϩ	-9335
▁ⲛϩⲟⲩⲉ	-9336
▁ⲛϫⲏϭⲉ	-9337
▁ⲛϭⲓⲕⲉ	-9338
▁ⲛϯⲛⲁϯ	-9339
▁ⲛⲁϩⲧⲉ	-9340
▁ⲛⲁⲁⲁⲩ	-9341
▁ⲛⲁⲥⲏⲣ	-9342
▁ⲛⲉϣⲁϥ	-9343
▁ⲛⲉⲕⲛⲁ	-9344
▁ⲛⲉⲧⲉⲛ	-9345
▁ⲛⲕⲙⲧⲟ	-9346
▁ⲛⲛⲉⲓⲁ	-9347
▁ⲛⲛⲉⲕⲣ	-9348
▁ⲛⲛⲉⲟⲩ	-9349
▁ⲛⲛⲉⲧⲟ	-9350
▁ⲛⲛⲧⲟϣ	-9351
▁ⲛⲟⲩϣⲉ	-9352
▁ⲛⲥⲓⲃⲧ	-9353
▁ⲛⲥⲓⲕⲉ	-9354
▁ⲛⲧⲁϥⲓ	-9355
▁ⲛⲧⲁⲓⲟ	-9356
▁ⲛⲧⲃⲛⲏ	-9357
▁ⲛⲧⲉⲓⲥ	-9358
▁ⲛⲧⲉⲕⲁ	-9359
▁ⲛⲧⲛⲧⲙ	-9360
▁ⲟⲩⲗⲁⲥ	-9361
▁ⲟⲩⲛⲟϥ	-9362
▁ⲡϣⲙⲙⲟ	-9363
▁ⲡϩⲏⲃⲥ	-9364
▁ⲡϫⲟⲉⲓ	-9365
▁ⲡⲉϥⲙⲁ	-9366
▁ⲡⲉⲧⲕⲱ	-9367
▁ⲡⲓⲉⲣⲟ	-9368
▁ⲣϣⲟⲣⲡ	-9369
▁ⲥⲙⲟⲛⲧ	-9370
▁ⲧⲁⲛⲁⲩ	-9371
▁ⲧⲉⲕⲙⲉ	-9372
▁ⲧⲉⲛⲛⲁ	-9373
▁ⲧⲉⲩϣⲏ	-9374
▁ⲧⲟⲟⲧⲕ	-9375
ⲁⲣⲉⲥⲕⲉ	-9376
ⲁⲣⲭⲓⲙⲁ	-9377
ⲉⲫⲣⲁⲓⲙ	-9378
ⲑⲃⲃⲓⲟⲥ	-9379
ⲕⲁⲓⲣⲟⲥ	-9380
ⲕⲉⲡⲁⲍⲉ	-9381
ⲙⲉⲥⲧⲱⲥ	-9382
ⲛϫⲟⲉⲓⲥ	-9383
ⲛⲉⲣⲱⲟⲩ	-9384
ⲛⲟⲉⲙⲓⲛ	-9385
ⲟⲗⲉⲙⲉⲓ	-9386
ⲟⲩⲉⲟⲟⲩ	-9387
ⲟⲩⲥⲟⲩⲛ	-9388
ⲟⲩⲥⲱⲧⲙ	-9389
ⲡⲁⲗⲁⲟⲥ	-9390
ⲡⲁⲩⲗⲟⲥ	-9391
ⲡⲣⲁⲓⲧⲱ	-9392
ⲣⲁⲃⲃⲁⲥ	-9393
ⲣⲁⲡⲉⲍⲁ	-9394
ⲥⲟⲟⲩϩⲉ	-9395
ⲧⲁϩⲙⲟⲩ	-9396
ⲧⲉⲗⲓⲟⲥ	-9397
ⲩⲣⲓⲁⲕⲏ	-9398
ⲭⲁⲣⲧⲏⲥ	-9399
ϩⲓⲧⲟⲟⲧϥ	-9400
ϫⲁⲓⲃⲉⲕⲉ	-9401
▁ϥⲛⲁⲃⲱⲕ	-9402
▁ϩⲓⲧⲛⲛⲁ	-9403
▁ϩⲓⲱⲱⲧⲉ	-9404
▁ϩⲙⲡϩⲱⲃ	-9405
▁ϩⲙⲡⲛⲉϩ	-9406
▁ϩⲙⲡⲱϩⲥ	-9407
▁ϩⲛϣⲏⲣⲉ	-9408
▁ϩⲛⲛⲉⲙⲁ	-9409
▁ϩⲛⲣⲱⲙⲉ	-9410
▁ϫⲉⲙⲡⲉϥ	-9411
▁ϫⲉⲙⲡⲣⲣ	-9412
▁ϫⲓⲛⲡⲉⲩ	-9413
▁ϫⲓⲛⲧⲉϥ	-9414
▁ⲁϥⲕⲱⲧⲉ	-9415
▁ⲁϥⲟⲩⲱϣ	-9416
▁ⲁϥⲣϩⲱⲃ	-9417
▁ⲁϥⲣⲱϩⲧ	-9418
▁ⲁⲓϣⲓⲛⲉ	-9419
▁ⲁⲓⲉⲓⲛⲉ	-9420
▁ⲁⲓⲉⲓⲣⲉ	-9421
▁ⲁⲓⲙⲉⲣⲉ	-9422
▁ⲁⲕϣⲁϫⲉ	-9423
▁ⲁⲛⲁⲃⲁⲗ	-9424
▁ⲁⲡⲁⲃⲁⲗ	-9425
▁ⲁⲣⲓⲥⲟⲩ	-9426
▁ⲁⲩϣⲗⲏⲗ	-9427
▁ⲁⲩϫⲓⲧⲥ	-9428
▁ⲁⲩⲡⲱⲣϣ	-9429
▁ⲉϥϩⲟⲗϭ	-9430
▁ⲉϩⲉⲛⲙⲁ	-9431
▁ⲉϫⲛⲛⲉⲛ	-9432
▁ⲉⲅⲁⲃⲁⲁ	-9433
▁ⲉⲓⲁⲕⲱⲃ	-9434
▁ⲉⲓⲉⲓⲣⲉ	-9435
▁ⲉⲛϣⲟⲟⲡ	-9436
▁ⲉⲛⲁϭⲓϫ	-9437
▁ⲉⲛⲧⲁϥϯ	-9438
▁ⲉⲛⲧⲁⲩⲣ	-9439
▁ⲉⲟⲩϫⲁⲓ	-9440
▁ⲉⲟⲩⲟⲙϥ	-9441
▁ⲉⲡⲉⲥⲙⲁ	-9442
▁ⲉⲡⲙⲟⲟⲩ	-9443
▁ⲉⲣϩⲟⲧⲉ	-9444
▁ⲉⲣⲉⲟⲩⲁ	-9445
▁ⲉⲣⲉⲡⲁⲓ	-9446
▁ⲉⲣⲉⲡⲉⲩ	-9447
▁ⲉⲥⲛⲁϣⲧ	-9448
▁ⲉⲥⲣⲓⲙⲉ	-9449
▁ⲉⲥⲱⲟⲩϩ	-9450
▁ⲉⲧϩⲟⲗϭ	-9451
▁ⲉⲧϭⲱϣⲧ	-9452
▁ⲉⲧⲣⲉⲟⲩ	-9453
▁ⲉⲧⲣⲉⲩⲉ	-9454
▁ⲉⲩϣⲙϣⲉ	-9455
▁ⲉⲩϩⲏⲕⲉ	-9456
▁ⲉⲩⲙⲟⲕϩ	-9457
▁ⲉⲩⲥⲙⲟⲩ	-9458
▁ⲙⲛϣⲙⲧⲉ	-9459
▁ⲙⲛⲛⲥⲱⲕ	-9460
▁ⲙⲡⲁⲛⲁϣ	-9461
▁ⲙⲡⲉⲕⲙⲁ	-9462
▁ⲙⲡⲉⲙⲛⲧ	-9463
▁ⲙⲡⲉⲣⲡⲉ	-9464
▁ⲙⲡⲉⲧϫⲓ	-9465
▁ⲙⲡⲣⲕⲧⲉ	-9466
▁ⲛϥⲥⲱⲧⲙ	-9467
▁ⲛϩⲉⲛⲙⲁ	-9468
▁ⲛϩⲓⲉⲓⲃ	-9469
▁ⲛϩⲟⲉⲓⲙ	-9470
▁ⲛϩⲣⲏϣⲉ	-9471
▁ⲛϩⲣⲟⲟⲩ	-9472
▁ⲛϭⲓⲛⲟⲩ	-9473
▁ⲛϭⲟⲣϭⲥ	-9474
▁ⲛⲁϣⲕⲁⲕ	-9475
▁ⲛⲁϥⲱⲧⲉ	-9476
▁ⲛⲁϩⲣⲟⲕ	-9477
▁ⲛⲁϫⲉⲛⲁ	-9478
▁ⲛⲁϯⲟⲩⲱ	-9479
▁ⲛⲁⲙⲧⲟⲛ	-9480
▁ⲛⲃⲟⲭⲟⲣ	-9481
▁ⲛⲅⲧⲁⲁⲩ	-9482
▁ⲛⲇⲱⲣⲟⲛ	-9483
▁ⲛⲉϣⲏⲣⲉ	-9484
▁ⲛⲉⲓⲟⲧⲉ	-9485
▁ⲛⲉⲛⲧⲁⲕ	-9486
▁ⲛⲗⲟⲓϭⲉ	-9487
▁ⲛⲛⲃⲗⲗⲉ	-9488
▁ⲛⲛⲉϥϩⲉ	-9489
▁ⲛⲛⲟⲃϩⲉ	-9490
▁ⲛⲛⲟⲩⲱⲧ	-9491
▁ⲛⲟⲩϣⲁϩ	-9492
▁ⲛⲟⲩϩⲁⲧ	-9493
▁ⲛⲟⲩϩⲓⲏ	-9494
▁ⲛⲟⲩⲁϣⲏ	-9495
▁ⲛⲟⲩⲕⲃⲁ	-9496
▁ⲛⲟⲩⲱⲧϩ	-9497
▁ⲛⲥⲁⲙⲓⲧ	-9498
▁ⲛⲥⲁⲣⲣⲁ	-9499
▁ⲛⲧϩⲓⲙⲉ	-9500
▁ⲛⲧⲉⲛⲉϥ	-9501
▁ⲛⲧⲉⲛⲉⲧ	-9502
▁ⲛⲧⲉⲡⲉⲕ	-9503
▁ⲛⲧⲩⲣⲟⲥ	-9504
▁ⲟⲩⲁϣⲟⲩ	-9505
▁ⲟⲩⲟⲉⲓⲕ	-9506
▁ⲟⲩⲟⲙⲟⲩ	-9507
▁ⲟⲩⲡⲏⲅⲏ	-9508
▁ⲡⲉⲕⲃⲁⲗ	-9509
▁ⲡⲉⲧϣⲱⲡ	-9510
▁ⲡⲉⲧⲕⲛⲁ	-9511
▁ⲡⲙⲛⲧⲣⲉ	-9512
▁ⲡⲥⲉⲉⲡⲉ	-9513
▁ⲥⲉⲛⲏⲟⲩ	-9514
▁ⲧⲅⲉⲛⲉⲁ	-9515
▁ⲧⲟⲩⲛⲉⲥ	-9516
▁ⲧⲡⲟⲣⲛⲏ	-9517
ⲁⲃⲉⲛⲛⲏⲣ	-9518
ⲅⲇⲁⲗⲏⲛⲏ	-9519
ⲑⲃⲃⲓⲟⲟⲩ	-9520
ⲕⲟⲓⲛⲱⲛⲓ	-9521
ⲙⲉⲣⲓⲧⲟⲩ	-9522
ⲛⲉϥϣⲟⲟⲡ	-9523
ⲛⲉⲣⲅⲉⲓⲁ	-9524
ⲟⲩⲟϣϥⲟⲩ	-9525
ⲡⲉⲧⲙⲙⲁⲩ	-9526
ⲥⲁⲛⲟⲩϣϥ	-9527
ⲧⲉⲅⲣⲁⲫⲏ	-9528
ⲧⲉⲫⲁⲛⲟⲥ	-9529
ϥⲓⲡⲣⲟⲟⲩϣ	-9530
ϩⲣⲟⲩⲃⲃⲁⲓ	-9531
▁ϣⲁⲛⲧⲉⲧⲛ	-9532
▁ϣⲁⲣⲉϩⲉⲛ	-9533
▁ϥⲛⲁϫⲓⲥⲉ	-9534
▁ϩⲉⲛϣⲁϫⲉ	-9535
▁ϩⲉⲛⲕⲟⲩⲓ	-9536
▁ϩⲓϩⲃⲟⲩⲣ	-9537
▁ϩⲙⲡⲉⲟⲟⲩ	-9538
▁ϩⲛⲛⲧⲟⲟⲩ	-9539
▁ϩⲛⲧⲟⲣⲅⲏ	-9540
▁ϫⲉⲁⲓⲛⲁⲩ	-9541
▁ϫⲉⲛⲟⲩϫⲉ	-9542
▁ϫⲉⲟⲩⲁϩⲕ	-9543
▁ϯϣⲡϩⲙⲟⲧ	-9544
▁ϯⲛⲁⲟⲩⲱⲛ	-9545
▁ϯⲛⲁⲧⲁⲕⲟ	-9546
▁ϯⲛⲁⲧⲣⲉⲩ	-9547
▁ⲁϥⲧⲁϫⲣⲉ	-9548
▁ⲁϥⲧⲁϫⲣⲟ	-9549
▁ⲁϩⲉⲣⲁⲧⲕ	-9550
▁ⲁⲙⲏⲉⲓⲧⲛ	-9551
▁ⲁⲩϥⲓⲧⲟⲩ	-9552
▁ⲁⲩⲛⲟⲩϫⲉ	-9553
▁ⲁⲩⲡⲗⲁⲛⲁ	-9554
▁ⲁⲩⲥⲟⲩⲱϩ	-9555
▁ⲉϥⲙⲟⲟⲛⲉ	-9556
▁ⲉϥⲛⲁⲃⲱⲕ	-9557
▁ⲉϥⲛⲕⲟⲧⲕ	-9558
▁ⲉϫⲛⲛⲉⲧⲛ	-9559
▁ⲉⲓⲇⲱⲗⲟⲛ	-9560
▁ⲉⲕⲛⲁϩⲧⲉ	-9561
▁ⲉⲛⲧⲁϥⲉⲓ	-9562
▁ⲉⲡⲉϥⲥⲟⲛ	-9563
▁ⲉⲡⲉⲓⲛⲁⲩ	-9564
▁ⲉⲡⲓⲧⲓⲙⲁ	-9565
▁ⲉⲣϣⲁⲛⲧⲉ	-9566
▁ⲉⲧⲃⲉⲧⲉⲕ	-9567
▁ⲉⲧⲉϥⲥⲙⲏ	-9568
▁ⲉⲧⲉⲣⲉⲡⲉ	-9569
▁ⲉⲧⲉⲧⲛⲧⲙ	-9570
▁ⲉⲧⲙⲥⲱⲧⲙ	-9571
▁ⲉⲧⲟⲩⲛⲉⲥ	-9572
▁ⲉⲧⲧⲁⲡⲣⲟ	-9573
▁ⲉⲩⲑⲩⲥⲓⲁ	-9574
▁ⲉⲭⲉⲃⲣⲱⲛ	-9575
▁ⲕⲁⲧⲁⲡⲉⲩ	-9576
▁ⲙⲁⲣⲉϥⲉⲓ	-9577
▁ⲙⲁⲣⲉⲛⲉⲕ	-9578
▁ⲙⲙⲁⲩⲁⲁⲧ	-9579
▁ⲙⲛⲛⲉⲥⲕⲉ	-9580
▁ⲙⲛⲛⲉⲧⲛⲁ	-9581
▁ⲙⲛⲟⲩϩⲁⲡ	-9582
▁ⲙⲛⲧⲁϥⲧⲉ	-9583
▁ⲙⲛⲧⲉⲥⲃⲱ	-9584
▁ⲙⲡϣⲟⲉⲓϣ	-9585
▁ⲙⲡⲁⲛⲟⲃⲉ	-9586
▁ⲙⲡⲉϣⲗⲏⲗ	-9587
▁ⲙⲡⲉⲕⲱⲛϩ	-9588
▁ⲙⲡⲣⲟⲩⲱϣ	-9589
▁ⲛⲁⲛⲟⲙⲓⲁ	-9590
▁ⲛⲁⲟⲩϫⲁⲓ	-9591
▁ⲛⲁⲧϣⲏⲣⲉ	-9592
▁ⲛⲁⲧϣⲓⲡⲉ	-9593
▁ⲛⲁⲧⲥⲃⲃⲉ	-9594
▁ⲛⲅϭⲙϭⲟⲙ	-9595
▁ⲛⲉϥϯⲥⲃⲱ	-9596
▁ⲛⲉϩⲙⲟⲟⲥ	-9597
▁ⲛⲉⲛⲟⲭⲟⲥ	-9598
▁ⲛⲉⲛⲧⲟⲗⲏ	-9599
▁ⲛⲉⲥϣⲟⲟⲡ	-9600
▁ⲛⲉⲧⲟⲩⲛⲁ	-9601
▁ⲛⲕⲉⲕⲟⲩⲓ	-9602
▁ⲛⲗⲟⲓⲙⲟⲥ	-9603
▁ⲛⲙⲙⲁⲛϣⲁ	-9604
▁ⲛⲛⲁϩⲣⲁⲓ	-9605
▁ⲛⲛⲁⲕⲉⲉⲥ	-9606
▁ⲛⲛⲁⲛⲟⲃⲉ	-9607
▁ⲛⲛⲉϭⲟⲟϣ	-9608
▁ⲛⲛⲏⲣⲓⲁⲥ	-9609
▁ⲛⲟⲩⲉⲣⲏⲧ	-9610
▁ⲛⲥⲁⲙⲯⲱⲛ	-9611
▁ⲛⲥⲉⲟⲩⲱϩ	-9612
▁ⲛⲥⲉⲧⲙϩⲉ	-9613
▁ⲛⲥⲓⲥⲁⲣⲁ	-9614
▁ⲛⲧⲁⲉⲓⲟⲩ	-9615
▁ⲛⲧⲁⲕⲛⲁⲩ	-9616
▁ⲛⲧⲉⲛⲉⲧⲛ	-9617
▁ⲛⲧⲉⲣⲓⲉⲓ	-9618
▁ⲛⲧⲉⲧⲛϥⲓ	-9619
▁ⲛⲧⲉⲧⲛⲟⲩ	-9620
▁ⲛⲧⲧⲁⲡⲣⲟ	-9621
▁ⲟⲩϩⲙϩⲁⲗ	-9622
▁ⲟⲩⲙⲁⲉⲓⲛ	-9623
▁ⲟⲩⲛϣϭⲟⲙ	-9624
▁ⲡⲁⲥⲉⲃⲏⲥ	-9625
▁ⲡⲁⲧⲁϫⲣⲟ	-9626
▁ⲥⲉⲛⲁⲃⲱⲕ	-9627
▁ⲥⲉⲛⲁⲡⲱⲧ	-9628
▁ⲧⲁⲛⲁϣⲧⲉ	-9629
▁ⲧⲉⲣⲟⲙⲡⲉ	-9630
ⲅⲟⲇⲟⲗⲓⲁⲥ	-9631
ⲕⲁⲣⲓⲱⲧⲏⲥ	-9632
ⲙⲉϩϥⲧⲟⲟⲩ	-9633
ⲛⲁϣϭⲙϭⲟⲙ	-9634
ⲛⲉⲧⲙⲟⲟⲩⲧ	-9635
ⲛⲧⲁⲧⲥⲃⲃⲉ	-9636
ⲛⲧⲓⲗⲟⲅⲓⲁ	-9637
ⲡⲟⲗⲟⲅⲓⲍⲉ	-9638
ⲣⲙⲛϭⲟⲓⲗⲉ	-9639
ⲥⲧⲉⲣⲉⲱⲙⲁ	-9640
ⲧⲉⲓⲅⲉⲛⲉⲁ	-9641
ⲧⲉⲧⲛⲉⲓⲣⲉ	-9642
ⲩⲛⲁⲅⲱⲅⲟⲥ	-9643
▁ϥⲛⲁⲕⲣⲓⲛⲉ	-9644
▁ϥⲛⲁⲧⲱⲟⲩⲛ	-9645
▁ϩⲁⲧⲉⲧⲛϩⲏ	-9646
▁ϩⲓϫⲛⲧⲁⲡⲉ	-9647
▁ϩⲙⲡϣⲟⲙⲛⲧ	-9648
▁ϩⲙⲡⲉϥⲗⲁⲥ	-9649
▁ϩⲙⲡⲉⲓⲕⲁϩ	-9650
▁ϩⲙⲡⲉⲕⲕⲁϩ	-9651
▁ϩⲙⲡⲟⲩϩⲏⲧ	-9652
▁ϩⲙⲡⲥⲟⲟⲩⲛ	-9653
▁ϩⲛⲛⲉⲕϭⲓϫ	-9654
▁ϩⲛⲛⲉⲩϩⲏⲧ	-9655
▁ϩⲛⲟⲩⲧⲃⲃⲟ	-9656
▁ϩⲛⲧⲁⲙⲏⲧⲉ	-9657
▁ϩⲛⲧⲥⲟⲫⲓⲁ	-9658
▁ϫⲉϣⲁⲧⲛⲁⲩ	-9659
▁ϫⲉϩⲛⲟⲩⲙⲉ	-9660
▁ϫⲉϯⲟⲩⲁⲁⲃ	-9661
▁ϫⲉⲁⲩϫⲟⲟⲥ	-9662
▁ϫⲉⲙⲡⲣⲧⲣⲉ	-9663
▁ϫⲉⲙⲱⲩⲥⲏⲥ	-9664
▁ϫⲉⲛⲧⲁⲕⲉⲓ	-9665
▁ϫⲉⲡⲉϣⲃⲏⲣ	-9666
▁ϯⲛⲁϩⲁⲣⲉϩ	-9667
▁ϯⲛⲁⲧⲁϫⲣⲉ	-9668
▁ϯⲛⲁⲧⲉⲗⲏⲗ	-9669
▁ⲁϥϫⲟⲟⲩⲥⲉ	-9670
▁ⲁϥⲛⲁϩⲙⲟⲩ	-9671
▁ⲁϥⲣⲡⲁϩⲣⲉ	-9672
▁ⲁⲡⲉϥⲉⲓⲱⲧ	-9673
▁ⲁⲩⲙⲟⲟⲩⲧϥ	-9674
▁ⲁⲩⲣϩⲙϩⲁⲗ	-9675
▁ⲃⲁⲣⲛⲁⲃⲁⲥ	-9676
▁ⲉϫⲙⲡⲉⲩϩⲟ	-9677
▁ⲉϯⲛⲁⲧⲁⲁϥ	-9678
▁ⲉⲕϣⲁⲛⲃⲱⲕ	-9679
▁ⲉⲛⲁⲅⲁⲑⲟⲛ	-9680
▁ⲉⲛⲧⲁϥⲙⲟⲩ	-9681
▁ⲉⲛⲧⲁϥⲱⲣⲕ	-9682
▁ⲉⲛⲧⲁⲓⲱⲣⲕ	-9683
▁ⲉⲡⲁⲅⲁⲑⲟⲛ	-9684
▁ⲉⲡⲉϥⲗⲁⲟⲥ	-9685
▁ⲉⲡⲓⲑⲩⲙⲉⲓ	-9686
▁ⲉⲣϣⲁⲛⲡⲉⲕ	-9687
▁ⲉⲥⲁⲙⲟⲩⲏⲗ	-9688
▁ⲉⲧⲉⲣⲉⲡⲉϥ	-9689
▁ⲉⲧⲉⲥϩⲓⲙⲉ	-9690
▁ⲉⲧⲛⲁⲥⲱⲧⲙ	-9691
▁ⲉⲧⲟⲟⲧⲁⲩⲱ	-9692
▁ⲉⲧⲣⲉⲩⲧⲁⲩ	-9693
▁ⲉⲩϩⲉⲑⲛⲟⲥ	-9694
▁ⲙⲙⲓⲛⲙⲙⲟⲛ	-9695
▁ⲙⲛⲛⲁⲁⲣⲱⲛ	-9696
▁ⲙⲛⲡⲁⲩⲗⲟⲥ	-9697
▁ⲙⲡⲃⲁⲁⲙⲡⲉ	-9698
▁ⲙⲡⲉϥⲃⲉⲕⲉ	-9699
▁ⲙⲡⲉϥⲥⲛⲟϥ	-9700
▁ⲙⲡⲉⲕϣⲃⲏⲣ	-9701
▁ⲙⲡⲉⲕϭⲱⲛⲧ	-9702
▁ⲙⲡⲉⲕⲥⲱⲙⲁ	-9703
▁ⲙⲡⲡⲩⲣⲅⲟⲥ	-9704
▁ⲛϭⲓϩⲟⲓⲛⲉ	-9705
▁ⲛⲁϣⲧⲟⲣⲧⲣ	-9706
▁ⲛⲉⲕϩⲙϩⲁⲗ	-9707
▁ⲛⲉⲛⲧⲁⲩⲉⲓ	-9708
▁ⲛⲉⲧⲛⲉⲣⲏⲩ	-9709
▁ⲛⲉⲩⲡⲟⲗⲓⲥ	-9710
▁ⲛⲛϩⲁⲗⲁⲧⲉ	-9711
▁ⲛⲛⲉⲓϩⲟⲟⲩ	-9712
▁ⲛⲛⲉⲓⲣⲱⲙⲉ	-9713
▁ⲛⲛⲉⲧϣⲓⲛⲉ	-9714
▁ⲛⲛⲉⲧϩⲟⲟⲩ	-9715
▁ⲛⲛⲉⲧⲛⲃⲁⲗ	-9716
▁ⲛⲛⲧⲟⲩⲉⲓⲏ	-9717
▁ⲛⲟⲩϫⲱⲱⲙⲉ	-9718
▁ⲛⲟⲩⲟⲩϫⲁⲓ	-9719
▁ⲛⲟⲩⲡⲉⲧⲣⲁ	-9720
▁ⲛⲣⲉϥϣⲙϣⲉ	-9721
▁ⲛⲣⲉϥϭⲱⲛⲧ	-9722
▁ⲛⲧⲁϥϫⲟⲟⲩ	-9723
▁ⲛⲧⲁⲧⲁⲡⲣⲟ	-9724
▁ⲛⲧⲉϥϣⲧⲏⲛ	-9725
▁ⲟⲩⲉⲓⲣⲏⲛⲏ	-9726
▁ⲡⲉϥⲛⲟⲩⲧⲉ	-9727
▁ⲡⲉⲧⲓⲉⲓⲣⲉ	-9728
▁ⲡⲗⲉⲩⲓⲧⲏⲥ	-9729
▁ⲡⲡⲟⲗⲉⲙⲟⲥ	-9730
▁ⲥⲉⲇⲉⲕⲓⲁⲥ	-9731
▁ⲥⲉⲛⲁⲟⲩⲱⲙ	-9732
▁ⲧⲉⲕϩⲙϩⲁⲗ	-9733
▁ⲧⲉⲧⲛⲁⲛⲁⲩ	-9734
ⲑⲉⲥⲥⲁⲗⲟⲛⲓ	-9735
ⲕⲁⲧⲁⲗⲁⲗⲉⲓ	-9736
ⲛⲁⲟⲩⲉⲣⲏⲧⲉ	-9737
ⲛⲉϩⲙⲧⲏⲩⲧⲛ	-9738
ⲡⲁⲣⲁⲛⲟⲙⲟⲥ	-9739
ⲡⲣⲟⲫⲏⲧⲉⲓⲁ	-9740
▁ϩⲓⲧⲙⲡⲉⲓⲱⲧ	-9741
▁ϩⲓⲧⲛⲫⲁⲣⲁⲱ	-9742
▁ϩⲙⲡⲉⲓϣⲁϫⲉ	-9743
▁ϩⲛⲛⲉϥϣⲁϫⲉ	-9744
▁ϩⲛⲟⲩⲟⲩⲣⲟⲧ	-9745
▁ϩⲛⲟⲩⲣⲁⲥⲟⲩ	-9746
▁ϩⲛⲟⲩⲥⲟⲫⲓⲁ	-9747
▁ϫⲉⲁⲙⲏⲉⲓⲧⲛ	-9748
▁ϫⲉⲉⲣϣⲁⲛⲟⲩ	-9749
▁ϫⲉⲉⲧⲃⲉⲡⲁⲓ	-9750
▁ϫⲉⲥⲁⲙⲟⲩⲏⲗ	-9751
▁ϫⲓⲛϩⲧⲟⲟⲩⲉ	-9752
▁ⲁⲓⲱϩⲁⲛⲛⲏⲥ	-9753
▁ⲁⲡⲉⲡⲛⲉⲩⲙⲁ	-9754
▁ⲁⲧⲉⲧⲛⲉⲓⲣⲉ	-9755
▁ⲁⲩⲙⲟⲟⲩⲧⲟⲩ	-9756
▁ⲉϥϣⲁⲛϫⲟⲟⲥ	-9757
▁ⲉϫⲛⲟⲩⲧⲟⲟⲩ	-9758
▁ⲉⲕⲁⲓⲥⲁⲣⲓⲁ	-9759
▁ⲉⲙⲉⲩⲙⲟⲟϣⲉ	-9760
▁ⲉⲛⲉⲧⲙⲟⲟⲩⲧ	-9761
▁ⲉⲛⲧⲁⲥϣⲱⲡⲉ	-9762
▁ⲉⲛⲧⲁⲧⲉⲧⲛⲁ	-9763
▁ⲉⲣⲉⲡⲟⲩⲏⲏⲃ	-9764
▁ⲉⲧⲁϩⲉⲣⲁⲧϥ	-9765
▁ⲉⲧⲃⲉⲡⲛⲟⲃⲉ	-9766
▁ⲉⲧⲉⲟⲩⲛⲧⲁϥ	-9767
▁ⲉⲧⲉⲧⲛϭⲱϣⲧ	-9768
▁ⲉⲧⲣⲉⲕⲉⲓⲣⲉ	-9769
▁ⲉⲩϣⲁⲛϫⲟⲟⲥ	-9770
▁ⲉⲩⲛⲁⲙⲟⲩⲧⲉ	-9771
▁ⲉⲩⲡⲉⲓⲣⲁⲍⲉ	-9772
▁ⲉⲩⲡⲟⲗⲉⲙⲟⲥ	-9773
▁ⲙⲁⲣⲉⲥϣⲱⲡⲉ	-9774
▁ⲙⲛⲅⲟⲙⲟⲣⲣⲁ	-9775
▁ⲙⲛⲛϩⲁⲗⲁⲧⲉ	-9776
▁ⲙⲛⲟⲩϩⲣⲟⲟⲩ	-9777
▁ⲙⲛⲡⲉϩⲓⲉⲓⲃ	-9778
▁ⲙⲛⲡⲉⲕϣⲏⲣⲉ	-9779
▁ⲙⲛⲧⲉⲕⲙⲁⲁⲩ	-9780
▁ⲙⲛⲧⲉⲥϩⲓⲙⲉ	-9781
▁ⲙⲡϩⲓⲉⲣⲉⲩⲥ	-9782
▁ⲙⲡⲉⲕⲙⲁⲁϫⲉ	-9783
▁ⲙⲡⲣⲡⲙⲉⲉⲩⲉ	-9784
▁ⲛϭⲓⲓⲟⲩⲇⲁⲥ	-9785
▁ⲛϯⲛⲁⲣϩⲟⲧⲉ	-9786
▁ⲛⲉⲡⲓⲑⲩⲙⲓⲁ	-9787
▁ⲛⲛⲉϥϩⲁⲣⲙⲁ	-9788
▁ⲛⲛⲉϥⲉⲓⲟⲧⲉ	-9789
▁ⲛⲛⲉⲕϭⲟⲗⲡⲥ	-9790
▁ⲛⲛⲉⲕⲉϩⲟⲟⲩ	-9791
▁ⲛⲛⲉⲧⲛⲥⲛⲏⲩ	-9792
▁ⲛⲛⲉⲧⲛⲯⲩⲭⲏ	-9793
▁ⲛⲛⲟⲣⲫⲁⲛⲟⲥ	-9794
▁ⲛⲟⲩⲉⲛⲧⲟⲗⲏ	-9795
▁ⲛⲟⲩⲕⲁⲣⲡⲟⲥ	-9796
▁ⲛⲟⲩⲕⲗⲟⲟⲗⲉ	-9797
▁ⲛⲟⲩⲥⲡⲉⲣⲙⲁ	-9798
▁ⲛⲥⲁⲧⲣⲁⲡⲏⲥ	-9799
▁ⲛⲧⲁⲩⲥⲃⲧⲱⲧ	-9800
▁ⲛⲧⲉϥⲧⲁⲡⲣⲟ	-9801
▁ⲛⲧⲉⲅⲁⲗⲁⲁⲇ	-9802
▁ⲛⲧⲉⲣⲟⲩϫⲱⲕ	-9803
▁ⲛⲧⲉⲧⲙⲗⲁⲁⲩ	-9804
▁ⲛⲧⲉⲧⲛⲥⲙⲟⲩ	-9805
▁ⲛⲧⲥⲁⲙⲁⲣⲓⲁ	-9806
▁ⲡⲉⲧⲉⲟⲩⲛⲧϥ	-9807
▁ⲡⲉⲧⲛⲁϫⲟⲟⲥ	-9808
▁ⲡⲉⲧⲛⲁⲟⲩⲱϣ	-9809
▁ⲡⲉⲩⲫⲣⲁⲧⲏⲥ	-9810
▁ⲡⲡⲉⲧⲟⲩⲁⲁⲃ	-9811
▁ⲥⲉⲛⲁⲧⲉⲗⲏⲗ	-9812
▁ⲧϩⲩⲡⲟⲙⲟⲛⲏ	-9813
▁ⲧⲙⲛⲧⲙⲛⲧⲣⲉ	-9814
ⲙⲛⲧⲉⲩⲥⲉⲃⲏⲥ	-9815
▁ϩⲓⲧⲛⲡϫⲟⲉⲓⲥ	-9816
▁ϩⲛⲇⲁⲙⲁⲥⲕⲟⲥ	-9817
▁ϩⲛⲛⲉⲕϩⲃⲏⲩⲉ	-9818
▁ϩⲛⲛⲉⲧⲟⲩⲁⲁⲃ	-9819
▁ϩⲛⲟⲩϣⲧⲟⲣⲧⲣ	-9820
▁ϩⲛⲧⲃⲁⲃⲩⲗⲱⲛ	-9821
▁ϩⲛⲧⲉⲑⲗⲓⲯⲓⲥ	-9822
▁ⲁϥⲁⲛⲁⲭⲱⲣⲉⲓ	-9823
▁ⲉⲛⲉϥϩⲓⲟⲟⲩⲉ	-9824
▁ⲉⲛⲉⲧⲛⲁϣⲱⲡⲉ	-9825
▁ⲉⲛⲧⲁⲡⲁⲉⲓⲱⲧ	-9826
▁ⲉⲣⲉϣⲁⲛⲧⲟⲩⲁ	-9827
▁ⲉⲧⲉⲧⲛⲉⲉⲓⲙⲉ	-9828
▁ⲉⲧⲣⲉⲩϩⲁⲣⲉϩ	-9829
▁ⲙⲁⲣⲟⲩⲟⲩⲱⲛϩ	-9830
▁ⲙⲉⲙⲫⲓⲃⲟⲥⲑⲉ	-9831
▁ⲙⲛϩⲉⲛⲑⲩⲥⲓⲁ	-9832
▁ⲙⲛⲛⲉⲑⲏⲣⲓⲟⲛ	-9833
▁ⲙⲛⲛⲉⲧⲛϣⲏⲣⲉ	-9834
▁ⲙⲛⲛⲥⲁϣⲟⲙⲛⲧ	-9835
▁ⲙⲛⲡⲕⲉⲥⲉⲉⲡⲉ	-9836
▁ⲙⲛⲧⲑⲁⲗⲁⲥⲥⲁ	-9837
▁ⲙⲛⲧⲥⲁⲙⲁⲣⲓⲁ	-9838
▁ⲙⲡⲉϥⲕⲁⲣⲡⲟⲥ	-9839
▁ⲙⲡⲉⲓⲟⲩⲟⲉⲓϣ	-9840
▁ⲙⲡⲉⲛⲧⲁϥⲙⲟⲩ	-9841
▁ⲙⲡⲉⲧⲛⲁⲛⲟⲩϥ	-9842
▁ⲛϭⲓϩⲏⲣⲱⲇⲏⲥ	-9843
▁ⲛϭⲓⲛⲉⲧϣⲓⲛⲉ	-9844
▁ⲛⲉⲓⲣⲏⲛⲓⲕⲟⲛ	-9845
▁ⲛⲍⲉⲃⲉⲇⲁⲓⲟⲥ	-9846
▁ⲛⲍⲟⲣⲟⲃⲁⲃⲉⲗ	-9847
▁ⲛⲙⲓⲱϩⲁⲛⲛⲏⲥ	-9848
▁ⲛⲛⲁⲟⲩⲉⲣⲏⲧⲉ	-9849
▁ⲛⲛⲉϥⲥⲡⲟⲧⲟⲩ	-9850
▁ⲛⲛⲉⲧⲉⲙⲉϣϣⲉ	-9851
▁ⲛⲧⲉⲡⲉⲧⲛϩⲏⲧ	-9852
▁ⲛⲧⲉⲧⲛⲧⲉⲗⲏⲗ	-9853
▁ⲛⲧⲙⲉⲧⲁⲛⲟⲓⲁ	-9854
▁ⲡⲉϫⲉⲙⲱⲩⲥⲏⲥ	-9855
▁ⲡⲉⲛⲧⲁϥⲉⲓⲣⲉ	-9856
▁ⲡⲉⲧⲡⲓⲥⲧⲉⲩⲉ	-9857
▁ⲧⲟⲓⲕⲟⲩⲙⲉⲛⲏ	-9858
ⲡⲉⲣⲓⲥⲡⲁⲥⲙⲟⲥ	-9859
▁ϩⲙⲡⲉⲓⲟⲩⲟⲉⲓϣ	-9860
▁ϩⲙⲡⲙⲉϩϣⲙⲟⲩⲛ	-9861
▁ϩⲛⲛⲕⲓⲛⲇⲩⲛⲟⲥ	-9862
▁ⲉⲕⲁⲫⲁⲣⲛⲁⲟⲩⲙ	-9863
▁ⲉⲛⲧⲁⲙⲱⲟⲩⲥⲏⲥ	-9864
▁ⲉⲡⲡⲉⲧⲛⲁⲛⲟⲩϥ	-9865
▁ⲕⲁⲧⲁⲛⲉϩⲃⲏⲩⲉ	-9866
▁ⲙⲙⲉⲗⲭⲓⲥⲉⲇⲉⲕ	-9867
▁ⲙⲛⲧⲥⲩⲛⲁⲅⲱⲅⲏ	-9868
▁ⲙⲡⲙⲩⲥⲧⲏⲣⲓⲟⲛ	-9869
▁ⲛⲁⲗⲗⲟⲫⲩⲗⲗⲟⲥ	-9870
▁ⲛⲛⲇⲁⲓⲙⲱⲛⲓⲟⲛ	-9871
▁ⲡⲉϫⲉⲓⲱⲛⲁⲑⲁⲛ	-9872
ⲣⲉϥϣⲙϣⲉⲛⲟⲩⲧⲉ	-9873
▁ⲛϭⲓⲟⲩⲁⲅⲅⲉⲗⲟⲥ	-9874
▁ⲛⲛⲉϥⲡⲉⲧⲟⲩⲁⲁⲃ	-9875
▁ⲛⲛⲉⲕⲇⲓⲕⲁⲓⲱⲙⲁ	-9876
▁ⲛⲛⲉⲧⲛⲟⲩⲉⲣⲏⲧⲉ	-9877
▁ⲛⲧⲁⲓⲭⲙⲁⲗⲱⲥⲓⲁ	-9878
▁ⲡⲉϫⲉⲓⲱϩⲁⲛⲛⲏⲥ	-9879
▁ⲉⲧϩⲙⲡⲉⲭⲣⲓⲥⲧⲟⲥ	-9880
▁ⲛϭⲓⲡⲉⲛⲧⲁⲩϫⲟⲟϥ	-9881
▁ⲡⲉⲡⲣⲉⲥⲃⲩⲧⲉⲣⲟⲥ	-9882
▁ϩⲓⲧⲙⲡⲉⲡⲣⲟⲫⲏⲧⲏⲥ	-9883
▁ⲡⲉⲑⲩⲥⲓⲁⲥⲧⲏⲣⲓⲟⲛ	-9884
▁ⲡⲉⲧⲛⲁⲡⲁⲣⲁⲇⲓⲇⲟⲩ	-9885
ⲅⲭ	-9886
ⲕⲧ	-9887
ⲗⲃ	-9888
ⲣⲥ	-9889
ⲧⲧ	-9890
ⲩⲯ	-9891
ⲭⲩ	-9892
ⲱϭ	-9893
ⲱⲅ	-9894
ⲱⲱ	-9895
ϣⲉϥ	-9896
ϣⲓⲏ	-9897
ϩⲟⲃ	-9898
ϩⲧⲙ	-9899
ϯⲗⲉ	-9900
▁ϣⲡ	-9901
▁ϫⲡ	-9902
▁ⲇⲓ	-9903
▁ⲧⲣ	-9904
▁ⲭⲁ	-9905
ⲁϩⲟ	-9906
ⲃϣⲕ	-9907
ⲃⲛⲧ	-9908
ⲅⲉⲇ	-9909
ⲅⲕⲁ	-9910
ⲅⲛⲱ	-9911
ⲏⲩⲧ	-9912
ⲓϩⲉ	-9913
ⲓⲁⲑ	-9914
ⲕⲓⲁ	-9915
ⲛⲉϣ	-9916
ⲛⲉⲍ	-9917
ⲡⲏⲗ	-9918
ⲡⲣϫ	-9919
ⲡⲱⲛ	-9920
ⲣⲁⲫ	-9921
ⲣⲏϭ	-9922
ⲣⲏⲃ	-9923
ⲥⲛⲁ	-9924
ⲥⲥⲉ	-9925
ⲧⲉⲙ	-9926
ⲧⲙⲙ	-9927
ⲧⲧⲁ	-9928
ⲧⲱⲃ	-9929
ⲩϣⲉ	-9930
ⲭⲱⲑ	-9931
ⲱⲣϩ	-9932
ϣⲙⲛⲧ	-9933
ϣⲟϣⲧ	-9934
ϥⲟⲧϥ	-9935
ϩⲁⲉⲓ	-9936
ϩⲏⲧⲕ	-9937
ϩⲓϫⲙ	-9938
ϩⲓⲕⲁ	-9939
ϩⲗⲟϭ	-9940
ϩⲧⲟⲣ	-9941
ϩⲧⲱⲣ	-9942
ϫⲉⲥⲧ	-9943
ϫⲟⲉⲥ	-9944
ϭⲗⲱϭ	-9945
▁ϣⲏⲧ	-9946
▁ϥϫⲱ	-9947
▁ϩⲁⲛ	-9948
▁ϩⲏⲡ	-9949
▁ϩⲟⲃ	-9950
▁ϯϩⲓ	-9951
▁ⲁⲥⲕ	-9952
▁ⲁⲩⲛ	-9953
▁ⲅⲁⲇ	-9954
▁ⲉϩⲏ	-9955
▁ⲉⲃⲏ	-9956
▁ⲉⲕⲣ	-9957
▁ⲉⲛϯ	-9958
▁ⲉⲛⲓ	-9959
▁ⲉⲩϫ	-9960
▁ⲕⲱϩ	-9961
▁ⲙⲏⲛ	-9962
▁ⲙⲛⲙ	-9963
▁ⲙⲫⲟ	-9964
▁ⲛϥⲓ	-9965
▁ⲛϫⲁ	-9966
▁ⲛⲉϫ	-9967
▁ⲛⲕⲩ	-9968
▁ⲛⲣⲉ	-9969
▁ⲛⲣⲙ	-9970
▁ⲛⲥϯ	-9971
▁ⲛⲱⲅ	-9972
▁ⲡⲓⲁ	-9973
▁ⲡⲣⲙ	-9974
▁ⲡⲱⲕ	-9975
▁ⲡⲱⲛ	-9976
▁ⲣⲉϥ	-9977
▁ⲥⲙⲛ	-9978
▁ⲥⲟⲛ	-9979
▁ⲥⲱⲣ	-9980
▁ⲧⲉⲡ	-9981
ⲃⲃⲓⲱ	-9982
ⲅⲁⲛⲁ	-9983
ⲇⲉⲓⲥ	-9984
ⲏⲏⲛⲉ	-9985
ⲑⲉⲧⲓ	-9986
ⲓⲱϩⲉ	-9987
ⲕⲁⲗⲓ	-9988
ⲕⲉⲟⲥ	-9989
ⲕⲗⲏⲥ	-9990
ⲕⲱⲙⲏ	-9991
ⲕⲱⲣⲕ	-9992
ⲛⲁⲓⲥ	-9993
ⲛⲉϩϥ	-9994
ⲛⲟϩⲉ	-9995
ⲝⲓⲟⲩ	-9996
ⲟϣⲟⲩ	-9997
ⲟϥⲧⲉ	-9998
ⲟⲕⲟⲧ	-9999
ⲟⲧⲡϥ	-10000
ⲟⲩⲟϭ	-10001
ⲡⲟϣⲥ	-10002
ⲡⲟϩⲉ	-10003
ⲡⲟⲗⲓ	-10004
ⲡⲩⲅⲏ	-10005
ⲡⲱⲣⲕ	-10006
ⲣϣⲱⲛ	-10007
ⲣⲁⲃⲁ	-10008
ⲣⲟⲓⲁ	-10009
ⲣⲟⲩⲥ	-10010
ⲣⲧϩⲉ	-10011
ⲥⲁϩϥ	-10012
ⲥⲁⲙⲁ	-10013
ⲥⲁⲡⲉ	-10014
ⲧⲉⲙⲡ	-10015
ⲧⲏⲗⲏ	-10016
ⲧⲏⲟⲩ	-10017
ⲧⲓⲙⲏ	-10018
ⲧⲕⲛⲁ	-10019
ⲧⲕⲱⲧ	-10020
ⲧⲟϭⲥ	-10021
ⲧⲥⲉⲓ	-10022
ⲧⲥⲟϥ	-10023
ⲭⲉⲣⲉ	-10024
.....	-10025
ϣⲁⲓⲣⲉ	-10026
ϣⲙⲏⲛⲉ	-10027
ϣⲧϩⲏⲧ	-10028
ϩⲟⲟⲗⲉ	-10029
ϩⲣⲏⲩⲉ	-10030
ϫⲁⲥⲧϥ	-10031
ϫⲁⲥⲧⲕ	-10032
ϭⲓⲛⲟⲩ	-10033
ϭⲟⲣⲧⲉ	-10034
▁ϣⲁϥϯ	-10035
▁ϩⲁⲣⲓ	-10036
▁ϩⲉⲛⲧ	-10037
▁ϩⲙⲡⲓ	-10038
▁ϩⲛⲛⲧ	-10039
▁ϫⲉⲁⲣ	-10040
▁ϫⲉⲕⲉ	-10041
▁ϫⲱϩⲙ	-10042
▁ϭⲃⲃⲉ	-10043
▁ⲁⲛⲉⲧ	-10044
▁ⲁⲛⲕⲱ	-10045
▁ⲁⲛⲛⲁ	-10046
▁ⲁⲡⲣⲏ	-10047
▁ⲉϣⲱⲡ	-10048
▁ⲉϥⲉⲣ	-10049
▁ⲉⲃⲱⲗ	-10050
▁ⲉⲓⲕⲏ	-10051
▁ⲉⲓⲕⲱ	-10052
▁ⲉⲕⲧⲉ	-10053
▁ⲉⲛϫⲱ	-10054
▁ⲉⲛⲏⲓ	-10055
▁ⲉⲛⲧⲉ	-10056
▁ⲉⲣⲏⲧ	-10057
▁ⲉⲧⲁⲛ	-10058
▁ⲉⲧⲧⲟ	-10059
▁ⲉⲩⲉϯ	-10060
▁ⲉⲩⲉⲓ	-10061
▁ⲉⲩⲕⲱ	-10062
▁ⲉⲩⲙⲟ	-10063
▁ⲏⲥⲁⲩ	-10064
▁ⲙⲕⲁϩ	-10065
▁ⲙⲙⲁⲣ	-10066
▁ⲙⲙⲗϩ	-10067
▁ⲙⲛⲓⲉ	-10068
▁ⲙⲡⲟⲗ	-10069
▁ⲙⲫⲏⲧ	-10070
▁ⲛϥϭⲱ	-10071
▁ⲛϥⲱϣ	-10072
▁ⲛϩⲉⲃ	-10073
▁ⲛϭⲣⲟ	-10074
▁ⲛⲁⲉⲣ	-10075
▁ⲛⲁⲕⲁ	-10076
▁ⲛⲁⲕⲱ	-10077
▁ⲛⲅⲉⲣ	-10078
▁ⲛⲉⲗⲓ	-10079
▁ⲛⲉⲧⲁ	-10080
▁ⲛⲉⲧⲓ	-10081
▁ⲛⲓⲁⲥ	-10082
▁ⲛⲕⲁϩ	-10083
▁ⲛⲗⲱⲧ	-10084
▁ⲛⲛⲁϩ	-10085
▁ⲛⲛⲣⲟ	-10086
▁ⲛⲣⲱⲕ	-10087
▁ⲛⲥⲁϩ	-10088
▁ⲛⲥⲉⲓ	-10089
▁ⲛⲥⲓⲫ	-10090
▁ⲛⲧϩⲏ	-10091
▁ⲛⲧⲏⲩ	-10092
▁ⲟⲩϣⲓ	-10093
▁ⲟⲩⲁϣ	-10094
▁ⲡϩⲏⲩ	-10095
▁ⲡϩⲟϥ	-10096
▁ⲡⲁⲏⲓ	-10097
▁ⲡⲁⲛⲁ	-10098
▁ⲡⲉⲓⲁ	-10099
▁ⲡⲉⲧϥ	-10100
▁ⲡⲛⲁⲩ	-10101
▁ⲥⲉϫⲱ	-10102
▁ⲥⲛⲏⲩ	-10103
▁ⲥⲛⲟϥ	-10104
▁ⲥⲱⲧⲡ	-10105
▁ⲧⲁⲓⲟ	-10106
▁ⲧⲁⲙⲉ	-10107
▁ⲧⲁⲩⲟ	-10108
▁ⲧⲙϩⲉ	-10109
▁ⲧⲱϭⲉ	-10110
ⲁⲧϩⲏⲧ	-10111
ⲃⲏⲑⲣⲁ	-10112
ⲅⲓⲣⲟⲥ	-10113
ⲅⲛⲱⲙⲏ	-10114
ⲇⲟⲕⲓⲁ	-10115
ⲇⲟⲥⲓⲥ	-10116
ⲉⲓⲟⲡⲉ	-10117
ⲑⲁⲙⲛⲁ	-10118
ⲑⲉⲥⲓⲥ	-10119
ⲑⲓⲛⲟⲛ	-10120
ⲑⲟⲛⲉⲓ	-10121
ⲑⲩⲣⲱⲛ	-10122
ⲕⲁⲓⲟⲛ	-10123
ⲗⲃⲟⲩⲉ	-10124
ⲗⲟⲅⲟⲥ	-10125
ⲙⲟⲣⲟⲩ	-10126
ⲛⲁⲥⲡⲉ	-10127
ⲛⲉⲟⲟⲩ	-10128
ⲛⲧⲁⲕϥ	-10129
ⲛⲧⲁⲩⲥ	-10130
ⲟϫⲛⲟⲩ	-10131
ⲟⲟⲣⲟⲩ	-10132
ⲟⲣⲛⲟⲥ	-10133
ⲟⲩⲱⲛⲉ	-10134
ⲟⲩⲱⲛⲥ	-10135
ⲡϫⲟⲉⲓ	-10136
ⲡⲁϩⲧⲥ	-10137
ⲡⲉϥϩⲟ	-10138
ⲡⲉⲓⲙⲁ	-10139
ⲡⲉⲣⲓⲍ	-10140
ⲡⲟⲛⲇⲏ	-10141
ⲡⲟⲣⲉⲓ	-10142
ⲡⲣⲏⲧⲉ	-10143
ⲣϩⲛⲁϥ	-10144
ⲣϩⲧⲏϥ	-10145
ⲣⲁⲓⲁⲥ	-10146
ⲣⲓϩⲁⲙ	-10147
ⲥⲁϣⲁⲓ	-10148
ⲥⲁⲓⲇⲁ	-10149
ⲥⲁⲛⲟⲥ	-10150
ⲥⲓⲙⲱⲛ	-10151
ⲥⲛⲁⲩϩ	-10152
ⲥⲩⲛⲧⲉ	-10153
ⲧⲁⲕⲟⲕ	-10154
ⲧⲁⲙⲓⲁ	-10155
ⲧⲁⲥⲙⲏ	-10156
ⲧⲓⲕⲟⲥ	-10157
ⲧⲱⲱⲙⲉ	-10158
ⲩⲯⲥⲏⲥ	-10159
ⲫⲟⲣⲙⲏ	-10160
ϣⲛϩⲧⲏⲓ	-10161
ϩⲟⲡⲗⲓⲁ	-10162
ϫⲁⲥⲧⲟⲩ	-10163
ϫⲓϫⲣⲟⲡ	-10164
ϫⲙⲡⲕⲁϩ	-10165
ϭⲟⲗⲡⲟⲩ	-10166
ϯⲗⲁⲧⲏⲥ	-10167
ϯⲛⲁⲁⲕⲉ	-10168
ϯⲟⲩⲃⲏⲕ	-10169
▁ϣⲁⲛⲉϥ	-10170
▁ϣⲁⲛⲧⲛ	-10171
▁ϥϣⲓⲛⲉ	-10172
▁ϥⲓⲧⲟⲩ	-10173
▁ϥⲛⲁϫⲱ	-10174
▁ϩⲁⲛⲉⲕ	-10175
▁ϩⲁⲡⲣⲏ	-10176
▁ϩⲁⲧⲏⲓ	-10177
▁ϩⲁⲧⲛⲛ	-10178
▁ϩⲓϩⲓⲏ	-10179
▁ϩⲓⲟⲩⲉ	-10180
▁ϩⲛⲛⲕⲉ	-10181
▁ϩⲛⲧⲃⲱ	-10182
▁ϩⲛⲧⲕⲉ	-10183
▁ϩⲟⲗⲱⲥ	-10184
▁ϩⲟⲙⲛⲧ	-10185
▁ϩⲣⲁⲁⲃ	-10186
▁ϫⲉϫⲓⲛ	-10187
▁ϫⲉϯⲙⲉ	-10188
▁ϫⲉⲁϩⲉ	-10189
▁ϫⲉⲁⲓϯ	-10190
▁ϫⲉⲁⲛⲁ	-10191
▁ϫⲉⲙⲁⲣ	-10192
▁ϫⲉⲡⲏⲓ	-10193
▁ϫⲉⲧⲟⲩ	-10194
▁ϫⲓⲛⲉⲓ	-10195
▁ϯⲛⲁⲉⲓ	-10196
▁ϯⲣⲁϣⲉ	-10197
▁ϯⲥⲱⲧⲙ	-10198
▁ⲁϥϩⲕⲟ	-10199
▁ⲁϥⲕⲓⲙ	-10200
▁ⲁϥⲥⲉϩ	-10201
▁ⲁⲗⲱⲧⲛ	-10202
▁ⲁⲙⲛⲧⲉ	-10203
▁ⲁⲣⲭⲉⲓ	-10204
▁ⲁⲥϩⲱⲛ	-10205
▁ⲁⲥⲙⲟⲩ	-10206
▁ⲁⲩϫⲡⲟ	-10207
▁ⲁⲩⲁⲗⲉ	-10208
▁ⲁⲩⲃⲱⲗ	-10209
▁ⲁⲩⲟⲩⲱ	-10210
▁ⲁⲩⲡⲱϩ	-10211
▁ⲉϣⲱⲱⲧ	-10212
▁ⲉϥⲛⲉϫ	-10213
▁ⲉϥⲧⲣⲉ	-10214
▁ⲉⲁϥϩⲉ	-10215
▁ⲉⲁⲛⲟⲛ	-10216
▁ⲉⲁⲣⲙⲁ	-10217
▁ⲉⲕⲁⲁϥ	-10218
▁ⲉⲗⲓⲥⲁ	-10219
▁ⲉⲙⲉϣⲧ	-10220
▁ⲉⲛⲁⲁϥ	-10221
▁ⲉⲛⲟⲃⲉ	-10222
▁ⲉⲥⲙⲟⲩ	-10223
▁ⲉⲥⲱⲃⲉ	-10224
▁ⲉⲧϩⲁⲏ	-10225
▁ⲉⲧϫⲏⲩ	-10226
▁ⲉⲧⲁⲁⲩ	-10227
▁ⲉⲧⲁⲕⲉ	-10228
▁ⲉⲧⲁⲗⲟ	-10229
▁ⲉⲧⲉⲣⲁ	-10230
▁ⲉⲧⲙⲟⲩ	-10231
▁ⲉⲧⲟⲃⲉ	-10232
▁ⲉⲧⲣⲁⲓ	-10233
▁ⲉⲧⲣⲏⲧ	-10234
▁ⲉⲧⲱⲙⲧ	-10235
▁ⲉⲩϣⲱⲗ	-10236
▁ⲉⲩϫⲡⲟ	-10237
▁ⲉⲩⲕⲱⲧ	-10238
▁ⲉⲩⲙⲟⲩ	-10239
▁ⲉⲩⲛⲏϫ	-10240
▁ⲕⲛⲁϩⲉ	-10241
▁ⲕⲛⲁⲕⲱ	-10242
▁ⲙⲁⲣⲑⲁ	-10243
▁ⲙⲛⲡⲱⲧ	-10244
▁ⲙⲛⲧⲡⲉ	-10245
▁ⲙⲡϩⲣⲃ	-10246
▁ⲙⲡϭⲟⲗ	-10247
▁ⲙⲡⲁⲧⲓ	-10248
▁ⲙⲡⲁⲧⲕ	-10249
▁ⲙⲡⲉⲧϯ	-10250
▁ⲙⲡⲗⲁⲥ	-10251
▁ⲙⲡⲣϫⲓ	-10252
▁ⲙⲡⲧⲏⲩ	-10253
▁ⲛϣⲁⲣⲉ	-10254
▁ⲛϩⲏⲃⲉ	-10255
▁ⲛϩⲏⲗⲓ	-10256
▁ⲛϩⲧⲏⲓ	-10257
▁ⲛϭⲓⲓⲟ	-10258
▁ⲛϭⲓⲧⲥ	-10259
▁ⲛϯϩⲁⲡ	-10260
▁ⲛⲁⲛⲟⲕ	-10261
▁ⲛⲅⲡⲱⲧ	-10262
▁ⲛⲉϣϣⲉ	-10263
▁ⲛⲉϣⲱⲧ	-10264
▁ⲛⲉϫⲡⲟ	-10265
▁ⲛⲉⲓϫⲱ	-10266
▁ⲛⲉⲓⲉⲣ	-10267
▁ⲛⲉⲙⲁⲥ	-10268
▁ⲛⲉⲛⲁⲕ	-10269
▁ⲛⲉⲣⲏⲧ	-10270
▁ⲛⲙⲛⲉϥ	-10271
▁ⲛⲙⲡⲉⲕ	-10272
▁ⲛⲛϭⲓϫ	-10273
▁ⲛⲛϭⲱⲃ	-10274
▁ⲛⲛⲉⲧⲣ	-10275
▁ⲛⲛⲉⲩϣ	-10276
▁ⲛⲟⲇⲟⲗ	-10277
▁ⲛⲟⲩⲙⲉ	-10278
▁ⲛⲣⲁⲧϥ	-10279
▁ⲛⲥⲉϫⲱ	-10280
▁ⲛⲥⲛⲧⲉ	-10281
▁ⲛⲥⲟⲧⲉ	-10282
▁ⲛⲧϩⲁⲏ	-10283
▁ⲛⲧⲁϫⲓ	-10284
▁ⲛⲧⲁϫⲱ	-10285
▁ⲛⲧⲉⲓⲉ	-10286
▁ⲛⲧⲉⲩⲥ	-10287
▁ⲛⲧⲕⲟⲩ	-10288
▁ⲛⲧⲱⲃⲉ	-10289
▁ⲛⲧⲱⲇⲏ	-10290
▁ⲟⲛⲧϩⲉ	-10291
▁ⲟⲩⲃⲏⲛ	-10292
▁ⲟⲩⲡⲁⲣ	-10293
▁ⲟⲩⲱϣⲥ	-10294
▁ⲟⲩⲱϣⲧ	-10295
▁ⲡϩⲟⲩⲛ	-10296
▁ⲡⲁⲣⲣⲟ	-10297
▁ⲡⲁⲩⲗⲉ	-10298
▁ⲡⲉⲕϩⲟ	-10299
▁ⲡⲉⲣⲏⲧ	-10300
▁ⲡⲉⲧϥⲓ	-10301
▁ⲡⲙⲁⲥⲉ	-10302
▁ⲡⲛⲟⲩⲛ	-10303
▁ⲡⲥⲃⲃⲉ	-10304
▁ⲡⲱⲱⲛⲉ	-10305
▁ⲥⲙⲓⲛⲉ	-10306
▁ⲥⲟⲩⲧⲛ	-10307
▁ⲧⲟⲗⲙⲁ	-10308
ⲁⲡⲁⲣⲛⲁ	-10309
ⲅⲓⲥⲙⲟⲥ	-10310
ⲇⲉⲓⲥⲟⲥ	-10311
ⲑⲁⲛⲁⲏⲗ	-10312
ⲓⲁⲥⲧⲏⲥ	-10313
ⲓⲕⲟⲟⲩⲉ	-10314
ⲓⲥϩⲓⲙⲉ	-10315
ⲓⲥⲙⲁⲏⲗ	-10316
ⲓⲥⲟⲟⲩⲛ	-10317
ⲕⲟⲛⲥⲟⲩ	-10318
ⲕⲣⲓⲥⲓⲥ	-10319
ⲗⲉⲕⲧⲱⲣ	-10320
ⲙⲉⲣⲓⲧⲕ	-10321
ⲙⲉⲣⲓⲧⲛ	-10322
ⲙⲙⲁⲧⲟⲓ	-10323
ⲙⲛⲧⲣⲉϥ	-10324
ⲛⲉⲥⲛⲏⲩ	-10325
ⲛⲟⲟⲩⲥⲉ	-10326
ⲝⲱⲣⲓⲍⲉ	-10327
ⲟⲗⲟⲕⲟⲧ	-10328
ⲡⲉⲓϩⲱⲃ	-10329
ⲡⲉⲛⲧⲁϥ	-10330
ⲡⲟⲣϫⲟⲩ	-10331
ⲡⲣⲟⲕⲟⲡ	-10332
ⲣⲁⲕⲧⲟⲩ	-10333
ⲣⲁⲣⲭⲱⲛ	-10334
ⲣⲓⲕⲉⲫⲁ	-10335
ⲣⲟⲩⲟⲓⲛ	-10336
ⲥⲁⲩⲗⲟⲥ	-10337
ⲥⲏⲙⲁⲛⲉ	-10338
ⲥⲕⲟⲣⲕⲣ	-10339
ⲥⲟⲧⲙⲉϥ	-10340
ⲥⲟⲩⲟⲩⲁ	-10341
ⲧⲁϫⲣⲟⲓ	-10342
ⲧⲉⲩⲛⲟⲩ	-10343
ⲧⲓⲁⲛⲟⲥ	-10344
ⲧⲟⲙⲥⲟⲩ	-10345
ⲧⲥⲁⲃⲟⲛ	-10346
ⲩϩⲁⲓⲟⲥ	-10347
.......	-10348
ϣⲧⲣⲧⲱⲣⲧ	-10349
ϩⲁⲣⲡⲁⲍⲉ	-10350
ϩⲉⲛⲕⲟⲩⲓ	-10351
ϩⲓⲕⲁⲛⲟⲥ	-10352
▁ϣⲁϩⲟⲩⲛ	-10353
▁ϣⲁⲣⲉⲛⲉ	-10354
▁ϩⲁⲓⲃⲉⲥ	-10355
▁ϩⲁⲧⲁϩⲏ	-10356
▁ϩⲙⲡϣⲏⲓ	-10357
▁ϩⲛϩⲉⲛⲁ	-10358
▁ϩⲛⲛϭⲓϫ	-10359
▁ϩⲛⲛⲉⲕⲁ	-10360
▁ϩⲛⲧⲉⲓⲉ	-10361
▁ϫⲉϣⲗⲏⲗ	-10362
▁ϫⲉⲁϥⲉⲓ	-10363
▁ϫⲉⲁⲩϥⲓ	-10364
▁ϫⲉⲙⲡⲱⲣ	-10365
▁ϫⲉⲛⲁⲙⲉ	-10366
▁ϫⲉⲛⲛⲉⲛ	-10367
▁ϫⲉⲛⲛⲉⲥ	-10368
▁ϫⲉⲛⲛⲉⲧ	-10369
▁ϫⲉⲡⲉⲧⲛ	-10370
▁ϯⲙⲉⲉⲩⲉ	-10371
▁ⲁϥϩⲟⲡϥ	-10372
▁ⲁⲓϣⲗⲏⲗ	-10373
▁ⲁⲓϫⲓⲧϥ	-10374
▁ⲁⲓⲣⲁϣⲉ	-10375
▁ⲁⲕⲕⲁⲁⲧ	-10376
▁ⲁⲛⲉⲓⲙⲉ	-10377
▁ⲁⲡϣⲁϫⲉ	-10378
▁ⲁⲡϣⲏⲣⲉ	-10379
▁ⲁⲥⲡⲁⲍⲉ	-10380
▁ⲁⲩϥⲓⲧϥ	-10381
▁ⲁⲩⲉⲛⲧϥ	-10382
▁ⲁⲩⲕⲱϩⲧ	-10383
▁ⲁⲩⲝⲁⲛⲉ	-10384
▁ⲁⲩⲡⲱϣⲥ	-10385
▁ⲁⲩⲥⲙⲟⲩ	-10386
▁ⲁⲩⲥⲱⲃⲉ	-10387
▁ⲁⲩⲧⲱⲣⲡ	-10388
▁ⲉϥⲙⲡϣⲁ	-10389
▁ⲉϩⲙⲟⲟⲥ	-10390
▁ⲉϫⲓⲧⲟⲩ	-10391
▁ⲉϫⲛⲛⲉⲥ	-10392
▁ⲉϫⲛⲟⲩϥ	-10393
▁ⲉϯⲥⲱⲧⲙ	-10394
▁ⲉⲁϥⲙⲟⲩ	-10395
▁ⲉⲕϣⲁⲛⲣ	-10396
▁ⲉⲕⲉⲃⲱⲕ	-10397
▁ⲉⲗⲓⲟⲩⲥ	-10398
▁ⲉⲙⲡⲁⲧⲕ	-10399
▁ⲉⲛⲉⲥⲱϥ	-10400
▁ⲉⲛⲕⲁⲧⲁ	-10401
▁ⲉⲛⲕⲟⲧⲕ	-10402
▁ⲉⲡϩⲓⲥⲉ	-10403
▁ⲉⲡⲃⲏⲙⲁ	-10404
▁ⲉⲡⲉⲙⲛⲧ	-10405
▁ⲉⲣϣⲁⲛⲧ	-10406
▁ⲉⲣⲉⲡⲉⲕ	-10407
▁ⲉⲣⲉⲡⲉⲛ	-10408
▁ⲉⲣⲟⲁⲩⲱ	-10409
▁ⲉⲥϫⲟⲥⲉ	-10410
▁ⲉⲧⲉⲡⲱϥ	-10411
▁ⲉⲧⲉⲧⲛⲣ	-10412
▁ⲉⲩϫⲟⲉⲓ	-10413
▁ⲉⲩϫⲟⲥⲉ	-10414
▁ⲉⲩⲕⲁⲕⲉ	-10415
▁ⲉⲩⲗⲁⲁⲩ	-10416
▁ⲉⲩⲗⲁⲟⲥ	-10417
▁ⲉⲩⲙⲓϣⲉ	-10418
▁ⲉⲩⲟⲩⲱϣ	-10419
▁ⲕⲁⲓⲡⲉⲣ	-10420
▁ⲙⲉⲣⲓⲧϥ	-10421
▁ⲙⲙⲟⲕϩⲥ	-10422
▁ⲙⲙⲟⲥⲧⲉ	-10423
▁ⲙⲙⲟⲩⲛⲅ	-10424
▁ⲙⲛϩⲉⲛⲁ	-10425
▁ⲙⲛⲡϩⲁⲡ	-10426
▁ⲙⲛⲧⲉⲧⲛ	-10427
▁ⲙⲡⲉϯⲛⲁ	-10428
▁ⲙⲡⲉⲁⲩⲱ	-10429
▁ⲙⲡⲓⲙⲟⲩ	-10430
▁ⲙⲡⲟⲩϭⲛ	-10431
▁ⲙⲡⲣⲡⲱⲧ	-10432
▁ⲛϣⲟϫⲛⲉ	-10433
▁ⲛϥϣⲓⲛⲉ	-10434
▁ⲛϥⲛⲁϫⲓ	-10435
▁ⲛϩⲁⲙⲱⲥ	-10436
▁ⲛϭⲓⲧⲉϥ	-10437
▁ⲛϭⲟⲓⲗⲉ	-10438
▁ⲛⲁϩⲣⲁⲕ	-10439
▁ⲛⲁⲕⲉⲉⲥ	-10440
▁ⲛⲁⲭⲟⲩⲥ	-10441
▁ⲛⲅϣⲙϣⲉ	-10442
▁ⲛⲅϭⲱϣⲧ	-10443
▁ⲛⲅⲁⲃⲁⲁ	-10444
▁ⲛⲅⲉⲓⲙⲉ	-10445
▁ⲛⲅⲕⲟⲧⲕ	-10446
▁ⲛⲅⲥϩⲁⲓ	-10447
▁ⲛⲅⲧⲁⲗⲟ	-10448
▁ⲛⲉⲕϩⲁⲡ	-10449
▁ⲛⲉⲕϭⲓϫ	-10450
▁ⲛⲉⲧϥϫⲱ	-10451
▁ⲛⲉⲧⲉⲟⲩ	-10452
▁ⲛⲉⲩⲛⲁⲣ	-10453
▁ⲛⲉⲯⲩⲭⲏ	-10454
▁ⲛⲓⲱⲛⲁⲥ	-10455
▁ⲛⲗⲁⲃⲁⲛ	-10456
▁ⲛⲙⲛⲉⲧⲛ	-10457
▁ⲛⲙⲡⲕⲁϩ	-10458
▁ⲛⲛⲁⲓⲱⲛ	-10459
▁ⲛⲛⲉⲧϩⲙ	-10460
▁ⲛⲛⲟⲉⲓⲧ	-10461
▁ⲛⲟⲉⲓⲗⲉ	-10462
▁ⲛⲟⲩⲉⲓⲱ	-10463
▁ⲛⲟⲩⲥⲟϭ	-10464
▁ⲛⲟⲩⲧⲏⲩ	-10465
▁ⲛⲟⲩⲱⲃϣ	-10466
▁ⲛⲥⲁⲛⲁⲓ	-10467
▁ⲛⲥⲁⲛⲓⲙ	-10468
▁ⲛⲥⲁⲡⲉⲧ	-10469
▁ⲛⲥⲁⲡⲉⲩ	-10470
▁ⲛⲥⲟⲫⲓⲁ	-10471
▁ⲛⲧⲁϥϫⲉ	-10472
▁ⲛⲧⲁⲣⲭⲏ	-10473
▁ⲛⲧⲉϩⲣⲁ	-10474
▁ⲛⲧⲉⲛⲁⲩ	-10475
▁ⲛⲧⲉⲡⲣⲱ	-10476
▁ⲛⲧⲙⲛⲧⲁ	-10477
▁ⲛⲧⲥⲛⲧⲉ	-10478
▁ⲛⲭⲁⲗⲉⲃ	-10479
▁ⲟⲩϣⲃⲏⲣ	-10480
▁ⲟⲩⲗⲩⲡⲏ	-10481
▁ⲟⲩⲙⲕⲁϩ	-10482
▁ⲟⲩⲛⲧⲁⲕ	-10483
▁ⲟⲩⲟⲛϩϥ	-10484
▁ⲟⲩⲥⲁⲃⲉ	-10485
▁ⲟⲩⲥⲏϥⲉ	-10486
▁ⲡϫⲱⲱⲣⲉ	-10487
▁ⲡⲉϩⲙⲟⲧ	-10488
▁ⲡⲉⲧϥⲛⲁ	-10489
▁ⲡⲉⲧⲛⲁⲣ	-10490
▁ⲡⲉⲩϩⲏⲧ	-10491
▁ⲡⲟⲩⲛⲟϥ	-10492
▁ⲡⲧⲁϫⲣⲟ	-10493
▁ⲣϣⲡⲏⲣⲉ	-10494
▁ⲧⲁϣⲁϫⲉ	-10495
▁ⲧⲁⲩⲟⲟⲩ	-10496
▁ⲧⲃⲃⲟⲟⲩ	-10497
▁ⲧⲉⲕϭⲓϫ	-10498
▁ⲧⲉⲛⲧⲁϥ	-10499
▁ⲧⲕⲁⲕⲓⲁ	-10500
▁ⲧⲙⲛⲧⲛⲁ	-10501
▁ⲧⲛⲟⲩⲛⲉ	-10502
▁ⲧⲥⲩⲣⲓⲁ	-10503
ⲁⲣⲭⲱⲛⲧⲁ	-10504
ⲃⲉⲥⲁⲗⲱⲙ	-10505
ⲗⲉⲓⲧⲟⲩⲣ	-10506
ⲙⲉⲥⲧⲱⲟⲩ	-10507
ⲙⲛⲧⲛⲟⲩϫ	-10508
ⲛⲇⲣⲓⲧⲏⲥ	-10509
ⲛⲉⲕϣⲁϫⲉ	-10510
ⲛⲟⲙⲓⲕⲟⲥ	-10511
ⲡⲓⲧⲓⲙⲓⲁ	-10512
ⲡⲟⲗⲟⲅⲓⲁ	-10513
ⲥϩⲁⲓⲥⲟⲩ	-10514
ⲥⲁⲛⲟⲩϣⲧ	-10515
ⲧϣⲉⲗⲉⲉⲧ	-10516
ⲧⲉⲕⲙⲁⲁⲩ	-10517
ⲧⲟⲓⲭⲓⲟⲛ	-10518
ⲧⲥⲁⲃⲟⲟⲩ	-10519
ⲩⲙⲃⲏⲑⲣⲁ	-10520
ⲫⲟⲓⲛⲓⲕⲏ	-10521
ⲫⲩⲗⲟⲟⲩⲉ	-10522
ⲭⲁⲣⲓⲥⲙⲁ	-10523
ϭⲓⲛⲟⲩⲟⲟⲙ	-10524
▁ϣⲁⲛⲧⲓⲉⲓ	-10525
▁ϣⲁⲡⲉⲓⲱⲧ	-10526
▁ϣⲁⲣⲟⲩϩⲉ	-10527
▁ϩⲏⲣⲱⲇⲏⲥ	-10528
▁ϩⲓϫⲛⲛⲉⲩ	-10529
▁ϩⲓⲡϫⲟⲉⲓ	-10530
▁ϩⲙⲡⲉϥϩⲟ	-10531
▁ϩⲙⲡⲉⲥⲙⲁ	-10532
▁ϩⲙⲡⲧⲁⲕⲟ	-10533
▁ϩⲛⲓⲟⲩⲇⲁ	-10534
▁ϩⲛⲛϣⲁϫⲉ	-10535
▁ϩⲛⲥⲁⲟⲩⲗ	-10536
▁ϩⲛⲥⲏⲉⲓⲣ	-10537
▁ϩⲛⲧⲉⲕⲙⲉ	-10538
▁ϫⲉϯⲥⲟⲡⲥ	-10539
▁ϫⲉⲡϣⲁϫⲉ	-10540
▁ϫⲉⲡⲗⲁⲟⲥ	-10541
▁ϫⲉⲣⲁⲥⲧⲉ	-10542
▁ϫⲉⲥⲁϩⲱⲕ	-10543
▁ϫⲉⲥⲓⲙⲱⲛ	-10544
▁ϫⲉⲥⲱⲟⲩϩ	-10545
▁ϫⲓⲛϣⲟⲣⲡ	-10546
▁ϭⲙⲡϣⲓⲛⲉ	-10547
▁ϯⲛⲁϫⲓⲥⲉ	-10548
▁ⲁϥⲁⲓⲧⲉⲓ	-10549
▁ⲁϥⲉⲓⲱⲣⲙ	-10550
▁ⲁϥⲛⲟⲩϩⲙ	-10551
▁ⲁϥⲥⲙⲓⲛⲉ	-10552
▁ⲁϥⲧⲁⲗⲟϥ	-10553
▁ⲁⲓⲙⲉⲉⲩⲉ	-10554
▁ⲁⲓⲣϩⲟⲧⲉ	-10555
▁ⲁⲓⲣⲛⲟⲃⲉ	-10556
▁ⲁⲛⲉⲥⲛⲏⲩ	-10557
▁ⲁⲡⲉⲧⲣⲟⲥ	-10558
▁ⲁⲩϣⲟⲟⲩⲉ	-10559
▁ⲁⲩϩⲓⲱⲛⲉ	-10560
▁ⲁⲩϫⲓⲧⲟⲩ	-10561
▁ⲁⲩⲑⲃⲃⲓⲟ	-10562
▁ⲁⲩⲙⲉⲉⲩⲉ	-10563
▁ⲁⲩⲟⲩⲱⲛϩ	-10564
▁ⲁⲩⲡⲉⲓⲑⲉ	-10565
▁ⲁⲩⲥⲟⲃⲧⲉ	-10566
▁ⲁⲭⲓⲙⲁⲁⲥ	-10567
▁ⲇⲉⲃⲃⲱⲣⲁ	-10568
▁ⲇⲓⲁⲑⲏⲕⲏ	-10569
▁ⲉϣⲡϩⲓⲥⲉ	-10570
▁ⲉϥϩⲁⲣⲉϩ	-10571
▁ⲉϥϭⲙϭⲟⲙ	-10572
▁ⲉϫⲛⲛⲧⲟϣ	-10573
▁ⲉϫⲛⲡⲕⲁϩ	-10574
▁ⲉϯⲛⲁⲃⲱⲕ	-10575
▁ⲉⲁϥϣⲱⲡⲉ	-10576
▁ⲉⲃⲁⲓⲑⲏⲗ	-10577
▁ⲉⲕϣⲁⲛⲉⲓ	-10578
▁ⲉⲕⲉϣⲱⲡⲉ	-10579
▁ⲉⲝⲉⲥⲧⲉⲓ	-10580
▁ⲉⲡⲁⲥⲟⲡⲥ	-10581
▁ⲉⲡⲅⲉⲛⲟⲥ	-10582
▁ⲉⲡⲉϣⲗⲏⲗ	-10583
▁ⲉⲡⲉⲥϩⲁⲓ	-10584
▁ⲉⲣⲉⲟⲩⲟⲛ	-10585
▁ⲉⲧϥⲉⲓⲣⲉ	-10586
▁ⲉⲧϩⲓϫⲱϥ	-10587
▁ⲉⲧϩⲙⲡⲉϥ	-10588
▁ⲉⲧϩⲛⲧⲡⲉ	-10589
▁ⲉⲧⲁⲕⲟⲟⲩ	-10590
▁ⲉⲧⲃⲉϫⲉⲁ	-10591
▁ⲉⲧⲉϥϩⲓⲏ	-10592
▁ⲉⲧⲕⲉⲓⲣⲉ	-10593
▁ⲉⲧⲙⲟⲟⲩⲧ	-10594
▁ⲉⲧⲛⲁϫⲱϩ	-10595
▁ⲉⲧⲧⲱⲟⲩⲛ	-10596
▁ⲉⲩϩⲁⲣⲉϩ	-10597
▁ⲉⲩⲑⲗⲓⲃⲉ	-10598
▁ⲉⲩⲥⲃⲧⲱⲧ	-10599
▁ⲗⲁⲍⲁⲣⲟⲥ	-10600
▁ⲙⲁⲣⲉⲧⲉⲕ	-10601
▁ⲙⲁⲣⲛⲡⲱⲧ	-10602
▁ⲙⲁⲣⲟⲩⲉⲓ	-10603
▁ⲙⲙⲙⲟⲁⲩⲱ	-10604
▁ⲙⲛⲕⲉⲟⲩⲁ	-10605
▁ⲙⲛⲛⲉⲩⲙⲁ	-10606
▁ⲙⲛⲡⲉⲧⲛⲁ	-10607
▁ⲙⲛⲥⲁⲗⲙⲁ	-10608
▁ⲙⲛⲥⲁⲟⲩⲗ	-10609
▁ⲙⲛⲥⲓⲇⲱⲛ	-10610
▁ⲙⲡⲉϥⲛⲁⲩ	-10611
▁ⲙⲡⲉⲓϩⲱⲃ	-10612
▁ⲙⲡⲉⲛⲙⲧⲟ	-10613
▁ⲙⲡⲣϣⲗⲁϩ	-10614
▁ⲙⲡⲣⲉⲙⲏⲧ	-10615
▁ⲙⲡⲥⲉⲉⲡⲉ	-10616
▁ⲙⲡⲥⲟⲫⲟⲥ	-10617
▁ⲛϥϩⲁⲣⲉϩ	-10618
▁ⲛϥⲙⲟⲟϣⲉ	-10619
▁ⲛϩⲟⲉⲓⲧⲉ	-10620
▁ⲛⲁϩⲁⲣⲉϩ	-10621
▁ⲛⲁⲟⲩⲱϣϥ	-10622
▁ⲛⲁⲭⲓⲕⲁⲙ	-10623
▁ⲛⲃⲁⲗϩⲏⲧ	-10624
▁ⲛⲉⲧϣⲓⲛⲉ	-10625
▁ⲛⲉⲧⲉⲛⲥⲉ	-10626
▁ⲛⲉⲧⲕⲱⲧⲉ	-10627
▁ⲛⲓⲉⲫⲑⲁⲉ	-10628
▁ⲛⲕⲟⲓⲛⲱⲛ	-10629
▁ⲛⲕⲟⲕⲕⲟⲥ	-10630
▁ⲛⲕⲣⲓⲧⲏⲥ	-10631
▁ⲛⲙⲓⲁⲕⲱⲃ	-10632
▁ⲛⲙⲡⲉⲧⲣⲁ	-10633
▁ⲛⲛⲉⲛⲧⲁⲓ	-10634
▁ⲛⲛⲟⲉⲙⲓⲛ	-10635
▁ⲛⲛⲣⲉϥϫⲓ	-10636
▁ⲛⲟⲩⲉⲃⲓⲱ	-10637
▁ⲛⲟⲩⲓⲉⲣⲟ	-10638
▁ⲛⲟⲩⲛⲟⲩⲃ	-10639
▁ⲛⲟⲩⲡⲏⲅⲏ	-10640
▁ⲛⲟⲩⲥⲟⲃⲧ	-10641
▁ⲛⲥⲉⲉⲓⲙⲉ	-10642
▁ⲛⲧⲁⲡⲣⲣⲟ	-10643
▁ⲛⲧⲉⲡⲗⲁⲝ	-10644
▁ⲛⲧⲉⲣⲉϥⲣ	-10645
▁ⲛⲧⲉⲩϭⲟⲙ	-10646
▁ⲛⲧⲛⲉⲓⲣⲉ	-10647
▁ⲟⲩⲁⲧϩⲏⲧ	-10648
▁ⲟⲩⲥⲟⲫⲟⲥ	-10649
▁ⲡϩⲉⲑⲛⲟⲥ	-10650
▁ⲡⲁⲥⲱⲧⲏⲣ	-10651
▁ⲡⲉϫⲉⲁⲡⲁ	-10652
▁ⲡⲉⲕϣⲁϫⲉ	-10653
▁ⲡⲉⲧϩⲓϫⲛ	-10654
▁ⲡⲉⲧϯⲥⲃⲱ	-10655
▁ⲡⲉⲧⲉⲙⲡϥ	-10656
▁ⲡⲉⲧⲟⲩⲱϣ	-10657
▁ⲥⲉⲛⲁⲥⲉⲓ	-10658
▁ⲥⲉⲛⲁⲱϫⲛ	-10659
▁ⲥⲉⲟⲩⲟⲛϩ	-10660
▁ⲥⲟⲗⲟⲙⲱⲛ	-10661
▁ⲧϩⲉⲗⲡⲓⲥ	-10662
▁ⲧⲁⲙⲓⲟⲟⲩ	-10663
▁ⲧⲁⲧⲁⲡⲣⲟ	-10664
▁ⲧⲉⲅⲣⲁⲫⲏ	-10665
▁ⲧⲉⲛⲉⲓⲙⲉ	-10666
▁ⲧⲉⲛⲧⲟⲗⲏ	-10667
▁ⲧⲉⲧⲛⲁϫⲓ	-10668
▁ⲧⲙⲛⲧⲙⲁⲓ	-10669
ⲁⲃⲓⲙⲉⲗⲉⲭ	-10670
ⲇⲟⲩⲙⲁⲓⲟⲥ	-10671
ⲓⲇⲟⲩⲙⲁⲓⲁ	-10672
ⲕⲉⲩⲛⲟⲩⲧⲉ	-10673
ⲙⲁⲛⲛⲕⲟⲧⲕ	-10674
ⲙⲛⲧϩⲙϩⲁⲗ	-10675
ⲙⲛⲧⲣⲉϥϫⲓ	-10676
ⲛⲁⲅⲕⲁⲓⲟⲛ	-10677
ⲛⲉϥⲉⲓⲟⲧⲉ	-10678
ⲛⲟⲩⲟⲩⲛⲟⲩ	-10679
ⲟⲣⲛⲏⲗⲓⲟⲥ	-10680
ⲡⲁⲣϩⲓⲥⲧⲁ	-10681
ⲡⲉϥⲣⲁⲥⲧⲉ	-10682
ⲡⲣⲟⲥⲫⲟⲣⲁ	-10683
ⲥⲡⲓⲣⲟⲟⲩⲉ	-10684
ⲥⲫⲣⲁⲅⲓⲍⲉ	-10685
▁ϩⲉⲛϣⲡⲏⲣⲉ	-10686
▁ϩⲙⲡⲉⲥϩⲏⲧ	-10687
▁ϩⲙⲡⲉⲩⲕⲁϩ	-10688
▁ϩⲛⲅⲁⲃⲁⲱⲛ	-10689
▁ϩⲛⲟⲩⲧⲁⲕⲟ	-10690
▁ϩⲛⲧⲟⲣⲓⲛⲏ	-10691
▁ϫⲉⲁϥϫⲟⲟⲥ	-10692
▁ϫⲉⲁⲓϣⲓⲛⲉ	-10693
▁ϫⲉⲧⲁⲯⲩⲭⲏ	-10694
▁ϫⲓⲛⲟⲩϫⲱⲙ	-10695
▁ϯϩⲉⲗⲡⲓⲍⲉ	-10696
▁ϯⲛⲁⲥⲙⲓⲛⲉ	-10697
▁ⲁϥⲁϣϣⲕⲁⲕ	-10698
▁ⲁϥⲧⲁⲙⲓⲟϥ	-10699
▁ⲁⲓⲁⲙⲁϩⲧⲉ	-10700
▁ⲁⲩϫⲓⲡⲟⲩⲱ	-10701
▁ⲇⲟⲕⲓⲙⲁⲍⲉ	-10702
▁ⲉϥⲉⲟⲩⲱⲛϩ	-10703
▁ⲉϥⲑⲃⲃⲓⲏⲩ	-10704
▁ⲉϫⲙⲡⲣⲱⲙⲉ	-10705
▁ⲉϫⲛⲧⲡⲏⲅⲏ	-10706
▁ⲉⲃⲏⲑⲗⲉⲉⲙ	-10707
▁ⲉⲃⲟⲗϩⲓⲧⲙ	-10708
▁ⲉⲛⲉⲧϣⲟⲟⲡ	-10709
▁ⲉⲛⲉⲩϣⲟⲟⲡ	-10710
▁ⲉⲡⲉϥⲉⲟⲟⲩ	-10711
▁ⲉⲡⲉⲓⲣⲁⲍⲉ	-10712
▁ⲉⲡⲉⲓⲣⲱⲙⲉ	-10713
▁ⲉⲡⲉⲩⲥⲟⲡⲥ	-10714
▁ⲉⲡⲓⲥⲧⲉⲩⲉ	-10715
▁ⲉⲥϣⲟⲩⲉⲓⲧ	-10716
▁ⲉⲥⲥⲟⲩⲧⲱⲛ	-10717
▁ⲉⲧⲕⲉⲉⲓⲗⲁ	-10718
▁ⲉⲧⲛϩⲏⲧⲟⲩ	-10719
▁ⲉⲧⲛⲁⲟⲩⲱⲙ	-10720
▁ⲉⲧⲣⲁϣⲱⲡⲉ	-10721
▁ⲉⲩⲣϣⲡⲏⲣⲉ	-10722
▁ⲕⲁⲑⲁⲣⲓⲍⲉ	-10723
▁ⲙⲁⲣⲉⲡⲟⲩⲁ	-10724
▁ⲙⲙⲉϩⲥⲛⲁⲩ	-10725
▁ⲙⲛⲟⲩϭⲱⲛⲧ	-10726
▁ⲙⲛⲟⲩⲙⲕⲁϩ	-10727
▁ⲙⲛⲟⲩⲥⲧⲱⲧ	-10728
▁ⲙⲛⲡⲉⲥϩⲁⲓ	-10729
▁ⲙⲡϩⲁⲅⲓⲟⲥ	-10730
▁ⲙⲡϩⲉⲃⲱⲱⲛ	-10731
▁ⲙⲡⲁⲛⲟⲙⲟⲥ	-10732
▁ⲙⲡⲉⲓⲁⲓⲱⲛ	-10733
▁ⲙⲡⲉⲕⲟⲩⲟⲓ	-10734
▁ⲙⲡⲉⲥϣⲏⲣⲉ	-10735
▁ⲙⲡⲉⲧⲛϩⲏⲧ	-10736
▁ⲙⲡⲣⲣⲡⲱⲃϣ	-10737
▁ⲙⲡⲣⲧⲣⲉⲟⲩ	-10738
▁ⲛϩⲉⲛϭⲗⲓⲗ	-10739
▁ⲛϫⲁⲥⲓϩⲏⲧ	-10740
▁ⲛϭⲣⲟⲟⲙⲡⲉ	-10741
▁ⲛⲁⲃⲟⲏⲑⲉⲓ	-10742
▁ⲛⲁⲣⲭⲏⲅⲟⲥ	-10743
▁ⲛⲁⲧⲥⲟⲟⲩⲛ	-10744
▁ⲛⲇⲓⲕⲁⲓⲟⲛ	-10745
▁ⲛⲉⲛⲉⲓⲟⲧⲉ	-10746
▁ⲛⲉⲟⲩⲛⲧⲁϥ	-10747
▁ⲛⲉⲩⲛⲟⲩⲧⲉ	-10748
▁ⲛⲉⲩⲥⲟⲟⲩⲛ	-10749
▁ⲛⲕⲁⲧⲏⲅⲟⲣ	-10750
▁ⲛⲙⲧⲉⲭⲏⲣⲁ	-10751
▁ⲛⲛⲁⲛⲟⲙⲓⲁ	-10752
▁ⲛⲛⲉⲓⲕⲟⲩⲓ	-10753
▁ⲛⲛⲉⲥϣⲏⲣⲉ	-10754
▁ⲛⲛⲉⲩϩⲓⲥⲉ	-10755
▁ⲛⲟⲩϩⲟⲙⲛⲧ	-10756
▁ⲛⲟⲩϫⲱⲱⲣⲉ	-10757
▁ⲛⲣⲉϥϯϩⲁⲡ	-10758
▁ⲛⲥϯⲛⲟⲩϥⲉ	-10759
▁ⲛⲥⲁⲧⲉⲥⲙⲏ	-10760
▁ⲛⲥⲉϩⲁⲣⲉϩ	-10761
▁ⲛⲥⲉⲥⲱⲟⲩϩ	-10762
▁ⲛⲧⲁⲓⲧⲁⲁϥ	-10763
▁ⲛⲧⲉϥⲥⲁⲣⲝ	-10764
▁ⲛⲧⲉⲗⲱⲛⲏⲥ	-10765
▁ⲛⲧⲉⲛϣⲏⲣⲉ	-10766
▁ⲛⲧⲉⲣⲉϥϫⲓ	-10767
▁ⲛⲧⲛⲟⲩϫⲁⲓ	-10768
▁ⲟⲩϩⲉⲑⲛⲟⲥ	-10769
▁ⲟⲩⲕⲣⲓⲧⲏⲥ	-10770
▁ⲡⲉⲕⲣⲓⲧⲏⲥ	-10771
▁ⲡⲉⲧⲛⲁϫⲣⲟ	-10772
▁ⲡⲉⲧⲛⲁⲱⲣⲕ	-10773
▁ⲡⲡⲉⲧϩⲟⲟⲩ	-10774
▁ⲥⲉⲛⲁϣⲁϫⲉ	-10775
▁ⲧϩⲟⲣⲁⲥⲓⲥ	-10776
▁ⲧⲁϩⲉⲗⲡⲓⲥ	-10777
▁ⲧⲉⲧⲛϣⲓⲛⲉ	-10778
▁ⲧⲉⲧⲛⲉⲓⲣⲉ	-10779
▁ⲧⲛⲛⲁϣⲱⲡⲉ	-10780
ⲙⲛⲧⲁⲧⲥⲱⲧⲙ	-10781
ⲙⲛⲧⲃⲁⲗϩⲏⲧ	-10782
ⲛⲁⲥⲥⲩⲣⲓⲟⲥ	-10783
ⲛⲧⲁⲧⲥⲟⲟⲩⲛ	-10784
ⲡⲁⲛϩⲟⲡⲗⲓⲁ	-10785
ϩⲉⲣⲁⲧⲧⲏⲩⲧⲛ	-10786
ϩⲩⲡⲁⲣⲭⲱⲛⲧⲁ	-10787
ϩⲩⲡⲟⲕⲣⲓⲧⲏⲥ	-10788
▁ϣⲁⲛⲧⲟⲩϫⲱⲕ	-10789
▁ϩⲉⲛϩⲓⲟⲟⲩⲉ	-10790
▁ϩⲓϫⲙⲡⲙⲟⲟⲩ	-10791
▁ϩⲓⲧⲙⲡϣⲁϫⲉ	-10792
▁ϩⲙⲡⲉⲕϭⲱⲛⲧ	-10793
▁ϩⲛⲛⲕⲁⲣⲡⲟⲥ	-10794
▁ϩⲛⲟⲩϣⲟϫⲛⲉ	-10795
▁ϩⲛⲧⲉϥⲟⲣⲅⲏ	-10796
▁ϩⲛⲧⲉⲛⲙⲏⲧⲉ	-10797
▁ϫⲉϥⲛⲁϣⲱⲡⲉ	-10798
▁ϫⲉⲙⲁⲧⲁⲙⲟⲓ	-10799
▁ϫⲉⲙⲡⲉⲣⲧⲣⲉ	-10800
▁ϫⲉⲛⲁⲓⲁⲧⲟⲩ	-10801
▁ⲁϥϫⲓⲙⲟⲉⲓⲧ	-10802
▁ⲁϥⲧⲁⲙⲓⲟⲟⲩ	-10803
▁ⲁϥⲧⲟⲩⲛⲟⲥϥ	-10804
▁ⲁⲥⲁϩⲉⲣⲁⲧⲥ	-10805
▁ⲁⲩⲛⲏⲥⲧⲉⲩⲉ	-10806
▁ⲁⲩⲡⲟⲗⲉⲙⲉⲓ	-10807
▁ⲉϥϣⲁⲛⲥⲱⲧⲙ	-10808
▁ⲉϥⲉⲟⲩⲁϩⲟⲩ	-10809
▁ⲉϩⲟⲩⲉⲣⲟⲟⲩ	-10810
▁ⲉϫⲙⲡⲁⲗⲁⲟⲥ	-10811
▁ⲉⲓⲱϩⲁⲛⲛⲏⲥ	-10812
▁ⲉⲛⲁϩⲓⲟⲟⲩⲉ	-10813
▁ⲉⲛⲧⲁϥϫⲟⲟⲩ	-10814
▁ⲉⲛⲧⲁⲩϣⲱϫⲡ	-10815
▁ⲉⲡⲉϥϫⲟⲉⲓⲥ	-10816
▁ⲉⲧⲉϥⲥϩⲓⲙⲉ	-10817
▁ⲉⲧⲉⲛⲉⲣⲅⲉⲓ	-10818
▁ⲉⲧⲉⲧⲛϣⲟⲟⲡ	-10819
▁ⲉⲧⲕⲓⲃⲱⲧⲟⲥ	-10820
▁ⲉⲧⲣⲉⲩⲉⲓⲣⲉ	-10821
▁ⲉⲩⲥⲧⲁⲑⲓⲟⲥ	-10822
▁ⲕⲁⲧⲁⲡϣⲁϫⲉ	-10823
▁ⲙⲙⲉⲧⲁⲛⲟⲓⲁ	-10824
▁ⲙⲛⲛⲓⲟⲩⲇⲁⲓ	-10825
▁ⲙⲛⲛⲥⲁⲧⲣⲉⲩ	-10826
▁ⲙⲛⲟⲩⲙⲏⲏϣⲉ	-10827
▁ⲙⲛⲡⲁϫⲟⲉⲓⲥ	-10828
▁ⲙⲛⲧϩⲁⲓⲃⲉⲥ	-10829
▁ⲙⲡⲁⲡⲛⲉⲩⲙⲁ	-10830
▁ⲙⲡⲁⲡⲟⲗⲗⲱⲛ	-10831
▁ⲙⲡⲉⲡϫⲟⲉⲓⲥ	-10832
▁ⲙⲡⲉⲡⲛⲟⲩⲧⲉ	-10833
▁ⲙⲡⲉⲧϩⲙⲟⲟⲥ	-10834
▁ⲙⲡⲉⲧⲛⲉⲓⲱⲧ	-10835
▁ⲙⲡⲣϣⲧⲟⲣⲧⲣ	-10836
▁ⲛϩⲉⲃⲣⲁⲓⲟⲥ	-10837
▁ⲛϭⲓⲃⲁⲣⲟⲩⲭ	-10838
▁ⲛϭⲓⲏⲥⲁⲓⲁⲥ	-10839
▁ⲛϭⲓⲛϣⲉⲉⲣⲉ	-10840
▁ⲛϭⲓⲡϩⲙϩⲁⲗ	-10841
▁ⲛⲁⲇⲣⲁⲁⲍⲁⲣ	-10842
▁ⲛⲃⲏⲑⲥⲁⲙⲏⲥ	-10843
▁ⲛⲉϥⲉⲛⲕⲟⲧⲕ	-10844
▁ⲛⲉⲧⲛⲉⲓⲟⲧⲉ	-10845
▁ⲛⲓⲉⲃⲟⲩⲥⲑⲉ	-10846
▁ⲛⲛⲁⲥⲡⲟⲧⲟⲩ	-10847
▁ⲛⲛⲉϥϣⲃⲉⲉⲣ	-10848
▁ⲛⲛⲉⲓⲇⲱⲗⲟⲛ	-10849
▁ⲛⲛⲉⲓⲡⲟⲗⲓⲥ	-10850
▁ⲛⲛⲉⲕϣⲡⲏⲣⲉ	-10851
▁ⲛⲛⲉⲟⲩⲟⲉⲓϣ	-10852
▁ⲛⲛⲉⲧⲛⲟⲩⲱⲙ	-10853
▁ⲛⲛⲉⲧⲧⲱⲟⲩⲛ	-10854
▁ⲛⲟⲩϩⲉⲗⲡⲓⲥ	-10855
▁ⲛⲟⲩϩⲟⲉⲓⲧⲉ	-10856
▁ⲛⲟⲩⲑⲗⲓⲯⲓⲥ	-10857
▁ⲛⲟⲩⲙⲛⲧⲣⲣⲟ	-10858
▁ⲛⲥⲁⲃⲃⲁⲧⲟⲛ	-10859
▁ⲛⲧϩⲟⲣⲁⲥⲓⲥ	-10860
▁ⲛⲧⲁϥⲟⲩⲱⲛϩ	-10861
▁ⲛⲧⲉϥⲥⲕⲏⲛⲏ	-10862
▁ⲛⲧⲉϥⲫⲓⲁⲗⲏ	-10863
▁ⲛⲧⲉⲕⲧⲁⲡⲣⲟ	-10864
▁ⲛⲧⲉⲣⲉϥⲟⲩⲱ	-10865
▁ⲛⲧⲉⲣⲓⲥⲱⲧⲙ	-10866
▁ⲛⲧⲉⲧⲛⲉⲓⲛⲉ	-10867
▁ⲛⲧⲕⲩⲣⲓⲁⲕⲏ	-10868
▁ⲟⲩⲁⲅⲅⲉⲗⲟⲥ	-10869
▁ⲟⲩⲛⲟⲙⲓⲙⲟⲛ	-10870
▁ⲡⲉϫⲉⲛⲣⲱⲙⲉ	-10871
▁ⲡⲉⲧⲁⲙⲁϩⲧⲉ	-10872
▁ⲡⲉⲧⲛⲁϣⲓⲛⲉ	-10873
▁ⲡⲕⲁⲣⲙⲏⲗⲟⲥ	-10874
▁ⲡⲥⲁⲃⲃⲁⲧⲟⲛ	-10875
▁ⲧⲉϥⲙⲛⲧⲣⲣⲟ	-10876
▁ⲧⲉⲕⲕⲗⲏⲥⲓⲁ	-10877
▁ⲧⲕⲟⲓⲃⲱⲧⲟⲥ	-10878
ⲓⲥⲣⲁⲏⲗⲓⲧⲏⲥ	-10879
ⲡⲣⲁⲓⲧⲱⲣⲓⲟⲛ	-10880
ⲧⲁⲗⲁⲓⲡⲱⲣⲟⲥ	-10881
▁ϩⲓⲧⲙⲡⲁⲉⲓⲱⲧ	-10882
▁ϩⲙⲡⲉϥⲧⲏⲏⲃⲉ	-10883
▁ϩⲙⲡⲉⲥⲡⲉⲣⲙⲁ	-10884
▁ϩⲛⲛⲉⲩⲡⲟⲗⲓⲥ	-10885
▁ϩⲛⲟⲩⲕⲓⲑⲁⲣⲁ	-10886
▁ⲉϥⲧⲁϣⲉⲟⲉⲓϣ	-10887
▁ⲉϩⲉⲛⲁⲅⲁⲑⲟⲛ	-10888
▁ⲉϩⲛⲡⲉⲧϩⲟⲟⲩ	-10889
▁ⲉⲧⲉⲧⲛϣⲁⲛⲧⲙ	-10890
▁ⲉⲧⲉⲧⲛⲉϣⲱⲡⲉ	-10891
▁ⲉⲧⲉⲧⲛⲙⲉⲉⲩⲉ	-10892
▁ⲉⲧⲣⲉⲧⲛⲉⲓⲙⲉ	-10893
▁ⲉⲩⲙⲉⲧⲁⲛⲟⲓⲁ	-10894
▁ⲕⲁⲧⲁⲡⲛⲟⲩⲧⲉ	-10895
▁ⲙⲙⲛⲧⲣⲙⲛϩⲏⲧ	-10896
▁ⲙⲛⲙⲡⲉⲧϩⲟⲟⲩ	-10897
▁ⲙⲛⲛϩⲏⲅⲉⲙⲱⲛ	-10898
▁ⲙⲛⲛⲉϥϣⲉⲉⲣⲉ	-10899
▁ⲙⲛⲛⲉⲩϣⲉⲉⲣⲉ	-10900
▁ⲙⲛⲟⲩⲛⲟϭⲛⲉϭ	-10901
▁ⲙⲡⲁⲧϣⲉⲗⲉⲉⲧ	-10902
▁ⲙⲡⲉⲓⲣⲁⲥⲙⲟⲥ	-10903
▁ⲙⲡⲟⲩϣϭⲙϭⲟⲙ	-10904
▁ⲛϩⲉⲛϭⲟⲟⲩⲛⲉ	-10905
▁ⲛϩⲉⲛⲁⲅⲁⲑⲟⲛ	-10906
▁ⲛϭⲓⲙⲱⲟⲩⲥⲏⲥ	-10907
▁ⲛϭⲓⲟⲩⲙⲏⲏϣⲉ	-10908
▁ⲛⲉϥⲁⲅⲅⲉⲗⲟⲥ	-10909
▁ⲛⲉⲧⲡⲓⲥⲧⲉⲩⲉ	-10910
▁ⲛⲉⲩⲥⲧⲁⲑⲓⲟⲥ	-10911
▁ⲛⲛⲉⲧⲛⲟⲩⲟⲙϥ	-10912
▁ⲛⲟⲩⲥⲁⲗⲡⲓⲅⲝ	-10913
▁ⲛⲧⲉⲕⲙⲛⲧⲣⲣⲟ	-10914
▁ⲛⲧⲉⲣⲉϥϭⲱϣⲧ	-10915
▁ⲛⲧⲉⲣⲉⲥⲥⲱⲧⲙ	-10916
▁ⲛⲧⲙⲛⲧⲟⲩⲏⲏⲃ	-10917
▁ⲡⲉϣⲁⲩⲙⲟⲩⲧⲉ	-10918
▁ⲡⲉϫⲉⲅⲉⲇⲉⲱⲛ	-10919
▁ⲡⲉϫⲉⲡⲁⲩⲗⲟⲥ	-10920
▁ⲡⲉⲧⲛⲁϩⲁⲣⲉϩ	-10921
▁ⲡⲉⲧⲛⲁⲙⲟⲟϣⲉ	-10922
▁ⲡⲉⲧⲟⲩⲙⲟⲩⲧⲉ	-10923
▁ⲡⲟⲓⲕⲟⲛⲟⲙⲟⲥ	-10924
▁ⲧⲙⲁⲅⲇⲁⲗⲏⲛⲏ	-10925
▁ⲧⲙⲛⲧⲣⲙⲛϩⲏⲧ	-10926
▁ϩⲛⲛⲉϥⲥⲡⲟⲧⲟⲩ	-10927
▁ϩⲛⲛⲉⲕϩⲓⲟⲟⲩⲉ	-10928
▁ϩⲛⲛⲉⲩϩⲓⲟⲟⲩⲉ	-10929
▁ϫⲉⲉⲣⲉⲡⲛⲟⲩⲧⲉ	-10930
▁ⲁϥⲡⲣⲟⲫⲏⲧⲉⲩⲉ	-10931
▁ⲉⲡⲉⲛⲧⲁϥϣⲱⲡⲉ	-10932
▁ⲉⲡⲉⲧϩⲓⲧⲟⲩⲱⲕ	-10933
▁ⲕⲁⲧⲁⲡⲉϥⲟⲩⲱϣ	-10934
▁ⲙⲛⲛⲉⲧⲛϣⲉⲉⲣⲉ	-10935
▁ⲙⲛⲛⲉⲧⲛⲉⲓⲟⲧⲉ	-10936
▁ⲙⲛⲛⲣⲉϥⲣⲛⲟⲃⲉ	-10937
▁ⲙⲡⲉϥⲥⲧⲁⲩⲣⲟⲥ	-10938
▁ⲙⲡⲉⲡⲣⲟⲫⲏⲧⲏⲥ	-10939
▁ⲛϭⲓϩⲉⲛⲙⲏⲏϣⲉ	-10940
▁ⲛϭⲓⲡⲗⲁⲕⲏⲧⲁⲥ	-10941
▁ⲛⲙⲡⲉⲧϣⲟⲩⲉⲓⲧ	-10942
▁ⲛⲛⲉⲛⲧⲁⲩϣⲱⲡⲉ	-10943
▁ⲛⲟⲩⲙⲛⲧⲙⲛⲧⲣⲉ	-10944
▁ⲛⲟⲩⲙⲛⲧⲣⲙⲙⲁⲟ	-10945
▁ⲛⲧⲁⲛⲁⲥⲧⲁⲥⲓⲥ	-10946
▁ⲛⲧⲉⲡⲉⲡⲛⲉⲩⲙⲁ	-10947
▁ⲛⲧⲉⲣⲉⲡϫⲟⲉⲓⲥ	-10948
▁ⲡⲓⲥⲕⲁⲣⲓⲱⲧⲏⲥ	-10949
ⲡⲣⲟⲥⲕⲁⲣⲧⲉⲣⲉⲓ	-10950
ⲧⲁⲇⲓⲕⲁⲓⲟⲥⲩⲛⲏ	-10951
▁............	-10952
▁ϩⲁⲧⲛⲧⲑⲁⲗⲁⲥⲥⲁ	-10953
▁ϩⲛⲛⲉϥⲙⲁⲑⲏⲧⲏⲥ	-10954
▁ϩⲛⲛⲉⲡⲣⲟⲫⲏⲧⲏⲥ	-10955
▁ϩⲛⲧⲙⲁⲕⲉⲇⲟⲛⲓⲁ	-10956
▁ϫⲓⲛⲧⲉϩⲟⲩⲉⲓⲧⲉ	-10957
▁ⲉⲛⲉⲕⲙⲛⲧⲙⲛⲧⲣⲉ	-10958
▁ⲉⲡⲉⲭⲉⲓⲙⲁⲣⲣⲟⲥ	-10959
▁ⲉⲣⲉⲡⲉⲧⲛⲁⲛⲟⲩϥ	-10960
▁ⲉⲧϩⲛⲛⲉⲕⲡⲟⲗⲓⲥ	-10961
▁ⲙⲛⲛⲥⲁϩⲉⲛϩⲟⲟⲩ	-10962
▁ⲙⲡⲉⲭⲉⲓⲙⲁⲣⲣⲟⲥ	-10963
▁ⲛϩⲟⲗⲟⲕⲁⲩⲧⲱⲙⲁ	-10964
▁ⲛϭⲓⲉⲩⲥⲧⲁⲑⲓⲟⲥ	-10965
▁ⲛⲛⲁⲗⲗⲟⲫⲩⲗⲗⲟⲥ	-10966
▁ⲛⲧⲉⲓⲡⲁⲣⲁⲃⲟⲗⲏ	-10967
▁ⲡⲉⲅⲣⲁⲙⲙⲁⲧⲉⲩⲥ	-10968
▁ⲡⲉⲡⲣⲟⲥⲏⲗⲩⲧⲟⲥ	-10969
▁ϩⲙⲡⲥⲩⲛϩⲉⲇⲣⲓⲟⲛ	-10970
▁ⲉϫⲛⲧⲟⲓⲕⲟⲩⲙⲉⲛⲏ	-10971
▁ⲙⲛⲧⲇⲓⲕⲁⲓⲟⲥⲩⲛⲏ	-10972
▁ⲙⲡⲡⲁⲛⲧⲟⲕⲣⲁⲧⲱⲣ	-10973
▁ⲛⲧⲁⲕⲗⲏⲣⲟⲛⲟⲙⲓⲁ	-10974
▁ⲛⲧⲉⲛⲁⲗⲗⲟⲫⲩⲗⲟⲥ	-10975
▁ⲡⲉⲥⲧⲣⲁⲧⲏⲗⲁⲧⲏⲥ	-10976
▁ϩⲛⲛⲉⲫⲁⲣⲓⲥⲥⲁⲓⲟⲥ	-10977
▁ⲙⲛⲡⲉϥⲥⲧⲣⲁⲧⲉⲩⲙⲁ	-10978
▁ⲛⲧⲉϥⲇⲓⲕⲁⲓⲟⲥⲩⲛⲏ	-10979
▁ⲛⲧⲉⲥⲁⲥⲭⲏⲙⲟⲥⲩⲛⲏ	-10980
▁...............	-10981
▁ϩⲛⲛⲉⲡⲣⲉⲥⲃⲩⲧⲉⲣⲟⲥ	-10982
▁ⲉⲡⲉⲑⲩⲥⲓⲁⲥⲧⲏⲣⲓⲟⲛ	-10983
··	-10984
ϣⲗ	-10985
ϫϭ	-10986
ϭϩ	-10987
▁ⲩ	-10988
ⲅⲟ	-10989
ⲓⲃ	-10990
ⲩⲗ	-10991
ⲩⲭ	-10992
ⲫⲑ	-10993
ⲭϩ	-10994
ⲱⲉ	-10995
···	-10996
ϣⲁⲗ	-10997
ϣⲉⲓ	-10998
ϣⲏϣ	-10999
ϩⲓⲱ	-11000
ϫⲓⲕ	-11001
ϫⲟⲓ	-11002
ϫⲣⲉ	-11003
ϭⲏⲩ	-11004
ϭⲓⲥ	-11005
ϭⲗⲟ	-11006
▁ϣⲙ	-11007
▁ϥϯ	-11008
▁ϥⲣ	-11009
▁ϩⲃ	-11010
▁ϭⲛ	-11011
▁ϯⲣ	-11012
▁ⲃⲃ	-11013
▁ⲉⲃ	-11014
▁ⲉⲅ	-11015
▁ⲟⲙ	-11016
▁ⲡⲛ	-11017
▁ⲣⲟ	-11018
▁ⲱⲅ	-11019
▁ⲱⲡ	-11020
ⲁⲡⲟ	-11021
ⲁⲩⲉ	-11022
ⲃⲁϩ	-11023
ⲃⲁⲕ	-11024
ⲃⲏⲥ	-11025
ⲃⲗⲁ	-11026
ⲃⲧⲉ	-11027
ⲅⲁⲅ	-11028
ⲇⲁⲇ	-11029
ⲉⲛⲉ	-11030
ⲉⲧⲉ	-11031
ⲍⲉⲗ	-11032
ⲍⲏⲃ	-11033
ⲑⲙⲥ	-11034
ⲕⲉϥ	-11035
ⲕⲣⲙ	-11036
ⲗⲁⲃ	-11037
ⲗⲉϥ	-11038
ⲗⲉⲁ	-11039
ⲙⲉⲧ	-11040
ⲙⲱⲑ	-11041
ⲛⲁⲧ	-11042
ⲛⲓⲝ	-11043
ⲟⲗⲕ	-11044
ⲟⲧⲓ	-11045
ⲟⲧⲡ	-11046
ⲡⲏⲡ	-11047
ⲡⲟⲓ	-11048
ⲡⲥⲁ	-11049
ⲡⲱⲕ	-11050
ⲣϣⲱ	-11051
ⲥⲓⲟ	-11052
ⲥⲥⲁ	-11053
ⲥⲧⲟ	-11054
ⲥⲧⲩ	-11055
ⲥⲧⲱ	-11056
ⲧⲉϩ	-11057
ⲧⲉϭ	-11058
ⲧⲉⲡ	-11059
ⲧⲓⲙ	-11060
ⲧⲟⲉ	-11061
ⲧⲥⲃ	-11062
ⲧⲱϥ	-11063
ⲭⲟⲩ	-11064
ⲱϣⲧ	-11065
ⲱⲛⲁ	-11066
ⲱⲧϥ	-11067
ϣⲙⲏⲛ	-11068
ϣⲟⲡⲕ	-11069
ϥϭⲓϫ	-11070
ϥⲟϭϥ	-11071
ϥⲟⲧⲕ	-11072
ϩⲁⲣϣ	-11073
ϩⲁⲧⲛ	-11074
ϩⲉⲧⲃ	-11075
ϩⲏⲣⲱ	-11076
ϩⲓϩⲏ	-11077
ϩⲛⲁⲕ	-11078
ϩⲟⲟⲣ	-11079
ϩⲧⲏⲛ	-11080
ϫⲡⲟⲥ	-11081
ϭⲛⲁⲧ	-11082
ϭⲛⲧϥ	-11083
ϭⲟⲗϫ	-11084
ϭⲟⲛⲧ	-11085
▁ϩⲁⲏ	-11086
▁ϩⲓⲏ	-11087
▁ϩⲓⲣ	-11088
▁ϩⲣⲏ	-11089
▁ϫⲡⲓ	-11090
▁ϯⲡⲉ	-11091
▁ⲁⲣⲉ	-11092
▁ⲁⲩϫ	-11093
▁ⲃⲉⲣ	-11094
▁ⲇⲁⲛ	-11095
▁ⲏϩⲛ	-11096
▁ⲕⲟⲗ	-11097
▁ⲙⲙⲙ	-11098
▁ⲙⲛϩ	-11099
▁ⲙⲛϯ	-11100
▁ⲙⲛⲫ	-11101
▁ⲛϫⲱ	-11102
▁ⲛⲉϭ	-11103
▁ⲛⲉⲁ	-11104
▁ⲛⲡⲉ	-11105
▁ⲛⲱⲃ	-11106
▁ⲡⲁⲡ	-11107
▁ⲡⲉⲡ	-11108
▁ⲣⲱϥ	-11109
▁ⲣⲱⲧ	-11110
▁ⲥⲁⲃ	-11111
▁ⲧⲏⲙ	-11112
▁ⲧⲏⲩ	-11113
▁ⲧⲛⲁ	-11114
ⲁⲛⲟⲛ	-11115
ⲃⲁⲁⲗ	-11116
ⲃⲗϫⲉ	-11117
ⲅⲟⲣⲁ	-11118
ⲇⲟⲩⲣ	-11119
ⲉⲧⲡⲱ	-11120
ⲑⲓⲏⲗ	-11121
ⲓⲥⲃⲱ	-11122
ⲓⲥⲱⲛ	-11123
ⲕⲏⲣⲡ	-11124
ⲕⲓⲟⲥ	-11125
ⲕⲗϫⲉ	-11126
ⲕⲗⲗⲉ	-11127
ⲕⲟⲡⲏ	-11128
ⲗϩⲱⲃ	-11129
ⲗϯⲗⲉ	-11130
ⲗⲉⲓⲁ	-11131
ⲗⲏⲧⲁ	-11132
ⲗⲙⲱⲛ	-11133
ⲗⲟⲉⲓ	-11134
ⲗⲩⲡⲓ	-11135
ⲙⲉϩⲙ	-11136
ⲙⲉⲧⲁ	-11137
ⲙⲡⲣⲟ	-11138
ⲛⲟϭⲥ	-11139
ⲟϭⲟⲩ	-11140
ⲟⲟⲙⲉ	-11141
ⲟⲣϩϥ	-11142
ⲟⲩⲁⲥ	-11143
ⲟⲩⲟϩ	-11144
ⲡϩⲁⲧ	-11145
ⲡϩⲱⲃ	-11146
ⲡⲉⲩⲉ	-11147
ⲡⲓⲣⲉ	-11148
ⲡⲣⲏϣ	-11149
ⲡⲧⲉⲓ	-11150
ⲣⲁⲫⲏ	-11151
ⲣⲙϩⲏ	-11152
ⲣⲩⲫⲏ	-11153
ⲣⲱⲁⲥ	-11154
ⲥⲓⲛⲉ	-11155
ⲥⲙⲙⲉ	-11156
ⲥⲟⲃϩ	-11157
ⲥⲧⲟⲓ	-11158
ⲥⲱⲗⲡ	-11159
ⲥⲱⲱⲡ	-11160
ⲧⲁⲁⲛ	-11161
ⲧⲁⲍⲉ	-11162
ⲧⲃⲃⲉ	-11163
ⲧⲃⲉⲥ	-11164
ⲧⲓϫⲱ	-11165
ⲧⲙⲉϣ	-11166
ⲧⲟϭⲕ	-11167
ⲧⲟⲩⲛ	-11168
ⲩⲑⲣⲁ	-11169
ⲭⲏⲙⲁ	-11170
ϩⲁⲗⲓⲁ	-11171
ϩⲉⲗⲟⲥ	-11172
ϩⲏⲡⲁⲣ	-11173
ϩⲙⲡⲙⲁ	-11174
ϩⲟⲃⲥϥ	-11175
ϩⲟⲙⲟⲩ	-11176
ϩⲟⲣⲙⲏ	-11177
ϩⲟⲣⲟⲥ	-11178
ϩⲣⲁⲛⲧ	-11179
ϫⲓⲥⲙⲏ	-11180
ϫⲟⲟⲣⲉ	-11181
ϫⲟⲩⲧⲏ	-11182
ϫⲡⲓⲟⲕ	-11183
ϭⲁⲉⲓⲟ	-11184
ϭⲓⲛⲉⲓ	-11185
ϭⲗⲟⲧⲉ	-11186
ϭⲟⲙϭⲙ	-11187
ϯϩⲧⲏⲕ	-11188
▁ϣϭⲟⲙ	-11189
▁ϣⲁⲧⲉ	-11190
▁ϣⲟⲙⲧ	-11191
▁ϥϩⲏⲛ	-11192
▁ϥⲛⲁⲩ	-11193
▁ϩⲓⲙⲉ	-11194
▁ϩⲓⲱⲧ	-11195
▁ϩⲗⲟϭ	-11196
▁ϩⲛⲙⲙ	-11197
▁ϩⲟⲛϥ	-11198
▁ϩⲣⲁⲩ	-11199
▁ϩⲧⲏⲩ	-11200
▁ϫⲉⲁⲗ	-11201
▁ϫⲉⲙⲙ	-11202
▁ϫⲉⲣⲉ	-11203
▁ϫⲡⲓⲉ	-11204
▁ϫⲱⲟⲩ	-11205
▁ϭⲣⲱϩ	-11206
▁ϯϩⲁⲡ	-11207
▁ⲁϥϣⲓ	-11208
▁ⲁϥϭⲉ	-11209
▁ⲁϥⲃⲟ	-11210
▁ⲁϥⲑⲙ	-11211
▁ⲁϥⲙⲁ	-11212
▁ⲁϥⲟⲩ	-11213
▁ⲁϥⲥⲁ	-11214
▁ⲁϥⲥⲃ	-11215
▁ⲁϫⲓϥ	-11216
▁ⲁⲓⲕⲁ	-11217
▁ⲁⲓⲥⲁ	-11218
▁ⲁⲓⲥⲱ	-11219
▁ⲁⲛⲁϥ	-11220
▁ⲁⲛⲁⲓ	-11221
▁ⲁⲛⲉⲥ	-11222
▁ⲁⲩϭⲉ	-11223
▁ⲁⲩⲡⲉ	-11224
▁ⲉϣϣⲉ	-11225
▁ⲉϣⲁⲥ	-11226
▁ⲉϥϩⲙ	-11227
▁ⲉϥⲕⲱ	-11228
▁ⲉϥⲟⲩ	-11229
▁ⲉⲅⲉⲑ	-11230
▁ⲉⲑⲁⲣ	-11231
▁ⲉⲕⲧⲙ	-11232
▁ⲉⲙⲉⲥ	-11233
▁ⲉⲙⲡⲁ	-11234
▁ⲉⲙⲡⲓ	-11235
▁ⲉⲛⲉϫ	-11236
▁ⲉⲡϫⲓ	-11237
▁ⲉⲡⲁⲣ	-11238
▁ⲉⲣⲉⲙ	-11239
▁ⲉⲣⲏⲥ	-11240
▁ⲉⲣⲛⲉ	-11241
▁ⲉⲧⲕⲁ	-11242
▁ⲉⲱⲛϩ	-11243
▁ⲕⲣⲟϥ	-11244
▁ⲕⲧⲟⲕ	-11245
▁ⲙⲛⲅⲁ	-11246
▁ⲙⲛⲛⲛ	-11247
▁ⲙⲛⲥⲁ	-11248
▁ⲙⲡϥⲉ	-11249
▁ⲙⲡϩⲁ	-11250
▁ⲙⲡϩⲉ	-11251
▁ⲛϣϥⲉ	-11252
▁ⲛϣⲱⲥ	-11253
▁ⲛϩⲁⲗ	-11254
▁ⲛϩⲧⲟ	-11255
▁ⲛⲁⲓⲥ	-11256
▁ⲛⲅⲉⲑ	-11257
▁ⲛⲅⲗⲟ	-11258
▁ⲛⲉϥⲉ	-11259
▁ⲛⲉⲓⲁ	-11260
▁ⲛⲕⲁⲓ	-11261
▁ⲛⲕⲟⲧ	-11262
▁ⲛⲛⲉⲡ	-11263
▁ⲛⲛⲛⲁ	-11264
▁ⲛⲛⲣⲙ	-11265
▁ⲛⲟϫϥ	-11266
▁ⲛⲟⲩⲓ	-11267
▁ⲛⲟⲩⲛ	-11268
▁ⲛⲥⲏⲩ	-11269
▁ⲛⲥⲛⲁ	-11270
▁ⲛⲥⲧⲩ	-11271
▁ⲛⲧⲛⲁ	-11272
▁ⲟⲩⲏⲛ	-11273
▁ⲡⲕⲓⲛ	-11274
▁ⲡⲱⲣϫ	-11275
▁ⲣⲁⲧⲕ	-11276
▁ⲣⲱϣⲉ	-11277
▁ⲣⲱⲕϩ	-11278
▁ⲥⲁⲣⲝ	-11279
▁ⲥⲓⲃⲁ	-11280
▁ⲥⲱⲃⲉ	-11281
▁ⲧⲁⲁⲕ	-11282
▁ⲧⲉϥⲉ	-11283
▁ⲧⲛϫⲱ	-11284
▁ⲧⲥⲁⲃ	-11285
ⲁⲣⲉⲧⲏ	-11286
ⲃⲁϣⲟⲣ	-11287
ⲃⲁⲧⲟⲥ	-11288
ⲅⲁⲙⲟⲥ	-11289
ⲅⲓⲥⲧⲁ	-11290
ⲅⲣⲁⲙⲁ	-11291
ⲇⲟⲅⲙⲁ	-11292
ⲉⲓⲉⲓⲃ	-11293
ⲉⲛⲧⲟⲩ	-11294
ⲑⲙⲕⲟϥ	-11295
ⲓⲙⲟⲟⲩ	-11296
ⲓⲙⲟⲩⲑ	-11297
ⲕⲁⲧⲟⲣ	-11298
ⲕⲉⲣⲏⲧ	-11299
ⲕⲓⲱⲟⲩ	-11300
ⲕⲟⲛⲥϥ	-11301
ⲕⲩⲣⲓⲁ	-11302
ⲕⲱⲛⲓⲁ	-11303
ⲗⲁⲓⲟⲛ	-11304
ⲗⲉⲝⲁⲛ	-11305
ⲙⲁⲛⲛⲁ	-11306
ⲙⲙⲱⲁⲃ	-11307
ⲛϩⲏⲧⲥ	-11308
ⲛⲁϩⲃⲉ	-11309
ⲛⲁⲙⲟⲣ	-11310
ⲛⲉⲣⲏⲧ	-11311
ⲛⲟⲩⲏⲗ	-11312
ⲛⲱⲛⲛⲁ	-11313
ⲟⲗⲩⲙⲁ	-11314
ⲟⲟⲩⲧⲛ	-11315
ⲟⲩⲛⲧⲉ	-11316
ⲟⲩⲱⲛⲧ	-11317
ⲡⲉϥⲙⲁ	-11318
ⲡⲉϥⲛⲁ	-11319
ⲡⲉⲓⲗⲏ	-11320
ⲡⲏⲥⲥⲉ	-11321
ⲡⲓⲃⲟⲩ	-11322
ⲡⲓⲥⲧⲏ	-11323
ⲡⲟⲣϫⲛ	-11324
ⲡⲱⲱⲣⲉ	-11325
ⲣⲁⲃⲓⲁ	-11326
ⲣⲁⲃⲱⲑ	-11327
ⲣⲁⲛⲁⲕ	-11328
ⲣⲁⲛⲁⲩ	-11329
ⲣⲙⲗⲁϩ	-11330
ⲣⲟⲙⲟⲥ	-11331
ⲥⲁⲙⲩⲥ	-11332
ⲥⲁⲛⲛⲁ	-11333
ⲥⲁⲧⲃⲉ	-11334
ⲥⲁⲫⲁⲧ	-11335
ⲥⲟⲛϩϥ	-11336
ⲥⲧⲩⲗⲏ	-11337
ⲧⲁϩⲥϥ	-11338
ⲧⲁⲓⲟⲩ	-11339
ⲧⲁⲗⲟⲥ	-11340
ⲧⲁⲣⲱⲑ	-11341
ⲧⲁⲧⲏⲥ	-11342
ⲧⲉⲓϩⲉ	-11343
ⲧⲉⲧⲛⲟ	-11344
ⲧⲏⲣⲉⲓ	-11345
ⲧⲏⲣⲟⲩ	-11346
ⲧⲏⲥⲓⲥ	-11347
ⲧⲓⲛⲟⲥ	-11348
ⲧⲛⲟϣϥ	-11349
ⲧⲟⲩⲛⲁ	-11350
ⲧⲟⲩⲟⲕ	-11351
ⲧⲟⲩⲱⲙ	-11352
ⲧⲟⲫⲉⲗ	-11353
ⲧⲣⲓⲁⲥ	-11354
ⲧⲥⲛⲕⲟ	-11355
ⲫⲣⲁⲑⲁ	-11356
ⲭⲙⲁⲗⲱ	-11357
ⲭⲟⲩⲥⲓ	-11358
ϣⲟⲣⲡⲟⲩ	-11359
ϣⲥⲛϩⲏⲧ	-11360
ϩⲉⲣⲁⲧϥ	-11361
ϩⲕⲟⲉⲓⲧ	-11362
ϩⲣϣⲓⲣⲉ	-11363
ϫⲟⲩⲱⲧⲉ	-11364
ϭⲁⲃϩⲏⲧ	-11365
ϭⲓⲛⲱⲛϩ	-11366
ϯⲛⲁⲁⲁϥ	-11367
ϯⲟⲩⲃⲏⲓ	-11368
▁ϥϭⲱϣⲧ	-11369
▁ϥⲛⲁⲕⲁ	-11370
▁ϥⲟⲧⲟⲩ	-11371
▁ϩⲁϩⲁϩ	-11372
▁ϩⲁϩⲉⲛ	-11373
▁ϩⲁⲧⲏⲛ	-11374
▁ϩⲓϩⲉⲛ	-11375
▁ϩⲓϫⲛⲡ	-11376
▁ϩⲓⲡⲥⲁ	-11377
▁ϩⲓⲧⲉⲛ	-11378
▁ϩⲓⲱⲱⲛ	-11379
▁ϩⲛϯⲟⲩ	-11380
▁ϩⲛⲅⲁⲓ	-11381
▁ϩⲛⲙⲁⲥ	-11382
▁ϩⲛⲛⲁⲅ	-11383
▁ϩⲛⲡⲉϥ	-11384
▁ϩⲛⲡⲉⲕ	-11385
▁ϩⲛⲣⲱⲓ	-11386
▁ϩⲛⲣⲱⲕ	-11387
▁ϩⲩⲡⲟⲙ	-11388
▁ϫⲉⲁⲛⲣ	-11389
▁ϫⲉⲁⲩϯ	-11390
▁ϫⲉⲃⲱⲗ	-11391
▁ϫⲉⲕⲁⲛ	-11392
▁ϫⲉⲛⲁⲥ	-11393
▁ϫⲉⲡⲉⲛ	-11394
▁ϫⲓⲛⲉϥ	-11395
▁ϫⲓⲟⲟⲣ	-11396
▁ϫⲓⲧⲟⲩ	-11397
▁ϫⲛⲟⲩϥ	-11398
▁ϫⲱⲱⲣⲉ	-11399
▁ⲁϣⲕⲁⲕ	-11400
▁ⲁϥϫⲣⲟ	-11401
▁ⲁϥⲁⲁⲩ	-11402
▁ⲁϥⲟⲩⲱ	-11403
▁ⲁⲓⲟⲩⲱ	-11404
▁ⲁⲓⲣⲟⲩ	-11405
▁ⲁⲓⲱⲣⲕ	-11406
▁ⲁⲛⲅⲟⲩ	-11407
▁ⲁⲩⲙⲉϩ	-11408
▁ⲁⲩⲥⲱⲕ	-11409
▁ⲉϣⲁⲩⲥ	-11410
▁ⲉϥϩⲏⲛ	-11411
▁ⲉϥϩⲙⲡ	-11412
▁ⲉϥϩⲱⲡ	-11413
▁ⲉϥⲉϭⲱ	-11414
▁ⲉϥⲛⲁⲥ	-11415
▁ⲉϩⲣⲁⲥ	-11416
▁ⲉϫⲓⲧⲥ	-11417
▁ⲉϫⲛϩⲛ	-11418
▁ⲉϫⲟⲟϥ	-11419
▁ⲉⲁϥⲕⲁ	-11420
▁ⲉⲁϥⲕⲱ	-11421
▁ⲉⲓⲛⲁⲣ	-11422
▁ⲉⲓⲛⲏⲩ	-11423
▁ⲉⲕⲉϥⲓ	-11424
▁ⲉⲕⲛⲁⲣ	-11425
▁ⲉⲗⲓⲁⲃ	-11426
▁ⲉⲡⲓⲥⲁ	-11427
▁ⲉⲡⲱⲣϫ	-11428
▁ⲉⲥⲏⲗⲱ	-11429
▁ⲉⲥⲓⲱⲛ	-11430
▁ⲉⲥⲙⲉϩ	-11431
▁ⲉⲥⲛⲏϫ	-11432
▁ⲉⲥⲟⲟϥ	-11433
▁ⲉⲧⲃⲃⲟ	-11434
▁ⲉⲧⲃⲏⲧ	-11435
▁ⲉⲧⲉⲛⲉ	-11436
▁ⲉⲧⲥⲛⲁ	-11437
▁ⲉⲧⲱⲃϩ	-11438
▁ⲉⲩϫⲏⲕ	-11439
▁ⲉⲩⲛⲁϣ	-11440
▁ⲉⲩⲱⲛⲉ	-11441
▁ⲕⲉⲓⲣⲉ	-11442
▁ⲕⲩⲣⲟⲥ	-11443
▁ⲙⲉⲗⲟⲥ	-11444
▁ⲙⲉⲥⲧⲉ	-11445
▁ⲙⲙⲁⲁⲩ	-11446
▁ⲙⲙⲏⲧⲉ	-11447
▁ⲙⲙⲱⲟⲩ	-11448
▁ⲙⲛϩⲙⲉ	-11449
▁ⲙⲛⲛⲕⲉ	-11450
▁ⲙⲛⲡⲟⲩ	-11451
▁ⲙⲟϣⲧϥ	-11452
▁ⲙⲡϣⲏⲓ	-11453
▁ⲙⲡϣⲱⲙ	-11454
▁ⲙⲡⲉϥϯ	-11455
▁ⲙⲡⲉⲓⲥ	-11456
▁ⲙⲡⲉⲧⲟ	-11457
▁ⲙⲡⲉⲧⲣ	-11458
▁ⲙⲡⲓⲛⲉ	-11459
▁ⲙⲡⲥⲱϣ	-11460
▁ⲙⲡⲧⲁⲡ	-11461
▁ⲛϣⲙϣⲉ	-11462
▁ⲛϣⲱϫⲡ	-11463
▁ⲛϥⲧⲣⲉ	-11464
▁ⲛϩⲉⲛⲕ	-11465
▁ⲛϫⲓⲥⲉ	-11466
▁ⲛϫⲟⲟⲥ	-11467
▁ⲛϫⲣⲟⲡ	-11468
▁ⲛϭⲓⲙⲁ	-11469
▁ⲛⲁⲛⲁϣ	-11470
▁ⲛⲁⲛⲁⲛ	-11471
▁ⲛⲁⲥⲉⲓ	-11472
▁ⲛⲁⲥⲱⲣ	-11473
▁ⲛⲁⲱⲥⲕ	-11474
▁ⲛⲃⲗϫⲉ	-11475
▁ⲛⲉϥϩⲙ	-11476
▁ⲛⲉⲛⲕⲁ	-11477
▁ⲛⲉⲡⲏⲡ	-11478
▁ⲛⲉⲥⲟⲩ	-11479
▁ⲛⲉⲧϫⲓ	-11480
▁ⲛⲉⲧⲏⲡ	-11481
▁ⲛⲉⲩⲏⲓ	-11482
▁ⲛⲓⲉⲣⲟ	-11483
▁ⲛⲕⲉⲉⲥ	-11484
▁ⲛⲕⲟⲣⲉ	-11485
▁ⲛⲙⲙⲟⲛ	-11486
▁ⲛⲛϩⲟϥ	-11487
▁ⲛⲛⲁⲣⲭ	-11488
▁ⲛⲛⲉⲧϯ	-11489
▁ⲛⲟⲩϣⲓ	-11490
▁ⲛⲟⲩϩⲙ	-11491
▁ⲛⲟⲩϫⲟ	-11492
▁ⲛⲟⲩⲥⲁ	-11493
▁ⲛⲥⲁⲗⲁ	-11494
▁ⲛⲥⲁⲥⲁ	-11495
▁ⲛⲥⲟϭⲛ	-11496
▁ⲛⲥⲱⲙⲁ	-11497
▁ⲛⲥⲱⲧⲉ	-11498
▁ⲛⲧⲁⲕⲟ	-11499
▁ⲛⲧⲉⲕⲉ	-11500
▁ⲛⲧⲉⲧⲁ	-11501
▁ⲛⲧⲙⲡⲁ	-11502
▁ⲛⲱⲃⲏⲗ	-11503
▁ⲟⲛⲧⲱⲥ	-11504
▁ⲟⲩϩⲧⲟ	-11505
▁ⲟⲩⲁⲁⲕ	-11506
▁ⲟⲩⲃⲏⲩ	-11507
▁ⲟⲩⲏⲟⲩ	-11508
▁ⲟⲩⲙⲁⲥ	-11509
▁ⲟⲩⲙⲟⲩ	-11510
▁ⲟⲩⲛⲧⲕ	-11511
▁ⲟⲩⲧⲱⲕ	-11512
▁ⲡϣⲓⲡⲉ	-11513
▁ⲡϩⲓⲥⲉ	-11514
▁ⲡⲁϩⲣⲉ	-11515
▁ⲡⲁⲃⲁⲗ	-11516
▁ⲡⲁⲣⲁⲡ	-11517
▁ⲡⲉϣⲁⲩ	-11518
▁ⲡⲉϫⲉⲛ	-11519
▁ⲡⲉϫⲡⲟ	-11520
▁ⲡⲉⲧϫⲟ	-11521
▁ⲡⲟⲗⲓⲥ	-11522
▁ⲡⲥⲱⲧⲡ	-11523
▁ⲥⲁϩⲟⲩ	-11524
▁ⲥⲁϩⲱϥ	-11525
▁ⲥⲉⲉⲡⲉ	-11526
▁ⲥⲙⲛⲧϥ	-11527
▁ⲥⲟⲃⲧⲉ	-11528
▁ⲥⲟⲧⲡϥ	-11529
▁ⲧⲁϩⲟⲕ	-11530
▁ⲧⲉⲓϩⲉ	-11531
▁ⲧⲉⲧⲛϯ	-11532
▁ⲧⲟⲩⲱϥ	-11533
▁ⲧⲡⲏⲅⲏ	-11534
▁ⲧⲥⲱⲛⲉ	-11535
▁ⲫⲁⲣⲁⲱ	-11536
▁ⲭⲣⲉⲓⲁ	-11537
ⲁⲇⲓⲕⲓⲁ	-11538
ⲁⲓⲧⲏⲙⲁ	-11539
ⲅⲅⲉⲗⲓⲁ	-11540
ⲅⲉⲓⲣⲟⲥ	-11541
ⲇⲁⲛⲓⲏⲗ	-11542
ⲇⲁⲣⲓⲟⲛ	-11543
ⲇⲣⲁⲉⲓⲛ	-11544
ⲑⲁⲣⲥⲓⲥ	-11545
ⲑⲃⲃⲓⲟⲓ	-11546
ⲑⲉⲛⲉⲓⲁ	-11547
ⲑⲓⲁⲣⲓⲙ	-11548
ⲕⲉϩⲟⲟⲩ	-11549
ⲕⲗⲏⲧⲟⲥ	-11550
ⲕⲟⲕⲕⲟⲥ	-11551
ⲕⲟⲡⲣⲓⲁ	-11552
ⲗⲉϭⲗⲱϭ	-11553
ⲙⲁⲥⲧⲓⲝ	-11554
ⲙⲙⲉⲗⲟⲥ	-11555
ⲙⲛⲕⲏⲙⲉ	-11556
ⲙⲟⲕϩⲟⲩ	-11557
ⲙⲟⲟⲩⲧⲕ	-11558
ⲙⲟⲧⲛⲉⲥ	-11559
ⲛⲁⲣⲓⲟⲛ	-11560
ⲛⲟⲙⲟⲑⲉ	-11561
ⲛⲟⲩⲱϣϥ	-11562
ⲟⲩⲉϣⲟⲩ	-11563
ⲟⲩⲛϭⲟⲙ	-11564
ⲟⲩⲟϣⲃⲉ	-11565
ⲟⲩⲥⲙⲟⲩ	-11566
ⲟⲩⲥⲛⲟϥ	-11567
ⲡⲉⲥϩⲁⲓ	-11568
ⲡⲓⲕⲁⲗⲓ	-11569
ⲣⲁⲛⲓⲟⲛ	-11570
ⲣⲁⲛⲛⲟⲥ	-11571
ⲣⲏϫⲛⲟⲩ	-11572
ⲣⲟⲟⲩⲛⲉ	-11573
ⲣⲧⲩⲣⲟⲥ	-11574
ⲣⲭⲏⲅⲟⲥ	-11575
ⲥⲓⲕⲉⲣⲁ	-11576
ⲥⲟⲧⲃⲉϥ	-11577
ⲧⲁϫⲣⲟϥ	-11578
ⲧⲁⲇⲓⲟⲛ	-11579
ⲧⲁⲉⲓⲟⲩ	-11580
ⲧⲁⲗϭⲟⲓ	-11581
ⲧⲁⲗⲗⲟⲥ	-11582
ⲧⲁⲛϩⲟⲛ	-11583
ⲧⲛⲟⲉⲓⲕ	-11584
ⲧⲟⲟⲃⲟⲩ	-11585
ⲧⲣⲟⲭⲟⲥ	-11586
ⲧⲥⲟⲫⲓⲁ	-11587
ⲧⲩⲣⲓⲟⲛ	-11588
ⲩⲧⲉϩⲛⲉ	-11589
ⲭⲁⲗⲁⲍⲁ	-11590
ϣⲟⲩⲥⲟⲟⲩ	-11591
ϩⲉⲣϣⲓⲣⲉ	-11592
▁ϣⲁϥⲃⲱⲕ	-11593
▁ϥⲛⲁⲡⲱⲧ	-11594
▁ϩⲁⲡⲗⲱⲥ	-11595
▁ϩⲉⲗⲡⲓⲥ	-11596
▁ϩⲓϫⲛⲛⲉ	-11597
▁ϩⲙⲡϩⲁⲉ	-11598
▁ϩⲙⲡϩⲱⲡ	-11599
▁ϩⲙⲡⲛⲁⲩ	-11600
▁ϩⲙⲡⲣⲣⲟ	-11601
▁ϩⲛϩⲉⲛⲉ	-11602
▁ϩⲛϩⲏⲧⲥ	-11603
▁ϩⲛⲛⲧⲟϣ	-11604
▁ϫⲉⲁⲕⲕⲱ	-11605
▁ϫⲉⲉⲓⲥⲁ	-11606
▁ϫⲉⲕⲁⲁⲧ	-11607
▁ϫⲉⲙⲉⲣⲉ	-11608
▁ϫⲉⲛⲧⲁⲛ	-11609
▁ϫⲉⲟⲩⲇⲉ	-11610
▁ϫⲉⲟⲩⲙⲉ	-11611
▁ϫⲉⲡⲕⲁϩ	-11612
▁ϫⲉⲣⲱⲙⲉ	-11613
▁ϫⲉⲥϩⲁⲓ	-11614
▁ϫⲉⲥⲁϩⲉ	-11615
▁ϫⲓⲉⲟⲟⲩ	-11616
▁ϯⲛⲁⲕⲧⲟ	-11617
▁ϯⲛⲁⲕⲱⲧ	-11618
▁ϯⲟⲩⲁⲁⲃ	-11619
▁ⲁϥϥⲱϭⲉ	-11620
▁ⲁϥϩⲓⲥⲉ	-11621
▁ⲁϥϭⲉⲡⲏ	-11622
▁ⲁϥϯⲥⲃⲱ	-11623
▁ⲁϥⲁⲣⲛⲁ	-11624
▁ⲁϥⲙⲓϣⲉ	-11625
▁ⲁϥⲣⲱⲕϩ	-11626
▁ⲁϥⲧⲁϩⲉ	-11627
▁ⲁϥⲧⲃⲃⲟ	-11628
▁ⲁⲓϩⲓⲥⲉ	-11629
▁ⲁⲓϫⲡⲟⲕ	-11630
▁ⲁⲓⲟⲩⲱⲙ	-11631
▁ⲁⲓⲡⲁϩⲧ	-11632
▁ⲁⲓⲣⲓⲙⲉ	-11633
▁ⲁⲓⲥⲁⲁⲕ	-11634
▁ⲁⲕⲉⲓⲙⲉ	-11635
▁ⲁⲛϣⲁϫⲉ	-11636
▁ⲁⲛϣⲗⲏⲗ	-11637
▁ⲁⲣⲓϩⲱⲃ	-11638
▁ⲁⲣⲓⲡⲁⲓ	-11639
▁ⲁⲥⲕⲟⲧⲥ	-11640
▁ⲁⲥⲕⲧⲟⲥ	-11641
▁ⲁⲥⲧⲁⲙⲉ	-11642
▁ⲁⲧⲁϭⲟⲙ	-11643
▁ⲁⲧⲥⲱⲧⲙ	-11644
▁ⲁⲩϭⲱⲣϭ	-11645
▁ⲁⲩⲛⲧⲟⲩ	-11646
▁ⲁⲩⲧⲁⲁϥ	-11647
▁ⲁⲩⲭⲁⲗⲁ	-11648
▁ⲅⲁⲗⲁⲁⲇ	-11649
▁ⲉϥϣⲟⲩⲟ	-11650
▁ⲉϥⲉⲙⲟⲩ	-11651
▁ⲉϥⲛϩⲟⲧ	-11652
▁ⲉϩⲓⲟⲩⲉ	-11653
▁ⲉϫⲓϩⲁⲡ	-11654
▁ⲉϯⲉⲓⲣⲉ	-11655
▁ⲉⲕϣⲁⲛⲧ	-11656
▁ⲉⲙⲛⲡⲉⲧ	-11657
▁ⲉⲙⲟⲟⲛⲉ	-11658
▁ⲉⲛϭⲱϣⲧ	-11659
▁ⲉⲛⲉⲥⲱⲥ	-11660
▁ⲉⲛⲉⲩⲏⲓ	-11661
▁ⲉⲝⲉⲥⲧⲓ	-11662
▁ⲉⲡⲉⲓⲥⲁ	-11663
▁ⲉⲡⲉⲓⲱⲧ	-11664
▁ⲉⲡⲙⲁⲥⲉ	-11665
▁ⲉⲡⲟⲩⲏⲓ	-11666
▁ⲉⲡⲟⲩⲱϣ	-11667
▁ⲉⲣⲉⲟⲩⲥ	-11668
▁ⲉⲣⲗⲁⲁⲩ	-11669
▁ⲉⲣⲟⲩϩⲉ	-11670
▁ⲉⲥⲁⲟⲩⲗ	-11671
▁ⲉⲥⲟⲩⲏⲩ	-11672
▁ⲉⲧϣⲙϣⲉ	-11673
▁ⲉⲧϩⲛⲧⲁ	-11674
▁ⲉⲧⲁⲩⲗⲏ	-11675
▁ⲉⲧⲃⲏⲧϥ	-11676
▁ⲉⲧⲉⲙⲡϥ	-11677
▁ⲉⲧⲉⲧⲛϯ	-11678
▁ⲉⲧⲟⲩϫⲟ	-11679
▁ⲉⲧⲣⲉⲛⲉ	-11680
▁ⲉⲧⲣⲉⲩϯ	-11681
▁ⲉⲩⲙⲟⲟⲛ	-11682
▁ⲉⲩⲙⲧⲟⲛ	-11683
▁ⲉⲩⲛϭⲟⲙ	-11684
▁ⲉⲩⲛⲁϫⲓ	-11685
▁ⲉⲩⲟⲩⲟϫ	-11686
▁ⲉⲩⲥⲟⲃⲕ	-11687
▁ⲉⲩⲥⲟⲡⲥ	-11688
▁ⲉⲩⲥⲟⲣⲙ	-11689
▁ⲉⲩⲧⲱⲣⲡ	-11690
▁ⲏϣⲟⲙⲛⲧ	-11691
▁ⲓⲉⲥⲥⲁⲓ	-11692
▁ⲕⲛⲁⲛⲁⲩ	-11693
▁ⲙⲙⲁⲁϫⲉ	-11694
▁ⲙⲛⲛⲉⲧⲟ	-11695
▁ⲙⲛⲛⲥⲱⲓ	-11696
▁ⲙⲡϣⲱϫⲡ	-11697
▁ⲙⲡϫⲁⲓⲉ	-11698
▁ⲙⲡϫⲓⲥⲉ	-11699
▁ⲙⲡⲁⲡⲟⲧ	-11700
▁ⲙⲡⲃⲉⲕⲉ	-11701
▁ⲙⲡⲃⲏⲙⲁ	-11702
▁ⲙⲡⲉⲥⲏⲓ	-11703
▁ⲙⲡⲉⲥⲟⲩ	-11704
▁ⲙⲡⲕⲟⲩⲓ	-11705
▁ⲙⲡⲣⲧⲣⲁ	-11706
▁ⲙⲡⲣⲱⲣⲕ	-11707
▁ⲙⲡⲥⲱⲛⲧ	-11708
▁ⲙⲡⲥⲱⲧⲉ	-11709
▁ⲛϥϫⲟⲟⲩ	-11710
▁ⲛϥϭⲱϣⲧ	-11711
▁ⲛϥⲕⲁⲁϥ	-11712
▁ⲛϥⲕⲟⲧϥ	-11713
▁ⲛϩⲁⲣⲉϩ	-11714
▁ⲛϩⲉⲛϣⲉ	-11715
▁ⲛϩⲛⲛⲟϭ	-11716
▁ⲛϫⲓⲟⲟⲣ	-11717
▁ⲛϫⲟⲩⲱⲧ	-11718
▁ⲛϭⲓⲡⲉⲛ	-11719
▁ⲛϭⲓⲡⲙⲁ	-11720
▁ⲛⲁϩⲙⲟⲩ	-11721
▁ⲛⲁϭⲱⲗⲡ	-11722
▁ⲛⲁϯϩⲏⲩ	-11723
▁ⲛⲁⲕⲧⲟϥ	-11724
▁ⲛⲁⲙⲙⲁⲛ	-11725
▁ⲛⲁⲙⲛⲱⲛ	-11726
▁ⲛⲁⲣⲱⲕϩ	-11727
▁ⲛⲃⲗⲗⲁⲕ	-11728
▁ⲛⲅϣⲁϫⲉ	-11729
▁ⲛⲅϣⲓⲛⲉ	-11730
▁ⲛⲅⲕⲁⲁϥ	-11731
▁ⲛⲅⲟⲩⲱϣ	-11732
▁ⲛⲉⲕⲃⲁⲗ	-11733
▁ⲛⲉⲛⲧⲁⲓ	-11734
▁ⲛⲉⲛⲧⲁⲛ	-11735
▁ⲛⲉⲧⲛⲁⲩ	-11736
▁ⲛⲉⲩϭⲓϫ	-11737
▁ⲛⲉⲩⲛⲁⲩ	-11738
▁ⲛⲉⲩⲛⲟⲩ	-11739
▁ⲛⲛⲉϣⲁⲩ	-11740
▁ⲛⲛⲉⲩⲙⲁ	-11741
▁ⲛⲛⲉⲫⲑⲁ	-11742
▁ⲛⲛⲏⲥⲟⲥ	-11743
▁ⲛⲟⲩⲟϩⲉ	-11744
▁ⲛⲟⲩⲟⲃϣ	-11745
▁ⲛⲟⲩⲥⲙⲏ	-11746
▁ⲛⲣⲙⲙⲙⲉ	-11747
▁ⲛⲣⲙⲣⲁϣ	-11748
▁ⲛⲥⲁϩⲟⲩ	-11749
▁ⲛⲥⲁⲇⲱⲕ	-11750
▁ⲛⲥⲁⲛⲉⲧ	-11751
▁ⲛⲥⲁⲡⲡⲓ	-11752
▁ⲛⲥⲁⲧϩⲉ	-11753
▁ⲛⲥⲁⲫⲁⲛ	-11754
▁ⲛⲥⲉⲛⲁϯ	-11755
▁ⲛⲥⲉⲱϫⲛ	-11756
▁ⲛⲥⲓⲇⲱⲛ	-11757
▁ⲛⲧⲁϥϩⲉ	-11758
▁ⲛⲧⲁⲝⲓⲥ	-11759
▁ⲛⲧⲁⲡⲣⲟ	-11760
▁ⲛⲧⲁⲥⲉⲓ	-11761
▁ⲛⲧⲁⲩϫⲓ	-11762
▁ⲛⲧⲉⲕⲙⲉ	-11763
▁ⲛⲧⲉⲡⲣⲟ	-11764
▁ⲛⲧⲉⲣⲉⲕ	-11765
▁ⲛⲧⲉⲧⲉϥ	-11766
▁ⲟⲩⲉⲟⲟⲩ	-11767
▁ⲟⲩⲕⲁⲕⲉ	-11768
▁ⲟⲩⲛⲟⲩⲃ	-11769
▁ⲟⲩⲛⲧⲁⲩ	-11770
▁ⲟⲩⲟⲩⲱϣ	-11771
▁ⲟⲩⲥⲛⲟϥ	-11772
▁ⲟⲩⲧⲱⲟⲩ	-11773
▁ⲟⲩⲯⲩⲭⲏ	-11774
▁ⲡⲁⲉⲟⲟⲩ	-11775
▁ⲡⲁⲣⲭⲓⲥ	-11776
▁ⲡⲉϣⲗⲏⲗ	-11777
▁ⲡⲉϫⲉⲛⲁ	-11778
▁ⲡⲉϫⲉⲡⲉ	-11779
▁ⲡⲉⲓⲕⲉⲧ	-11780
▁ⲡⲉⲙⲗⲁϩ	-11781
▁ⲡⲉⲛϩⲏⲧ	-11782
▁ⲡⲉⲧⲉⲧⲛ	-11783
▁ⲡⲉⲧⲕⲧⲟ	-11784
▁ⲡⲥⲟⲟⲩⲛ	-11785
▁ⲣϫⲟⲉⲓⲥ	-11786
▁ⲥⲁϩⲱⲱϥ	-11787
▁ⲥⲉⲉⲓⲣⲉ	-11788
▁ⲧⲉϥⲁⲡⲉ	-11789
▁ⲫⲏⲥⲧⲟⲥ	-11790
ⲁⲣⲓⲥⲧⲟⲛ	-11791
ⲇⲓⲕⲁⲓⲱⲥ	-11792
ⲉⲝⲟⲩⲥⲓⲁ	-11793
ⲕⲉϩⲙϩⲁⲗ	-11794
ⲕⲉⲫⲁⲗⲓⲥ	-11795
ⲗⲓⲥⲁⲃⲉⲧ	-11796
ⲗⲟⲩⲗⲱⲟⲩ	-11797
ⲙⲉⲥⲓⲧⲏⲥ	-11798
ⲙⲛⲧⲉⲓⲱⲧ	-11799
ⲙⲛⲧⲣⲉϥⲣ	-11800
ⲛⲁⲥⲉⲃⲏⲥ	-11801
ⲛⲉⲕϣⲏⲣⲉ	-11802
ⲛⲉⲧϩⲟⲟⲩ	-11803
ⲟⲣⲓⲛⲑⲟⲥ	-11804
ⲟⲩⲟⲛϩⲟⲩ	-11805
ⲡⲁϫⲟⲉⲓⲥ	-11806
ⲡⲉϥⲥⲱⲙⲁ	-11807
ⲡⲏⲗⲁⲓⲟⲛ	-11808
ⲥⲁⲛϩⲟⲩⲛ	-11809
ⲥⲃⲧⲱⲧⲟⲩ	-11810
ⲧⲁⲛϩⲟⲟⲩ	-11811
ⲧⲁⲛϩⲟⲩⲧ	-11812
ⲧⲉⲛⲯⲩⲭⲏ	-11813
ⲭⲓⲇⲟⲫⲉⲗ	-11814
ⲭⲓⲙⲁⲣⲟⲥ	-11815
ϣⲁⲛⲧϩⲧⲏϥ	-11816
ϩⲣⲁⲛⲧⲓⲍⲉ	-11817
ϫⲉⲡϫⲟⲉⲓⲥ	-11818
ϫⲟⲩⲧⲁϥⲧⲉ	-11819
▁ϥⲛⲁⲟⲩⲱϩ	-11820
▁ϩⲁϩⲟⲙⲛⲧ	-11821
▁ϩⲁⲡⲉϩⲕⲟ	-11822
▁ϩⲓϫⲛϩⲉⲛ	-11823
▁ϩⲓⲧⲛϩⲁϩ	-11824
▁ϩⲙⲡϣⲏⲣⲉ	-11825
▁ϩⲙⲡⲁⲗⲁⲥ	-11826
▁ϩⲙⲡⲥⲁϣϥ	-11827
▁ϩⲙⲡⲥⲃⲃⲉ	-11828
▁ϩⲙⲡⲧⲣⲉⲕ	-11829
▁ϩⲛⲛⲟⲩⲱϣ	-11830
▁ϩⲛⲛⲧⲉⲧⲛ	-11831
▁ϩⲛⲟⲩϩⲕⲟ	-11832
▁ϩⲛⲟⲩⲏⲣⲡ	-11833
▁ϩⲛⲟⲩⲡⲁϣ	-11834
▁ϩⲛⲥⲟⲫⲓⲁ	-11835
▁ϩⲛⲧⲁⲥⲙⲏ	-11836
▁ϫⲉϩⲛⲟⲩϯ	-11837
▁ϫⲉⲁⲛⲓⲛⲉ	-11838
▁ϫⲉⲁⲩⲉⲓⲥ	-11839
▁ϫⲉⲉⲣⲉⲟⲩ	-11840
▁ϫⲉⲉⲩϣⲁⲛ	-11841
▁ϫⲉⲙⲁⲣⲉⲛ	-11842
▁ϫⲉⲙⲁⲣⲟⲛ	-11843
▁ϫⲉⲙⲛⲛⲥⲁ	-11844
▁ϫⲉⲛϣⲏⲣⲉ	-11845
▁ϫⲉⲛⲟⲩⲧⲉ	-11846
▁ϫⲉⲟⲩⲛⲧⲉ	-11847
▁ϯⲗⲟⲩⲗⲁⲓ	-11848
▁ϯⲛⲁⲉⲓⲙⲉ	-11849
▁ϯⲛⲁⲟⲩⲱϩ	-11850
▁ⲁϥϣⲟⲡⲟⲩ	-11851
▁ⲁϥϣⲟⲣϣⲣ	-11852
▁ⲁϥϩⲁⲣⲉϩ	-11853
▁ⲁϥϫⲟⲟⲩϥ	-11854
▁ⲁϥⲉⲛⲧⲟⲩ	-11855
▁ⲁϥⲑⲃⲃⲓⲟ	-11856
▁ⲁϥⲗⲩⲡⲉⲓ	-11857
▁ⲁϥⲛⲉϩⲥⲉ	-11858
▁ⲁϥⲧⲁⲙⲓⲉ	-11859
▁ⲁϥⲧⲃⲃⲟϥ	-11860
▁ⲁϥⲧⲟⲩϫⲟ	-11861
▁ⲁϥⲧⲱⲱⲃⲉ	-11862
▁ⲁⲓⲑⲃⲃⲓⲟ	-11863
▁ⲁⲓⲛⲟⲩϫⲉ	-11864
▁ⲁⲓⲟⲩⲱⲛϩ	-11865
▁ⲁⲓⲣϩⲗⲗⲟ	-11866
▁ⲁⲛϩⲙⲟⲟⲥ	-11867
▁ⲁⲛⲧⲱⲟⲩⲛ	-11868
▁ⲁⲡⲉⲩϩⲏⲧ	-11869
▁ⲁⲥⲡⲁϩⲧⲥ	-11870
▁ⲁⲧⲉⲧⲛⲕⲁ	-11871
▁ⲁⲩϭⲙϭⲟⲙ	-11872
▁ⲃⲏⲑⲗⲉⲉⲙ	-11873
▁ⲇⲓⲕⲁⲓⲟⲥ	-11874
▁ⲉϥϣⲁⲛϩⲉ	-11875
▁ⲉϥϭⲟⲟⲗⲉ	-11876
▁ⲉϥϯⲉⲟⲟⲩ	-11877
▁ⲉϥⲉⲧⲁⲁⲩ	-11878
▁ⲉϥⲕⲣⲓⲛⲉ	-11879
▁ⲉϥⲟⲩⲟϣϥ	-11880
▁ⲉϥⲟⲩⲱⲛϩ	-11881
▁ⲉϥⲧⲛⲧⲱⲛ	-11882
▁ⲉϫⲙⲡⲣⲁⲛ	-11883
▁ⲉϫⲙⲡⲣⲣⲟ	-11884
▁ⲉⲁⲙⲁϩⲧⲉ	-11885
▁ⲉⲓⲛⲟⲩϫⲉ	-11886
▁ⲉⲕⲉⲟⲩⲱⲙ	-11887
▁ⲉⲙⲛϫⲃⲓⲛ	-11888
▁ⲉⲙⲛⲛⲟⲃⲉ	-11889
▁ⲉⲛⲉϩⲟⲟⲩ	-11890
▁ⲉⲛⲉⲥⲛⲏⲩ	-11891
▁ⲉⲛⲉⲧⲉⲣⲉ	-11892
▁ⲉⲛⲙⲟⲟϣⲉ	-11893
▁ⲉⲛⲛⲁⲃⲱⲕ	-11894
▁ⲉⲡⲉϥⲕⲁϩ	-11895
▁ⲉⲡⲉⲓⲕⲣⲟ	-11896
▁ⲉⲡⲉⲥⲛⲟϥ	-11897
▁ⲉⲡⲉⲧⲣⲟⲥ	-11898
▁ⲉⲣⲉⲛⲃⲁⲗ	-11899
▁ⲉⲣⲉⲛⲉⲧⲛ	-11900
▁ⲉⲥⲟⲩⲟⲃϣ	-11901
▁ⲉⲧϩⲙⲡⲉⲕ	-11902
▁ⲉⲧϭⲟⲟⲗⲉ	-11903
▁ⲉⲧⲟⲩⲟⲛϩ	-11904
▁ⲉⲧⲣⲁⲃⲱⲕ	-11905
▁ⲉⲧⲣⲉϥϭⲱ	-11906
▁ⲉⲧⲣⲉⲧⲛⲁ	-11907
▁ⲉⲧⲣⲉⲩϫⲓ	-11908
▁ⲉⲧⲥⲃⲧⲱⲧ	-11909
▁ⲉⲩϭⲟⲟⲗⲉ	-11910
▁ⲉⲩⲉϣⲙϣⲉ	-11911
▁ⲉⲩⲛⲁⲣⲟⲩ	-11912
▁ⲉⲩⲟⲩⲟⲃϣ	-11913
▁ⲉⲩⲥⲁϩⲟⲩ	-11914
▁ⲉⲩⲥⲟⲟⲩⲛ	-11915
▁ⲕⲁⲑⲓⲥⲧⲁ	-11916
▁ⲕⲁⲧⲁϯⲙⲉ	-11917
▁ⲙⲁⲧⲟⲩϫⲉ	-11918
▁ⲙⲙⲉⲗⲭⲱⲗ	-11919
▁ⲙⲛⲛⲉϣⲁⲩ	-11920
▁ⲙⲛⲛⲧⲉⲧⲛ	-11921
▁ⲙⲛⲡϩⲏⲕⲉ	-11922
▁ⲙⲛⲡⲙⲟⲟⲩ	-11923
▁ⲙⲛⲡⲛⲟⲩⲃ	-11924
▁ⲙⲛⲥⲓⲗⲁⲥ	-11925
▁ⲙⲛⲫⲁⲣⲁⲱ	-11926
▁ⲙⲡⲁⲉⲟⲟⲩ	-11927
▁ⲙⲡⲁⲟⲉⲓⲕ	-11928
▁ⲙⲡⲁⲧϥⲉⲓ	-11929
▁ⲙⲡⲉϥϩⲁⲡ	-11930
▁ⲙⲡⲉϥⲟϩⲉ	-11931
▁ⲙⲡⲉⲛϩⲏⲧ	-11932
▁ⲙⲡⲉⲟⲩⲟⲛ	-11933
▁ⲙⲡⲉⲧⲥⲏϭ	-11934
▁ⲙⲡⲕⲉⲟⲩⲁ	-11935
▁ⲛϥⲛⲕⲟⲧⲕ	-11936
▁ⲛϩⲉⲗⲡⲓⲥ	-11937
▁ⲛϩⲉⲛⲱⲛⲉ	-11938
▁ⲛϭⲁⲙⲟⲩⲗ	-11939
▁ⲛϭⲓⲡⲉⲧⲛ	-11940
▁ⲛϭⲓⲡⲕⲁϩ	-11941
▁ⲛϭⲓⲡⲣⲁⲛ	-11942
▁ⲛϭⲓⲧⲉⲧⲛ	-11943
▁ⲛⲁϣⲟⲟⲩⲉ	-11944
▁ⲛⲁⲉⲓⲟⲧⲉ	-11945
▁ⲛⲁⲉⲣⲙⲱⲛ	-11946
▁ⲛⲁⲙⲟⲟⲛⲉ	-11947
▁ⲛⲁⲭⲓⲇⲱⲃ	-11948
▁ⲛⲃⲁⲓⲑⲏⲗ	-11949
▁ⲛⲃⲟⲭⲟⲣⲓ	-11950
▁ⲛⲅϩⲙⲟⲟⲥ	-11951
▁ⲛⲅⲉⲛⲏⲙⲁ	-11952
▁ⲛⲅⲙⲟⲩⲧⲉ	-11953
▁ⲛⲅⲟⲩⲁϩⲕ	-11954
▁ⲛⲅⲥⲙⲓⲛⲉ	-11955
▁ⲛⲅⲧⲱⲟⲩⲛ	-11956
▁ⲛⲉϥⲉⲓⲣⲉ	-11957
▁ⲛⲉⲧϩⲓϫⲙ	-11958
▁ⲛⲉⲧⲉⲧⲛⲟ	-11959
▁ⲛⲉⲧⲛϭⲓϫ	-11960
▁ⲛⲉⲧⲛⲃⲁⲗ	-11961
▁ⲛⲉⲩⲛⲟⲃⲉ	-11962
▁ⲛⲉⲩⲥⲱⲧⲙ	-11963
▁	-11964
ⲉ	-11965
ⲛ	-11966
ⲁ	-11967
ⲟ	-11968
ⲧ	-11969
ⲩ	-11970
ⲙ	-11971
ⲓ	-11972
ⲡ	-11973
ⲥ	-11974
ϩ	-11975
ⲣ	-11976
ⲱ	-11977
ϥ	-11978
ⲏ	-11979
ϫ	-11980
ⲕ	-11981
ϣ	-11982
ⲗ	-11983
ⲃ	-11984
.	-11985
ⲇ	-11986
ϭ	-11987
ⲅ	-11988
ϯ	-11989
ⲑ	-11990
·	-11991
ⲭ	-11992
ⲫ	-11993
ⲍ	-11994
ⲯ	-11995
ⲝ	-11996
